// Auto-generated (Retrained in Sketchboard)
#ifndef G_HUMAN_DETECT_MODEL_DATA_H
#define G_HUMAN_DETECT_MODEL_DATA_H

extern const unsigned char g_human_detect_model_data[];
extern const unsigned int g_human_detect_model_data_len;

const unsigned char g_human_detect_model_data[] = {
0x20, 0x00, 0x00, 0x00, 0x54, 0x46, 0x4c, 0x33, 0x00, 0x00, 0x00, 0x00, 
0x14, 0x00, 0x20, 0x00, 0x1c, 0x00, 0x18, 0x00, 0x14, 0x00, 0x10, 0x00, 
0x0c, 0x00, 0x00, 0x00, 0x08, 0x00, 0x04, 0x00, 0x14, 0x00, 0x00, 0x00, 
0x1c, 0x00, 0x00, 0x00, 0x98, 0x00, 0x00, 0x00, 0xf0, 0x00, 0x00, 0x00, 
0x90, 0x1a, 0x00, 0x00, 0xa0, 0x1a, 0x00, 0x00, 0xa8, 0x30, 0x00, 0x00, 
0x03, 0x00, 0x00, 0x00, 0x01, 0x00, 0x00, 0x00, 0x10, 0x00, 0x00, 0x00, 
0x00, 0x00, 0x0a, 0x00, 0x10, 0x00, 0x0c, 0x00, 0x08, 0x00, 0x04, 0x00, 
0x0a, 0x00, 0x00, 0x00, 0x0c, 0x00, 0x00, 0x00, 0x1c, 0x00, 0x00, 0x00, 
0x3c, 0x00, 0x00, 0x00, 0x0f, 0x00, 0x00, 0x00, 0x73, 0x65, 0x72, 0x76, 
0x69, 0x6e, 0x67, 0x5f, 0x64, 0x65, 0x66, 0x61, 0x75, 0x6c, 0x74, 0x00, 
0x01, 0x00, 0x00, 0x00, 0x04, 0x00, 0x00, 0x00, 0x90, 0xff, 0xff, 0xff, 
0x15, 0x00, 0x00, 0x00, 0x04, 0x00, 0x00, 0x00, 0x08, 0x00, 0x00, 0x00, 
0x6f, 0x75, 0x74, 0x70, 0x75, 0x74, 0x5f, 0x30, 0x00, 0x00, 0x00, 0x00, 
0x01, 0x00, 0x00, 0x00, 0x04, 0x00, 0x00, 0x00, 0x4e, 0xe5, 0xff, 0xff, 
0x04, 0x00, 0x00, 0x00, 0x0c, 0x00, 0x00, 0x00, 0x6b, 0x65, 0x72, 0x61, 
0x73, 0x5f, 0x74, 0x65, 0x6e, 0x73, 0x6f, 0x72, 0x00, 0x00, 0x00, 0x00, 
0x02, 0x00, 0x00, 0x00, 0x34, 0x00, 0x00, 0x00, 0x04, 0x00, 0x00, 0x00, 
0xdc, 0xff, 0xff, 0xff, 0x18, 0x00, 0x00, 0x00, 0x04, 0x00, 0x00, 0x00, 
0x13, 0x00, 0x00, 0x00, 0x43, 0x4f, 0x4e, 0x56, 0x45, 0x52, 0x53, 0x49, 
0x4f, 0x4e, 0x5f, 0x4d, 0x45, 0x54, 0x41, 0x44, 0x41, 0x54, 0x41, 0x00, 
0x08, 0x00, 0x0c, 0x00, 0x08, 0x00, 0x04, 0x00, 0x08, 0x00, 0x00, 0x00, 
0x17, 0x00, 0x00, 0x00, 0x04, 0x00, 0x00, 0x00, 0x13, 0x00, 0x00, 0x00, 
0x6d, 0x69, 0x6e, 0x5f, 0x72, 0x75, 0x6e, 0x74, 0x69, 0x6d, 0x65, 0x5f, 
0x76, 0x65, 0x72, 0x73, 0x69, 0x6f, 0x6e, 0x00, 0x19, 0x00, 0x00, 0x00, 
0x9c, 0x19, 0x00, 0x00, 0x94, 0x19, 0x00, 0x00, 0x7c, 0x19, 0x00, 0x00, 
0x64, 0x19, 0x00, 0x00, 0x14, 0x19, 0x00, 0x00, 0x84, 0x18, 0x00, 0x00, 
0x74, 0x06, 0x00, 0x00, 0x24, 0x06, 0x00, 0x00, 0x94, 0x01, 0x00, 0x00, 
0x64, 0x01, 0x00, 0x00, 0x0c, 0x01, 0x00, 0x00, 0xf8, 0x00, 0x00, 0x00, 
0xe4, 0x00, 0x00, 0x00, 0xdc, 0x00, 0x00, 0x00, 0xd4, 0x00, 0x00, 0x00, 
0xcc, 0x00, 0x00, 0x00, 0xc4, 0x00, 0x00, 0x00, 0xbc, 0x00, 0x00, 0x00, 
0xb4, 0x00, 0x00, 0x00, 0xac, 0x00, 0x00, 0x00, 0xa4, 0x00, 0x00, 0x00, 
0x9c, 0x00, 0x00, 0x00, 0x94, 0x00, 0x00, 0x00, 0x74, 0x00, 0x00, 0x00, 
0x04, 0x00, 0x00, 0x00, 0x2e, 0xe6, 0xff, 0xff, 0x04, 0x00, 0x00, 0x00, 
0x60, 0x00, 0x00, 0x00, 0x0c, 0x00, 0x00, 0x00, 0x08, 0x00, 0x0e, 0x00, 
0x08, 0x00, 0x04, 0x00, 0x08, 0x00, 0x00, 0x00, 0x10, 0x00, 0x00, 0x00, 
0x28, 0x00, 0x00, 0x00, 0x00, 0x00, 0x06, 0x00, 0x08, 0x00, 0x04, 0x00, 
0x06, 0x00, 0x00, 0x00, 0x04, 0x00, 0x00, 0x00, 0x01, 0x00, 0x00, 0x00, 
0xeb, 0x03, 0x00, 0x00, 0x0c, 0x00, 0x18, 0x00, 0x14, 0x00, 0x10, 0x00, 
0x0c, 0x00, 0x04, 0x00, 0x0c, 0x00, 0x00, 0x00, 0x39, 0x3b, 0x75, 0x7a, 
0x9f, 0x16, 0x96, 0x79, 0x02, 0x00, 0x00, 0x00, 0x02, 0x00, 0x00, 0x00, 
0x04, 0x00, 0x00, 0x00, 0x06, 0x00, 0x00, 0x00, 0x32, 0x2e, 0x32, 0x31, 
0x2e, 0x30, 0x00, 0x00, 0x9a, 0xe6, 0xff, 0xff, 0x04, 0x00, 0x00, 0x00, 
0x10, 0x00, 0x00, 0x00, 0x31, 0x2e, 0x31, 0x34, 0x2e, 0x30, 0x00, 0x00, 
0x00, 0x00, 0x00, 0x00, 0x00, 0x00, 0x00, 0x00, 0x34, 0xd2, 0xff, 0xff, 
0x38, 0xd2, 0xff, 0xff, 0x3c, 0xd2, 0xff, 0xff, 0x40, 0xd2, 0xff, 0xff, 
0x44, 0xd2, 0xff, 0xff, 0x48, 0xd2, 0xff, 0xff, 0x4c, 0xd2, 0xff, 0xff, 
0x50, 0xd2, 0xff, 0xff, 0x54, 0xd2, 0xff, 0xff, 0x58, 0xd2, 0xff, 0xff, 
0xde, 0xe6, 0xff, 0xff, 0x04, 0x00, 0x00, 0x00, 0x01, 0x00, 0x00, 0x00, 
0x7f, 0x00, 0x00, 0x00, 0xee, 0xe6, 0xff, 0xff, 0x04, 0x00, 0x00, 0x00, 
0x01, 0x00, 0x00, 0x00, 0x80, 0x00, 0x00, 0x00, 0xfe, 0xe6, 0xff, 0xff, 
0x04, 0x00, 0x00, 0x00, 0x48, 0x00, 0x00, 0x00, 0x1a, 0x33, 0xfb, 0xc3, 
0x04, 0x46, 0x7f, 0x35, 0xba, 0x94, 0xaf, 0xb7, 0x39, 0xa7, 0x81, 0x60, 
0xed, 0x32, 0xd0, 0xc6, 0xa9, 0x91, 0x1e, 0x91, 0x1a, 0x81, 0xdd, 0x7f, 
0x33, 0x83, 0x7f, 0x04, 0x87, 0xc7, 0x3d, 0xb4, 0xbb, 0xff, 0x4f, 0xe2, 
0x74, 0x64, 0x49, 0x7f, 0x08, 0xae, 0x81, 0x99, 0x9f, 0x87, 0xd7, 0x87, 
0xb7, 0x90, 0xe1, 0x81, 0xa0, 0x9b, 0xa5, 0xf0, 0xbd, 0xea, 0xb9, 0x7f, 
0x4e, 0x17, 0x0b, 0x63, 0x76, 0xf0, 0x01, 0xe4, 0x52, 0xe7, 0xff, 0xff, 
0x04, 0x00, 0x00, 0x00, 0x20, 0x00, 0x00, 0x00, 0x5a, 0xdf, 0xff, 0xff, 
0x53, 0xe9, 0xff, 0xff, 0xde, 0xd8, 0xff, 0xff, 0x62, 0xf9, 0xff, 0xff, 
0x95, 0x04, 0x00, 0x00, 0x5f, 0xed, 0xff, 0xff, 0x15, 0xd9, 0xff, 0xff, 
0x41, 0x0d, 0x00, 0x00, 0x7e, 0xe7, 0xff, 0xff, 0x04, 0x00, 0x00, 0x00, 
0x80, 0x04, 0x00, 0x00, 0x0a, 0x60, 0x55, 0x16, 0x95, 0x5b, 0x39, 0xc0, 
0xd6, 0x1c, 0x32, 0x43, 0x40, 0x14, 0x45, 0x0f, 0xed, 0xf2, 0xcf, 0xff, 
0x44, 0xfc, 0x40, 0x47, 0x93, 0x20, 0xe9, 0x6b, 0x02, 0x1e, 0x0a, 0x81, 
0x35, 0x30, 0x27, 0x09, 0x21, 0xff, 0x03, 0xf4, 0xe8, 0x0f, 0xe5, 0x8c, 
0xda, 0x37, 0x54, 0x17, 0xde, 0x19, 0x16, 0x35, 0x0b, 0x06, 0x20, 0x39, 
0x5b, 0x25, 0x1b, 0x2a, 0xed, 0x35, 0x24, 0x2d, 0xdc, 0x68, 0x6b, 0x19, 
0xf5, 0x4e, 0x19, 0x2a, 0x58, 0xef, 0x08, 0x29, 0xe1, 0xe2, 0xbf, 0xdd, 
0xd1, 0x47, 0x09, 0x3d, 0xbc, 0x04, 0x41, 0xc8, 0xbf, 0x43, 0xf2, 0x29, 
0xab, 0xf9, 0x14, 0x07, 0x46, 0x13, 0x10, 0x71, 0xd3, 0xe8, 0xb9, 0x26, 
0x61, 0x2b, 0xda, 0x33, 0x2d, 0xea, 0xdb, 0xe1, 0xcd, 0x5b, 0xf6, 0x15, 
0xfd, 0x58, 0xd6, 0xde, 0x6c, 0xf8, 0x0a, 0xf0, 0x62, 0xe7, 0x3f, 0x58, 
0x5f, 0xbd, 0xcb, 0xfa, 0x53, 0xf2, 0xbc, 0x25, 0x39, 0x33, 0x09, 0x7f, 
0xcf, 0x39, 0x34, 0xc6, 0xdf, 0x19, 0xb1, 0x07, 0x12, 0x81, 0xb1, 0x20, 
0xaf, 0x1c, 0xae, 0x0f, 0x71, 0x90, 0x85, 0xfa, 0xfd, 0xf5, 0xea, 0x3b, 
0x13, 0xf8, 0xbc, 0xf8, 0xe2, 0xe2, 0x8d, 0x2f, 0x11, 0x00, 0xcf, 0xfe, 
0xeb, 0x2b, 0x17, 0x4b, 0x69, 0x07, 0x9b, 0x11, 0xb9, 0x13, 0xca, 0x5a, 
0x1d, 0x10, 0xf3, 0x12, 0x07, 0xd6, 0x2b, 0xdf, 0xf0, 0xb1, 0x12, 0x6e, 
0xac, 0xb5, 0xc7, 0x38, 0x2a, 0xb5, 0xdd, 0x24, 0x9d, 0x11, 0xa8, 0xfb, 
0x24, 0xd4, 0xaa, 0x11, 0x44, 0x02, 0xad, 0x2c, 0xe3, 0xd1, 0xb5, 0x31, 
0xe9, 0xe4, 0x1c, 0x34, 0x22, 0xf9, 0x08, 0x2d, 0x3e, 0xce, 0xf0, 0xfe, 
0xe3, 0x36, 0x0e, 0x04, 0xe3, 0xe1, 0xd6, 0x5d, 0xe8, 0xde, 0xa9, 0x1c, 
0x0d, 0x03, 0x1a, 0x2f, 0xcf, 0x12, 0x0d, 0xc4, 0xd8, 0xfb, 0x40, 0x39, 
0x12, 0x03, 0x37, 0x1e, 0x5a, 0x0b, 0xf6, 0x25, 0x21, 0xe8, 0xdc, 0x32, 
0x01, 0x23, 0x45, 0x3d, 0x18, 0x0c, 0x22, 0xdc, 0xfc, 0x22, 0x38, 0x7f, 
0xd1, 0x1c, 0x1a, 0xd0, 0x1c, 0xa2, 0xf2, 0x21, 0x1e, 0xdc, 0xc7, 0x2f, 
0x2e, 0x81, 0xd0, 0x45, 0x05, 0xcd, 0xcc, 0x2d, 0x2d, 0xac, 0x03, 0xe9, 
0x15, 0xee, 0xef, 0x15, 0x56, 0x13, 0x03, 0x41, 0x3d, 0xff, 0xf9, 0xfc, 
0x60, 0xee, 0x8f, 0x59, 0x02, 0x83, 0xc1, 0x49, 0x08, 0xc8, 0xa7, 0x28, 
0x32, 0xa1, 0xdc, 0x4a, 0x29, 0xfa, 0xc0, 0x2c, 0xae, 0xce, 0x05, 0xd0, 
0xf7, 0xb5, 0xb3, 0x66, 0xb8, 0x0a, 0xdf, 0xcf, 0x87, 0xee, 0xc2, 0xd4, 
0x92, 0xc1, 0xae, 0xa6, 0xef, 0x5a, 0x21, 0x28, 0xd4, 0x4a, 0x3b, 0x1a, 
0xb2, 0xf6, 0xfa, 0x1a, 0x00, 0x35, 0xfe, 0xf0, 0x05, 0x03, 0x23, 0x20, 
0x3c, 0xe0, 0x09, 0x5f, 0xee, 0x48, 0x2f, 0x39, 0x0e, 0x44, 0x4c, 0x10, 
0xc3, 0xfd, 0xe3, 0xed, 0x08, 0xf9, 0x00, 0xec, 0x82, 0xce, 0xe1, 0x0a, 
0xf8, 0x1a, 0xee, 0x1d, 0xd3, 0x0a, 0x19, 0xf5, 0x05, 0xea, 0x1e, 0x09, 
0x81, 0x0b, 0x4c, 0x17, 0xbe, 0x3a, 0xf0, 0xcc, 0xa3, 0xf2, 0xd6, 0xde, 
0x0e, 0xd4, 0xd0, 0x36, 0xac, 0x10, 0xe3, 0x67, 0xda, 0xca, 0x9b, 0x31, 
0xd8, 0xc3, 0xe7, 0x02, 0xda, 0xb4, 0x0d, 0xe8, 0xf7, 0x03, 0xfc, 0x58, 
0x41, 0x13, 0x0c, 0x19, 0xef, 0xad, 0x81, 0xc3, 0x47, 0x91, 0xb1, 0x28, 
0x1c, 0x1e, 0xce, 0x17, 0x4a, 0xe6, 0xc9, 0x27, 0xfe, 0xf7, 0xf5, 0x0e, 
0xf0, 0x0e, 0xed, 0x0c, 0x07, 0x15, 0xc3, 0x03, 0x3e, 0xd4, 0x0a, 0xe9, 
0xf7, 0xeb, 0x11, 0x08, 0x2e, 0x0b, 0xd0, 0x34, 0xdc, 0x0b, 0x0d, 0xd3, 
0xdc, 0xe4, 0xdf, 0x11, 0x4e, 0xb9, 0xcd, 0x0c, 0x00, 0x18, 0xc1, 0x5f, 
0x05, 0xdf, 0x11, 0x3f, 0x3f, 0x2d, 0xe5, 0x2a, 0x1a, 0x4b, 0x30, 0x35, 
0x3c, 0xe2, 0x2a, 0x16, 0x04, 0x21, 0x05, 0x4e, 0x05, 0xde, 0x2f, 0x3f, 
0x38, 0xef, 0xe1, 0x3e, 0x30, 0xc3, 0xe5, 0xdb, 0x3a, 0x35, 0xae, 0xf4, 
0x3e, 0xb0, 0xd4, 0x17, 0x55, 0xf5, 0xc6, 0x6b, 0x12, 0x16, 0xc5, 0x02, 
0x4d, 0x21, 0xaf, 0x7f, 0xe4, 0x05, 0xfa, 0xf1, 0x44, 0x24, 0x18, 0x5e, 
0xe2, 0xd5, 0x21, 0xf6, 0x68, 0x26, 0x17, 0x60, 0x48, 0x1b, 0x10, 0xe3, 
0x0c, 0x1a, 0xd7, 0x55, 0xfe, 0xc2, 0x04, 0x41, 0x0e, 0x0a, 0xde, 0xf5, 
0x01, 0xd2, 0xc2, 0x0e, 0x22, 0xe5, 0x05, 0x7f, 0x33, 0xd1, 0xe4, 0x00, 
0x03, 0xe4, 0x47, 0x3c, 0xfa, 0x22, 0x22, 0xc0, 0x16, 0x1c, 0xfc, 0x0e, 
0xb5, 0x11, 0xd2, 0x01, 0xf8, 0x28, 0xe3, 0x43, 0x39, 0x1a, 0xee, 0x1b, 
0x31, 0xde, 0xfa, 0x68, 0x2f, 0xe0, 0xc9, 0xf9, 0xfc, 0x31, 0xaa, 0x2e, 
0x02, 0x01, 0x03, 0x02, 0xc5, 0xdb, 0x22, 0xff, 0xff, 0xd7, 0x36, 0x32, 
0xc4, 0x1f, 0x1f, 0x29, 0xa5, 0x32, 0x22, 0x87, 0x2d, 0x4d, 0xf2, 0xed, 
0xf9, 0x4b, 0x45, 0xd7, 0xdd, 0x04, 0x35, 0x0e, 0xda, 0x36, 0x16, 0xc0, 
0xe2, 0xeb, 0x22, 0x12, 0x00, 0x05, 0x2f, 0xdb, 0x1c, 0x49, 0xfc, 0xdc, 
0xbd, 0x01, 0xea, 0x12, 0x1e, 0x34, 0xf3, 0xee, 0xcf, 0x17, 0x23, 0xa1, 
0x08, 0x0d, 0x07, 0xba, 0xa3, 0xfd, 0xdf, 0xbf, 0xfa, 0x3f, 0xf3, 0x18, 
0x81, 0xef, 0xda, 0x9b, 0xc8, 0xea, 0x0a, 0x70, 0xae, 0x08, 0x36, 0xb2, 
0xe3, 0xf9, 0x01, 0x7f, 0xb5, 0x2b, 0xd7, 0x98, 0xef, 0x31, 0x1f, 0xd3, 
0x44, 0x22, 0x27, 0xec, 0xca, 0x23, 0x38, 0x2d, 0xd7, 0x16, 0x1c, 0xcd, 
0x1c, 0xe5, 0xfa, 0x75, 0x27, 0xb0, 0x13, 0x24, 0x01, 0x02, 0xad, 0x24, 
0x37, 0xf8, 0xb4, 0x31, 0x2d, 0x32, 0x28, 0xe3, 0x40, 0x24, 0x21, 0xef, 
0x45, 0x06, 0xfa, 0xff, 0x47, 0xe3, 0xd1, 0x20, 0x2d, 0xed, 0xfd, 0x3c, 
0x33, 0xe8, 0x07, 0x1e, 0x03, 0x39, 0xdb, 0x54, 0xfc, 0x28, 0xea, 0x1b, 
0x07, 0x2e, 0xe4, 0x47, 0x18, 0xe5, 0x41, 0xf3, 0xfe, 0x40, 0x34, 0x37, 
0x59, 0x2d, 0x2c, 0xef, 0xec, 0x2b, 0x53, 0x79, 0xd2, 0x32, 0x1b, 0x0a, 
0x2b, 0x18, 0x36, 0x46, 0xfb, 0x31, 0xeb, 0xa6, 0x01, 0x4e, 0x2a, 0x63, 
0xda, 0xca, 0x0c, 0x38, 0xc2, 0x43, 0x05, 0x7f, 0x28, 0x38, 0x4b, 0xdb, 
0xf1, 0x2c, 0x10, 0x35, 0xfd, 0x22, 0xfd, 0xdc, 0xe6, 0x18, 0x09, 0x3d, 
0x39, 0x3c, 0xeb, 0x21, 0x23, 0x2e, 0x0f, 0x3d, 0x16, 0xb7, 0x3c, 0x3f, 
0x17, 0xcf, 0xb8, 0x3d, 0x0d, 0xd9, 0x0e, 0xd4, 0x15, 0xed, 0xca, 0x44, 
0x01, 0xb1, 0xd1, 0xe7, 0x0d, 0x40, 0xe7, 0x18, 0x92, 0x30, 0x33, 0xa2, 
0x16, 0x1b, 0x5f, 0xd6, 0x26, 0xfb, 0x47, 0xb3, 0xe0, 0xd5, 0xfa, 0x9f, 
0x22, 0x23, 0x34, 0x30, 0x2c, 0xda, 0xe0, 0x4f, 0x55, 0xa4, 0xc4, 0xf8, 
0xdb, 0x7f, 0x66, 0x38, 0x16, 0x33, 0x07, 0xe2, 0x2c, 0x77, 0x05, 0xa9, 
0xe9, 0x1b, 0x35, 0x39, 0x41, 0xd2, 0xcc, 0x4b, 0x32, 0xc7, 0xed, 0x2c, 
0xda, 0xf7, 0xec, 0x7f, 0xee, 0xcd, 0xfa, 0x48, 0x26, 0x0c, 0x0a, 0x48, 
0xf3, 0x14, 0x28, 0x11, 0x0b, 0xfb, 0xc7, 0x58, 0xf5, 0xc5, 0xae, 0x1a, 
0x02, 0x2e, 0x02, 0x3a, 0x2d, 0xeb, 0x3f, 0x32, 0x1b, 0xc9, 0xc5, 0x31, 
0x0d, 0xde, 0xbb, 0x37, 0xf5, 0x3d, 0xfe, 0x02, 0xfb, 0xc7, 0x16, 0xe9, 
0xec, 0xef, 0x03, 0x37, 0xef, 0xcf, 0xeb, 0x2d, 0x1a, 0xe0, 0x0a, 0x4f, 
0xeb, 0xd4, 0x1d, 0x48, 0x25, 0xcf, 0x0c, 0x10, 0xfd, 0x29, 0x1b, 0x07, 
0x0f, 0xfb, 0x9e, 0xfe, 0x17, 0xf8, 0xcf, 0x04, 0x42, 0xdb, 0xad, 0xde, 
0xf5, 0xe0, 0xb8, 0xdb, 0xe9, 0xd1, 0xdd, 0xe6, 0x38, 0xe8, 0xb7, 0x08, 
0x35, 0xd1, 0xf1, 0xff, 0x33, 0xd2, 0xd6, 0xd5, 0x32, 0x1e, 0x2a, 0xe4, 
0x08, 0xbb, 0xd8, 0x36, 0x5a, 0xcb, 0xcb, 0x3f, 0xe9, 0xe6, 0x11, 0x09, 
0x5f, 0x3f, 0xc6, 0x7f, 0x07, 0xcf, 0xb7, 0x22, 0x0a, 0x1e, 0xca, 0x23, 
0x13, 0xe7, 0x21, 0xf5, 0x2c, 0x13, 0x15, 0x1f, 0xef, 0xf7, 0xf7, 0x21, 
0x1e, 0xbf, 0xf9, 0xee, 0xe7, 0x13, 0xef, 0x16, 0x08, 0xbd, 0xa5, 0x4f, 
0xea, 0xdd, 0xd6, 0x21, 0xf7, 0x4d, 0x52, 0xfb, 0x0a, 0x42, 0x18, 0xe0, 
0x1b, 0x0c, 0x25, 0x25, 0xe7, 0x05, 0x36, 0xfb, 0xf6, 0x18, 0xc9, 0x07, 
0x0e, 0xc6, 0xef, 0x05, 0x15, 0x17, 0x44, 0x7f, 0xd7, 0x40, 0x41, 0x19, 
0x00, 0x18, 0x39, 0x77, 0xeb, 0x21, 0xfc, 0xe3, 0xdc, 0xdd, 0x09, 0x30, 
0x25, 0xcb, 0xef, 0x20, 0x0a, 0xec, 0xff, 0xff, 0x04, 0x00, 0x00, 0x00, 
0x40, 0x00, 0x00, 0x00, 0x49, 0xde, 0xff, 0xff, 0x9b, 0xe7, 0xff, 0xff, 
0x4f, 0x30, 0x00, 0x00, 0x38, 0xeb, 0xff, 0xff, 0xa8, 0xe2, 0xff, 0xff, 
0x07, 0x05, 0x00, 0x00, 0x77, 0x19, 0x00, 0x00, 0x24, 0xf3, 0xff, 0xff, 
0xaa, 0xec, 0xff, 0xff, 0xaa, 0x00, 0x00, 0x00, 0xbe, 0xe7, 0xff, 0xff, 
0x33, 0xdc, 0xff, 0xff, 0x0d, 0xe6, 0xff, 0xff, 0xef, 0x15, 0x00, 0x00, 
0x67, 0xec, 0xff, 0xff, 0xcd, 0xed, 0xff, 0xff, 0x56, 0xec, 0xff, 0xff, 
0x04, 0x00, 0x00, 0x00, 0x00, 0x12, 0x00, 0x00, 0x17, 0x58, 0xe4, 0x25, 
0x03, 0x16, 0xdf, 0xce, 0xee, 0xed, 0xad, 0xde, 0x1e, 0xd9, 0xab, 0x05, 
0xdf, 0x1e, 0x44, 0x3b, 0x21, 0xe3, 0xfd, 0x16, 0xe1, 0xed, 0xb0, 0xc7, 
0x27, 0x08, 0xf0, 0xe8, 0x26, 0x19, 0xfb, 0x19, 0x31, 0x0c, 0x14, 0xfb, 
0x07, 0xf2, 0xd6, 0x14, 0x45, 0xf2, 0xd0, 0x4d, 0x0d, 0x41, 0xb9, 0xf5, 
0x9d, 0x02, 0xd8, 0xa8, 0xdf, 0xbd, 0xf5, 0xd9, 0xd6, 0x01, 0xd0, 0xe9, 
0xed, 0x06, 0xe2, 0x2c, 0x2a, 0xc6, 0xec, 0x0b, 0x1b, 0xe2, 0xb2, 0xe1, 
0x0b, 0x07, 0x20, 0xde, 0xf9, 0x0f, 0xf6, 0xf7, 0x2e, 0xf8, 0xd0, 0x0e, 
0x07, 0xf9, 0x05, 0x2c, 0x56, 0x13, 0xe4, 0x3a, 0x81, 0x00, 0xe8, 0xe8, 
0x27, 0xbd, 0x07, 0xf9, 0x21, 0xcb, 0x2b, 0xc1, 0xc3, 0x2f, 0xf2, 0xae, 
0xea, 0x3b, 0x18, 0x35, 0x2b, 0xe8, 0xe6, 0x0a, 0xfd, 0xe0, 0x04, 0x24, 
0x03, 0x04, 0x4a, 0xeb, 0x15, 0x1b, 0xe4, 0x0b, 0x3c, 0x13, 0xe9, 0x18, 
0x2c, 0x20, 0x31, 0x44, 0x2f, 0x28, 0x16, 0x42, 0xfa, 0x12, 0xcf, 0x22, 
0xf0, 0xe8, 0xb4, 0xd9, 0xdd, 0x26, 0xfa, 0xef, 0x32, 0xde, 0xeb, 0x21, 
0x08, 0x29, 0x15, 0x16, 0x28, 0xde, 0xd5, 0xf5, 0x0c, 0xf9, 0xd4, 0x14, 
0x16, 0xfc, 0xff, 0xf7, 0x05, 0xe2, 0xd1, 0xcb, 0xf0, 0x16, 0xdc, 0xf4, 
0xee, 0xdb, 0xe7, 0x0c, 0x22, 0xdb, 0xe2, 0x05, 0xde, 0xfe, 0xe0, 0x1a, 
0x7a, 0x05, 0xda, 0x24, 0x20, 0x0a, 0xd5, 0xfa, 0xea, 0x27, 0x41, 0xfc, 
0x02, 0x12, 0x14, 0x28, 0x4f, 0x00, 0x04, 0x07, 0x33, 0xe5, 0xe1, 0xe9, 
0xf9, 0x18, 0xff, 0xdc, 0x22, 0x0c, 0xd7, 0xcb, 0x1f, 0xf0, 0xfa, 0xe4, 
0x1c, 0xf2, 0xd4, 0x12, 0xf8, 0xf3, 0x24, 0x06, 0xe8, 0x0a, 0xc1, 0x23, 
0x5a, 0xd1, 0xb4, 0xea, 0xeb, 0x23, 0x32, 0x06, 0x18, 0xf8, 0xfe, 0x04, 
0x12, 0x1d, 0xe5, 0x15, 0x7f, 0x15, 0x13, 0x1b, 0x1e, 0xf4, 0x25, 0x23, 
0x25, 0x12, 0x14, 0xcc, 0xf7, 0x04, 0x21, 0xd6, 0x73, 0x07, 0xe0, 0x12, 
0xfe, 0x18, 0x3a, 0x15, 0x1f, 0x1f, 0x19, 0x17, 0x0e, 0x14, 0xf2, 0x08, 
0x09, 0xd6, 0x0d, 0x04, 0xe8, 0xec, 0xd6, 0x05, 0x17, 0xf9, 0x27, 0x0a, 
0x09, 0x03, 0xbf, 0xcc, 0xcf, 0xea, 0xd0, 0xf2, 0xcb, 0x02, 0x03, 0xfd, 
0x0a, 0xc6, 0xd4, 0x0d, 0x25, 0xef, 0xf0, 0xb6, 0x2b, 0x0f, 0xdd, 0x08, 
0xf5, 0x0a, 0x38, 0xef, 0x1e, 0xf9, 0x23, 0xe8, 0xf7, 0x17, 0x1e, 0x16, 
0x7f, 0xe2, 0xf8, 0x20, 0x1c, 0xff, 0xcd, 0xf8, 0x24, 0xf5, 0x3c, 0xf7, 
0x17, 0xe9, 0xf1, 0xfc, 0x3d, 0xd6, 0x1d, 0x04, 0xe1, 0xdd, 0x12, 0x0e, 
0x25, 0x20, 0x13, 0xf3, 0x19, 0xdf, 0x26, 0xc9, 0x5b, 0x0b, 0x2f, 0x2a, 
0xfd, 0xfe, 0x04, 0x02, 0xf0, 0x1f, 0x06, 0x19, 0x18, 0x19, 0xb6, 0x4a, 
0x3e, 0x18, 0xeb, 0xe5, 0x0f, 0x07, 0x25, 0xf8, 0xfc, 0xd5, 0x13, 0x29, 
0xed, 0x0a, 0x14, 0x14, 0x55, 0xf5, 0xe7, 0x14, 0x23, 0x02, 0x2c, 0x07, 
0xf3, 0xf7, 0x2b, 0xd7, 0x12, 0x06, 0xd5, 0xdd, 0x36, 0xf2, 0xf7, 0xe5, 
0x24, 0x10, 0x0e, 0x1f, 0x23, 0xf8, 0x26, 0xd6, 0x08, 0x1c, 0xf7, 0xf2, 
0x18, 0xf5, 0xe4, 0xde, 0x12, 0xe8, 0xf0, 0x12, 0x15, 0xe4, 0xe9, 0x18, 
0xfe, 0xfe, 0xf4, 0xf3, 0x02, 0xf1, 0xe2, 0x01, 0x14, 0x15, 0xfb, 0x0d, 
0xfb, 0xf0, 0xec, 0xfb, 0x17, 0xeb, 0xea, 0xce, 0x28, 0xfe, 0xf1, 0xf0, 
0x07, 0x13, 0xde, 0xfc, 0x1a, 0xda, 0xde, 0xf9, 0xde, 0x11, 0x14, 0x06, 
0x7f, 0x0a, 0xf9, 0x1c, 0xfe, 0x03, 0xd2, 0xfb, 0x0e, 0x0d, 0x11, 0xdd, 
0x0a, 0x0f, 0xee, 0x0b, 0x6d, 0xe1, 0x0f, 0x1c, 0x15, 0xf1, 0x00, 0xe9, 
0xf9, 0xee, 0x11, 0x0d, 0x12, 0x02, 0x1d, 0xda, 0x39, 0xfe, 0x0b, 0x2c, 
0xf6, 0x0c, 0xdc, 0x06, 0x0f, 0x00, 0x0f, 0xf1, 0xf6, 0x26, 0xde, 0x23, 
0x50, 0xf4, 0xf1, 0x24, 0x11, 0x24, 0x34, 0xf8, 0x0a, 0xdb, 0x44, 0x06, 
0x0c, 0x2f, 0x00, 0xfd, 0x6d, 0xf7, 0xf2, 0x2c, 0xfd, 0xef, 0x00, 0x1a, 
0x2b, 0x14, 0x0a, 0xf3, 0x34, 0x05, 0xd2, 0xe6, 0x4a, 0x04, 0xf9, 0xf9, 
0x23, 0xf3, 0x00, 0x14, 0x20, 0x09, 0xff, 0xfd, 0x02, 0x0b, 0xdc, 0x2f, 
0x06, 0x42, 0xd1, 0x16, 0x02, 0x12, 0x06, 0x2e, 0x43, 0xeb, 0x23, 0x4d, 
0xea, 0xc1, 0x22, 0xe6, 0xfb, 0x24, 0x1e, 0x1b, 0xf8, 0xee, 0x06, 0xe4, 
0xff, 0x12, 0xf9, 0xff, 0xe2, 0xf3, 0xef, 0xef, 0xfe, 0xf1, 0x06, 0xe9, 
0xe0, 0xff, 0xf3, 0xde, 0xe9, 0xd6, 0x26, 0xed, 0x0e, 0xdd, 0x06, 0x38, 
0x4a, 0x0b, 0xd0, 0x0c, 0xdc, 0x14, 0xf5, 0x16, 0xfe, 0xd3, 0x1e, 0x11, 
0xd3, 0xe4, 0x08, 0xd2, 0x53, 0xeb, 0x21, 0xf0, 0xde, 0xeb, 0xd3, 0x00, 
0xed, 0xdc, 0xec, 0xd1, 0xf9, 0xf7, 0xdf, 0xcc, 0x37, 0xd7, 0xe1, 0xe5, 
0xea, 0xfe, 0xde, 0x06, 0xe3, 0xfe, 0xe0, 0xc9, 0xe9, 0x49, 0xfa, 0x28, 
0x7f, 0x25, 0x14, 0x08, 0x1e, 0x17, 0x45, 0xf7, 0x03, 0x29, 0x1b, 0xf5, 
0xe1, 0x43, 0x2d, 0x10, 0x3b, 0x19, 0x10, 0x28, 0x40, 0xf7, 0xf8, 0xd7, 
0x39, 0x16, 0x0b, 0x0e, 0x1f, 0x39, 0xd7, 0xe6, 0x02, 0xe9, 0xea, 0xee, 
0x27, 0xf3, 0x0f, 0x24, 0x28, 0xf4, 0xe5, 0xfa, 0xdc, 0xf4, 0xf9, 0xf2, 
0x81, 0x03, 0x1e, 0xf0, 0xc0, 0xdf, 0x15, 0xfd, 0xae, 0xee, 0xcf, 0xe1, 
0x33, 0x11, 0xfa, 0xf6, 0x94, 0xf5, 0xdd, 0xc3, 0xeb, 0x26, 0x2d, 0x08, 
0xc7, 0xb6, 0xea, 0x19, 0x31, 0x68, 0xd6, 0x38, 0xb9, 0x07, 0x1c, 0xfa, 
0x06, 0x25, 0xd3, 0xe5, 0xcb, 0xec, 0xc6, 0x0a, 0x0a, 0x12, 0xe2, 0xf4, 
0x93, 0x20, 0x18, 0xed, 0xe3, 0x06, 0x44, 0x2c, 0xed, 0xec, 0xf5, 0x05, 
0x0d, 0x19, 0xf5, 0x03, 0xae, 0xfc, 0x11, 0xd3, 0xec, 0x05, 0x19, 0xfb, 
0xe2, 0xbe, 0xe6, 0xdb, 0xed, 0x1a, 0xd5, 0x24, 0xb3, 0xeb, 0xf5, 0xcf, 
0xe4, 0x1b, 0xfc, 0xd8, 0x35, 0x03, 0xe6, 0x07, 0xf6, 0xfe, 0x03, 0xfb, 
0xbe, 0xf4, 0xf3, 0xd7, 0xaf, 0x0a, 0x16, 0xe2, 0x28, 0xba, 0xd0, 0x40, 
0xd9, 0x6c, 0x2d, 0x16, 0x11, 0x1f, 0xf4, 0xf4, 0x04, 0x0c, 0x0e, 0x12, 
0x2e, 0xc8, 0xb4, 0x23, 0xd6, 0x39, 0xd1, 0x63, 0xf6, 0x1c, 0xf7, 0xd1, 
0xfd, 0x15, 0x0d, 0xfd, 0x14, 0xb0, 0xc6, 0x22, 0xdb, 0xdb, 0x13, 0xc2, 
0xf2, 0xee, 0x1f, 0xf0, 0xf9, 0xee, 0xd6, 0xd1, 0xb8, 0x03, 0x14, 0xce, 
0x13, 0xed, 0x2b, 0xf5, 0xf8, 0x10, 0x05, 0x01, 0xf6, 0xff, 0xf7, 0x05, 
0xf0, 0x29, 0x11, 0x03, 0xf6, 0x25, 0x0c, 0x14, 0xc8, 0xd4, 0x1b, 0xff, 
0xf0, 0xd5, 0xf5, 0xd6, 0xd9, 0x0d, 0xe2, 0xbf, 0xf9, 0xac, 0x1d, 0xc0, 
0xd4, 0xfd, 0x1b, 0xf8, 0x05, 0x1d, 0xc3, 0xeb, 0xbc, 0x18, 0x09, 0xd4, 
0x02, 0xc7, 0x3d, 0xf4, 0xd5, 0x24, 0x07, 0x12, 0x09, 0x28, 0xef, 0x18, 
0xff, 0xfe, 0xfb, 0x0a, 0x00, 0x03, 0x13, 0x08, 0x81, 0xf3, 0x01, 0x0c, 
0xf5, 0x05, 0xe6, 0xf5, 0xbb, 0xfe, 0xf0, 0xea, 0xf8, 0x92, 0x1f, 0xb0, 
0xc7, 0xf4, 0x17, 0x00, 0xdc, 0x00, 0xa6, 0xe2, 0xb9, 0x0e, 0xf5, 0xf3, 
0x1a, 0xcd, 0x1b, 0xd5, 0xe6, 0xfe, 0x16, 0xfd, 0xec, 0xf4, 0xd8, 0xf8, 
0xea, 0x2e, 0xe9, 0x19, 0xfc, 0xe6, 0xf2, 0x04, 0xa2, 0xe7, 0x20, 0xd8, 
0xd4, 0xf1, 0xc5, 0x14, 0xba, 0xfa, 0xeb, 0xda, 0x05, 0xfe, 0xbd, 0x1e, 
0x27, 0x28, 0xca, 0xe1, 0x09, 0x0c, 0xe8, 0x32, 0x5c, 0xc8, 0xd8, 0x32, 
0xf4, 0xa7, 0xf6, 0x07, 0xcf, 0xc0, 0xdd, 0x29, 0xce, 0xfd, 0x3a, 0xe2, 
0xaf, 0x08, 0x24, 0x0d, 0x07, 0x10, 0xcf, 0x34, 0x21, 0xed, 0x19, 0x1c, 
0xfe, 0x04, 0x7f, 0xdf, 0xd2, 0x02, 0xfb, 0xd2, 0xe6, 0x1d, 0xf4, 0x14, 
0x54, 0x32, 0x0c, 0x0c, 0x0b, 0x32, 0xf0, 0x26, 0x3d, 0xdb, 0x33, 0x2d, 
0xd2, 0xd8, 0x1f, 0xda, 0x38, 0x0d, 0x30, 0x24, 0xdd, 0xc6, 0xf2, 0xce, 
0x03, 0xd4, 0xf1, 0xdc, 0xb2, 0x01, 0xfa, 0x24, 0x18, 0xf3, 0xfd, 0x08, 
0xdf, 0xea, 0x1c, 0x04, 0x0c, 0xd0, 0xed, 0xb4, 0x4e, 0x3d, 0xd0, 0x12, 
0x3f, 0x23, 0xbd, 0x44, 0x2e, 0x42, 0x1d, 0x28, 0x39, 0x0f, 0x70, 0x43, 
0xf0, 0xed, 0xe2, 0xbf, 0x47, 0xc5, 0x20, 0xf4, 0x35, 0xcb, 0xfd, 0x1d, 
0x14, 0xfd, 0xee, 0x12, 0x97, 0xb9, 0xb7, 0xb6, 0x08, 0x92, 0xe6, 0xd1, 
0xc0, 0xfb, 0xd2, 0x98, 0xc5, 0xc2, 0xfb, 0xc4, 0xc4, 0x2b, 0x0d, 0x28, 
0xdc, 0xec, 0x0c, 0x2c, 0x22, 0xa5, 0x09, 0xda, 0xea, 0x18, 0x29, 0xbe, 
0x1e, 0x0f, 0x33, 0xf5, 0xea, 0x13, 0x1c, 0x28, 0x22, 0xcf, 0x0b, 0x06, 
0xe8, 0x37, 0x05, 0x03, 0xcf, 0x01, 0x0e, 0xe9, 0xce, 0xec, 0x05, 0x15, 
0x19, 0x85, 0x24, 0xfe, 0xd8, 0x0b, 0x20, 0xf3, 0xdc, 0xb8, 0x03, 0xb8, 
0xa6, 0xf0, 0x1a, 0x0c, 0xf0, 0xe5, 0xb6, 0xea, 0xa4, 0x19, 0x04, 0xc8, 
0xf8, 0xe2, 0x2b, 0xdc, 0xb9, 0x27, 0x1c, 0x1f, 0xf5, 0x14, 0xbc, 0xf0, 
0xd5, 0xf2, 0xfc, 0x14, 0xd1, 0xee, 0x04, 0xde, 0xba, 0xe7, 0x26, 0x0a, 
0x05, 0xde, 0xce, 0xf3, 0xcc, 0xf7, 0xee, 0xcc, 0x01, 0x81, 0x31, 0xab, 
0xa7, 0xf9, 0x1c, 0x04, 0xfb, 0x39, 0xb5, 0x0a, 0xcd, 0xf7, 0xf4, 0xf6, 
0xf9, 0x9b, 0x04, 0xbd, 0xe0, 0x09, 0x22, 0x0e, 0x12, 0x08, 0xb8, 0x09, 
0xfd, 0x00, 0x1e, 0x17, 0x18, 0xb6, 0x01, 0xce, 0xb5, 0xea, 0x18, 0xe2, 
0xc6, 0x3b, 0x8b, 0x2b, 0xa2, 0x1b, 0x14, 0xed, 0xed, 0xef, 0xfb, 0x16, 
0xf0, 0x20, 0xdb, 0xf9, 0x16, 0xf0, 0xcc, 0x20, 0x37, 0xff, 0xe0, 0xf2, 
0x19, 0xcb, 0xc8, 0xc8, 0xe1, 0x01, 0xe1, 0xdd, 0x0a, 0xf9, 0x12, 0xeb, 
0xe5, 0x01, 0x13, 0x11, 0x01, 0x05, 0xe5, 0xd4, 0x0f, 0x18, 0xe0, 0x25, 
0x07, 0x23, 0x0c, 0x15, 0x01, 0xfb, 0xfc, 0xe0, 0x08, 0xf0, 0x0f, 0x14, 
0x71, 0xd8, 0xeb, 0x1a, 0x2a, 0x12, 0xfb, 0x07, 0x14, 0x27, 0x1d, 0xf1, 
0x12, 0xe1, 0x26, 0x0f, 0x60, 0xe7, 0xf1, 0x20, 0x23, 0x00, 0x17, 0x12, 
0x08, 0x06, 0xf3, 0xdd, 0x0b, 0xfd, 0x31, 0xd5, 0x66, 0x0b, 0x02, 0x1e, 
0x37, 0xde, 0x0c, 0x10, 0xe5, 0x17, 0x26, 0xe9, 0xe7, 0x38, 0xf4, 0x57, 
0x7f, 0xf7, 0xf6, 0x12, 0x2b, 0xf7, 0xf9, 0x27, 0x2a, 0xef, 0x0f, 0x12, 
0xd8, 0x2d, 0xbd, 0xdd, 0x69, 0xf9, 0xbf, 0xe8, 0xef, 0xe8, 0xfb, 0xf4, 
0x23, 0xdc, 0xfd, 0xfd, 0xe8, 0x14, 0xf7, 0xdd, 0x6e, 0xf0, 0xe1, 0x20, 
0xe1, 0x04, 0x03, 0x14, 0x1d, 0xdf, 0xff, 0xf6, 0x30, 0xce, 0xe7, 0x08, 
0xdd, 0x24, 0x9f, 0x2c, 0xe3, 0x2d, 0xff, 0x38, 0x7f, 0xe9, 0x29, 0x4f, 
0xc6, 0xd6, 0xf2, 0xf5, 0xd3, 0xf8, 0xff, 0x2b, 0xd1, 0x0e, 0x23, 0xd1, 
0xdb, 0x10, 0x10, 0xfa, 0xf4, 0x30, 0xe2, 0xdb, 0x0e, 0xc0, 0xeb, 0xdb, 
0xf4, 0xe2, 0x26, 0x10, 0xf0, 0xe5, 0x1a, 0xc7, 0xf6, 0x2e, 0xce, 0x35, 
0x20, 0x13, 0xfb, 0x2a, 0x0d, 0x44, 0x05, 0xf7, 0x16, 0xeb, 0x26, 0x3f, 
0xe7, 0xcb, 0xed, 0xc2, 0x52, 0xdf, 0x08, 0xf6, 0x09, 0x13, 0xd8, 0x06, 
0xe1, 0x22, 0x3e, 0xdc, 0xdc, 0x2f, 0xf4, 0xeb, 0x2e, 0xc3, 0xda, 0x1a, 
0xef, 0xff, 0xd3, 0x97, 0xc5, 0xdc, 0xf9, 0xe8, 0x4f, 0x5a, 0x16, 0x54, 
0x47, 0xf7, 0xd2, 0x3a, 0x3d, 0x1a, 0x26, 0x47, 0x64, 0x1b, 0x75, 0x09, 
0xe8, 0x35, 0xee, 0xc8, 0x2c, 0xf3, 0xeb, 0x22, 0xe5, 0xea, 0x16, 0xfe, 
0x2b, 0xdd, 0x1e, 0xd6, 0xcc, 0xfa, 0xd7, 0xdc, 0xf5, 0xb0, 0xd1, 0xd7, 
0xe4, 0xaa, 0x86, 0x97, 0xf4, 0x0c, 0x19, 0x84, 0x20, 0xd2, 0xf7, 0xc8, 
0xb3, 0xd3, 0xcc, 0xf2, 0xcd, 0xdd, 0xcf, 0xea, 0xf0, 0xaa, 0xed, 0x19, 
0xef, 0x26, 0xc1, 0xb1, 0x09, 0xd0, 0xea, 0xd0, 0x02, 0x0b, 0x22, 0x1b, 
0x01, 0xf9, 0xea, 0x0d, 0x2d, 0x0f, 0xe2, 0xe6, 0x0f, 0x29, 0xdf, 0xda, 
0xef, 0x00, 0x0a, 0x14, 0x56, 0xfa, 0xf0, 0xd7, 0xed, 0x1c, 0x28, 0x4a, 
0x7f, 0x0d, 0xe8, 0x22, 0xf3, 0xf5, 0xe8, 0xdc, 0x29, 0xeb, 0x02, 0xe5, 
0xd0, 0xc4, 0x36, 0x10, 0x6b, 0xee, 0x09, 0x18, 0xfd, 0xd1, 0x12, 0x04, 
0xf7, 0x26, 0x2d, 0x1c, 0x10, 0xfe, 0x25, 0xf8, 0x64, 0xd6, 0x2f, 0x3f, 
0xe6, 0x3b, 0x0a, 0x24, 0x14, 0x1c, 0x2c, 0xdd, 0x28, 0x4a, 0x9d, 0x54, 
0x4b, 0x17, 0xec, 0x0c, 0x32, 0x3d, 0x03, 0x28, 0x3c, 0xdb, 0xdf, 0xe6, 
0xfd, 0xe2, 0xc2, 0x13, 0x52, 0xc4, 0xa7, 0xf7, 0x1f, 0x12, 0x08, 0x18, 
0xf4, 0x01, 0xda, 0x1e, 0xec, 0x16, 0xa2, 0xd7, 0x4e, 0x00, 0xc0, 0xf6, 
0xf8, 0xd8, 0x3b, 0xc3, 0x36, 0xf1, 0x18, 0xce, 0xb3, 0xe2, 0x20, 0xb8, 
0x07, 0xd7, 0x2a, 0xfd, 0x13, 0xcc, 0xe3, 0xeb, 0xb8, 0x19, 0xf2, 0xc8, 
0xff, 0x11, 0x35, 0xf8, 0x07, 0x16, 0x24, 0x22, 0x0b, 0x06, 0x12, 0x14, 
0x08, 0x0c, 0x16, 0x15, 0xce, 0x07, 0x0e, 0xf7, 0xee, 0xd5, 0x1a, 0x02, 
0x13, 0x81, 0x3b, 0xf8, 0xc7, 0x08, 0x05, 0xda, 0xf1, 0xb1, 0x0f, 0xba, 
0xcf, 0xf0, 0x2b, 0xf3, 0xdf, 0x18, 0xb1, 0xe7, 0xd4, 0x07, 0x08, 0xe3, 
0xfc, 0xdb, 0x18, 0xf5, 0xe8, 0x23, 0x19, 0x18, 0x12, 0xfd, 0xce, 0xea, 
0x0d, 0xfd, 0xf0, 0xfa, 0xf8, 0xf2, 0x03, 0x07, 0x9b, 0x00, 0x17, 0xfb, 
0xe7, 0x08, 0x04, 0xed, 0xbe, 0x20, 0x07, 0xdb, 0x24, 0x89, 0x15, 0x9e, 
0xae, 0xf4, 0x3a, 0xfe, 0xeb, 0x0d, 0xa8, 0x13, 0xdb, 0x0b, 0xe4, 0xf9, 
0xf2, 0xbe, 0x18, 0xd4, 0xe5, 0x03, 0x08, 0xf4, 0x00, 0x0b, 0xc5, 0xf9, 
0xff, 0x11, 0xec, 0xf0, 0xe8, 0xb4, 0x27, 0xe5, 0x95, 0xf8, 0x19, 0xf6, 
0xf0, 0x2f, 0xd1, 0x15, 0xbd, 0xf9, 0x0e, 0x09, 0xce, 0x3e, 0x03, 0x2f, 
0x07, 0x04, 0xc0, 0x0d, 0xf8, 0xda, 0x0c, 0xd5, 0x12, 0x0d, 0xdb, 0xf7, 
0xba, 0xb4, 0xeb, 0x07, 0xd0, 0xc6, 0xcf, 0xe6, 0xf5, 0x24, 0xa5, 0xca, 
0x04, 0x1b, 0x11, 0xf9, 0x10, 0xe8, 0x19, 0xd2, 0x36, 0x0f, 0x0d, 0xfe, 
0xf2, 0x13, 0xff, 0xb7, 0xdb, 0x35, 0x17, 0xe0, 0xd6, 0x29, 0x03, 0x42, 
0x38, 0xd6, 0xc2, 0xff, 0x2c, 0xde, 0x85, 0xf0, 0x42, 0xdd, 0x28, 0x14, 
0xfd, 0xcf, 0x13, 0x05, 0x2d, 0x00, 0xe6, 0x08, 0xd6, 0xff, 0xd6, 0xc4, 
0xe3, 0xeb, 0x2d, 0xf9, 0xb9, 0xbd, 0xd3, 0xd1, 0x49, 0xfc, 0xda, 0xe7, 
0x2b, 0x25, 0x02, 0xf3, 0xe5, 0xbc, 0xf7, 0xcd, 0x0f, 0x37, 0x09, 0x25, 
0x14, 0x4b, 0xda, 0xe5, 0x12, 0x10, 0x1b, 0x49, 0x69, 0xcf, 0x55, 0x34, 
0x05, 0x0e, 0x23, 0x2f, 0x3e, 0x23, 0xe9, 0x0a, 0x40, 0xee, 0x15, 0x2b, 
0x13, 0xf7, 0x5e, 0xda, 0xf9, 0x2e, 0x1d, 0xc0, 0x38, 0x37, 0xf1, 0x2a, 
0x54, 0x0b, 0x7f, 0x2b, 0x5a, 0x2d, 0x49, 0x0d, 0xf4, 0x1e, 0xed, 0xf4, 
0xf3, 0xe5, 0xf3, 0xcb, 0x09, 0xf6, 0xf0, 0x16, 0x12, 0x04, 0xd4, 0xf7, 
0x0d, 0x09, 0xea, 0xf6, 0xe2, 0x08, 0xfa, 0xdf, 0x16, 0xf3, 0x03, 0xe9, 
0x36, 0xf0, 0xdc, 0xf1, 0x03, 0xb9, 0xd9, 0xd9, 0xfc, 0xed, 0xde, 0x0e, 
0xdc, 0x17, 0xc2, 0x1b, 0xfd, 0xea, 0xec, 0x13, 0x0d, 0x21, 0xd6, 0x23, 
0x7f, 0xe0, 0xf6, 0x03, 0xe6, 0xfd, 0x03, 0xd3, 0x30, 0x09, 0x1a, 0xe9, 
0x0a, 0x1d, 0x22, 0x09, 0x77, 0xde, 0x08, 0x29, 0x06, 0x05, 0xc9, 0x0b, 
0x02, 0x0c, 0x10, 0xcf, 0x19, 0xeb, 0xf0, 0xdc, 0x2b, 0xfe, 0xe4, 0x02, 
0x08, 0xe6, 0x0d, 0x0d, 0x30, 0x02, 0xfe, 0x0f, 0x1d, 0x1d, 0xc7, 0x00, 
0x51, 0xf8, 0xb4, 0xf9, 0x09, 0x14, 0x38, 0xe7, 0x1c, 0x08, 0x01, 0x14, 
0x17, 0x19, 0x18, 0x26, 0x7b, 0x0a, 0xd8, 0x01, 0x3d, 0x18, 0xf7, 0x02, 
0xe9, 0xf6, 0x3d, 0xe0, 0x0f, 0x36, 0x04, 0xf4, 0x6a, 0x17, 0xe4, 0xfa, 
0x11, 0x10, 0x10, 0xda, 0x00, 0x18, 0x18, 0x20, 0x04, 0xe5, 0x01, 0xfd, 
0xd3, 0xed, 0xf0, 0xd5, 0xf6, 0x0e, 0x3f, 0xe5, 0x9a, 0xd8, 0xeb, 0xf8, 
0x1f, 0x0f, 0xde, 0x03, 0xb8, 0xf3, 0x01, 0xd3, 0xe6, 0x25, 0x35, 0xf2, 
0xe2, 0xd0, 0xed, 0xfa, 0x1e, 0x3c, 0xe1, 0x36, 0xc2, 0xed, 0xfb, 0xf1, 
0xf8, 0x00, 0xf6, 0xe3, 0xc9, 0xf5, 0xd0, 0xe8, 0x07, 0xce, 0xfe, 0xf9, 
0x81, 0xff, 0xec, 0xf8, 0xec, 0x14, 0x4e, 0x13, 0xe8, 0xe5, 0xde, 0xf7, 
0x21, 0x05, 0xf8, 0xf7, 0xc0, 0x1c, 0xeb, 0xe9, 0xeb, 0xf5, 0x22, 0x1e, 
0x2f, 0xe3, 0xd1, 0xf2, 0x00, 0x49, 0xde, 0x0d, 0xd3, 0xf7, 0xf6, 0xd8, 
0xee, 0x1f, 0xf7, 0x16, 0x1e, 0xd0, 0xe7, 0x08, 0xff, 0x08, 0x05, 0x12, 
0xb1, 0x19, 0xe1, 0xd3, 0xc0, 0xf0, 0x1b, 0xf5, 0xfc, 0xdd, 0xb9, 0x29, 
0x0b, 0x36, 0x06, 0x12, 0xe4, 0x05, 0xdc, 0xcd, 0xe9, 0x15, 0xf8, 0xdc, 
0x2d, 0xf4, 0xee, 0x1a, 0xef, 0x35, 0xd6, 0x44, 0xb7, 0xec, 0xd3, 0xcb, 
0xd0, 0xff, 0x0f, 0xff, 0x23, 0xb8, 0xe3, 0x1e, 0x0b, 0x69, 0xf3, 0x00, 
0xca, 0xf5, 0xe6, 0xcc, 0x06, 0xce, 0x3b, 0xda, 0xed, 0x08, 0xcd, 0x10, 
0xd3, 0x38, 0xf5, 0x17, 0x28, 0xc7, 0xd1, 0x27, 0xe8, 0x0e, 0xc8, 0xe8, 
0x63, 0x10, 0xce, 0xf4, 0x13, 0xbf, 0xef, 0xf1, 0xf5, 0x2e, 0xca, 0xda, 
0xee, 0xfd, 0x09, 0x38, 0x3f, 0xee, 0x06, 0x64, 0xa3, 0x01, 0xcb, 0xee, 
0x57, 0xec, 0xf6, 0xfb, 0x11, 0xa6, 0xe5, 0x94, 0xd8, 0xe2, 0x02, 0xb7, 
0x1a, 0x3d, 0xfb, 0x2b, 0x33, 0xf7, 0xe8, 0x28, 0xfa, 0xee, 0xcb, 0xd9, 
0x0f, 0x2c, 0x04, 0xb2, 0xfa, 0x21, 0x01, 0xda, 0x7f, 0x19, 0x28, 0x0a, 
0x01, 0xec, 0xee, 0x38, 0x36, 0x15, 0x3e, 0x40, 0x99, 0xa3, 0xdc, 0xa2, 
0x35, 0xc5, 0xa7, 0x9c, 0xca, 0xc3, 0xc9, 0xab, 0x8c, 0xa1, 0xef, 0xce, 
0xbb, 0xee, 0xfe, 0x16, 0x5e, 0xcc, 0xdd, 0x27, 0x01, 0x08, 0x05, 0xfd, 
0xf6, 0x07, 0xfd, 0xf6, 0x54, 0x48, 0xc6, 0xd1, 0x4f, 0x1d, 0xbb, 0xf7, 
0x02, 0x0f, 0xfd, 0x1e, 0x4b, 0x16, 0xed, 0x33, 0xde, 0xc6, 0xe9, 0xba, 
0xc5, 0x0d, 0xd5, 0xf9, 0xcd, 0xeb, 0x30, 0x0f, 0xad, 0xb3, 0xef, 0x1c, 
0x22, 0x13, 0xee, 0xd9, 0x95, 0x14, 0x09, 0xd0, 0xf4, 0xfd, 0x18, 0x2f, 
0xed, 0xba, 0xf3, 0xfc, 0x24, 0x1a, 0xed, 0x02, 0xfa, 0xcd, 0x01, 0xd8, 
0xfa, 0xdc, 0xef, 0xef, 0xec, 0xed, 0xc4, 0x0e, 0xea, 0xf0, 0xc3, 0xe2, 
0x81, 0x2f, 0xe2, 0xe9, 0xd5, 0x1c, 0x4c, 0x34, 0x0f, 0xa4, 0x19, 0x2f, 
0xf8, 0x2c, 0xbf, 0x00, 0xb3, 0x32, 0xde, 0xcc, 0xf6, 0x20, 0x3d, 0xe5, 
0x3a, 0xbe, 0x1b, 0xe9, 0x27, 0x10, 0xb5, 0x26, 0xa1, 0x17, 0x0d, 0xcf, 
0x0d, 0x0f, 0x13, 0x1e, 0xfb, 0xf3, 0xd4, 0x01, 0xf0, 0xf8, 0xef, 0x07, 
0xc7, 0xfc, 0xcd, 0xe1, 0xc2, 0x07, 0x3d, 0x10, 0x52, 0x96, 0xce, 0x47, 
0xde, 0x0b, 0xc6, 0x1b, 0xea, 0xea, 0xf6, 0xbd, 0xb2, 0x17, 0xf6, 0xf1, 
0x1d, 0xda, 0xaa, 0x02, 0x1a, 0x43, 0xa9, 0x29, 0xdf, 0x1d, 0xcf, 0xab, 
0xf7, 0xea, 0x07, 0x1b, 0x3d, 0xd5, 0xb1, 0x14, 0xff, 0xed, 0x19, 0xbd, 
0x10, 0xef, 0x37, 0x06, 0x20, 0xe2, 0xe1, 0xe3, 0xc7, 0x2f, 0xe0, 0x05, 
0x0e, 0xd4, 0x26, 0xea, 0x0d, 0x06, 0x10, 0x0e, 0xff, 0xe4, 0x1f, 0x0d, 
0xb3, 0x03, 0xf6, 0xe6, 0xed, 0x05, 0x07, 0x31, 0xe9, 0xf9, 0x32, 0x05, 
0x18, 0xf4, 0x2f, 0xe9, 0xcf, 0x25, 0xec, 0xe9, 0x1e, 0xbc, 0x28, 0xb5, 
0xd0, 0xec, 0x16, 0x08, 0x00, 0x0b, 0xb7, 0xed, 0xe3, 0x1c, 0xeb, 0x0e, 
0xf8, 0xaa, 0x32, 0xe7, 0xbc, 0xef, 0x1a, 0xf5, 0xd9, 0x1b, 0xf4, 0xfa, 
0xfc, 0x19, 0x02, 0xf3, 0xeb, 0xd0, 0x09, 0xeb, 0xaf, 0xe3, 0x0d, 0xf2, 
0xf1, 0x07, 0xd3, 0x0a, 0xbe, 0x1b, 0xe4, 0xde, 0xff, 0x81, 0x18, 0xc1, 
0xb1, 0xe7, 0x39, 0x08, 0xdc, 0x00, 0xbe, 0x03, 0xdb, 0x0d, 0xde, 0xf4, 
0x14, 0xa2, 0x34, 0xc7, 0xd5, 0x0f, 0x26, 0x05, 0xf7, 0x11, 0xcd, 0xf4, 
0xe4, 0xfd, 0x0e, 0xff, 0x0b, 0xaa, 0x03, 0xe9, 0xc4, 0x14, 0x1a, 0xe9, 
0xd0, 0x20, 0xbd, 0x17, 0xe4, 0xf2, 0xfc, 0xe6, 0xf8, 0xb0, 0xf6, 0x81, 
0xe8, 0xf6, 0x0e, 0xe9, 0xd6, 0xdf, 0xe8, 0xf9, 0xd6, 0x01, 0xe4, 0xea, 
0xfc, 0xba, 0x0d, 0xc5, 0x02, 0xf6, 0x16, 0xeb, 0xf1, 0x05, 0xda, 0xea, 
0xf8, 0x05, 0xda, 0xe0, 0xdc, 0xf8, 0x0d, 0x05, 0xcf, 0xc9, 0xf9, 0xf2, 
0xf0, 0xee, 0xcb, 0xdc, 0xc0, 0xf4, 0xfa, 0xb4, 0x1b, 0xf0, 0x0d, 0x06, 
0x1b, 0x07, 0x01, 0xf1, 0x14, 0xfc, 0xfd, 0xfc, 0x29, 0x05, 0x01, 0x1c, 
0x17, 0x0a, 0x0b, 0xf5, 0x11, 0x29, 0x01, 0x18, 0x05, 0x07, 0x17, 0x17, 
0x22, 0x18, 0xf8, 0x13, 0x06, 0x07, 0xfc, 0x0b, 0xd7, 0x23, 0x10, 0x00, 
0x06, 0x26, 0x0d, 0x11, 0x02, 0x10, 0x14, 0x0b, 0xe8, 0x04, 0x11, 0xc5, 
0xe6, 0xe6, 0xff, 0xf3, 0x01, 0xdb, 0xd8, 0xcf, 0xed, 0x0c, 0xe8, 0xf4, 
0xe9, 0x07, 0xfe, 0xfc, 0xdf, 0xfa, 0x01, 0x05, 0xfa, 0xf4, 0xe7, 0xea, 
0xf3, 0xfc, 0xe0, 0x0a, 0xda, 0xfa, 0x0d, 0xf8, 0xc6, 0xd0, 0x00, 0xff, 
0xf1, 0xd1, 0xe0, 0xd6, 0xd7, 0x09, 0x01, 0xe4, 0x1b, 0xf1, 0xfe, 0xfd, 
0xbe, 0x07, 0xae, 0x00, 0x19, 0x13, 0xf1, 0xe6, 0x1b, 0xd4, 0x1e, 0x25, 
0xee, 0x19, 0xff, 0xc9, 0xcc, 0xde, 0xcf, 0xc6, 0xda, 0xd9, 0x05, 0x12, 
0x26, 0xec, 0x1d, 0x1e, 0x0b, 0xd6, 0x0d, 0xdf, 0xc3, 0x21, 0xc3, 0xdc, 
0x07, 0xd9, 0xf4, 0x16, 0xd1, 0xb8, 0x11, 0xea, 0xf8, 0x2f, 0xf6, 0x16, 
0x45, 0xd4, 0x17, 0x01, 0xdf, 0xc9, 0xbe, 0x08, 0x29, 0x33, 0xf6, 0x20, 
0xe8, 0x31, 0x43, 0x2d, 0x40, 0x05, 0x10, 0x31, 0xef, 0xc9, 0xc8, 0xff, 
0x2d, 0x0b, 0x3f, 0x09, 0xcb, 0x0b, 0xed, 0xbc, 0x21, 0xdb, 0x3b, 0x17, 
0x38, 0xbf, 0x03, 0x0a, 0xf1, 0xe3, 0xff, 0x11, 0xe2, 0x2b, 0x9e, 0x42, 
0x2d, 0x03, 0x81, 0xf8, 0xe7, 0x07, 0x0a, 0xf3, 0xe6, 0xbf, 0x02, 0x04, 
0x14, 0x0e, 0x01, 0x17, 0x43, 0xe5, 0xcf, 0x21, 0x12, 0x0f, 0x36, 0xd9, 
0x0d, 0x0f, 0xdf, 0x15, 0x2e, 0x32, 0xc8, 0x09, 0x1b, 0x31, 0xb2, 0x06, 
0x10, 0xf7, 0x28, 0xfa, 0x59, 0xda, 0x08, 0x34, 0xdd, 0xef, 0xbe, 0x1b, 
0xc2, 0xdc, 0xae, 0xb7, 0xe8, 0x19, 0xf9, 0xe8, 0x3c, 0xbe, 0xce, 0x01, 
0xf3, 0x0c, 0x3a, 0x07, 0x1b, 0xbb, 0x46, 0x31, 0x0a, 0xba, 0x14, 0xd7, 
0xf6, 0x06, 0x23, 0xfb, 0x3b, 0x48, 0xf9, 0xed, 0x37, 0x4b, 0xc7, 0x2e, 
0x33, 0x2b, 0x4d, 0x20, 0x7f, 0xcd, 0xfb, 0x06, 0x06, 0x01, 0x00, 0x36, 
0x39, 0xe6, 0xed, 0x04, 0x1b, 0xd1, 0xda, 0x1f, 0x29, 0x15, 0x0e, 0x24, 
0xf8, 0x14, 0x27, 0xe5, 0x39, 0x1c, 0xeb, 0x30, 0xf5, 0xcd, 0x28, 0xc1, 
0xcd, 0x05, 0x34, 0xed, 0x16, 0x0f, 0x0e, 0x2d, 0x0a, 0xf4, 0xe4, 0xc9, 
0xed, 0x12, 0x14, 0xef, 0x17, 0xb4, 0xbb, 0xb8, 0x19, 0x36, 0xfd, 0x3c, 
0x02, 0x3d, 0xb8, 0xf5, 0x32, 0x57, 0x58, 0x4a, 0x45, 0xe7, 0x22, 0x44, 
0xf9, 0xd2, 0xfc, 0xc5, 0x1b, 0xf6, 0x0c, 0xf5, 0xe6, 0x0b, 0xec, 0xbd, 
0x17, 0xde, 0x50, 0xe1, 0xe9, 0xf5, 0xf8, 0xf6, 0x29, 0xcf, 0x1a, 0xed, 
0x0b, 0xd5, 0xc4, 0xd2, 0xcb, 0xfd, 0xfc, 0xd2, 0xe1, 0xcd, 0x2d, 0xc6, 
0xf9, 0xdc, 0x41, 0xf2, 0xec, 0xe9, 0xef, 0xd2, 0xbf, 0x0b, 0xec, 0xbd, 
0x04, 0xd4, 0x27, 0xe5, 0x0b, 0x11, 0x2c, 0xe5, 0x10, 0x02, 0x15, 0x0b, 
0xcd, 0x1f, 0xd3, 0x26, 0xef, 0x30, 0xe6, 0x15, 0xbc, 0xd1, 0x18, 0xfd, 
0xe1, 0xca, 0xf7, 0x0b, 0xac, 0x0b, 0xdf, 0xb5, 0xf0, 0xa1, 0x37, 0xaa, 
0xbe, 0xe5, 0x2d, 0x00, 0xe1, 0x0c, 0xb9, 0xf4, 0xbc, 0xf1, 0xf0, 0xef, 
0xf7, 0xe0, 0x38, 0xe4, 0xf0, 0x18, 0x12, 0xf3, 0xfd, 0x23, 0xf8, 0xfe, 
0x09, 0x24, 0xe4, 0x1e, 0xf8, 0xe3, 0x02, 0xf0, 0x9c, 0x0f, 0x04, 0x01, 
0xd4, 0x0c, 0xd2, 0x0b, 0xe5, 0x15, 0x01, 0xca, 0xf5, 0x81, 0x0c, 0xac, 
0xb6, 0xf3, 0x49, 0xef, 0xf9, 0x03, 0x9b, 0x1e, 0xc8, 0x0f, 0xe3, 0xef, 
0x03, 0xb6, 0x38, 0xd7, 0x02, 0x09, 0x28, 0xfa, 0xed, 0x10, 0xe0, 0xfd, 
0x07, 0x0e, 0xe9, 0xe6, 0xee, 0xd8, 0xfc, 0xf4, 0xbc, 0xe7, 0x07, 0xf3, 
0xca, 0x0a, 0xcd, 0xeb, 0xcc, 0xfd, 0xef, 0xf3, 0xc5, 0xe0, 0x01, 0xdf, 
0xd5, 0xd8, 0xe4, 0xdf, 0xd6, 0xe8, 0xc1, 0xd3, 0xc8, 0xf9, 0x00, 0x09, 
0x16, 0x19, 0xed, 0x26, 0xed, 0xde, 0x0e, 0x2f, 0x09, 0xde, 0x07, 0x1c, 
0x01, 0x00, 0xff, 0xd1, 0x26, 0xeb, 0xff, 0xe6, 0x27, 0x13, 0x0f, 0x2d, 
0x3b, 0x27, 0x22, 0x38, 0x7f, 0xfe, 0x2d, 0x1e, 0xe6, 0xeb, 0x00, 0x1b, 
0x4d, 0xde, 0xcf, 0x11, 0xfc, 0x0a, 0xd5, 0xdb, 0x3a, 0xd6, 0x1b, 0x28, 
0xd1, 0xd5, 0xe5, 0xed, 0x3a, 0xda, 0x0c, 0xdb, 0xfa, 0x11, 0x16, 0xea, 
0xce, 0xcb, 0x1d, 0x13, 0x24, 0x12, 0xf0, 0x1a, 0xff, 0xf8, 0xf4, 0x09, 
0x0c, 0xda, 0xf9, 0x1e, 0x1a, 0xfc, 0xd7, 0xed, 0x43, 0x39, 0x04, 0x5c, 
0x1e, 0x3c, 0xd3, 0xf4, 0x1b, 0x2f, 0x4a, 0x33, 0x22, 0x1a, 0x41, 0x48, 
0xfc, 0x0f, 0x18, 0xff, 0x46, 0x11, 0xfd, 0xfe, 0x2e, 0xcd, 0x29, 0x11, 
0x0d, 0x02, 0x34, 0xed, 0xac, 0x3e, 0x05, 0xeb, 0x59, 0xc4, 0xec, 0xfc, 
0x22, 0xe5, 0xd3, 0xa5, 0xfe, 0x0c, 0xe6, 0xaa, 0xf7, 0xe5, 0x0b, 0xa3, 
0xcc, 0xe5, 0x0c, 0xfb, 0xf7, 0xc8, 0xea, 0xbd, 0x81, 0x0a, 0x0b, 0xc4, 
0xf9, 0xec, 0x4b, 0x0c, 0xd4, 0x1f, 0x0c, 0xfd, 0xea, 0x07, 0xcb, 0x12, 
0x0a, 0x07, 0x15, 0xf8, 0xef, 0x1e, 0x23, 0xe8, 0xc4, 0xb6, 0x28, 0xf3, 
0xf0, 0xa2, 0xc2, 0xbb, 0x8b, 0x2b, 0xfd, 0xe6, 0xe5, 0xd5, 0x0a, 0xdf, 
0x8a, 0x46, 0xff, 0x11, 0x15, 0x2a, 0xb5, 0x03, 0x0d, 0x16, 0x13, 0xdc, 
0xf6, 0xdf, 0x09, 0xd9, 0xb3, 0x30, 0x1b, 0x18, 0x09, 0xfe, 0xcc, 0xff, 
0xe3, 0x28, 0xda, 0x1f, 0xcf, 0xf7, 0x21, 0x04, 0xb9, 0x28, 0xff, 0xe1, 
0x02, 0x28, 0xfa, 0xed, 0xf9, 0xf2, 0x03, 0xcc, 0xaa, 0x9b, 0x32, 0x90, 
0xa5, 0xaf, 0x1e, 0xf4, 0x03, 0xbc, 0x91, 0xc0, 0xda, 0x2c, 0x24, 0xcb, 
0xd9, 0x97, 0x38, 0xbd, 0xdb, 0x02, 0x20, 0x13, 0xed, 0xf2, 0xa5, 0xed, 
0xdc, 0x2e, 0x09, 0xdd, 0xa7, 0xc5, 0x32, 0xc9, 0x8e, 0xc9, 0x33, 0x17, 
0xe3, 0xd1, 0xb5, 0xc1, 0xb8, 0x24, 0x03, 0xf3, 0x1d, 0x05, 0xe9, 0x31, 
0x09, 0xf6, 0x1b, 0xee, 0x01, 0x24, 0x10, 0xfb, 0x6c, 0x22, 0x06, 0x38, 
0xdc, 0x08, 0xf8, 0x11, 0x00, 0x0e, 0x07, 0xf2, 0x26, 0xc5, 0x1d, 0x0a, 
0x17, 0x0e, 0x11, 0x1a, 0xf9, 0xab, 0xf3, 0xe0, 0x0a, 0xf1, 0xe4, 0xf4, 
0xc3, 0x01, 0xee, 0xe3, 0x1c, 0xd0, 0xd4, 0x12, 0x08, 0x3c, 0xc0, 0xff, 
0x51, 0x05, 0xf3, 0xc2, 0x14, 0x0e, 0xf1, 0x0a, 0xec, 0xc8, 0x07, 0xfa, 
0xe7, 0x00, 0xdb, 0x15, 0x61, 0x00, 0x17, 0xdf, 0x22, 0xe8, 0xe1, 0xcb, 
0x1b, 0xfb, 0x28, 0xff, 0x03, 0xf3, 0x02, 0xe2, 0x3e, 0x06, 0xec, 0x26, 
0x02, 0xe7, 0xd4, 0xea, 0x3c, 0x1a, 0x25, 0xe7, 0xb9, 0x18, 0x0e, 0x38, 
0x59, 0xea, 0x05, 0x24, 0x11, 0xeb, 0xdf, 0xbd, 0x06, 0x06, 0x31, 0xe4, 
0x1b, 0x4e, 0xde, 0x01, 0x7f, 0x00, 0xe5, 0xff, 0xff, 0xf3, 0xdc, 0xf8, 
0x16, 0xf9, 0x3a, 0x0c, 0x3f, 0x10, 0xcc, 0xf5, 0x15, 0x2a, 0x08, 0x2b, 
0x37, 0x2c, 0x32, 0x2f, 0x50, 0xfa, 0x06, 0xe9, 0xc1, 0xd3, 0xdb, 0xe2, 
0xa0, 0xf5, 0xc8, 0x9a, 0xb5, 0x19, 0xe9, 0xf8, 0xc0, 0xa7, 0xcb, 0xe6, 
0xd7, 0xf2, 0xc2, 0xf5, 0xd3, 0xe7, 0xe1, 0x13, 0xd9, 0x16, 0x2b, 0xf5, 
0x1a, 0x08, 0x0b, 0xea, 0xfa, 0x0f, 0xe3, 0xc3, 0x24, 0xf9, 0x06, 0xf4, 
0xf2, 0x38, 0x46, 0x25, 0x65, 0x02, 0x33, 0x2b, 0xd1, 0x26, 0x38, 0x4e, 
0x52, 0xdd, 0x26, 0x16, 0xfb, 0x01, 0xee, 0xf8, 0x40, 0x21, 0x11, 0x24, 
0xe1, 0xeb, 0x1c, 0x12, 0x40, 0xcc, 0x13, 0x2c, 0x0e, 0xf4, 0x0d, 0x19, 
0xe1, 0xf9, 0x32, 0x11, 0x2c, 0x3b, 0x3f, 0x16, 0x73, 0xd7, 0x07, 0x33, 
0x3a, 0x0b, 0xc2, 0x22, 0xe2, 0x3a, 0x3d, 0x11, 0x1c, 0x40, 0xa5, 0x65, 
0x64, 0x13, 0x81, 0xf5, 0x16, 0x58, 0x19, 0x4b, 0x17, 0xea, 0xec, 0xfc, 
0xf5, 0xbe, 0xa9, 0xef, 0x35, 0xea, 0xb7, 0xe8, 0xc6, 0x20, 0x11, 0xce, 
0xee, 0xdd, 0xd8, 0x10, 0xe8, 0x36, 0xd2, 0x04, 0x35, 0xcc, 0xaf, 0xdc, 
0x09, 0xc4, 0xc2, 0xbb, 0x08, 0xbf, 0xf7, 0xaf, 0xff, 0x60, 0x0f, 0x75, 
0xea, 0xe9, 0x0a, 0xf8, 0x24, 0x24, 0xf1, 0xe3, 0x6f, 0xf0, 0xa1, 0xfe, 
0xc3, 0x5b, 0x1b, 0x3a, 0xf8, 0x0d, 0x11, 0xc8, 0xca, 0xbe, 0xe9, 0xad, 
0x38, 0x2a, 0x07, 0x1c, 0xa0, 0xcb, 0xf6, 0x02, 0x33, 0x19, 0x0a, 0x12, 
0x03, 0xd3, 0x97, 0xca, 0xf4, 0x15, 0xe0, 0x3f, 0x09, 0x39, 0xe7, 0xed, 
0xea, 0x09, 0xc9, 0xac, 0xb2, 0xd6, 0xa2, 0xbe, 0x2c, 0xe9, 0xc4, 0xb4, 
0xe4, 0x16, 0xca, 0xed, 0x2a, 0xde, 0xee, 0xcd, 0xdd, 0xf4, 0x8a, 0xeb, 
0x33, 0xfa, 0xec, 0xfc, 0xd0, 0xc4, 0xd8, 0x08, 0x3b, 0xe9, 0xca, 0x33, 
0xe2, 0xd6, 0xec, 0xd8, 0x2b, 0xd8, 0xf7, 0x20, 0xe9, 0x56, 0x1a, 0x2b, 
0x24, 0xc9, 0x02, 0x18, 0x0d, 0xd7, 0x7f, 0xcf, 0x17, 0x3a, 0x18, 0xb0, 
0x30, 0x2e, 0x08, 0x60, 0x10, 0xf5, 0xe7, 0x3c, 0x60, 0x15, 0x2c, 0x27, 
0x27, 0x37, 0x35, 0xd9, 0x55, 0x0a, 0x23, 0xe3, 0x74, 0x26, 0xd3, 0x2c, 
0x44, 0x1c, 0x5d, 0x08, 0x3c, 0x3c, 0x20, 0x4d, 0xef, 0xe5, 0xf7, 0xfd, 
0xca, 0xe5, 0x22, 0xf6, 0xf7, 0xda, 0x3d, 0xe0, 0x9e, 0xdd, 0xe5, 0xe2, 
0x0e, 0x0f, 0xd6, 0xf6, 0xc9, 0xf8, 0xe5, 0xd3, 0x04, 0xf2, 0xf7, 0x07, 
0xd8, 0xfe, 0xe1, 0x1f, 0xfa, 0x27, 0xe3, 0x14, 0xe6, 0xe8, 0x15, 0x00, 
0xee, 0x10, 0xd7, 0xee, 0xf7, 0xe6, 0xd6, 0x12, 0x21, 0xf4, 0x11, 0x00, 
0x81, 0x0d, 0xed, 0xf3, 0xeb, 0x1b, 0x21, 0x24, 0x0a, 0xce, 0xfd, 0xff, 
0x10, 0x1f, 0xdd, 0x12, 0xcf, 0x17, 0xfb, 0xd0, 0x04, 0x15, 0x26, 0xfb, 
0xfb, 0xf2, 0xdc, 0x07, 0x1f, 0x3c, 0xef, 0x23, 0xdd, 0xe8, 0x18, 0xd2, 
0xf7, 0xf9, 0x1a, 0x0c, 0x0e, 0xd9, 0xf6, 0x1a, 0x06, 0x21, 0xe3, 0xec, 
0xdd, 0xfd, 0xec, 0xcc, 0xb2, 0xed, 0x03, 0xe7, 0x17, 0xe3, 0xec, 0x29, 
0xd9, 0x31, 0xed, 0x4b, 0xe3, 0xf9, 0xe3, 0xe4, 0xf1, 0x0e, 0x00, 0x12, 
0x28, 0xc6, 0xc5, 0xf0, 0xde, 0x3e, 0xc5, 0x41, 0x0c, 0xff, 0x01, 0xd0, 
0xd3, 0xe1, 0xfb, 0x1b, 0x47, 0xcf, 0xf2, 0xf4, 0x04, 0xd8, 0xfb, 0xe6, 
0x81, 0xdc, 0x10, 0xf5, 0xd9, 0x08, 0x06, 0xe7, 0x99, 0xbd, 0xee, 0xee, 
0x0d, 0xfc, 0xed, 0x04, 0xab, 0x2b, 0xf9, 0xcf, 0xbb, 0x25, 0x1f, 0xf0, 
0xce, 0xb5, 0xe6, 0x08, 0xe8, 0x42, 0x00, 0x10, 0x85, 0xea, 0x0d, 0xcb, 
0xdb, 0xfa, 0xd2, 0xeb, 0xf2, 0xe9, 0xed, 0xdf, 0xe8, 0xcc, 0xf3, 0xe8, 
0x89, 0xea, 0xdb, 0xef, 0xd2, 0xf2, 0x0a, 0xf4, 0xeb, 0xc1, 0xf3, 0x08, 
0x22, 0x2e, 0xd1, 0xed, 0xe3, 0x17, 0x0d, 0xb3, 0xc2, 0x11, 0xf8, 0x05, 
0x0c, 0xdb, 0xd9, 0x1f, 0x02, 0x2d, 0xd8, 0x51, 0xb3, 0xf1, 0xfd, 0xb8, 
0xe2, 0xfb, 0xde, 0x2a, 0xfb, 0xbb, 0xcf, 0xe5, 0x1e, 0x19, 0xe2, 0x06, 
0xc1, 0x01, 0x0b, 0xec, 0xca, 0x0f, 0xfd, 0xe9, 0x0c, 0xc5, 0xbc, 0x36, 
0x07, 0x20, 0xf8, 0x38, 0xe2, 0x22, 0xc3, 0xd4, 0xcc, 0x06, 0x38, 0xf7, 
0x4b, 0xfd, 0xf1, 0x16, 0xf3, 0x39, 0xc0, 0x6e, 0xbd, 0x1f, 0xc7, 0xa7, 
0xb5, 0xf8, 0xf3, 0xe5, 0x40, 0xb2, 0xa8, 0x03, 0xf9, 0xc4, 0xf5, 0xc0, 
0x81, 0x01, 0xf3, 0xbd, 0xd3, 0x2e, 0x07, 0x1d, 0x88, 0xd4, 0x00, 0x00, 
0x13, 0x00, 0xdd, 0x04, 0xb4, 0x34, 0xca, 0xd0, 0xb2, 0x2c, 0x05, 0x05, 
0xd8, 0xca, 0xc2, 0x0f, 0x17, 0x11, 0xec, 0x2a, 0xe5, 0xe7, 0x0b, 0xc8, 
0xe6, 0xee, 0xf4, 0x08, 0xf9, 0x01, 0x02, 0x14, 0xf0, 0xd0, 0x05, 0xe6, 
0x83, 0x0b, 0xf3, 0xe1, 0xec, 0x23, 0x21, 0xf5, 0xe3, 0xda, 0xea, 0x02, 
0x0b, 0x24, 0xce, 0xfe, 0xdf, 0xfb, 0xe1, 0xd6, 0xd0, 0xfa, 0x39, 0x0b, 
0x1d, 0xde, 0xf0, 0x2c, 0x03, 0x1d, 0xd8, 0x2f, 0xd9, 0x08, 0xc7, 0xdf, 
0xd7, 0x0f, 0x07, 0x07, 0x1b, 0xd6, 0xc8, 0x18, 0x0b, 0xe7, 0x18, 0x16, 
0xce, 0x03, 0x00, 0xc7, 0xc4, 0x19, 0x17, 0x04, 0x15, 0xe9, 0xb6, 0x25, 
0x0b, 0x46, 0x05, 0x33, 0x0e, 0x2c, 0xe5, 0xd9, 0xdc, 0xe0, 0x14, 0x0e, 
0x2c, 0xd4, 0xf5, 0x23, 0xf8, 0x61, 0xe5, 0x47, 0xba, 0x0f, 0xc6, 0xdc, 
0xbb, 0x25, 0xf5, 0xec, 0x37, 0xb4, 0xd0, 0xf8, 0xab, 0xda, 0x18, 0xc8, 
0xc6, 0xbc, 0x05, 0xec, 0xee, 0x8c, 0xd2, 0xd5, 0x99, 0x17, 0xea, 0x9a, 
0x02, 0xfa, 0x1c, 0x31, 0xf3, 0x0c, 0x0e, 0x04, 0x03, 0x0e, 0xcc, 0x18, 
0xed, 0x2c, 0xf0, 0xf2, 0xe2, 0x0b, 0xf2, 0x15, 0xe2, 0xcc, 0x04, 0xee, 
0xf7, 0xc4, 0xdb, 0xdf, 0xaa, 0xf4, 0xd4, 0xb9, 0x07, 0xce, 0x28, 0xcf, 
0xc7, 0x2a, 0x1d, 0xfb, 0xf8, 0x2e, 0xdf, 0x18, 0xd2, 0x21, 0xf2, 0x10, 
0x0d, 0xc0, 0x39, 0xe3, 0xd8, 0x33, 0x05, 0x01, 0x01, 0x05, 0xed, 0xf0, 
0xeb, 0x16, 0xdc, 0x1d, 0xf8, 0xde, 0x18, 0x2f, 0xc6, 0xfb, 0x04, 0x0e, 
0x0e, 0x1d, 0x11, 0xf1, 0xdb, 0x10, 0x23, 0xf9, 0xef, 0xc2, 0xfa, 0x81, 
0xc8, 0xf2, 0x18, 0xe8, 0xef, 0xea, 0xa8, 0xda, 0xd1, 0x0e, 0x09, 0xd4, 
0xff, 0xe5, 0x0d, 0xd3, 0xa8, 0xe8, 0x10, 0x1a, 0xdd, 0xf8, 0xa9, 0xf0, 
0xdf, 0x2f, 0xf4, 0xda, 0xb4, 0xef, 0x46, 0x09, 0x97, 0xe7, 0x0e, 0xfa, 
0xdd, 0xd7, 0xf0, 0xf3, 0x87, 0x04, 0x0c, 0xf7, 0x62, 0xfe, 0xff, 0xff, 
0x04, 0x00, 0x00, 0x00, 0x80, 0x00, 0x00, 0x00, 0x80, 0xf7, 0xff, 0xff, 
0x81, 0xf6, 0xff, 0xff, 0x6a, 0xf5, 0xff, 0xff, 0xb4, 0xf6, 0xff, 0xff, 
0xdd, 0xf4, 0xff, 0xff, 0x33, 0x0c, 0x00, 0x00, 0xe9, 0x11, 0x00, 0x00, 
0x2f, 0xf0, 0xff, 0xff, 0x5f, 0x12, 0x00, 0x00, 0xa7, 0xf5, 0xff, 0xff, 
0x72, 0xf0, 0xff, 0xff, 0xac, 0xf3, 0xff, 0xff, 0x2f, 0x12, 0x00, 0x00, 
0x0c, 0xf3, 0xff, 0xff, 0x92, 0xf2, 0xff, 0xff, 0x0d, 0x0b, 0x00, 0x00, 
0x20, 0xee, 0xff, 0xff, 0x02, 0x0e, 0x00, 0x00, 0xdc, 0x0e, 0x00, 0x00, 
0xcd, 0x0f, 0x00, 0x00, 0x2c, 0xf9, 0xff, 0xff, 0x59, 0xf8, 0xff, 0xff, 
0xec, 0x0f, 0x00, 0x00, 0xe0, 0xf3, 0xff, 0xff, 0x00, 0x19, 0x00, 0x00, 
0x70, 0xf6, 0xff, 0xff, 0x3a, 0xf4, 0xff, 0xff, 0x5c, 0xef, 0xff, 0xff, 
0xfb, 0x0a, 0x00, 0x00, 0xea, 0x0d, 0x00, 0x00, 0xa3, 0x0e, 0x00, 0x00, 
0xef, 0x11, 0x00, 0x00, 0xee, 0xfe, 0xff, 0xff, 0x04, 0x00, 0x00, 0x00, 
0x40, 0x00, 0x00, 0x00, 0x55, 0x32, 0x46, 0x26, 0x11, 0xb6, 0x8e, 0x32, 
0xbc, 0x2a, 0x39, 0x37, 0xaf, 0x48, 0x30, 0xea, 0x50, 0xa8, 0x9c, 0x94, 
0x4d, 0x60, 0x8b, 0x47, 0x89, 0x50, 0x7f, 0x4c, 0xc8, 0xc3, 0xc4, 0x8e, 
0xb9, 0xff, 0x01, 0xfc, 0xc4, 0x05, 0x25, 0xa6, 0x7a, 0xd8, 0xbe, 0xb3, 
0x34, 0xa3, 0x0a, 0x2c, 0x9c, 0xda, 0x46, 0x56, 0xab, 0xe2, 0x6d, 0xcc, 
0x63, 0xd6, 0x81, 0xcd, 0x20, 0x04, 0xfd, 0x39, 0x3a, 0xff, 0xff, 0xff, 
0x04, 0x00, 0x00, 0x00, 0x08, 0x00, 0x00, 0x00, 0xd0, 0xf6, 0xff, 0xff, 
0x54, 0x09, 0x00, 0x00, 0x4e, 0xff, 0xff, 0xff, 0x04, 0x00, 0x00, 0x00, 
0x08, 0x00, 0x00, 0x00, 0x01, 0x00, 0x00, 0x00, 0x02, 0x00, 0x00, 0x00, 
0xe0, 0xea, 0xff, 0xff, 0xe4, 0xea, 0xff, 0xff, 0x0f, 0x00, 0x00, 0x00, 
0x4d, 0x4c, 0x49, 0x52, 0x20, 0x43, 0x6f, 0x6e, 0x76, 0x65, 0x72, 0x74, 
0x65, 0x64, 0x2e, 0x00, 0x01, 0x00, 0x00, 0x00, 0x14, 0x00, 0x00, 0x00, 
0x00, 0x00, 0x0e, 0x00, 0x18, 0x00, 0x14, 0x00, 0x10, 0x00, 0x0c, 0x00, 
0x08, 0x00, 0x04, 0x00, 0x0e, 0x00, 0x00, 0x00, 0x14, 0x00, 0x00, 0x00, 
0x1c, 0x00, 0x00, 0x00, 0xc8, 0x02, 0x00, 0x00, 0xcc, 0x02, 0x00, 0x00, 
0xd0, 0x02, 0x00, 0x00, 0x04, 0x00, 0x00, 0x00, 0x6d, 0x61, 0x69, 0x6e, 
0x00, 0x00, 0x00, 0x00, 0x0a, 0x00, 0x00, 0x00, 0x80, 0x02, 0x00, 0x00, 
0x3c, 0x02, 0x00, 0x00, 0xdc, 0x01, 0x00, 0x00, 0x88, 0x01, 0x00, 0x00, 
0x34, 0x01, 0x00, 0x00, 0xf0, 0x00, 0x00, 0x00, 0xac, 0x00, 0x00, 0x00, 
0x78, 0x00, 0x00, 0x00, 0x40, 0x00, 0x00, 0x00, 0x04, 0x00, 0x00, 0x00, 
0xa2, 0xfe, 0xff, 0xff, 0x1c, 0x00, 0x00, 0x00, 0x00, 0x00, 0x00, 0x09, 
0x1c, 0x00, 0x00, 0x00, 0x20, 0x00, 0x00, 0x00, 0x06, 0x00, 0x00, 0x00, 
0x00, 0x00, 0x06, 0x00, 0x08, 0x00, 0x04, 0x00, 0x06, 0x00, 0x00, 0x00, 
0x00, 0x00, 0x80, 0x3f, 0x01, 0x00, 0x00, 0x00, 0x15, 0x00, 0x00, 0x00, 
0x01, 0x00, 0x00, 0x00, 0x14, 0x00, 0x00, 0x00, 0x2e, 0xfe, 0xff, 0xff, 
0x14, 0x00, 0x00, 0x00, 0x00, 0x00, 0x00, 0x08, 0x10, 0x00, 0x00, 0x00, 
0x14, 0x00, 0x00, 0x00, 0x05, 0x00, 0x00, 0x00, 0xb4, 0xeb, 0xff, 0xff, 
0x01, 0x00, 0x00, 0x00, 0x14, 0x00, 0x00, 0x00, 0x03, 0x00, 0x00, 0x00, 
0x13, 0x00, 0x00, 0x00, 0x03, 0x00, 0x00, 0x00, 0x02, 0x00, 0x00, 0x00, 
0x62, 0xfe, 0xff, 0xff, 0x14, 0x00, 0x00, 0x00, 0x00, 0x00, 0x00, 0x1b, 
0x10, 0x00, 0x00, 0x00, 0x14, 0x00, 0x00, 0x00, 0x04, 0x00, 0x00, 0x00, 
0xe8, 0xeb, 0xff, 0xff, 0x01, 0x00, 0x00, 0x00, 0x13, 0x00, 0x00, 0x00, 
0x02, 0x00, 0x00, 0x00, 0x12, 0x00, 0x00, 0x00, 0x01, 0x00, 0x00, 0x00, 
0x92, 0xfe, 0xff, 0xff, 0x14, 0x00, 0x00, 0x00, 0x00, 0x00, 0x00, 0x01, 
0x1c, 0x00, 0x00, 0x00, 0x20, 0x00, 0x00, 0x00, 0x02, 0x00, 0x00, 0x00, 
0xe0, 0xfe, 0xff, 0xff, 0x00, 0x00, 0x00, 0x01, 0x01, 0x00, 0x00, 0x00, 
0x01, 0x00, 0x00, 0x00, 0x01, 0x00, 0x00, 0x00, 0x12, 0x00, 0x00, 0x00, 
0x03, 0x00, 0x00, 0x00, 0x11, 0x00, 0x00, 0x00, 0x05, 0x00, 0x00, 0x00, 
0x04, 0x00, 0x00, 0x00, 0xd2, 0xfe, 0xff, 0xff, 0x14, 0x00, 0x00, 0x00, 
0x00, 0x00, 0x00, 0x05, 0x24, 0x00, 0x00, 0x00, 0x28, 0x00, 0x00, 0x00, 
0x03, 0x00, 0x00, 0x00, 0x6e, 0xff, 0xff, 0xff, 0x02, 0x00, 0x00, 0x00, 
0x02, 0x00, 0x00, 0x00, 0x02, 0x00, 0x00, 0x00, 0x02, 0x00, 0x00, 0x00, 
0x00, 0x00, 0x00, 0x01, 0x01, 0x00, 0x00, 0x00, 0x11, 0x00, 0x00, 0x00, 
0x01, 0x00, 0x00, 0x00, 0x10, 0x00, 0x00, 0x00, 0x12, 0xff, 0xff, 0xff, 
0x14, 0x00, 0x00, 0x00, 0x00, 0x00, 0x00, 0x01, 0x1c, 0x00, 0x00, 0x00, 
0x20, 0x00, 0x00, 0x00, 0x02, 0x00, 0x00, 0x00, 0x60, 0xff, 0xff, 0xff, 
0x00, 0x00, 0x00, 0x01, 0x02, 0x00, 0x00, 0x00, 0x02, 0x00, 0x00, 0x00, 
0x01, 0x00, 0x00, 0x00, 0x10, 0x00, 0x00, 0x00, 0x03, 0x00, 0x00, 0x00, 
0x0f, 0x00, 0x00, 0x00, 0x07, 0x00, 0x00, 0x00, 0x06, 0x00, 0x00, 0x00, 
0x00, 0x00, 0x0e, 0x00, 0x1a, 0x00, 0x14, 0x00, 0x10, 0x00, 0x0c, 0x00, 
0x0b, 0x00, 0x04, 0x00, 0x0e, 0x00, 0x00, 0x00, 0x24, 0x00, 0x00, 0x00, 
0x00, 0x00, 0x00, 0x05, 0x34, 0x00, 0x00, 0x00, 0x38, 0x00, 0x00, 0x00, 
0x03, 0x00, 0x00, 0x00, 0x00, 0x00, 0x0e, 0x00, 0x18, 0x00, 0x17, 0x00, 
0x10, 0x00, 0x0c, 0x00, 0x08, 0x00, 0x04, 0x00, 0x0e, 0x00, 0x00, 0x00, 
0x02, 0x00, 0x00, 0x00, 0x02, 0x00, 0x00, 0x00, 0x02, 0x00, 0x00, 0x00, 
0x02, 0x00, 0x00, 0x00, 0x00, 0x00, 0x00, 0x01, 0x01, 0x00, 0x00, 0x00, 
0x0f, 0x00, 0x00, 0x00, 0x01, 0x00, 0x00, 0x00, 0x0e, 0x00, 0x00, 0x00, 
0xb2, 0xff, 0xff, 0xff, 0x20, 0x00, 0x00, 0x00, 0x00, 0x00, 0x00, 0x01, 
0x28, 0x00, 0x00, 0x00, 0x2c, 0x00, 0x00, 0x00, 0x02, 0x00, 0x00, 0x00, 
0x0c, 0x00, 0x10, 0x00, 0x00, 0x00, 0x0c, 0x00, 0x08, 0x00, 0x07, 0x00, 
0x0c, 0x00, 0x00, 0x00, 0x00, 0x00, 0x00, 0x01, 0x02, 0x00, 0x00, 0x00, 
0x02, 0x00, 0x00, 0x00, 0x01, 0x00, 0x00, 0x00, 0x0e, 0x00, 0x00, 0x00, 
0x03, 0x00, 0x00, 0x00, 0x0d, 0x00, 0x00, 0x00, 0x09, 0x00, 0x00, 0x00, 
0x08, 0x00, 0x00, 0x00, 0x00, 0x00, 0x0e, 0x00, 0x18, 0x00, 0x14, 0x00, 
0x10, 0x00, 0x0c, 0x00, 0x0b, 0x00, 0x04, 0x00, 0x0e, 0x00, 0x00, 0x00, 
0x14, 0x00, 0x00, 0x00, 0x00, 0x00, 0x00, 0x0b, 0x10, 0x00, 0x00, 0x00, 
0x14, 0x00, 0x00, 0x00, 0x01, 0x00, 0x00, 0x00, 0x94, 0xed, 0xff, 0xff, 
0x01, 0x00, 0x00, 0x00, 0x0d, 0x00, 0x00, 0x00, 0x02, 0x00, 0x00, 0x00, 
0x0c, 0x00, 0x00, 0x00, 0x0a, 0x00, 0x00, 0x00, 0x00, 0x00, 0x0e, 0x00, 
0x14, 0x00, 0x00, 0x00, 0x10, 0x00, 0x0c, 0x00, 0x0b, 0x00, 0x04, 0x00, 
0x0e, 0x00, 0x00, 0x00, 0x10, 0x00, 0x00, 0x00, 0x00, 0x00, 0x00, 0x15, 
0x0c, 0x00, 0x00, 0x00, 0x10, 0x00, 0x00, 0x00, 0xd0, 0xed, 0xff, 0xff, 
0x01, 0x00, 0x00, 0x00, 0x0c, 0x00, 0x00, 0x00, 0x02, 0x00, 0x00, 0x00, 
0x00, 0x00, 0x00, 0x00, 0x0b, 0x00, 0x00, 0x00, 0x01, 0x00, 0x00, 0x00, 
0x15, 0x00, 0x00, 0x00, 0x01, 0x00, 0x00, 0x00, 0x00, 0x00, 0x00, 0x00, 
0x16, 0x00, 0x00, 0x00, 0x74, 0x12, 0x00, 0x00, 0xe4, 0x11, 0x00, 0x00, 
0x50, 0x11, 0x00, 0x00, 0xd4, 0x10, 0x00, 0x00, 0x88, 0x0e, 0x00, 0x00, 
0x94, 0x0c, 0x00, 0x00, 0x08, 0x0b, 0x00, 0x00, 0xd4, 0x09, 0x00, 0x00, 
0xb0, 0x08, 0x00, 0x00, 0xdc, 0x07, 0x00, 0x00, 0x70, 0x07, 0x00, 0x00, 
0x04, 0x07, 0x00, 0x00, 0x70, 0x06, 0x00, 0x00, 0xdc, 0x05, 0x00, 0x00, 
0xe8, 0x04, 0x00, 0x00, 0x4c, 0x04, 0x00, 0x00, 0x50, 0x03, 0x00, 0x00, 
0xb4, 0x02, 0x00, 0x00, 0xb8, 0x01, 0x00, 0x00, 0x24, 0x01, 0x00, 0x00, 
0x80, 0x00, 0x00, 0x00, 0x04, 0x00, 0x00, 0x00, 0xfa, 0xed, 0xff, 0xff, 
0x00, 0x00, 0x00, 0x01, 0x18, 0x00, 0x00, 0x00, 0x20, 0x00, 0x00, 0x00, 
0x3c, 0x00, 0x00, 0x00, 0x16, 0x00, 0x00, 0x00, 0x00, 0x00, 0x00, 0x09, 
0x50, 0x00, 0x00, 0x00, 0x02, 0x00, 0x00, 0x00, 0xff, 0xff, 0xff, 0xff, 
0x02, 0x00, 0x00, 0x00, 0xdc, 0xed, 0xff, 0xff, 0x08, 0x00, 0x00, 0x00, 
0x10, 0x00, 0x00, 0x00, 0x01, 0x00, 0x00, 0x00, 0x80, 0xff, 0xff, 0xff, 
0xff, 0xff, 0xff, 0xff, 0x01, 0x00, 0x00, 0x00, 0x00, 0x00, 0x80, 0x3b, 
0x1b, 0x00, 0x00, 0x00, 0x53, 0x74, 0x61, 0x74, 0x65, 0x66, 0x75, 0x6c, 
0x50, 0x61, 0x72, 0x74, 0x69, 0x74, 0x69, 0x6f, 0x6e, 0x65, 0x64, 0x43, 
0x61, 0x6c, 0x6c, 0x5f, 0x31, 0x3a, 0x30, 0x00, 0x02, 0x00, 0x00, 0x00, 
0x01, 0x00, 0x00, 0x00, 0x02, 0x00, 0x00, 0x00, 0x72, 0xee, 0xff, 0xff, 
0x00, 0x00, 0x00, 0x01, 0x18, 0x00, 0x00, 0x00, 0x20, 0x00, 0x00, 0x00, 
0x40, 0x00, 0x00, 0x00, 0x15, 0x00, 0x00, 0x00, 0x00, 0x00, 0x00, 0x09, 
0x78, 0x00, 0x00, 0x00, 0x02, 0x00, 0x00, 0x00, 0xff, 0xff, 0xff, 0xff, 
0x02, 0x00, 0x00, 0x00, 0x54, 0xee, 0xff, 0xff, 0x08, 0x00, 0x00, 0x00, 
0x14, 0x00, 0x00, 0x00, 0x01, 0x00, 0x00, 0x00, 0x10, 0x00, 0x00, 0x00, 
0x00, 0x00, 0x00, 0x00, 0x00, 0x00, 0x00, 0x00, 0x01, 0x00, 0x00, 0x00, 
0x4c, 0x9d, 0x43, 0x3d, 0x3c, 0x00, 0x00, 0x00, 0x73, 0x65, 0x71, 0x75, 
0x65, 0x6e, 0x74, 0x69, 0x61, 0x6c, 0x5f, 0x31, 0x5f, 0x31, 0x2f, 0x64, 
0x65, 0x6e, 0x73, 0x65, 0x5f, 0x31, 0x2f, 0x4d, 0x61, 0x74, 0x4d, 0x75, 
0x6c, 0x3b, 0x73, 0x65, 0x71, 0x75, 0x65, 0x6e, 0x74, 0x69, 0x61, 0x6c, 
0x5f, 0x31, 0x5f, 0x31, 0x2f, 0x64, 0x65, 0x6e, 0x73, 0x65, 0x5f, 0x31, 
0x2f, 0x42, 0x69, 0x61, 0x73, 0x41, 0x64, 0x64, 0x00, 0x00, 0x00, 0x00, 
0x02, 0x00, 0x00, 0x00, 0x01, 0x00, 0x00, 0x00, 0x02, 0x00, 0x00, 0x00, 
0x12, 0xef, 0xff, 0xff, 0x00, 0x00, 0x00, 0x01, 0x18, 0x00, 0x00, 0x00, 
0x20, 0x00, 0x00, 0x00, 0x40, 0x00, 0x00, 0x00, 0x14, 0x00, 0x00, 0x00, 
0x00, 0x00, 0x00, 0x09, 0x68, 0x00, 0x00, 0x00, 0x02, 0x00, 0x00, 0x00, 
0xff, 0xff, 0xff, 0xff, 0x20, 0x00, 0x00, 0x00, 0xf4, 0xee, 0xff, 0xff, 
0x08, 0x00, 0x00, 0x00, 0x14, 0x00, 0x00, 0x00, 0x01, 0x00, 0x00, 0x00, 
0x80, 0xff, 0xff, 0xff, 0xff, 0xff, 0xff, 0xff, 0x00, 0x00, 0x00, 0x00, 
0x01, 0x00, 0x00, 0x00, 0xc0, 0x65, 0x44, 0x3c, 0x2e, 0x00, 0x00, 0x00, 
0x73, 0x65, 0x71, 0x75, 0x65, 0x6e, 0x74, 0x69, 0x61, 0x6c, 0x5f, 0x31, 
0x5f, 0x31, 0x2f, 0x67, 0x6c, 0x6f, 0x62, 0x61, 0x6c, 0x5f, 0x61, 0x76, 
0x65, 0x72, 0x61, 0x67, 0x65, 0x5f, 0x70, 0x6f, 0x6f, 0x6c, 0x69, 0x6e, 
0x67, 0x32, 0x64, 0x5f, 0x31, 0x2f, 0x4d, 0x65, 0x61, 0x6e, 0x00, 0x00, 
0x02, 0x00, 0x00, 0x00, 0x01, 0x00, 0x00, 0x00, 0x20, 0x00, 0x00, 0x00, 
0xa2, 0xef, 0xff, 0xff, 0x00, 0x00, 0x00, 0x01, 0x18, 0x00, 0x00, 0x00, 
0x28, 0x00, 0x00, 0x00, 0x44, 0x00, 0x00, 0x00, 0x13, 0x00, 0x00, 0x00, 
0x00, 0x00, 0x00, 0x09, 0xc8, 0x00, 0x00, 0x00, 0x04, 0x00, 0x00, 0x00, 
0xff, 0xff, 0xff, 0xff, 0x03, 0x00, 0x00, 0x00, 0x03, 0x00, 0x00, 0x00, 
0x20, 0x00, 0x00, 0x00, 0x8c, 0xef, 0xff, 0xff, 0x08, 0x00, 0x00, 0x00, 
0x10, 0x00, 0x00, 0x00, 0x01, 0x00, 0x00, 0x00, 0x80, 0xff, 0xff, 0xff, 
0xff, 0xff, 0xff, 0xff, 0x01, 0x00, 0x00, 0x00, 0x7a, 0x8f, 0x93, 0x3c, 
0x89, 0x00, 0x00, 0x00, 0x73, 0x65, 0x71, 0x75, 0x65, 0x6e, 0x74, 0x69, 
0x61, 0x6c, 0x5f, 0x31, 0x5f, 0x31, 0x2f, 0x63, 0x6f, 0x6e, 0x76, 0x32, 
0x64, 0x5f, 0x32, 0x5f, 0x31, 0x2f, 0x52, 0x65, 0x6c, 0x75, 0x3b, 0x73, 
0x65, 0x71, 0x75, 0x65, 0x6e, 0x74, 0x69, 0x61, 0x6c, 0x5f, 0x31, 0x5f, 
0x31, 0x2f, 0x63, 0x6f, 0x6e, 0x76, 0x32, 0x64, 0x5f, 0x32, 0x5f, 0x31, 
0x2f, 0x42, 0x69, 0x61, 0x73, 0x41, 0x64, 0x64, 0x3b, 0x73, 0x65, 0x71, 
0x75, 0x65, 0x6e, 0x74, 0x69, 0x61, 0x6c, 0x5f, 0x31, 0x5f, 0x31, 0x2f, 
0x63, 0x6f, 0x6e, 0x76, 0x32, 0x64, 0x5f, 0x32, 0x5f, 0x31, 0x2f, 0x63, 
0x6f, 0x6e, 0x76, 0x6f, 0x6c, 0x75, 0x74, 0x69, 0x6f, 0x6e, 0x3b, 0x73, 
0x65, 0x71, 0x75, 0x65, 0x6e, 0x74, 0x69, 0x61, 0x6c, 0x5f, 0x31, 0x5f, 
0x31, 0x2f, 0x63, 0x6f, 0x6e, 0x76, 0x32, 0x64, 0x5f, 0x32, 0x5f, 0x31, 
0x2f, 0x53, 0x71, 0x75, 0x65, 0x65, 0x7a, 0x65, 0x31, 0x00, 0x00, 0x00, 
0x04, 0x00, 0x00, 0x00, 0x01, 0x00, 0x00, 0x00, 0x03, 0x00, 0x00, 0x00, 
0x03, 0x00, 0x00, 0x00, 0x20, 0x00, 0x00, 0x00, 0x9a, 0xf0, 0xff, 0xff, 
0x00, 0x00, 0x00, 0x01, 0x18, 0x00, 0x00, 0x00, 0x28, 0x00, 0x00, 0x00, 
0x44, 0x00, 0x00, 0x00, 0x12, 0x00, 0x00, 0x00, 0x00, 0x00, 0x00, 0x09, 
0x68, 0x00, 0x00, 0x00, 0x04, 0x00, 0x00, 0x00, 0xff, 0xff, 0xff, 0xff, 
0x03, 0x00, 0x00, 0x00, 0x03, 0x00, 0x00, 0x00, 0x10, 0x00, 0x00, 0x00, 
0x84, 0xf0, 0xff, 0xff, 0x08, 0x00, 0x00, 0x00, 0x10, 0x00, 0x00, 0x00, 
0x01, 0x00, 0x00, 0x00, 0x80, 0xff, 0xff, 0xff, 0xff, 0xff, 0xff, 0xff, 
0x01, 0x00, 0x00, 0x00, 0x8b, 0x0b, 0x6e, 0x3c, 0x2a, 0x00, 0x00, 0x00, 
0x73, 0x65, 0x71, 0x75, 0x65, 0x6e, 0x74, 0x69, 0x61, 0x6c, 0x5f, 0x31, 
0x5f, 0x31, 0x2f, 0x6d, 0x61, 0x78, 0x5f, 0x70, 0x6f, 0x6f, 0x6c, 0x69, 
0x6e, 0x67, 0x32, 0x64, 0x5f, 0x31, 0x5f, 0x32, 0x2f, 0x4d, 0x61, 0x78, 
0x50, 0x6f, 0x6f, 0x6c, 0x32, 0x64, 0x00, 0x00, 0x04, 0x00, 0x00, 0x00, 
0x01, 0x00, 0x00, 0x00, 0x03, 0x00, 0x00, 0x00, 0x03, 0x00, 0x00, 0x00, 
0x10, 0x00, 0x00, 0x00, 0x32, 0xf1, 0xff, 0xff, 0x00, 0x00, 0x00, 0x01, 
0x18, 0x00, 0x00, 0x00, 0x28, 0x00, 0x00, 0x00, 0x44, 0x00, 0x00, 0x00, 
0x11, 0x00, 0x00, 0x00, 0x00, 0x00, 0x00, 0x09, 0xc8, 0x00, 0x00, 0x00, 
0x04, 0x00, 0x00, 0x00, 0xff, 0xff, 0xff, 0xff, 0x06, 0x00, 0x00, 0x00, 
0x06, 0x00, 0x00, 0x00, 0x10, 0x00, 0x00, 0x00, 0x1c, 0xf1, 0xff, 0xff, 
0x08, 0x00, 0x00, 0x00, 0x10, 0x00, 0x00, 0x00, 0x01, 0x00, 0x00, 0x00, 
0x80, 0xff, 0xff, 0xff, 0xff, 0xff, 0xff, 0xff, 0x01, 0x00, 0x00, 0x00, 
0x8b, 0x0b, 0x6e, 0x3c, 0x89, 0x00, 0x00, 0x00, 0x73, 0x65, 0x71, 0x75, 
0x65, 0x6e, 0x74, 0x69, 0x61, 0x6c, 0x5f, 0x31, 0x5f, 0x31, 0x2f, 0x63, 
0x6f, 0x6e, 0x76, 0x32, 0x64, 0x5f, 0x31, 0x5f, 0x32, 0x2f, 0x52, 0x65, 
0x6c, 0x75, 0x3b, 0x73, 0x65, 0x71, 0x75, 0x65, 0x6e, 0x74, 0x69, 0x61, 
0x6c, 0x5f, 0x31, 0x5f, 0x31, 0x2f, 0x63, 0x6f, 0x6e, 0x76, 0x32, 0x64, 
0x5f, 0x31, 0x5f, 0x32, 0x2f, 0x42, 0x69, 0x61, 0x73, 0x41, 0x64, 0x64, 
0x3b, 0x73, 0x65, 0x71, 0x75, 0x65, 0x6e, 0x74, 0x69, 0x61, 0x6c, 0x5f, 
0x31, 0x5f, 0x31, 0x2f, 0x63, 0x6f, 0x6e, 0x76, 0x32, 0x64, 0x5f, 0x31, 
0x5f, 0x32, 0x2f, 0x63, 0x6f, 0x6e, 0x76, 0x6f, 0x6c, 0x75, 0x74, 0x69, 
0x6f, 0x6e, 0x3b, 0x73, 0x65, 0x71, 0x75, 0x65, 0x6e, 0x74, 0x69, 0x61, 
0x6c, 0x5f, 0x31, 0x5f, 0x31, 0x2f, 0x63, 0x6f, 0x6e, 0x76, 0x32, 0x64, 
0x5f, 0x31, 0x5f, 0x32, 0x2f, 0x53, 0x71, 0x75, 0x65, 0x65, 0x7a, 0x65, 
0x31, 0x00, 0x00, 0x00, 0x04, 0x00, 0x00, 0x00, 0x01, 0x00, 0x00, 0x00, 
0x06, 0x00, 0x00, 0x00, 0x06, 0x00, 0x00, 0x00, 0x10, 0x00, 0x00, 0x00, 
0x2a, 0xf2, 0xff, 0xff, 0x00, 0x00, 0x00, 0x01, 0x18, 0x00, 0x00, 0x00, 
0x28, 0x00, 0x00, 0x00, 0x44, 0x00, 0x00, 0x00, 0x10, 0x00, 0x00, 0x00, 
0x00, 0x00, 0x00, 0x09, 0x68, 0x00, 0x00, 0x00, 0x04, 0x00, 0x00, 0x00, 
0xff, 0xff, 0xff, 0xff, 0x0c, 0x00, 0x00, 0x00, 0x0c, 0x00, 0x00, 0x00, 
0x08, 0x00, 0x00, 0x00, 0x14, 0xf2, 0xff, 0xff, 0x08, 0x00, 0x00, 0x00, 
0x10, 0x00, 0x00, 0x00, 0x01, 0x00, 0x00, 0x00, 0x80, 0xff, 0xff, 0xff, 
0xff, 0xff, 0xff, 0xff, 0x01, 0x00, 0x00, 0x00, 0x92, 0x77, 0x2f, 0x3c, 
0x28, 0x00, 0x00, 0x00, 0x73, 0x65, 0x71, 0x75, 0x65, 0x6e, 0x74, 0x69, 
0x61, 0x6c, 0x5f, 0x31, 0x5f, 0x31, 0x2f, 0x6d, 0x61, 0x78, 0x5f, 0x70, 
0x6f, 0x6f, 0x6c, 0x69, 0x6e, 0x67, 0x32, 0x64, 0x5f, 0x31, 0x2f, 0x4d, 
0x61, 0x78, 0x50, 0x6f, 0x6f, 0x6c, 0x32, 0x64, 0x00, 0x00, 0x00, 0x00, 
0x04, 0x00, 0x00, 0x00, 0x01, 0x00, 0x00, 0x00, 0x0c, 0x00, 0x00, 0x00, 
0x0c, 0x00, 0x00, 0x00, 0x08, 0x00, 0x00, 0x00, 0xc2, 0xf2, 0xff, 0xff, 
0x00, 0x00, 0x00, 0x01, 0x18, 0x00, 0x00, 0x00, 0x28, 0x00, 0x00, 0x00, 
0x44, 0x00, 0x00, 0x00, 0x0f, 0x00, 0x00, 0x00, 0x00, 0x00, 0x00, 0x09, 
0xc0, 0x00, 0x00, 0x00, 0x04, 0x00, 0x00, 0x00, 0xff, 0xff, 0xff, 0xff, 
0x18, 0x00, 0x00, 0x00, 0x18, 0x00, 0x00, 0x00, 0x08, 0x00, 0x00, 0x00, 
0xac, 0xf2, 0xff, 0xff, 0x08, 0x00, 0x00, 0x00, 0x10, 0x00, 0x00, 0x00, 
0x01, 0x00, 0x00, 0x00, 0x80, 0xff, 0xff, 0xff, 0xff, 0xff, 0xff, 0xff, 
0x01, 0x00, 0x00, 0x00, 0x92, 0x77, 0x2f, 0x3c, 0x81, 0x00, 0x00, 0x00, 
0x73, 0x65, 0x71, 0x75, 0x65, 0x6e, 0x74, 0x69, 0x61, 0x6c, 0x5f, 0x31, 
0x5f, 0x31, 0x2f, 0x63, 0x6f, 0x6e, 0x76, 0x32, 0x64, 0x5f, 0x31, 0x2f, 
0x52, 0x65, 0x6c, 0x75, 0x3b, 0x73, 0x65, 0x71, 0x75, 0x65, 0x6e, 0x74, 
0x69, 0x61, 0x6c, 0x5f, 0x31, 0x5f, 0x31, 0x2f, 0x63, 0x6f, 0x6e, 0x76, 
0x32, 0x64, 0x5f, 0x31, 0x2f, 0x42, 0x69, 0x61, 0x73, 0x41, 0x64, 0x64, 
0x3b, 0x73, 0x65, 0x71, 0x75, 0x65, 0x6e, 0x74, 0x69, 0x61, 0x6c, 0x5f, 
0x31, 0x5f, 0x31, 0x2f, 0x63, 0x6f, 0x6e, 0x76, 0x32, 0x64, 0x5f, 0x31, 
0x2f, 0x63, 0x6f, 0x6e, 0x76, 0x6f, 0x6c, 0x75, 0x74, 0x69, 0x6f, 0x6e, 
0x3b, 0x73, 0x65, 0x71, 0x75, 0x65, 0x6e, 0x74, 0x69, 0x61, 0x6c, 0x5f, 
0x31, 0x5f, 0x31, 0x2f, 0x63, 0x6f, 0x6e, 0x76, 0x32, 0x64, 0x5f, 0x31, 
0x2f, 0x53, 0x71, 0x75, 0x65, 0x65, 0x7a, 0x65, 0x31, 0x00, 0x00, 0x00, 
0x04, 0x00, 0x00, 0x00, 0x01, 0x00, 0x00, 0x00, 0x18, 0x00, 0x00, 0x00, 
0x18, 0x00, 0x00, 0x00, 0x08, 0x00, 0x00, 0x00, 0xb2, 0xf3, 0xff, 0xff, 
0x00, 0x00, 0x00, 0x01, 0x18, 0x00, 0x00, 0x00, 0x28, 0x00, 0x00, 0x00, 
0x48, 0x00, 0x00, 0x00, 0x0e, 0x00, 0x00, 0x00, 0x00, 0x00, 0x00, 0x09, 
0x60, 0x00, 0x00, 0x00, 0x04, 0x00, 0x00, 0x00, 0xff, 0xff, 0xff, 0xff, 
0x30, 0x00, 0x00, 0x00, 0x30, 0x00, 0x00, 0x00, 0x01, 0x00, 0x00, 0x00, 
0x9c, 0xf3, 0xff, 0xff, 0x08, 0x00, 0x00, 0x00, 0x14, 0x00, 0x00, 0x00, 
0x01, 0x00, 0x00, 0x00, 0xff, 0xff, 0xff, 0xff, 0xff, 0xff, 0xff, 0xff, 
0x00, 0x00, 0x00, 0x00, 0x01, 0x00, 0x00, 0x00, 0x81, 0x80, 0x00, 0x3c, 
0x1e, 0x00, 0x00, 0x00, 0x73, 0x65, 0x71, 0x75, 0x65, 0x6e, 0x74, 0x69, 
0x61, 0x6c, 0x5f, 0x31, 0x5f, 0x31, 0x2f, 0x72, 0x65, 0x73, 0x63, 0x61, 
0x6c, 0x69, 0x6e, 0x67, 0x5f, 0x31, 0x2f, 0x61, 0x64, 0x64, 0x00, 0x00, 
0x04, 0x00, 0x00, 0x00, 0x01, 0x00, 0x00, 0x00, 0x30, 0x00, 0x00, 0x00, 
0x30, 0x00, 0x00, 0x00, 0x01, 0x00, 0x00, 0x00, 0x42, 0xf4, 0xff, 0xff, 
0x00, 0x00, 0x00, 0x01, 0x18, 0x00, 0x00, 0x00, 0x28, 0x00, 0x00, 0x00, 
0x48, 0x00, 0x00, 0x00, 0x0d, 0x00, 0x00, 0x00, 0x00, 0x00, 0x00, 0x09, 
0x60, 0x00, 0x00, 0x00, 0x04, 0x00, 0x00, 0x00, 0xff, 0xff, 0xff, 0xff, 
0x30, 0x00, 0x00, 0x00, 0x30, 0x00, 0x00, 0x00, 0x01, 0x00, 0x00, 0x00, 
0x2c, 0xf4, 0xff, 0xff, 0x08, 0x00, 0x00, 0x00, 0x14, 0x00, 0x00, 0x00, 
0x01, 0x00, 0x00, 0x00, 0xd5, 0xff, 0xff, 0xff, 0xff, 0xff, 0xff, 0xff, 
0x00, 0x00, 0x00, 0x00, 0x01, 0x00, 0x00, 0x00, 0xc1, 0xc0, 0x40, 0x3c, 
0x1e, 0x00, 0x00, 0x00, 0x73, 0x65, 0x71, 0x75, 0x65, 0x6e, 0x74, 0x69, 
0x61, 0x6c, 0x5f, 0x31, 0x5f, 0x31, 0x2f, 0x72, 0x65, 0x73, 0x63, 0x61, 
0x6c, 0x69, 0x6e, 0x67, 0x5f, 0x31, 0x2f, 0x6d, 0x75, 0x6c, 0x00, 0x00, 
0x04, 0x00, 0x00, 0x00, 0x01, 0x00, 0x00, 0x00, 0x30, 0x00, 0x00, 0x00, 
0x30, 0x00, 0x00, 0x00, 0x01, 0x00, 0x00, 0x00, 0x5e, 0xf5, 0xff, 0xff, 
0x00, 0x00, 0x00, 0x01, 0x14, 0x00, 0x00, 0x00, 0x30, 0x00, 0x00, 0x00, 
0x0c, 0x00, 0x00, 0x00, 0x00, 0x00, 0x00, 0x09, 0x4c, 0x00, 0x00, 0x00, 
0xa4, 0xf4, 0xff, 0xff, 0x08, 0x00, 0x00, 0x00, 0x10, 0x00, 0x00, 0x00, 
0x01, 0x00, 0x00, 0x00, 0x80, 0xff, 0xff, 0xff, 0xff, 0xff, 0xff, 0xff, 
0x01, 0x00, 0x00, 0x00, 0x83, 0x01, 0x01, 0x38, 0x21, 0x00, 0x00, 0x00, 
0x73, 0x65, 0x71, 0x75, 0x65, 0x6e, 0x74, 0x69, 0x61, 0x6c, 0x5f, 0x31, 
0x5f, 0x31, 0x2f, 0x72, 0x65, 0x73, 0x63, 0x61, 0x6c, 0x69, 0x6e, 0x67, 
0x5f, 0x31, 0x2f, 0x43, 0x61, 0x73, 0x74, 0x2f, 0x78, 0x00, 0x00, 0x00, 
0x00, 0x00, 0x00, 0x00, 0xc6, 0xf5, 0xff, 0xff, 0x00, 0x00, 0x00, 0x01, 
0x14, 0x00, 0x00, 0x00, 0x30, 0x00, 0x00, 0x00, 0x0b, 0x00, 0x00, 0x00, 
0x00, 0x00, 0x00, 0x09, 0x4c, 0x00, 0x00, 0x00, 0x0c, 0xf5, 0xff, 0xff, 
0x08, 0x00, 0x00, 0x00, 0x10, 0x00, 0x00, 0x00, 0x01, 0x00, 0x00, 0x00, 
0x7f, 0x00, 0x00, 0x00, 0x00, 0x00, 0x00, 0x00, 0x01, 0x00, 0x00, 0x00, 
0x81, 0x80, 0x80, 0x3b, 0x21, 0x00, 0x00, 0x00, 0x73, 0x65, 0x71, 0x75, 
0x65, 0x6e, 0x74, 0x69, 0x61, 0x6c, 0x5f, 0x31, 0x5f, 0x31, 0x2f, 0x72, 
0x65, 0x73, 0x63, 0x61, 0x6c, 0x69, 0x6e, 0x67, 0x5f, 0x31, 0x2f, 0x43, 
0x61, 0x73, 0x74, 0x5f, 0x31, 0x00, 0x00, 0x00, 0x00, 0x00, 0x00, 0x00, 
0x2e, 0xf6, 0xff, 0xff, 0x00, 0x00, 0x00, 0x01, 0x14, 0x00, 0x00, 0x00, 
0x88, 0x00, 0x00, 0x00, 0x0a, 0x00, 0x00, 0x00, 0x00, 0x00, 0x00, 0x09, 
0xa4, 0x00, 0x00, 0x00, 0x74, 0xf5, 0xff, 0xff, 0x08, 0x00, 0x00, 0x00, 
0x4c, 0x00, 0x00, 0x00, 0x08, 0x00, 0x00, 0x00, 0x00, 0x00, 0x00, 0x00, 
0x00, 0x00, 0x00, 0x00, 0x00, 0x00, 0x00, 0x00, 0x00, 0x00, 0x00, 0x00, 
0x00, 0x00, 0x00, 0x00, 0x00, 0x00, 0x00, 0x00, 0x00, 0x00, 0x00, 0x00, 
0x00, 0x00, 0x00, 0x00, 0x00, 0x00, 0x00, 0x00, 0x00, 0x00, 0x00, 0x00, 
0x00, 0x00, 0x00, 0x00, 0x00, 0x00, 0x00, 0x00, 0x00, 0x00, 0x00, 0x00, 
0x00, 0x00, 0x00, 0x00, 0x00, 0x00, 0x00, 0x00, 0x00, 0x00, 0x00, 0x00, 
0x00, 0x00, 0x00, 0x00, 0x08, 0x00, 0x00, 0x00, 0x8f, 0x52, 0x1e, 0x3b, 
0x0c, 0xa9, 0x1b, 0x3b, 0x75, 0x93, 0x3f, 0x3b, 0x9c, 0xad, 0x43, 0x3b, 
0x04, 0xe5, 0x3c, 0x3b, 0x8e, 0x9f, 0x58, 0x3b, 0x3e, 0x46, 0x21, 0x3b, 
0x44, 0xe0, 0x33, 0x3b, 0x23, 0x00, 0x00, 0x00, 0x73, 0x65, 0x71, 0x75, 
0x65, 0x6e, 0x74, 0x69, 0x61, 0x6c, 0x5f, 0x31, 0x5f, 0x31, 0x2f, 0x63, 
0x6f, 0x6e, 0x76, 0x32, 0x64, 0x5f, 0x31, 0x2f, 0x63, 0x6f, 0x6e, 0x76, 
0x6f, 0x6c, 0x75, 0x74, 0x69, 0x6f, 0x6e, 0x00, 0x04, 0x00, 0x00, 0x00, 
0x08, 0x00, 0x00, 0x00, 0x03, 0x00, 0x00, 0x00, 0x03, 0x00, 0x00, 0x00, 
0x01, 0x00, 0x00, 0x00, 0xfe, 0xf6, 0xff, 0xff, 0x00, 0x00, 0x00, 0x01, 
0x14, 0x00, 0x00, 0x00, 0x84, 0x00, 0x00, 0x00, 0x09, 0x00, 0x00, 0x00, 
0x00, 0x00, 0x00, 0x02, 0x00, 0x01, 0x00, 0x00, 0x44, 0xf6, 0xff, 0xff, 
0x08, 0x00, 0x00, 0x00, 0x48, 0x00, 0x00, 0x00, 0x08, 0x00, 0x00, 0x00, 
0x00, 0x00, 0x00, 0x00, 0x00, 0x00, 0x00, 0x00, 0x00, 0x00, 0x00, 0x00, 
0x00, 0x00, 0x00, 0x00, 0x00, 0x00, 0x00, 0x00, 0x00, 0x00, 0x00, 0x00, 
0x00, 0x00, 0x00, 0x00, 0x00, 0x00, 0x00, 0x00, 0x00, 0x00, 0x00, 0x00, 
0x00, 0x00, 0x00, 0x00, 0x00, 0x00, 0x00, 0x00, 0x00, 0x00, 0x00, 0x00, 
0x00, 0x00, 0x00, 0x00, 0x00, 0x00, 0x00, 0x00, 0x00, 0x00, 0x00, 0x00, 
0x00, 0x00, 0x00, 0x00, 0x08, 0x00, 0x00, 0x00, 0x81, 0xf1, 0x9e, 0x37, 
0x52, 0x45, 0x9c, 0x37, 0xca, 0x53, 0xc0, 0x37, 0x0f, 0x72, 0xc4, 0x37, 
0xa7, 0xa2, 0xbd, 0x37, 0x08, 0x79, 0xd9, 0x37, 0x27, 0xe8, 0xa1, 0x37, 
0xda, 0x94, 0xb4, 0x37, 0x80, 0x00, 0x00, 0x00, 0x73, 0x65, 0x71, 0x75, 
0x65, 0x6e, 0x74, 0x69, 0x61, 0x6c, 0x5f, 0x31, 0x5f, 0x31, 0x2f, 0x63, 
0x6f, 0x6e, 0x76, 0x32, 0x64, 0x5f, 0x31, 0x2f, 0x52, 0x65, 0x6c, 0x75, 
0x3b, 0x73, 0x65, 0x71, 0x75, 0x65, 0x6e, 0x74, 0x69, 0x61, 0x6c, 0x5f, 
0x31, 0x5f, 0x31, 0x2f, 0x63, 0x6f, 0x6e, 0x76, 0x32, 0x64, 0x5f, 0x31, 
0x2f, 0x42, 0x69, 0x61, 0x73, 0x41, 0x64, 0x64, 0x3b, 0x73, 0x65, 0x71, 
0x75, 0x65, 0x6e, 0x74, 0x69, 0x61, 0x6c, 0x5f, 0x31, 0x5f, 0x31, 0x2f, 
0x63, 0x6f, 0x6e, 0x76, 0x32, 0x64, 0x5f, 0x31, 0x2f, 0x63, 0x6f, 0x6e, 
0x76, 0x6f, 0x6c, 0x75, 0x74, 0x69, 0x6f, 0x6e, 0x3b, 0x73, 0x65, 0x71, 
0x75, 0x65, 0x6e, 0x74, 0x69, 0x61, 0x6c, 0x5f, 0x31, 0x5f, 0x31, 0x2f, 
0x63, 0x6f, 0x6e, 0x76, 0x32, 0x64, 0x5f, 0x31, 0x2f, 0x53, 0x71, 0x75, 
0x65, 0x65, 0x7a, 0x65, 0x00, 0x00, 0x00, 0x00, 0x01, 0x00, 0x00, 0x00, 
0x08, 0x00, 0x00, 0x00, 0x1e, 0xf8, 0xff, 0xff, 0x00, 0x00, 0x00, 0x01, 
0x14, 0x00, 0x00, 0x00, 0xe4, 0x00, 0x00, 0x00, 0x08, 0x00, 0x00, 0x00, 
0x00, 0x00, 0x00, 0x09, 0x04, 0x01, 0x00, 0x00, 0x64, 0xf7, 0xff, 0xff, 
0x08, 0x00, 0x00, 0x00, 0x88, 0x00, 0x00, 0x00, 0x10, 0x00, 0x00, 0x00, 
0x00, 0x00, 0x00, 0x00, 0x00, 0x00, 0x00, 0x00, 0x00, 0x00, 0x00, 0x00, 
0x00, 0x00, 0x00, 0x00, 0x00, 0x00, 0x00, 0x00, 0x00, 0x00, 0x00, 0x00, 
0x00, 0x00, 0x00, 0x00, 0x00, 0x00, 0x00, 0x00, 0x00, 0x00, 0x00, 0x00, 
0x00, 0x00, 0x00, 0x00, 0x00, 0x00, 0x00, 0x00, 0x00, 0x00, 0x00, 0x00, 
0x00, 0x00, 0x00, 0x00, 0x00, 0x00, 0x00, 0x00, 0x00, 0x00, 0x00, 0x00, 
0x00, 0x00, 0x00, 0x00, 0x00, 0x00, 0x00, 0x00, 0x00, 0x00, 0x00, 0x00, 
0x00, 0x00, 0x00, 0x00, 0x00, 0x00, 0x00, 0x00, 0x00, 0x00, 0x00, 0x00, 
0x00, 0x00, 0x00, 0x00, 0x00, 0x00, 0x00, 0x00, 0x00, 0x00, 0x00, 0x00, 
0x00, 0x00, 0x00, 0x00, 0x00, 0x00, 0x00, 0x00, 0x00, 0x00, 0x00, 0x00, 
0x00, 0x00, 0x00, 0x00, 0x00, 0x00, 0x00, 0x00, 0x00, 0x00, 0x00, 0x00, 
0x00, 0x00, 0x00, 0x00, 0x00, 0x00, 0x00, 0x00, 0x10, 0x00, 0x00, 0x00, 
0x56, 0x3d, 0x0a, 0x3b, 0xa3, 0xc4, 0x1c, 0x3b, 0xc3, 0xfd, 0x0b, 0x3b, 
0xf4, 0x44, 0x60, 0x3b, 0x79, 0xad, 0x46, 0x3b, 0x76, 0x91, 0x50, 0x3b, 
0xb6, 0x7e, 0x48, 0x3b, 0xfc, 0xdc, 0x22, 0x3b, 0x9c, 0x28, 0x3f, 0x3b, 
0xaa, 0x4b, 0x50, 0x3b, 0x59, 0xdc, 0x4a, 0x3b, 0x46, 0x7f, 0x18, 0x3b, 
0x0d, 0xc8, 0x0b, 0x3b, 0xa4, 0xd9, 0x41, 0x3b, 0x4c, 0x2f, 0x28, 0x3b, 
0x47, 0x71, 0x64, 0x3b, 0x25, 0x00, 0x00, 0x00, 0x73, 0x65, 0x71, 0x75, 
0x65, 0x6e, 0x74, 0x69, 0x61, 0x6c, 0x5f, 0x31, 0x5f, 0x31, 0x2f, 0x63, 
0x6f, 0x6e, 0x76, 0x32, 0x64, 0x5f, 0x31, 0x5f, 0x32, 0x2f, 0x63, 0x6f, 
0x6e, 0x76, 0x6f, 0x6c, 0x75, 0x74, 0x69, 0x6f, 0x6e, 0x00, 0x00, 0x00, 
0x04, 0x00, 0x00, 0x00, 0x10, 0x00, 0x00, 0x00, 0x03, 0x00, 0x00, 0x00, 
0x03, 0x00, 0x00, 0x00, 0x08, 0x00, 0x00, 0x00, 0x4e, 0xf9, 0xff, 0xff, 
0x00, 0x00, 0x00, 0x01, 0x14, 0x00, 0x00, 0x00, 0xe4, 0x00, 0x00, 0x00, 
0x07, 0x00, 0x00, 0x00, 0x00, 0x00, 0x00, 0x02, 0x68, 0x01, 0x00, 0x00, 
0x94, 0xf8, 0xff, 0xff, 0x08, 0x00, 0x00, 0x00, 0x88, 0x00, 0x00, 0x00, 
0x10, 0x00, 0x00, 0x00, 0x00, 0x00, 0x00, 0x00, 0x00, 0x00, 0x00, 0x00, 
0x00, 0x00, 0x00, 0x00, 0x00, 0x00, 0x00, 0x00, 0x00, 0x00, 0x00, 0x00, 
0x00, 0x00, 0x00, 0x00, 0x00, 0x00, 0x00, 0x00, 0x00, 0x00, 0x00, 0x00, 
0x00, 0x00, 0x00, 0x00, 0x00, 0x00, 0x00, 0x00, 0x00, 0x00, 0x00, 0x00, 
0x00, 0x00, 0x00, 0x00, 0x00, 0x00, 0x00, 0x00, 0x00, 0x00, 0x00, 0x00, 
0x00, 0x00, 0x00, 0x00, 0x00, 0x00, 0x00, 0x00, 0x00, 0x00, 0x00, 0x00, 
0x00, 0x00, 0x00, 0x00, 0x00, 0x00, 0x00, 0x00, 0x00, 0x00, 0x00, 0x00, 
0x00, 0x00, 0x00, 0x00, 0x00, 0x00, 0x00, 0x00, 0x00, 0x00, 0x00, 0x00, 
0x00, 0x00, 0x00, 0x00, 0x00, 0x00, 0x00, 0x00, 0x00, 0x00, 0x00, 0x00, 
0x00, 0x00, 0x00, 0x00, 0x00, 0x00, 0x00, 0x00, 0x00, 0x00, 0x00, 0x00, 
0x00, 0x00, 0x00, 0x00, 0x00, 0x00, 0x00, 0x00, 0x00, 0x00, 0x00, 0x00, 
0x10, 0x00, 0x00, 0x00, 0xfe, 0x80, 0xbd, 0x37, 0x48, 0xe7, 0xd6, 0x37, 
0xb6, 0xe7, 0xbf, 0x37, 0xe3, 0xb7, 0x19, 0x38, 0x62, 0x2d, 0x08, 0x38, 
0xda, 0xf4, 0x0e, 0x38, 0x44, 0x6c, 0x09, 0x38, 0x44, 0x42, 0xdf, 0x37, 
0x0c, 0x06, 0x03, 0x38, 0x03, 0xc5, 0x0e, 0x38, 0x61, 0x0b, 0x0b, 0x38, 
0x76, 0x0c, 0xd1, 0x37, 0x15, 0x9e, 0xbf, 0x37, 0x52, 0xde, 0x04, 0x38, 
0xc6, 0x8d, 0xe6, 0x37, 0x22, 0x94, 0x1c, 0x38, 0x88, 0x00, 0x00, 0x00, 
0x73, 0x65, 0x71, 0x75, 0x65, 0x6e, 0x74, 0x69, 0x61, 0x6c, 0x5f, 0x31, 
0x5f, 0x31, 0x2f, 0x63, 0x6f, 0x6e, 0x76, 0x32, 0x64, 0x5f, 0x31, 0x5f, 
0x32, 0x2f, 0x52, 0x65, 0x6c, 0x75, 0x3b, 0x73, 0x65, 0x71, 0x75, 0x65, 
0x6e, 0x74, 0x69, 0x61, 0x6c, 0x5f, 0x31, 0x5f, 0x31, 0x2f, 0x63, 0x6f, 
0x6e, 0x76, 0x32, 0x64, 0x5f, 0x31, 0x5f, 0x32, 0x2f, 0x42, 0x69, 0x61, 
0x73, 0x41, 0x64, 0x64, 0x3b, 0x73, 0x65, 0x71, 0x75, 0x65, 0x6e, 0x74, 
0x69, 0x61, 0x6c, 0x5f, 0x31, 0x5f, 0x31, 0x2f, 0x63, 0x6f, 0x6e, 0x76, 
0x32, 0x64, 0x5f, 0x31, 0x5f, 0x32, 0x2f, 0x63, 0x6f, 0x6e, 0x76, 0x6f, 
0x6c, 0x75, 0x74, 0x69, 0x6f, 0x6e, 0x3b, 0x73, 0x65, 0x71, 0x75, 0x65, 
0x6e, 0x74, 0x69, 0x61, 0x6c, 0x5f, 0x31, 0x5f, 0x31, 0x2f, 0x63, 0x6f, 
0x6e, 0x76, 0x32, 0x64, 0x5f, 0x31, 0x5f, 0x32, 0x2f, 0x53, 0x71, 0x75, 
0x65, 0x65, 0x7a, 0x65, 0x00, 0x00, 0x00, 0x00, 0x01, 0x00, 0x00, 0x00, 
0x10, 0x00, 0x00, 0x00, 0xd6, 0xfa, 0xff, 0xff, 0x00, 0x00, 0x00, 0x01, 
0x14, 0x00, 0x00, 0x00, 0xa4, 0x01, 0x00, 0x00, 0x06, 0x00, 0x00, 0x00, 
0x00, 0x00, 0x00, 0x09, 0xc4, 0x01, 0x00, 0x00, 0x1c, 0xfa, 0xff, 0xff, 
0x08, 0x00, 0x00, 0x00, 0x08, 0x01, 0x00, 0x00, 0x20, 0x00, 0x00, 0x00, 
0x00, 0x00, 0x00, 0x00, 0x00, 0x00, 0x00, 0x00, 0x00, 0x00, 0x00, 0x00, 
0x00, 0x00, 0x00, 0x00, 0x00, 0x00, 0x00, 0x00, 0x00, 0x00, 0x00, 0x00, 
0x00, 0x00, 0x00, 0x00, 0x00, 0x00, 0x00, 0x00, 0x00, 0x00, 0x00, 0x00, 
0x00, 0x00, 0x00, 0x00, 0x00, 0x00, 0x00, 0x00, 0x00, 0x00, 0x00, 0x00, 
0x00, 0x00, 0x00, 0x00, 0x00, 0x00, 0x00, 0x00, 0x00, 0x00, 0x00, 0x00, 
0x00, 0x00, 0x00, 0x00, 0x00, 0x00, 0x00, 0x00, 0x00, 0x00, 0x00, 0x00, 
0x00, 0x00, 0x00, 0x00, 0x00, 0x00, 0x00, 0x00, 0x00, 0x00, 0x00, 0x00, 
0x00, 0x00, 0x00, 0x00, 0x00, 0x00, 0x00, 0x00, 0x00, 0x00, 0x00, 0x00, 
0x00, 0x00, 0x00, 0x00, 0x00, 0x00, 0x00, 0x00, 0x00, 0x00, 0x00, 0x00, 
0x00, 0x00, 0x00, 0x00, 0x00, 0x00, 0x00, 0x00, 0x00, 0x00, 0x00, 0x00, 
0x00, 0x00, 0x00, 0x00, 0x00, 0x00, 0x00, 0x00, 0x00, 0x00, 0x00, 0x00, 
0x00, 0x00, 0x00, 0x00, 0x00, 0x00, 0x00, 0x00, 0x00, 0x00, 0x00, 0x00, 
0x00, 0x00, 0x00, 0x00, 0x00, 0x00, 0x00, 0x00, 0x00, 0x00, 0x00, 0x00, 
0x00, 0x00, 0x00, 0x00, 0x00, 0x00, 0x00, 0x00, 0x00, 0x00, 0x00, 0x00, 
0x00, 0x00, 0x00, 0x00, 0x00, 0x00, 0x00, 0x00, 0x00, 0x00, 0x00, 0x00, 
0x00, 0x00, 0x00, 0x00, 0x00, 0x00, 0x00, 0x00, 0x00, 0x00, 0x00, 0x00, 
0x00, 0x00, 0x00, 0x00, 0x00, 0x00, 0x00, 0x00, 0x00, 0x00, 0x00, 0x00, 
0x00, 0x00, 0x00, 0x00, 0x00, 0x00, 0x00, 0x00, 0x00, 0x00, 0x00, 0x00, 
0x00, 0x00, 0x00, 0x00, 0x00, 0x00, 0x00, 0x00, 0x00, 0x00, 0x00, 0x00, 
0x00, 0x00, 0x00, 0x00, 0x00, 0x00, 0x00, 0x00, 0x00, 0x00, 0x00, 0x00, 
0x00, 0x00, 0x00, 0x00, 0x00, 0x00, 0x00, 0x00, 0x00, 0x00, 0x00, 0x00, 
0x00, 0x00, 0x00, 0x00, 0x20, 0x00, 0x00, 0x00, 0xea, 0x6e, 0x3e, 0x3b, 
0x71, 0xc4, 0x48, 0x3b, 0x27, 0x33, 0x51, 0x3b, 0x6f, 0x7d, 0x7d, 0x3b, 
0xc2, 0x8a, 0x5e, 0x3b, 0xf8, 0xe0, 0x32, 0x3b, 0x13, 0x1c, 0x95, 0x3b, 
0x01, 0xb4, 0x28, 0x3b, 0x09, 0x08, 0x65, 0x3b, 0xf8, 0xed, 0x5b, 0x3b, 
0x9e, 0x59, 0x21, 0x3b, 0x5e, 0xa5, 0x1f, 0x3b, 0x66, 0xc4, 0x8e, 0x3b, 
0xe2, 0x22, 0x15, 0x3b, 0x8a, 0xba, 0x46, 0x3b, 0x75, 0x66, 0x62, 0x3b, 
0xf1, 0xc9, 0x2f, 0x3b, 0x62, 0xf0, 0x34, 0x3b, 0x54, 0x6d, 0x8b, 0x3b, 
0x33, 0x2e, 0xc0, 0x3b, 0xf1, 0x4b, 0x2b, 0x3b, 0x57, 0xe9, 0x22, 0x3b, 
0xf2, 0x80, 0x83, 0x3b, 0x4f, 0x02, 0x67, 0x3b, 0x4e, 0x0d, 0x4d, 0x3b, 
0x66, 0x37, 0x33, 0x3b, 0x72, 0x50, 0x35, 0x3b, 0xba, 0xdf, 0x23, 0x3b, 
0x94, 0xdb, 0x75, 0x3b, 0x18, 0xec, 0x54, 0x3b, 0x51, 0xbd, 0x66, 0x3b, 
0x64, 0x7e, 0x6e, 0x3b, 0x25, 0x00, 0x00, 0x00, 0x73, 0x65, 0x71, 0x75, 
0x65, 0x6e, 0x74, 0x69, 0x61, 0x6c, 0x5f, 0x31, 0x5f, 0x31, 0x2f, 0x63, 
0x6f, 0x6e, 0x76, 0x32, 0x64, 0x5f, 0x32, 0x5f, 0x31, 0x2f, 0x63, 0x6f, 
0x6e, 0x76, 0x6f, 0x6c, 0x75, 0x74, 0x69, 0x6f, 0x6e, 0x00, 0x00, 0x00, 
0x04, 0x00, 0x00, 0x00, 0x20, 0x00, 0x00, 0x00, 0x03, 0x00, 0x00, 0x00, 
0x03, 0x00, 0x00, 0x00, 0x10, 0x00, 0x00, 0x00, 0xc6, 0xfc, 0xff, 0xff, 
0x00, 0x00, 0x00, 0x01, 0x14, 0x00, 0x00, 0x00, 0xa4, 0x01, 0x00, 0x00, 
0x05, 0x00, 0x00, 0x00, 0x00, 0x00, 0x00, 0x02, 0x28, 0x02, 0x00, 0x00, 
0x0c, 0xfc, 0xff, 0xff, 0x08, 0x00, 0x00, 0x00, 0x08, 0x01, 0x00, 0x00, 
0x20, 0x00, 0x00, 0x00, 0x00, 0x00, 0x00, 0x00, 0x00, 0x00, 0x00, 0x00, 
0x00, 0x00, 0x00, 0x00, 0x00, 0x00, 0x00, 0x00, 0x00, 0x00, 0x00, 0x00, 
0x00, 0x00, 0x00, 0x00, 0x00, 0x00, 0x00, 0x00, 0x00, 0x00, 0x00, 0x00, 
0x00, 0x00, 0x00, 0x00, 0x00, 0x00, 0x00, 0x00, 0x00, 0x00, 0x00, 0x00, 
0x00, 0x00, 0x00, 0x00, 0x00, 0x00, 0x00, 0x00, 0x00, 0x00, 0x00, 0x00, 
0x00, 0x00, 0x00, 0x00, 0x00, 0x00, 0x00, 0x00, 0x00, 0x00, 0x00, 0x00, 
0x00, 0x00, 0x00, 0x00, 0x00, 0x00, 0x00, 0x00, 0x00, 0x00, 0x00, 0x00, 
0x00, 0x00, 0x00, 0x00, 0x00, 0x00, 0x00, 0x00, 0x00, 0x00, 0x00, 0x00, 
0x00, 0x00, 0x00, 0x00, 0x00, 0x00, 0x00, 0x00, 0x00, 0x00, 0x00, 0x00, 
0x00, 0x00, 0x00, 0x00, 0x00, 0x00, 0x00, 0x00, 0x00, 0x00, 0x00, 0x00, 
0x00, 0x00, 0x00, 0x00, 0x00, 0x00, 0x00, 0x00, 0x00, 0x00, 0x00, 0x00, 
0x00, 0x00, 0x00, 0x00, 0x00, 0x00, 0x00, 0x00, 0x00, 0x00, 0x00, 0x00, 
0x00, 0x00, 0x00, 0x00, 0x00, 0x00, 0x00, 0x00, 0x00, 0x00, 0x00, 0x00, 
0x00, 0x00, 0x00, 0x00, 0x00, 0x00, 0x00, 0x00, 0x00, 0x00, 0x00, 0x00, 
0x00, 0x00, 0x00, 0x00, 0x00, 0x00, 0x00, 0x00, 0x00, 0x00, 0x00, 0x00, 
0x00, 0x00, 0x00, 0x00, 0x00, 0x00, 0x00, 0x00, 0x00, 0x00, 0x00, 0x00, 
0x00, 0x00, 0x00, 0x00, 0x00, 0x00, 0x00, 0x00, 0x00, 0x00, 0x00, 0x00, 
0x00, 0x00, 0x00, 0x00, 0x00, 0x00, 0x00, 0x00, 0x00, 0x00, 0x00, 0x00, 
0x00, 0x00, 0x00, 0x00, 0x00, 0x00, 0x00, 0x00, 0x00, 0x00, 0x00, 0x00, 
0x00, 0x00, 0x00, 0x00, 0x00, 0x00, 0x00, 0x00, 0x00, 0x00, 0x00, 0x00, 
0x00, 0x00, 0x00, 0x00, 0x00, 0x00, 0x00, 0x00, 0x00, 0x00, 0x00, 0x00, 
0x00, 0x00, 0x00, 0x00, 0x00, 0x00, 0x00, 0x00, 0x20, 0x00, 0x00, 0x00, 
0xb4, 0x13, 0x31, 0x38, 0xaf, 0xaf, 0x3a, 0x38, 0xfd, 0x86, 0x42, 0x38, 
0x0b, 0xb6, 0x6b, 0x38, 0x09, 0xef, 0x4e, 0x38, 0x37, 0x55, 0x26, 0x38, 
0xd3, 0xa6, 0x8a, 0x38, 0xf4, 0xde, 0x1c, 0x38, 0xcc, 0xf7, 0x54, 0x38, 
0x27, 0x81, 0x4c, 0x38, 0x97, 0x08, 0x16, 0x38, 0xf0, 0x72, 0x14, 0x38, 
0x07, 0xc1, 0x84, 0x38, 0x28, 0xad, 0x0a, 0x38, 0x62, 0xca, 0x38, 0x38, 
0x76, 0x85, 0x52, 0x38, 0xab, 0x75, 0x23, 0x38, 0xa4, 0x3f, 0x28, 0x38, 
0xed, 0xa5, 0x81, 0x38, 0x9e, 0xb3, 0xb2, 0x38, 0x53, 0x48, 0x1f, 0x38, 
0x47, 0x7c, 0x17, 0x38, 0x9e, 0x8f, 0x74, 0x38, 0x90, 0xce, 0x56, 0x38, 
0x9d, 0xab, 0x3e, 0x38, 0x96, 0xa5, 0x26, 0x38, 0xf7, 0x98, 0x28, 0x38, 
0x63, 0x61, 0x18, 0x38, 0x3a, 0x9d, 0x64, 0x38, 0x18, 0xfd, 0x45, 0x38, 
0x69, 0x8e, 0x56, 0x38, 0x42, 0xc4, 0x5d, 0x38, 0x88, 0x00, 0x00, 0x00, 
0x73, 0x65, 0x71, 0x75, 0x65, 0x6e, 0x74, 0x69, 0x61, 0x6c, 0x5f, 0x31, 
0x5f, 0x31, 0x2f, 0x63, 0x6f, 0x6e, 0x76, 0x32, 0x64, 0x5f, 0x32, 0x5f, 
0x31, 0x2f, 0x52, 0x65, 0x6c, 0x75, 0x3b, 0x73, 0x65, 0x71, 0x75, 0x65, 
0x6e, 0x74, 0x69, 0x61, 0x6c, 0x5f, 0x31, 0x5f, 0x31, 0x2f, 0x63, 0x6f, 
0x6e, 0x76, 0x32, 0x64, 0x5f, 0x32, 0x5f, 0x31, 0x2f, 0x42, 0x69, 0x61, 
0x73, 0x41, 0x64, 0x64, 0x3b, 0x73, 0x65, 0x71, 0x75, 0x65, 0x6e, 0x74, 
0x69, 0x61, 0x6c, 0x5f, 0x31, 0x5f, 0x31, 0x2f, 0x63, 0x6f, 0x6e, 0x76, 
0x32, 0x64, 0x5f, 0x32, 0x5f, 0x31, 0x2f, 0x63, 0x6f, 0x6e, 0x76, 0x6f, 
0x6c, 0x75, 0x74, 0x69, 0x6f, 0x6e, 0x3b, 0x73, 0x65, 0x71, 0x75, 0x65, 
0x6e, 0x74, 0x69, 0x61, 0x6c, 0x5f, 0x31, 0x5f, 0x31, 0x2f, 0x63, 0x6f, 
0x6e, 0x76, 0x32, 0x64, 0x5f, 0x32, 0x5f, 0x31, 0x2f, 0x53, 0x71, 0x75, 
0x65, 0x65, 0x7a, 0x65, 0x00, 0x00, 0x00, 0x00, 0x01, 0x00, 0x00, 0x00, 
0x20, 0x00, 0x00, 0x00, 0x0e, 0xff, 0xff, 0xff, 0x00, 0x00, 0x00, 0x01, 
0x14, 0x00, 0x00, 0x00, 0x3c, 0x00, 0x00, 0x00, 0x04, 0x00, 0x00, 0x00, 
0x00, 0x00, 0x00, 0x09, 0x54, 0x00, 0x00, 0x00, 0x54, 0xfe, 0xff, 0xff, 
0x08, 0x00, 0x00, 0x00, 0x18, 0x00, 0x00, 0x00, 0x02, 0x00, 0x00, 0x00, 
0x00, 0x00, 0x00, 0x00, 0x00, 0x00, 0x00, 0x00, 0x00, 0x00, 0x00, 0x00, 
0x00, 0x00, 0x00, 0x00, 0x02, 0x00, 0x00, 0x00, 0xe7, 0xd6, 0xb9, 0x3b, 
0xce, 0x06, 0xb7, 0x3b, 0x1d, 0x00, 0x00, 0x00, 0x73, 0x65, 0x71, 0x75, 
0x65, 0x6e, 0x74, 0x69, 0x61, 0x6c, 0x5f, 0x31, 0x5f, 0x31, 0x2f, 0x64, 
0x65, 0x6e, 0x73, 0x65, 0x5f, 0x31, 0x2f, 0x4d, 0x61, 0x74, 0x4d, 0x75, 
0x6c, 0x00, 0x00, 0x00, 0x02, 0x00, 0x00, 0x00, 0x02, 0x00, 0x00, 0x00, 
0x20, 0x00, 0x00, 0x00, 0x86, 0xff, 0xff, 0xff, 0x00, 0x00, 0x00, 0x01, 
0x14, 0x00, 0x00, 0x00, 0x40, 0x00, 0x00, 0x00, 0x03, 0x00, 0x00, 0x00, 
0x00, 0x00, 0x00, 0x02, 0x58, 0x00, 0x00, 0x00, 0xcc, 0xfe, 0xff, 0xff, 
0x08, 0x00, 0x00, 0x00, 0x1c, 0x00, 0x00, 0x00, 0x02, 0x00, 0x00, 0x00, 
0x00, 0x00, 0x00, 0x00, 0x00, 0x00, 0x00, 0x00, 0x00, 0x00, 0x00, 0x00, 
0x00, 0x00, 0x00, 0x00, 0x00, 0x00, 0x00, 0x00, 0x02, 0x00, 0x00, 0x00, 
0x66, 0x92, 0x8e, 0x38, 0xf5, 0x69, 0x8c, 0x38, 0x1e, 0x00, 0x00, 0x00, 
0x73, 0x65, 0x71, 0x75, 0x65, 0x6e, 0x74, 0x69, 0x61, 0x6c, 0x5f, 0x31, 
0x5f, 0x31, 0x2f, 0x64, 0x65, 0x6e, 0x73, 0x65, 0x5f, 0x31, 0x2f, 0x42, 
0x69, 0x61, 0x73, 0x41, 0x64, 0x64, 0x00, 0x00, 0x01, 0x00, 0x00, 0x00, 
0x02, 0x00, 0x00, 0x00, 0x00, 0x00, 0x16, 0x00, 0x1c, 0x00, 0x18, 0x00, 
0x17, 0x00, 0x10, 0x00, 0x0c, 0x00, 0x08, 0x00, 0x00, 0x00, 0x00, 0x00, 
0x00, 0x00, 0x07, 0x00, 0x16, 0x00, 0x00, 0x00, 0x00, 0x00, 0x00, 0x01, 
0x18, 0x00, 0x00, 0x00, 0x18, 0x00, 0x00, 0x00, 0x02, 0x00, 0x00, 0x00, 
0x00, 0x00, 0x00, 0x02, 0x54, 0x00, 0x00, 0x00, 0x04, 0x00, 0x04, 0x00, 
0x04, 0x00, 0x00, 0x00, 0x40, 0x00, 0x00, 0x00, 0x73, 0x65, 0x71, 0x75, 
0x65, 0x6e, 0x74, 0x69, 0x61, 0x6c, 0x5f, 0x31, 0x5f, 0x31, 0x2f, 0x67, 
0x6c, 0x6f, 0x62, 0x61, 0x6c, 0x5f, 0x61, 0x76, 0x65, 0x72, 0x61, 0x67, 
0x65, 0x5f, 0x70, 0x6f, 0x6f, 0x6c, 0x69, 0x6e, 0x67, 0x32, 0x64, 0x5f, 
0x31, 0x2f, 0x4d, 0x65, 0x61, 0x6e, 0x2f, 0x72, 0x65, 0x64, 0x75, 0x63, 
0x74, 0x69, 0x6f, 0x6e, 0x5f, 0x69, 0x6e, 0x64, 0x69, 0x63, 0x65, 0x73, 
0x00, 0x00, 0x00, 0x00, 0x01, 0x00, 0x00, 0x00, 0x02, 0x00, 0x00, 0x00, 
0x00, 0x00, 0x16, 0x00, 0x20, 0x00, 0x1c, 0x00, 0x1b, 0x00, 0x14, 0x00, 
0x10, 0x00, 0x0c, 0x00, 0x00, 0x00, 0x00, 0x00, 0x08, 0x00, 0x07, 0x00, 
0x16, 0x00, 0x00, 0x00, 0x00, 0x00, 0x00, 0x01, 0x18, 0x00, 0x00, 0x00, 
0x34, 0x00, 0x00, 0x00, 0x50, 0x00, 0x00, 0x00, 0x01, 0x00, 0x00, 0x00, 
0x00, 0x00, 0x00, 0x09, 0x68, 0x00, 0x00, 0x00, 0x04, 0x00, 0x00, 0x00, 
0xff, 0xff, 0xff, 0xff, 0x30, 0x00, 0x00, 0x00, 0x30, 0x00, 0x00, 0x00, 
0x01, 0x00, 0x00, 0x00, 0x0c, 0x00, 0x0c, 0x00, 0x00, 0x00, 0x00, 0x00, 
0x08, 0x00, 0x04, 0x00, 0x0c, 0x00, 0x00, 0x00, 0x08, 0x00, 0x00, 0x00, 
0x10, 0x00, 0x00, 0x00, 0x01, 0x00, 0x00, 0x00, 0x80, 0xff, 0xff, 0xff, 
0xff, 0xff, 0xff, 0xff, 0x01, 0x00, 0x00, 0x00, 0x00, 0x00, 0x80, 0x3f, 
0x1e, 0x00, 0x00, 0x00, 0x73, 0x65, 0x72, 0x76, 0x69, 0x6e, 0x67, 0x5f, 
0x64, 0x65, 0x66, 0x61, 0x75, 0x6c, 0x74, 0x5f, 0x6b, 0x65, 0x72, 0x61, 
0x73, 0x5f, 0x74, 0x65, 0x6e, 0x73, 0x6f, 0x72, 0x3a, 0x30, 0x00, 0x00, 
0x04, 0x00, 0x00, 0x00, 0x01, 0x00, 0x00, 0x00, 0x30, 0x00, 0x00, 0x00, 
0x30, 0x00, 0x00, 0x00, 0x01, 0x00, 0x00, 0x00, 0x07, 0x00, 0x00, 0x00, 
0x94, 0x00, 0x00, 0x00, 0x7c, 0x00, 0x00, 0x00, 0x60, 0x00, 0x00, 0x00, 
0x40, 0x00, 0x00, 0x00, 0x2c, 0x00, 0x00, 0x00, 0x18, 0x00, 0x00, 0x00, 
0x04, 0x00, 0x00, 0x00, 0x94, 0xff, 0xff, 0xff, 0x19, 0x00, 0x00, 0x00, 
0x02, 0x00, 0x00, 0x00, 0x00, 0x00, 0x00, 0x19, 0xa4, 0xff, 0xff, 0xff, 
0x09, 0x00, 0x00, 0x00, 0x04, 0x00, 0x00, 0x00, 0x00, 0x00, 0x00, 0x09, 
0xb4, 0xff, 0xff, 0xff, 0x28, 0x00, 0x00, 0x00, 0x02, 0x00, 0x00, 0x00, 
0x00, 0x00, 0x00, 0x28, 0xc4, 0xff, 0xff, 0xff, 0x11, 0x00, 0x00, 0x00, 
0x02, 0x00, 0x00, 0x00, 0x00, 0x00, 0x00, 0x11, 0x0c, 0x00, 0x0e, 0x00, 
0x0d, 0x00, 0x00, 0x00, 0x08, 0x00, 0x04, 0x00, 0x0c, 0x00, 0x00, 0x00, 
0x03, 0x00, 0x00, 0x00, 0x03, 0x00, 0x00, 0x00, 0x00, 0x03, 0x0a, 0x00, 
0x08, 0x00, 0x00, 0x00, 0x00, 0x00, 0x04, 0x00, 0x0a, 0x00, 0x00, 0x00, 
0x02, 0x00, 0x00, 0x00, 0x0c, 0x00, 0x10, 0x00, 0x0f, 0x00, 0x00, 0x00, 
0x08, 0x00, 0x04, 0x00, 0x0c, 0x00, 0x00, 0x00, 0x12, 0x00, 0x00, 0x00, 
0x02, 0x00, 0x00, 0x00, 0x00, 0x00, 0x00, 0x12, };
const unsigned int g_human_detect_model_data_len = 12680;
#endif
