// Auto-generated by sketchboard/train_local_gray.py
// EagleEye local int8 model — 96x96 GRAYSCALE CNN (human/nonhuman).
// Input: int8, 1 channel. Firmware luma = (77R+150G+29B)>>8 then /255,
// quantised with the model input scale/zp. Black frame -> nonhuman.
// Output softmax order: [0]=human, [1]=nonhuman.
#ifndef MODEL_DATA_H
#define MODEL_DATA_H

alignas(16) const unsigned char g_model[] = {
  0x20, 0x00, 0x00, 0x00, 0x54, 0x46, 0x4c, 0x33, 0x00, 0x00, 0x00, 0x00,
  0x14, 0x00, 0x20, 0x00, 0x1c, 0x00, 0x18, 0x00, 0x14, 0x00, 0x10, 0x00,
  0x0c, 0x00, 0x00, 0x00, 0x08, 0x00, 0x04, 0x00, 0x14, 0x00, 0x00, 0x00,
  0x1c, 0x00, 0x00, 0x00, 0x80, 0x00, 0x00, 0x00, 0xd8, 0x00, 0x00, 0x00,
  0x04, 0x23, 0x00, 0x00, 0x14, 0x23, 0x00, 0x00, 0x14, 0x39, 0x00, 0x00,
  0x03, 0x00, 0x00, 0x00, 0x01, 0x00, 0x00, 0x00, 0x04, 0x00, 0x00, 0x00,
  0x2a, 0xdc, 0xff, 0xff, 0x0c, 0x00, 0x00, 0x00, 0x1c, 0x00, 0x00, 0x00,
  0x3c, 0x00, 0x00, 0x00, 0x0f, 0x00, 0x00, 0x00, 0x73, 0x65, 0x72, 0x76,
  0x69, 0x6e, 0x67, 0x5f, 0x64, 0x65, 0x66, 0x61, 0x75, 0x6c, 0x74, 0x00,
  0x01, 0x00, 0x00, 0x00, 0x04, 0x00, 0x00, 0x00, 0x9c, 0xff, 0xff, 0xff,
  0x17, 0x00, 0x00, 0x00, 0x04, 0x00, 0x00, 0x00, 0x08, 0x00, 0x00, 0x00,
  0x6f, 0x75, 0x74, 0x70, 0x75, 0x74, 0x5f, 0x30, 0x00, 0x00, 0x00, 0x00,
  0x01, 0x00, 0x00, 0x00, 0x04, 0x00, 0x00, 0x00, 0x32, 0xdc, 0xff, 0xff,
  0x04, 0x00, 0x00, 0x00, 0x01, 0x00, 0x00, 0x00, 0x78, 0x00, 0x00, 0x00,
  0x02, 0x00, 0x00, 0x00, 0x34, 0x00, 0x00, 0x00, 0x04, 0x00, 0x00, 0x00,
  0xdc, 0xff, 0xff, 0xff, 0x1a, 0x00, 0x00, 0x00, 0x04, 0x00, 0x00, 0x00,
  0x13, 0x00, 0x00, 0x00, 0x43, 0x4f, 0x4e, 0x56, 0x45, 0x52, 0x53, 0x49,
  0x4f, 0x4e, 0x5f, 0x4d, 0x45, 0x54, 0x41, 0x44, 0x41, 0x54, 0x41, 0x00,
  0x08, 0x00, 0x0c, 0x00, 0x08, 0x00, 0x04, 0x00, 0x08, 0x00, 0x00, 0x00,
  0x19, 0x00, 0x00, 0x00, 0x04, 0x00, 0x00, 0x00, 0x13, 0x00, 0x00, 0x00,
  0x6d, 0x69, 0x6e, 0x5f, 0x72, 0x75, 0x6e, 0x74, 0x69, 0x6d, 0x65, 0x5f,
  0x76, 0x65, 0x72, 0x73, 0x69, 0x6f, 0x6e, 0x00, 0x1b, 0x00, 0x00, 0x00,
  0x28, 0x22, 0x00, 0x00, 0x20, 0x22, 0x00, 0x00, 0x0c, 0x22, 0x00, 0x00,
  0xf8, 0x21, 0x00, 0x00, 0xe4, 0x21, 0x00, 0x00, 0xcc, 0x21, 0x00, 0x00,
  0xbc, 0x0f, 0x00, 0x00, 0x6c, 0x0f, 0x00, 0x00, 0x5c, 0x06, 0x00, 0x00,
  0x0c, 0x06, 0x00, 0x00, 0x7c, 0x01, 0x00, 0x00, 0x4c, 0x01, 0x00, 0x00,
  0xf4, 0x00, 0x00, 0x00, 0xec, 0x00, 0x00, 0x00, 0xe4, 0x00, 0x00, 0x00,
  0xdc, 0x00, 0x00, 0x00, 0xd4, 0x00, 0x00, 0x00, 0xcc, 0x00, 0x00, 0x00,
  0xc4, 0x00, 0x00, 0x00, 0xbc, 0x00, 0x00, 0x00, 0xb4, 0x00, 0x00, 0x00,
  0xac, 0x00, 0x00, 0x00, 0xa4, 0x00, 0x00, 0x00, 0x9c, 0x00, 0x00, 0x00,
  0x94, 0x00, 0x00, 0x00, 0x74, 0x00, 0x00, 0x00, 0x04, 0x00, 0x00, 0x00,
  0x0e, 0xdd, 0xff, 0xff, 0x04, 0x00, 0x00, 0x00, 0x60, 0x00, 0x00, 0x00,
  0x0c, 0x00, 0x00, 0x00, 0x08, 0x00, 0x0e, 0x00, 0x08, 0x00, 0x04, 0x00,
  0x08, 0x00, 0x00, 0x00, 0x10, 0x00, 0x00, 0x00, 0x28, 0x00, 0x00, 0x00,
  0x00, 0x00, 0x06, 0x00, 0x08, 0x00, 0x04, 0x00, 0x06, 0x00, 0x00, 0x00,
  0x04, 0x00, 0x00, 0x00, 0x01, 0x00, 0x00, 0x00, 0xeb, 0x03, 0x00, 0x00,
  0x0c, 0x00, 0x18, 0x00, 0x14, 0x00, 0x10, 0x00, 0x0c, 0x00, 0x04, 0x00,
  0x0c, 0x00, 0x00, 0x00, 0xbe, 0xff, 0xe0, 0xbf, 0x3d, 0xb4, 0x11, 0x5c,
  0x02, 0x00, 0x00, 0x00, 0x02, 0x00, 0x00, 0x00, 0x04, 0x00, 0x00, 0x00,
  0x06, 0x00, 0x00, 0x00, 0x32, 0x2e, 0x32, 0x31, 0x2e, 0x30, 0x00, 0x00,
  0x7a, 0xdd, 0xff, 0xff, 0x04, 0x00, 0x00, 0x00, 0x10, 0x00, 0x00, 0x00,
  0x31, 0x2e, 0x31, 0x34, 0x2e, 0x30, 0x00, 0x00, 0x00, 0x00, 0x00, 0x00,
  0x00, 0x00, 0x00, 0x00, 0x9c, 0xc9, 0xff, 0xff, 0xa0, 0xc9, 0xff, 0xff,
  0xa4, 0xc9, 0xff, 0xff, 0xa8, 0xc9, 0xff, 0xff, 0xac, 0xc9, 0xff, 0xff,
  0xb0, 0xc9, 0xff, 0xff, 0xb4, 0xc9, 0xff, 0xff, 0xb8, 0xc9, 0xff, 0xff,
  0xbc, 0xc9, 0xff, 0xff, 0xc0, 0xc9, 0xff, 0xff, 0xc4, 0xc9, 0xff, 0xff,
  0xc8, 0xc9, 0xff, 0xff, 0xc6, 0xdd, 0xff, 0xff, 0x04, 0x00, 0x00, 0x00,
  0x48, 0x00, 0x00, 0x00, 0xf7, 0xbe, 0x1e, 0xd5, 0xc2, 0x21, 0x7f, 0xd6,
  0xdc, 0x33, 0x7f, 0x78, 0x3d, 0xb8, 0xf4, 0xcf, 0x8a, 0x85, 0xfd, 0x77,
  0x7b, 0x25, 0x7f, 0xd4, 0x7e, 0x07, 0xec, 0x7f, 0x34, 0x2a, 0xfe, 0x4c,
  0xde, 0x3c, 0x5f, 0x19, 0x60, 0x99, 0xd3, 0x2e, 0x32, 0x86, 0x6b, 0x4c,
  0x81, 0x41, 0xa6, 0x29, 0x7f, 0x05, 0x66, 0x0b, 0xa9, 0x1f, 0xb9, 0x68,
  0x3e, 0xfa, 0xc0, 0x7f, 0xa9, 0xd7, 0x91, 0x37, 0xc2, 0x4e, 0x81, 0x05,
  0xc4, 0x18, 0xee, 0x21, 0x1a, 0xde, 0xff, 0xff, 0x04, 0x00, 0x00, 0x00,
  0x20, 0x00, 0x00, 0x00, 0x1b, 0x14, 0x00, 0x00, 0xd8, 0x0a, 0x00, 0x00,
  0xcc, 0xff, 0xff, 0xff, 0x6b, 0xf7, 0xff, 0xff, 0x16, 0x0b, 0x00, 0x00,
  0xd2, 0xfb, 0xff, 0xff, 0x08, 0x16, 0x00, 0x00, 0x95, 0xfe, 0xff, 0xff,
  0x46, 0xde, 0xff, 0xff, 0x04, 0x00, 0x00, 0x00, 0x80, 0x04, 0x00, 0x00,
  0x44, 0xef, 0x2b, 0xea, 0xa4, 0xdd, 0x1b, 0xee, 0x0b, 0xec, 0xe0, 0x39,
  0xcf, 0xfc, 0x12, 0x81, 0xf3, 0xd0, 0x0c, 0xfb, 0x32, 0x45, 0x0a, 0x90,
  0xd7, 0xcb, 0x0e, 0xbb, 0xa3, 0xb7, 0x5f, 0xff, 0x11, 0x2d, 0x16, 0xd7,
  0xf9, 0x26, 0xf7, 0xa2, 0xe8, 0xb5, 0x39, 0x1d, 0x2d, 0xdb, 0xd2, 0x88,
  0x17, 0xd0, 0xcf, 0xe0, 0xac, 0xf3, 0x35, 0xe5, 0xb8, 0xfa, 0xc8, 0xcb,
  0xf4, 0xc7, 0x04, 0xa6, 0x9e, 0x27, 0x30, 0x57, 0x1a, 0x34, 0xeb, 0xe4,
  0xe7, 0xc0, 0xf9, 0x53, 0x59, 0xda, 0xc7, 0xad, 0x56, 0x42, 0x1e, 0x30,
  0x39, 0xb9, 0x03, 0xa8, 0xe1, 0xf7, 0xee, 0xe9, 0x19, 0xd9, 0x11, 0xd4,
  0x86, 0xde, 0xe7, 0x4b, 0x7e, 0x3c, 0x88, 0x93, 0x3f, 0x30, 0x39, 0x28,
  0x03, 0xb8, 0xc6, 0x07, 0xf0, 0xe4, 0x1e, 0xaf, 0x11, 0xc0, 0xc2, 0xa7,
  0xa0, 0x16, 0x0f, 0xe4, 0xfc, 0x48, 0xe0, 0xb8, 0xcf, 0xdc, 0x30, 0xce,
  0x7f, 0xfa, 0x99, 0x88, 0x33, 0xea, 0xb2, 0xce, 0x5b, 0x14, 0x05, 0xac,
  0x06, 0x06, 0x23, 0x15, 0x51, 0x1d, 0x33, 0x22, 0xfc, 0x4e, 0xcd, 0xd5,
  0xd0, 0x20, 0xf4, 0x24, 0x3b, 0x07, 0x25, 0xd8, 0x20, 0xe5, 0x35, 0x3b,
  0x06, 0x37, 0xe7, 0x31, 0x7d, 0xf8, 0xff, 0x38, 0x13, 0xfd, 0xf9, 0x1f,
  0x24, 0xf5, 0x44, 0x47, 0x01, 0x38, 0xd4, 0x2c, 0xec, 0x1d, 0xfb, 0x26,
  0x38, 0xf5, 0x24, 0xf2, 0x37, 0xe8, 0x11, 0x7f, 0x16, 0x38, 0xd7, 0xdc,
  0xc6, 0xe9, 0xeb, 0x31, 0xdc, 0x40, 0x19, 0x08, 0x21, 0xde, 0x2d, 0x26,
  0xf0, 0xeb, 0xfa, 0xc4, 0x0a, 0xcb, 0xf8, 0x81, 0xe5, 0x10, 0xc8, 0xd6,
  0x35, 0xf4, 0xef, 0xea, 0x01, 0xa9, 0x0d, 0xc5, 0x06, 0xcf, 0xf7, 0x09,
  0xfe, 0xb7, 0x0e, 0x05, 0x18, 0xe0, 0x01, 0xf2, 0x17, 0xe5, 0x14, 0x14,
  0x06, 0xcc, 0xba, 0x07, 0x57, 0xdd, 0xf7, 0xea, 0xf2, 0x0a, 0x26, 0x1c,
  0xf5, 0xb6, 0xfe, 0x35, 0x44, 0x1c, 0x07, 0xb5, 0x19, 0xc8, 0x49, 0x08,
  0xfe, 0xdf, 0x0f, 0xe5, 0xf9, 0x1b, 0x59, 0x0b, 0x3f, 0xf8, 0xf3, 0xd7,
  0xf9, 0xb7, 0x04, 0x1e, 0x89, 0x5a, 0x61, 0xe2, 0xda, 0x0a, 0xe1, 0xfc,
  0xd3, 0x61, 0xe4, 0xe6, 0xed, 0x0c, 0x4b, 0x69, 0xe9, 0x6c, 0x25, 0x41,
  0xf2, 0x46, 0x14, 0x28, 0x82, 0x02, 0x72, 0xfe, 0x0b, 0x44, 0xfb, 0x27,
  0x9d, 0xef, 0x09, 0x04, 0xec, 0x30, 0x30, 0x3e, 0xe3, 0x03, 0x1c, 0x0a,
  0x2e, 0xe4, 0x2c, 0xfd, 0x82, 0x10, 0x7f, 0x21, 0xc1, 0xea, 0x62, 0x1d,
  0x1a, 0x36, 0x20, 0x63, 0x0c, 0x50, 0x1b, 0x6e, 0xc4, 0x59, 0x3f, 0x0c,
  0xd3, 0x61, 0x08, 0x09, 0x24, 0xe3, 0x57, 0x2c, 0x1f, 0x7f, 0x13, 0x29,
  0x4f, 0x47, 0x1e, 0xed, 0x2a, 0x67, 0x4e, 0x49, 0x31, 0x36, 0x02, 0x36,
  0x0e, 0x5f, 0x44, 0xd7, 0x08, 0x3a, 0x2d, 0x09, 0x4b, 0x61, 0xe5, 0x36,
  0x2a, 0x23, 0x37, 0x5f, 0xe7, 0x75, 0xce, 0xdb, 0x76, 0xfb, 0x13, 0x3d,
  0x0b, 0x6d, 0xc5, 0xf2, 0x57, 0x32, 0xe0, 0x30, 0xec, 0x12, 0xfa, 0xbb,
  0x24, 0xdc, 0x44, 0x64, 0x11, 0x4c, 0xc2, 0xc2, 0x0f, 0x1a, 0xf5, 0xe2,
  0x7f, 0x01, 0xe1, 0xff, 0x4b, 0x28, 0xfa, 0x07, 0x17, 0x25, 0xcf, 0xe2,
  0xc1, 0xfc, 0x35, 0x58, 0x44, 0x62, 0xe6, 0xdd, 0xfe, 0x3b, 0x6f, 0x20,
  0x40, 0x14, 0xb6, 0x22, 0x48, 0x01, 0x52, 0x0d, 0x57, 0x4f, 0xdf, 0xb1,
  0x0e, 0xe5, 0x4a, 0x52, 0xe8, 0x10, 0xf9, 0x0f, 0xe8, 0xe7, 0x71, 0x3e,
  0x53, 0x47, 0x27, 0x45, 0x44, 0xfd, 0x3f, 0x71, 0x40, 0xe1, 0x27, 0x0f,
  0xf4, 0xf1, 0x12, 0xdf, 0xee, 0x4a, 0x46, 0x38, 0x24, 0x09, 0x38, 0xf8,
  0x1b, 0xa9, 0xe2, 0x10, 0x40, 0xf5, 0x20, 0x40, 0x25, 0x81, 0x2a, 0x44,
  0x1e, 0xe6, 0xcd, 0x28, 0xfa, 0xbe, 0x2c, 0xe8, 0x08, 0x34, 0xba, 0x28,
  0xf0, 0xa2, 0x1b, 0x4c, 0xee, 0x05, 0xd2, 0x46, 0xd4, 0xe1, 0x1d, 0x16,
  0x2b, 0xee, 0xc8, 0x75, 0x41, 0x08, 0x02, 0x0d, 0x2d, 0x15, 0x1e, 0x34,
  0xeb, 0xc2, 0x36, 0x55, 0xf2, 0x3c, 0xe4, 0xb3, 0x03, 0xea, 0x33, 0x46,
  0xf1, 0xf7, 0x90, 0x4b, 0x45, 0xf4, 0x1a, 0xd9, 0x22, 0xc1, 0xda, 0x0a,
  0xcc, 0x42, 0x1a, 0xb3, 0x12, 0x43, 0x09, 0x25, 0x16, 0x0d, 0x88, 0xac,
  0x1e, 0x59, 0x9c, 0x84, 0xd8, 0x36, 0x39, 0x2a, 0x23, 0xcb, 0xfc, 0xa2,
  0x08, 0xa5, 0xeb, 0xca, 0x18, 0xff, 0x2c, 0x34, 0xfd, 0xb4, 0xcb, 0xdd,
  0x8c, 0x19, 0x32, 0xd3, 0x86, 0x43, 0x75, 0x4a, 0xec, 0x7f, 0x3b, 0xb1,
  0xc4, 0x3f, 0x9e, 0x02, 0xa7, 0x90, 0x49, 0xe2, 0xe9, 0xba, 0xaa, 0xeb,
  0xba, 0xe4, 0x3e, 0x0c, 0x22, 0x94, 0x51, 0x58, 0xa9, 0x42, 0xd6, 0x19,
  0xcf, 0x30, 0x05, 0xfa, 0x05, 0xde, 0xe1, 0x1c, 0xdc, 0x37, 0x0c, 0x22,
  0x22, 0xe4, 0xc9, 0xe2, 0x2a, 0x4d, 0x1c, 0xc9, 0xf9, 0xe8, 0xc1, 0xdf,
  0xd2, 0x2d, 0x30, 0xe3, 0x7f, 0x3c, 0xef, 0xc2, 0x13, 0xf4, 0x3e, 0xf3,
  0x63, 0xfa, 0xae, 0x0d, 0x41, 0x46, 0xc2, 0xf2, 0xf5, 0x1e, 0xd2, 0x0b,
  0xa0, 0xf2, 0x0a, 0x10, 0x21, 0xf7, 0xb9, 0xb0, 0x41, 0x1a, 0x0a, 0xeb,
  0x61, 0xde, 0x06, 0x06, 0x46, 0xee, 0x0b, 0xd7, 0xf9, 0x02, 0xed, 0x14,
  0x12, 0x4b, 0xec, 0x51, 0xf1, 0xe0, 0x24, 0x22, 0x0a, 0x2a, 0xd0, 0xf7,
  0x40, 0x3a, 0x1a, 0x19, 0x1d, 0x11, 0x0a, 0xc8, 0xd4, 0x0e, 0x21, 0x38,
  0x4f, 0x32, 0x35, 0xfe, 0x2b, 0x2a, 0x2f, 0x3a, 0x26, 0x31, 0xd7, 0xec,
  0x5f, 0x1c, 0x00, 0x11, 0x50, 0x40, 0x05, 0x2a, 0x6a, 0x2e, 0xce, 0xe1,
  0x08, 0x02, 0xd0, 0x3c, 0xfb, 0x3b, 0x13, 0x6f, 0xfc, 0x3f, 0xd7, 0xcc,
  0x00, 0x3f, 0x13, 0x7f, 0x64, 0x67, 0x2a, 0xd8, 0x2a, 0xdf, 0xf4, 0x09,
  0x0c, 0x07, 0xec, 0x21, 0x41, 0x16, 0xc5, 0x8f, 0xf9, 0xe9, 0x2a, 0xeb,
  0x51, 0x32, 0xc9, 0x93, 0x36, 0xe0, 0x19, 0x1f, 0x40, 0xfa, 0xd2, 0xda,
  0xd1, 0xfa, 0x42, 0xe3, 0x06, 0x0e, 0xc2, 0xf6, 0x05, 0xeb, 0x17, 0xdf,
  0x2f, 0xda, 0xd7, 0xce, 0xfa, 0x13, 0xc3, 0xca, 0x45, 0xd0, 0xd3, 0xec,
  0xd6, 0x36, 0x29, 0xed, 0xf1, 0xd4, 0x06, 0xaf, 0xf8, 0x14, 0x17, 0x06,
  0x03, 0xf0, 0xb4, 0xdd, 0x3a, 0xd8, 0xe7, 0x0d, 0x38, 0xd9, 0xe8, 0x81,
  0xcf, 0xa5, 0x2c, 0xe7, 0x31, 0x3a, 0xd9, 0x1a, 0x50, 0x11, 0xa4, 0xe6,
  0xb7, 0xfa, 0x99, 0xcd, 0xd8, 0xad, 0x2a, 0xc8, 0xa0, 0x1c, 0xea, 0xed,
  0x2e, 0xdb, 0x16, 0x91, 0x01, 0x10, 0x9c, 0xa9, 0x90, 0xc2, 0x86, 0x23,
  0x3e, 0xbc, 0x81, 0x62, 0x44, 0xb3, 0xb3, 0xe9, 0x56, 0xd2, 0x1c, 0xf4,
  0x11, 0xbf, 0x5a, 0xfe, 0xa8, 0x92, 0x13, 0xc9, 0xa6, 0x32, 0x10, 0xf8,
  0xd3, 0x54, 0xef, 0xa1, 0xdf, 0xdb, 0x15, 0xba, 0xb8, 0xe8, 0x46, 0xa5,
  0x2c, 0x52, 0xfe, 0xb1, 0xd4, 0x1e, 0x66, 0x19, 0xd0, 0x32, 0xc8, 0xdd,
  0xd9, 0xfb, 0x41, 0xdb, 0xbd, 0x33, 0x36, 0x3e, 0x08, 0x4a, 0x2b, 0xe9,
  0x0f, 0x1b, 0xc6, 0xc1, 0x76, 0xcc, 0x2d, 0x41, 0x50, 0x20, 0xf7, 0xeb,
  0xc8, 0xc4, 0x30, 0xf2, 0x39, 0x2a, 0xef, 0x2e, 0xd8, 0x3c, 0x7f, 0x39,
  0x52, 0xc8, 0x3f, 0xf6, 0x28, 0x17, 0x2d, 0xff, 0x03, 0xaf, 0xeb, 0x22,
  0x28, 0x3c, 0x2f, 0xd5, 0x1f, 0x2b, 0x3f, 0x05, 0x00, 0xe8, 0x41, 0x0f,
  0xfd, 0x41, 0x07, 0xe2, 0x25, 0x04, 0x02, 0x08, 0x08, 0xf4, 0xce, 0xee,
  0xe1, 0xf2, 0xd8, 0x7f, 0x24, 0xe1, 0x1d, 0x04, 0x3a, 0xdc, 0xd8, 0x76,
  0xda, 0xf5, 0xd3, 0xf3, 0x38, 0x07, 0xf9, 0x14, 0x02, 0x3e, 0x2f, 0xe4,
  0xf9, 0x3e, 0xfe, 0x2d, 0x25, 0x68, 0xe6, 0xec, 0xfd, 0x1a, 0xe6, 0x27,
  0x34, 0x74, 0xec, 0x1c, 0x32, 0xf8, 0x27, 0x21, 0x08, 0x49, 0xf8, 0x10,
  0x0a, 0x0d, 0x27, 0x1b, 0xea, 0x57, 0x02, 0x1e, 0x26, 0x42, 0x0b, 0xfa,
  0xd7, 0x73, 0x10, 0x0b, 0x10, 0x13, 0xed, 0x69, 0x2a, 0x03, 0x11, 0x26,
  0x00, 0xdf, 0x3d, 0xef, 0x31, 0x5b, 0x04, 0x05, 0x49, 0xee, 0xe3, 0x18,
  0xf9, 0x63, 0x0d, 0x1d, 0xf7, 0xd2, 0x19, 0x45, 0xdb, 0x2b, 0x3a, 0x27,
  0x3a, 0x2f, 0xfb, 0x7f, 0xaa, 0x33, 0x3d, 0xcd, 0xe4, 0x06, 0xe5, 0x2e,
  0xfb, 0x21, 0xeb, 0xdd, 0x02, 0x0b, 0xf3, 0x2a, 0xf9, 0x29, 0x05, 0xc2,
  0xec, 0xbe, 0xeb, 0x29, 0xdc, 0xf5, 0x2e, 0xbc, 0xc5, 0xcb, 0xdd, 0x58,
  0xd2, 0xe2, 0xff, 0xff, 0x04, 0x00, 0x00, 0x00, 0x40, 0x00, 0x00, 0x00,
  0x79, 0x05, 0x00, 0x00, 0x24, 0x0e, 0x00, 0x00, 0xca, 0xf9, 0xff, 0xff,
  0xd3, 0xff, 0xff, 0xff, 0x04, 0xf8, 0xff, 0xff, 0x00, 0x01, 0x00, 0x00,
  0x5e, 0x06, 0x00, 0x00, 0xb5, 0x09, 0x00, 0x00, 0xee, 0xfe, 0xff, 0xff,
  0x6f, 0x06, 0x00, 0x00, 0x00, 0x00, 0x00, 0x00, 0x9d, 0x09, 0x00, 0x00,
  0x78, 0xfd, 0xff, 0xff, 0x12, 0x0e, 0x00, 0x00, 0x38, 0xf2, 0xff, 0xff,
  0x49, 0xf9, 0xff, 0xff, 0x1e, 0xe3, 0xff, 0xff, 0x04, 0x00, 0x00, 0x00,
  0x00, 0x09, 0x00, 0x00, 0x35, 0xa9, 0xbe, 0xdd, 0xbb, 0xd3, 0x08, 0xce,
  0xf6, 0xc4, 0xe8, 0xb9, 0x20, 0xda, 0xc5, 0x14, 0x04, 0x10, 0x00, 0x32,
  0x04, 0x24, 0x1e, 0xf6, 0xf0, 0xed, 0xe7, 0xd5, 0xf5, 0xf9, 0xbb, 0xd1,
  0xc5, 0xba, 0x1a, 0xd3, 0x0e, 0xfe, 0xe3, 0xef, 0x90, 0xfa, 0xca, 0xda,
  0xd5, 0x36, 0xb2, 0xdf, 0x74, 0x11, 0x04, 0x1e, 0xf0, 0x34, 0x22, 0xec,
  0x0b, 0xf7, 0x0e, 0xcc, 0x01, 0x6c, 0xe3, 0xfa, 0x49, 0xef, 0x0f, 0xe8,
  0xcf, 0xe5, 0xf9, 0x2d, 0xdc, 0xd2, 0xeb, 0x26, 0x03, 0x36, 0x1f, 0xdc,
  0x1a, 0x12, 0xd5, 0xfe, 0xec, 0xbf, 0x4b, 0x28, 0x81, 0xca, 0xea, 0xf2,
  0x16, 0xe4, 0x2c, 0xf4, 0x61, 0xdb, 0x30, 0x4a, 0xe4, 0x41, 0x38, 0xfa,
  0xfe, 0x0c, 0xd2, 0x22, 0x21, 0x34, 0x60, 0xf5, 0x60, 0xe8, 0xfd, 0x2f,
  0x33, 0x4e, 0xcf, 0x1c, 0xd3, 0xdb, 0x10, 0xd7, 0x39, 0x0e, 0xfa, 0xee,
  0x7a, 0xf5, 0xe8, 0xd9, 0x3f, 0x2b, 0xd0, 0xe6, 0xdf, 0xd4, 0x1f, 0xe7,
  0xe7, 0x26, 0x2b, 0x00, 0xcd, 0xfc, 0xff, 0xbe, 0x12, 0x0f, 0x11, 0xe4,
  0xff, 0x07, 0x48, 0x03, 0x07, 0x2a, 0xc5, 0xdc, 0x0d, 0x02, 0x0c, 0xc2,
  0x0f, 0x03, 0xd9, 0xef, 0xeb, 0xe8, 0x53, 0x29, 0xf8, 0xf5, 0x20, 0xbf,
  0xd3, 0xec, 0x24, 0xae, 0x07, 0xec, 0x0f, 0xd6, 0xcb, 0x30, 0x6a, 0xe7,
  0xf7, 0x01, 0x12, 0xcc, 0xe0, 0x1c, 0x17, 0xc7, 0x05, 0xf1, 0x38, 0xdd,
  0xf9, 0x00, 0x08, 0xed, 0x15, 0x28, 0xdf, 0xb9, 0xe1, 0x01, 0x40, 0xf8,
  0x22, 0xed, 0x08, 0x1e, 0xfa, 0x0e, 0x2a, 0xf2, 0x1f, 0xe5, 0x1c, 0xe9,
  0xde, 0xde, 0x5a, 0x07, 0x18, 0xd8, 0x26, 0xff, 0xb1, 0xfb, 0x56, 0xb5,
  0xe9, 0xdf, 0x34, 0xe7, 0xff, 0xe4, 0x2c, 0x81, 0x17, 0xef, 0xf5, 0xcd,
  0x32, 0x1b, 0x45, 0xf8, 0xda, 0xc9, 0xc0, 0xef, 0x0d, 0x1a, 0x02, 0xc2,
  0x18, 0xfd, 0xe6, 0x1e, 0x2b, 0xf2, 0x0a, 0x14, 0xf3, 0xf1, 0xde, 0x32,
  0xbf, 0xd9, 0x40, 0xe4, 0xdd, 0x32, 0x34, 0x23, 0x0c, 0xf0, 0xf1, 0xe3,
  0x27, 0xb1, 0xe7, 0x18, 0xe4, 0x10, 0xf3, 0xfe, 0xe7, 0xc3, 0xe3, 0xdc,
  0x02, 0x19, 0xc9, 0x15, 0xc8, 0xe5, 0xd1, 0xc2, 0x32, 0x0f, 0x34, 0x89,
  0x2a, 0xa8, 0xef, 0xc2, 0x5e, 0xb1, 0xc3, 0x92, 0x08, 0x2d, 0x0c, 0x1e,
  0xd4, 0x9d, 0xd4, 0x8d, 0x03, 0xe0, 0xc3, 0xd3, 0x48, 0xc8, 0xca, 0xab,
  0x1e, 0x16, 0x23, 0x01, 0x81, 0x0c, 0x26, 0x1c, 0x11, 0xdf, 0xe0, 0xf3,
  0x44, 0x0a, 0x1e, 0x1e, 0x0a, 0x0b, 0x32, 0xc3, 0x1b, 0xf8, 0xda, 0xb4,
  0x36, 0x95, 0x36, 0x0b, 0x4a, 0xdd, 0x23, 0xa4, 0xf1, 0xf3, 0xed, 0xa7,
  0xa3, 0xc5, 0x13, 0x16, 0x1b, 0x98, 0xc1, 0xcd, 0x01, 0x0b, 0xd6, 0xb0,
  0x01, 0xf9, 0x0a, 0xdb, 0xa7, 0x0b, 0x46, 0xb7, 0xe4, 0xe0, 0x1f, 0x3d,
  0x0d, 0xc2, 0xdf, 0xba, 0xfd, 0xad, 0x29, 0x3d, 0xfc, 0x17, 0xff, 0x00,
  0x07, 0x97, 0xfc, 0x23, 0x6d, 0xb6, 0xd6, 0x00, 0x0b, 0xdf, 0x52, 0x2c,
  0xd1, 0xa4, 0xe6, 0x2c, 0x45, 0xc5, 0xca, 0x12, 0x57, 0xac, 0xe1, 0xf9,
  0x03, 0xd4, 0x3a, 0xef, 0x2a, 0xe1, 0xdf, 0x12, 0xde, 0x28, 0xf6, 0x0a,
  0xff, 0xd1, 0x0e, 0xc8, 0x22, 0x45, 0x0d, 0x35, 0x66, 0xbe, 0x19, 0x32,
  0x05, 0x46, 0xee, 0xe5, 0xd4, 0xe3, 0xf8, 0x0a, 0x25, 0x11, 0xdb, 0x34,
  0x7f, 0x26, 0xd1, 0xec, 0x2f, 0x35, 0xe1, 0x2e, 0xec, 0xf7, 0x29, 0x3b,
  0xf9, 0xf3, 0x4b, 0x2a, 0x01, 0xce, 0xb6, 0xf3, 0xc7, 0xea, 0xf0, 0xd7,
  0xf4, 0xbc, 0xd4, 0xdb, 0x0a, 0x38, 0xb3, 0xc1, 0x58, 0xbd, 0xdb, 0xe9,
  0x0d, 0x26, 0x0b, 0xe0, 0xf1, 0xd8, 0xff, 0xda, 0x1e, 0x03, 0xd9, 0xd6,
  0x74, 0x38, 0xfe, 0xf6, 0x33, 0x26, 0xf9, 0xf9, 0xe6, 0x39, 0x0a, 0x3e,
  0x16, 0x00, 0xf1, 0xfe, 0xcd, 0xbb, 0xbc, 0xf8, 0xe2, 0xc9, 0x02, 0xe4,
  0xd5, 0xd1, 0xef, 0xec, 0xfe, 0x31, 0xcb, 0xec, 0xdf, 0xf3, 0xe5, 0x08,
  0x07, 0xdd, 0x12, 0x0b, 0xa8, 0xe6, 0xf7, 0xe8, 0xe1, 0x29, 0xa0, 0x08,
  0x6c, 0x2f, 0xd1, 0xfd, 0x07, 0x2a, 0xff, 0xe3, 0x00, 0xf1, 0x06, 0xe7,
  0xfd, 0x1d, 0xf5, 0xe8, 0x18, 0xfb, 0x27, 0x14, 0xe7, 0xe2, 0x2c, 0xfa,
  0xd8, 0xea, 0x18, 0xe3, 0xcf, 0x10, 0xd9, 0xec, 0xec, 0x04, 0xcb, 0x2f,
  0xd7, 0xb0, 0x04, 0xd7, 0xda, 0x08, 0xdd, 0xd7, 0x03, 0x34, 0x20, 0xcc,
  0xed, 0x02, 0xf7, 0xff, 0xed, 0xaf, 0xee, 0x02, 0xea, 0xe8, 0x0d, 0x18,
  0xda, 0x24, 0xd7, 0x0b, 0x67, 0xea, 0x2b, 0x0b, 0x12, 0xe0, 0x22, 0xd6,
  0x36, 0x00, 0x25, 0xf1, 0xd9, 0x5a, 0xff, 0x2c, 0xd9, 0xf8, 0xbe, 0x62,
  0x16, 0xa1, 0x2d, 0x33, 0xd0, 0xe8, 0xd8, 0xda, 0xeb, 0x23, 0xbe, 0x24,
  0xc3, 0xec, 0xa8, 0x26, 0x20, 0xa1, 0x44, 0x34, 0xad, 0xd2, 0xf0, 0xf3,
  0x30, 0x2d, 0xd0, 0xd7, 0x79, 0x0d, 0xf0, 0x10, 0xf7, 0x36, 0x02, 0x01,
  0x07, 0xde, 0x0b, 0xd9, 0x20, 0x15, 0xce, 0xf8, 0x25, 0xcc, 0xf1, 0xda,
  0x05, 0xee, 0xcb, 0xf1, 0x81, 0xe5, 0xf8, 0x01, 0xd9, 0xec, 0xe2, 0xf4,
  0x20, 0x19, 0xd8, 0xfb, 0x25, 0xf1, 0xa3, 0x15, 0xc1, 0xf0, 0xe9, 0xdd,
  0xf3, 0xf2, 0xc3, 0x23, 0xe0, 0xf5, 0x1f, 0xb3, 0xf1, 0xdf, 0x34, 0x33,
  0x92, 0xbe, 0x48, 0xbb, 0x3d, 0xda, 0x27, 0xb6, 0x81, 0xd3, 0x71, 0x01,
  0x15, 0xdf, 0xf1, 0xbc, 0xca, 0xc9, 0x2f, 0x9f, 0x4d, 0x05, 0x1f, 0x0c,
  0x9a, 0xe0, 0xcf, 0x1d, 0xcc, 0x24, 0x66, 0xfa, 0xb6, 0xe7, 0x47, 0xb1,
  0x1a, 0x58, 0x7a, 0xd4, 0x8a, 0x3c, 0xe6, 0x24, 0x1a, 0x31, 0x3a, 0xb5,
  0x99, 0xc1, 0x43, 0xce, 0x08, 0xfc, 0x7e, 0x31, 0xa6, 0x99, 0x42, 0x3b,
  0x17, 0x66, 0x29, 0xfd, 0xee, 0xbc, 0x3c, 0xea, 0x39, 0x16, 0x3c, 0x3d,
  0xbb, 0xcf, 0x2c, 0xfc, 0x1e, 0xf7, 0x4d, 0xd0, 0x92, 0x29, 0xdd, 0xac,
  0xca, 0xe3, 0x26, 0x43, 0x87, 0xfa, 0xf6, 0xb7, 0x27, 0x5d, 0x54, 0xc8,
  0x9a, 0x3f, 0x19, 0xbc, 0xf0, 0x25, 0x7a, 0x1c, 0xb8, 0xc5, 0x02, 0xd9,
  0xf3, 0x0f, 0x48, 0x00, 0x32, 0x46, 0x37, 0xc7, 0xfd, 0xfa, 0xfb, 0x0a,
  0xc6, 0x20, 0x69, 0xf2, 0x00, 0x61, 0xdd, 0x14, 0xf7, 0x00, 0x5b, 0xba,
  0x11, 0x3d, 0x27, 0xbc, 0x81, 0x06, 0xd9, 0xe2, 0x24, 0xeb, 0xfd, 0x37,
  0xa4, 0xec, 0xdb, 0xcd, 0xfd, 0x27, 0xc3, 0x1c, 0xe9, 0xe3, 0xe6, 0x2d,
  0x17, 0x0e, 0x01, 0x1b, 0xdf, 0x13, 0x01, 0xf8, 0xda, 0x3d, 0xe8, 0xee,
  0xa1, 0x2c, 0xe5, 0x13, 0xe3, 0x17, 0x34, 0xf7, 0xe5, 0x42, 0xe9, 0xd2,
  0xf3, 0x29, 0x35, 0xfe, 0xa8, 0xf6, 0xdf, 0x0c, 0x28, 0x30, 0xb1, 0xe4,
  0xb7, 0xea, 0x2d, 0xf4, 0xe6, 0x99, 0x42, 0xf2, 0xa3, 0xf7, 0xbc, 0x1e,
  0xfc, 0x45, 0x1d, 0x1d, 0xe0, 0x1f, 0xe8, 0x16, 0xd4, 0xc1, 0x0a, 0xe0,
  0xaf, 0xce, 0xe3, 0x59, 0x3a, 0xd9, 0xde, 0xff, 0xe9, 0x2c, 0x3d, 0xec,
  0x38, 0xea, 0x37, 0xf6, 0x19, 0xff, 0xe6, 0xde, 0xea, 0xda, 0x3c, 0x15,
  0x14, 0xb3, 0xd3, 0xe1, 0x0d, 0xf3, 0x2b, 0x20, 0xa7, 0xd3, 0x00, 0xbf,
  0xbf, 0x27, 0xf5, 0x18, 0x22, 0xf5, 0x04, 0x37, 0xe7, 0xe5, 0x78, 0x17,
  0x12, 0x34, 0x23, 0xec, 0xdc, 0x41, 0xff, 0x0c, 0xf3, 0x27, 0xe8, 0xd2,
  0xdb, 0x52, 0x3a, 0xc7, 0x4c, 0x61, 0x03, 0x4c, 0xf0, 0x5a, 0xd6, 0x15,
  0x19, 0xc7, 0x3c, 0x05, 0xe0, 0xcc, 0x35, 0xca, 0x09, 0x2f, 0xd1, 0x18,
  0xfd, 0x71, 0x5a, 0x0c, 0xcc, 0x64, 0xe6, 0x06, 0xc9, 0xcf, 0x60, 0x33,
  0xe0, 0x18, 0xd1, 0x3d, 0x25, 0x17, 0xf4, 0x17, 0xc0, 0x56, 0xdf, 0xe3,
  0x21, 0xe6, 0x29, 0x65, 0x17, 0xe9, 0xba, 0x2e, 0x06, 0x6a, 0x03, 0x42,
  0xc9, 0x51, 0x52, 0x21, 0x18, 0x02, 0x6d, 0x14, 0x05, 0x2e, 0xf5, 0x2b,
  0x11, 0x58, 0xc9, 0x0a, 0x99, 0x0e, 0xe4, 0x34, 0xe9, 0x5b, 0x54, 0x57,
  0x87, 0x44, 0xe1, 0x12, 0xb5, 0x31, 0xce, 0xd8, 0xb6, 0xe8, 0x0f, 0x23,
  0x46, 0x28, 0x43, 0xdd, 0xce, 0x7f, 0xb7, 0x16, 0xff, 0x52, 0xdc, 0x24,
  0x0e, 0x1f, 0xec, 0x41, 0xef, 0x22, 0xec, 0x1f, 0xf5, 0x23, 0x05, 0xf2,
  0x15, 0xc9, 0x38, 0x16, 0xff, 0xe0, 0x31, 0x31, 0xe7, 0xc9, 0xf2, 0xd4,
  0xf7, 0x68, 0x14, 0x24, 0x99, 0x38, 0x29, 0xc5, 0xe7, 0x6f, 0x23, 0x13,
  0xd1, 0xb9, 0xe7, 0xc0, 0x3b, 0x6b, 0xeb, 0xe0, 0xc2, 0x24, 0x44, 0x2e,
  0xc8, 0x55, 0xe6, 0xfe, 0x01, 0x16, 0x45, 0xcc, 0xf7, 0xdc, 0xc9, 0x57,
  0x1a, 0xf5, 0x3a, 0xe6, 0x34, 0xd2, 0x22, 0x1f, 0xcc, 0x1f, 0x06, 0xeb,
  0xff, 0x59, 0x19, 0x18, 0x16, 0xc8, 0xd8, 0x49, 0x30, 0x5c, 0x3d, 0x51,
  0xd3, 0xdd, 0x56, 0xfb, 0x04, 0xed, 0x15, 0x2a, 0x04, 0x33, 0xe4, 0xfa,
  0x0a, 0xeb, 0x1c, 0xf7, 0x45, 0xfb, 0xe6, 0xf8, 0x11, 0x2c, 0xeb, 0x25,
  0xf5, 0x07, 0xd2, 0xdb, 0x00, 0xfb, 0xf6, 0x2e, 0xf8, 0x35, 0x7f, 0x27,
  0x67, 0x3e, 0xf6, 0x3b, 0xed, 0x3f, 0x99, 0x36, 0xed, 0xf2, 0x3c, 0xf2,
  0x24, 0xf1, 0x7e, 0x03, 0x5c, 0x36, 0xeb, 0x72, 0xdf, 0xf6, 0x1d, 0xb9,
  0xd2, 0xda, 0xeb, 0x2f, 0xc4, 0x0f, 0x0b, 0x20, 0xc1, 0x1d, 0xdb, 0x5c,
  0x32, 0x11, 0xfa, 0x25, 0xd7, 0x23, 0xc6, 0x53, 0xc2, 0xf1, 0xfe, 0x42,
  0xea, 0x04, 0xba, 0x06, 0xdf, 0xc0, 0x0c, 0xd3, 0xa2, 0xd0, 0xb1, 0x47,
  0x06, 0xad, 0x41, 0x17, 0xdc, 0x2d, 0xf3, 0x31, 0xd4, 0xfe, 0x1f, 0x24,
  0x0c, 0xf3, 0x02, 0x08, 0xe0, 0x35, 0xde, 0xf1, 0xf7, 0xf0, 0xcf, 0xd3,
  0x03, 0xc7, 0xf8, 0xd5, 0x1d, 0xd4, 0xe3, 0xe7, 0xcf, 0xdd, 0x19, 0xfe,
  0xdb, 0xb8, 0x17, 0xf4, 0x05, 0xce, 0xe3, 0xc9, 0xda, 0x24, 0xd5, 0xdb,
  0x19, 0xeb, 0x04, 0xfc, 0x23, 0x1a, 0x07, 0x39, 0xe4, 0xe9, 0x42, 0xcf,
  0xd3, 0xf1, 0x3b, 0x17, 0x33, 0x3d, 0xc4, 0xd3, 0x33, 0x3b, 0x1c, 0x59,
  0x04, 0xc4, 0x25, 0xd8, 0x1d, 0x3e, 0x2a, 0xf5, 0xde, 0x10, 0xf5, 0xb4,
  0x0a, 0xd3, 0xf4, 0x60, 0x31, 0xc3, 0x03, 0xcc, 0xe0, 0x2e, 0x1c, 0xd3,
  0xd2, 0x10, 0x26, 0xdf, 0xf6, 0x1d, 0xf4, 0x7d, 0xf5, 0xe9, 0xeb, 0x1e,
  0x10, 0x31, 0x0d, 0xed, 0xcd, 0x07, 0x0d, 0x2b, 0x1c, 0x38, 0x14, 0x7f,
  0x26, 0xcd, 0x33, 0x34, 0x35, 0x56, 0x1f, 0x56, 0xd4, 0x3f, 0x29, 0xe2,
  0x09, 0x04, 0x0a, 0x45, 0xe4, 0xf5, 0x14, 0x16, 0xcb, 0x09, 0xe5, 0x39,
  0x10, 0x38, 0x2b, 0xe5, 0xb5, 0x1d, 0xa8, 0x06, 0x0f, 0xe6, 0x38, 0xe0,
  0xf4, 0x28, 0x2c, 0xe9, 0xc9, 0xc1, 0xcd, 0xfd, 0x0c, 0xca, 0x9f, 0x18,
  0x2e, 0xf4, 0xbe, 0xd1, 0xd8, 0x12, 0x1d, 0xd7, 0xc9, 0xc4, 0x04, 0xe1,
  0x03, 0xd4, 0x06, 0x95, 0xd7, 0x1d, 0xa0, 0xe1, 0xc2, 0xf0, 0x35, 0x27,
  0xc2, 0xc1, 0x85, 0x67, 0x40, 0x54, 0x8e, 0x6b, 0x3c, 0xcd, 0xc4, 0x51,
  0xc9, 0x14, 0xbd, 0xf3, 0x48, 0xf6, 0x40, 0x0e, 0xff, 0x46, 0x51, 0x42,
  0xe4, 0x37, 0x45, 0x02, 0xb9, 0x04, 0xe9, 0xea, 0x1d, 0xb3, 0x19, 0x0b,
  0x0d, 0xdf, 0x38, 0xfd, 0xa7, 0x25, 0x16, 0x19, 0xc6, 0x46, 0xe1, 0x52,
  0x19, 0xe8, 0x2d, 0x1c, 0x00, 0x09, 0x18, 0x33, 0x63, 0x27, 0x05, 0x21,
  0xfc, 0xe5, 0xec, 0x14, 0x1f, 0xdd, 0x54, 0x29, 0x18, 0x7f, 0xfc, 0xf7,
  0xb5, 0x18, 0x37, 0x21, 0x30, 0x0b, 0x38, 0x17, 0x28, 0xca, 0x42, 0xc4,
  0xcf, 0x2e, 0x27, 0xcc, 0xab, 0x26, 0x02, 0xd9, 0x05, 0x25, 0x06, 0x06,
  0x4d, 0xdb, 0x30, 0x07, 0x1b, 0xb3, 0xfd, 0xe0, 0xf1, 0xba, 0x03, 0xd8,
  0x46, 0xf1, 0xf7, 0xe3, 0x18, 0x16, 0x1e, 0xbe, 0xfd, 0xcf, 0xf3, 0xad,
  0xff, 0xe3, 0xfa, 0x0c, 0x68, 0xfc, 0xe2, 0x0a, 0x1e, 0x17, 0xe1, 0xeb,
  0xca, 0x0e, 0xfb, 0xcc, 0x03, 0xe7, 0x0a, 0x0d, 0x01, 0xbc, 0x1a, 0xd7,
  0x25, 0xc0, 0xf7, 0xc1, 0xc8, 0xc6, 0xe7, 0xf2, 0xf1, 0xa0, 0x08, 0x24,
  0x7a, 0xd1, 0xeb, 0xb8, 0x05, 0xeb, 0xf4, 0xc9, 0xe2, 0xc4, 0x17, 0xee,
  0xfa, 0xf4, 0xff, 0x1e, 0x45, 0xfa, 0x02, 0xcd, 0x09, 0x37, 0xff, 0x16,
  0x81, 0xc7, 0x0b, 0xbf, 0xd5, 0xa1, 0x20, 0x1d, 0x93, 0x05, 0xd1, 0x02,
  0x0b, 0xda, 0x30, 0x0b, 0x24, 0xc8, 0xe5, 0x43, 0x10, 0x02, 0x47, 0x3b,
  0x2b, 0xe1, 0xe7, 0xce, 0xfc, 0xde, 0x0a, 0xbf, 0x3b, 0x28, 0x13, 0x2e,
  0x2b, 0xf4, 0x21, 0x37, 0x6a, 0x18, 0x17, 0x05, 0x29, 0x4c, 0x3d, 0xcb,
  0x88, 0xe6, 0x48, 0x35, 0xe5, 0xa9, 0xf4, 0x00, 0x2a, 0xf7, 0xf9, 0xb3,
  0xe5, 0x0a, 0x28, 0x1a, 0x5f, 0xee, 0xb2, 0xdf, 0x15, 0xd8, 0xc6, 0x42,
  0x34, 0x9f, 0x26, 0x1a, 0xf2, 0x19, 0x01, 0x1a, 0x07, 0x65, 0x12, 0x43,
  0xd8, 0x12, 0xbb, 0x08, 0xa6, 0x03, 0x2d, 0x3d, 0xff, 0x13, 0x7f, 0x1f,
  0xe3, 0x1c, 0x4b, 0xea, 0xac, 0x1c, 0x3e, 0x1a, 0x68, 0x4c, 0x44, 0x54,
  0x3a, 0x36, 0xe6, 0x23, 0x1a, 0x07, 0xcc, 0xba, 0xfe, 0x2b, 0xb8, 0xe0,
  0xd2, 0x37, 0xb8, 0x31, 0xd5, 0xdc, 0x07, 0x05, 0x1c, 0x22, 0xdb, 0xba,
  0x17, 0x52, 0xb5, 0xfd, 0x00, 0x3b, 0x4c, 0x31, 0x22, 0x9f, 0x04, 0x0c,
  0xf9, 0x1e, 0x32, 0x2b, 0xac, 0x20, 0x49, 0xcc, 0x58, 0x03, 0x4a, 0x06,
  0xeb, 0xe8, 0x1b, 0xdd, 0xfa, 0x45, 0xe8, 0xf2, 0x44, 0xde, 0xe5, 0xcb,
  0xa5, 0x1a, 0xc7, 0x28, 0x11, 0x23, 0xeb, 0xee, 0x35, 0x29, 0x33, 0xdd,
  0x31, 0xf4, 0xbb, 0x2d, 0xe5, 0x44, 0x08, 0x09, 0x19, 0xac, 0xab, 0x25,
  0x2d, 0xf0, 0x27, 0xd9, 0xb0, 0xec, 0x29, 0xe0, 0xe3, 0x44, 0xe6, 0x28,
  0xc4, 0x0d, 0xaa, 0xde, 0xef, 0xdf, 0xd1, 0xe0, 0x03, 0x50, 0x2a, 0x07,
  0xdf, 0xf4, 0xf8, 0x32, 0xea, 0x04, 0xf7, 0x50, 0x21, 0xc9, 0xfe, 0xdf,
  0xe2, 0x57, 0x07, 0x2b, 0x81, 0xd6, 0x1e, 0xcd, 0xff, 0x34, 0x25, 0xef,
  0x3d, 0xe7, 0xc9, 0x3e, 0xf9, 0x25, 0xd5, 0xfa, 0x9c, 0x27, 0x17, 0x46,
  0xd6, 0xdc, 0xec, 0x57, 0xd6, 0xe5, 0x0b, 0xf2, 0xe6, 0x4b, 0x25, 0xd2,
  0xf1, 0x16, 0x30, 0xf1, 0x11, 0x23, 0x5c, 0x01, 0x1c, 0xf9, 0xf0, 0xef,
  0xff, 0x38, 0xcd, 0x0c, 0xb0, 0xfb, 0xef, 0x37, 0xfd, 0xed, 0x32, 0x0e,
  0xee, 0xe3, 0xe6, 0x40, 0x3a, 0x54, 0x05, 0x0f, 0xa1, 0x33, 0xd6, 0x4e,
  0xfd, 0x44, 0x2c, 0x58, 0xde, 0x0c, 0xb6, 0x42, 0x0b, 0x11, 0xf1, 0xd4,
  0x02, 0xfb, 0xfc, 0xf8, 0x1a, 0x1a, 0x0f, 0x0b, 0xe9, 0xda, 0xc8, 0x5b,
  0x02, 0xd3, 0x2b, 0xd0, 0xc1, 0x33, 0xdc, 0x3b, 0x35, 0x3d, 0x18, 0xe0,
  0xe8, 0xfe, 0x08, 0x61, 0x1d, 0x37, 0x01, 0xc2, 0xe6, 0x25, 0x09, 0x07,
  0x39, 0x20, 0x38, 0xeb, 0xc3, 0x3a, 0xd2, 0x64, 0x15, 0x0f, 0x02, 0xe5,
  0xd9, 0x17, 0x1d, 0x4f, 0xd8, 0xce, 0x2b, 0x2e, 0x37, 0x54, 0xf5, 0xbd,
  0xed, 0x0c, 0xc0, 0xe4, 0xcd, 0x1a, 0xb8, 0x18, 0x1c, 0xb1, 0xc2, 0x1c,
  0x7f, 0xa7, 0xd0, 0xe8, 0x1a, 0xc9, 0x25, 0xd9, 0x04, 0xd1, 0x1e, 0xb9,
  0x21, 0x42, 0xdd, 0x02, 0x1c, 0x34, 0xc4, 0x47, 0x23, 0x4b, 0xb6, 0x47,
  0xe6, 0x1f, 0x13, 0x24, 0x49, 0xa8, 0xf7, 0x2b, 0x2e, 0xf9, 0x3c, 0x62,
  0xb8, 0xe0, 0x37, 0xc1, 0x10, 0x1a, 0x04, 0xeb, 0xf7, 0x1e, 0x2f, 0xf8,
  0x36, 0xb0, 0xec, 0x3e, 0x31, 0xbb, 0x1a, 0xc9, 0x6c, 0xd4, 0xc7, 0xad,
  0x16, 0x45, 0x13, 0xec, 0x35, 0x30, 0x1b, 0x17, 0xf5, 0x07, 0xc1, 0x10,
  0x39, 0x3d, 0x2f, 0x11, 0xc3, 0x1e, 0x63, 0xe8, 0x3f, 0x44, 0x0e, 0xe4,
  0xb7, 0xde, 0x0c, 0x29, 0x27, 0x39, 0xfa, 0x31, 0x38, 0x3e, 0xf9, 0x16,
  0x64, 0xdd, 0x39, 0x05, 0xe6, 0x09, 0x40, 0xf9, 0xfc, 0x1a, 0x12, 0xd2,
  0x15, 0xec, 0x55, 0xfe, 0x30, 0xe5, 0x3f, 0xd6, 0x51, 0x62, 0x0d, 0xd4,
  0xf3, 0x3e, 0x09, 0xe1, 0xe0, 0xc9, 0xde, 0x7f, 0xdc, 0xe2, 0x40, 0xd1,
  0x24, 0x2c, 0x15, 0xe4, 0x27, 0xd2, 0x2f, 0xc5, 0x14, 0x37, 0xe1, 0x30,
  0x4f, 0xca, 0xdb, 0xe3, 0x0d, 0xf2, 0xcf, 0x3c, 0x0b, 0xe1, 0x1b, 0x2e,
  0xe5, 0xc5, 0xff, 0xef, 0x17, 0xd6, 0xd8, 0x1c, 0xc8, 0xdb, 0xc8, 0x14,
  0x20, 0xc8, 0x19, 0x0f, 0x00, 0x36, 0xd0, 0xdc, 0x3e, 0x2a, 0xde, 0xb8,
  0xed, 0x41, 0x18, 0xea, 0x0b, 0x03, 0xe9, 0xc9, 0x1f, 0x12, 0x9e, 0xf3,
  0x0a, 0xf5, 0xe7, 0xde, 0xf1, 0xeb, 0x0e, 0xf1, 0x03, 0xfe, 0x0f, 0xcd,
  0xdf, 0x38, 0xa7, 0xf8, 0x3f, 0xcb, 0xb8, 0x05, 0x10, 0xb2, 0xd3, 0xfc,
  0x37, 0xb9, 0x0e, 0x36, 0x32, 0x1e, 0xc7, 0xab, 0xd1, 0x19, 0x3f, 0xd4,
  0xf7, 0xb3, 0x13, 0x2c, 0xfd, 0x15, 0x0c, 0xdf, 0xf3, 0xe3, 0xc0, 0xd0,
  0x47, 0x20, 0x18, 0x09, 0x0a, 0x46, 0x04, 0xd7, 0x0f, 0xd2, 0x02, 0x1a,
  0xd7, 0xe2, 0xc1, 0xe8, 0x2a, 0xec, 0xff, 0xff, 0x04, 0x00, 0x00, 0x00,
  0x40, 0x00, 0x00, 0x00, 0x21, 0x02, 0x00, 0x00, 0xc8, 0xf5, 0xff, 0xff,
  0x96, 0xfd, 0xff, 0xff, 0x32, 0x01, 0x00, 0x00, 0x4d, 0x04, 0x00, 0x00,
  0x22, 0x04, 0x00, 0x00, 0x3b, 0xfe, 0xff, 0xff, 0x70, 0xfd, 0xff, 0xff,
  0x5b, 0xf9, 0xff, 0xff, 0x6f, 0x01, 0x00, 0x00, 0xa2, 0x03, 0x00, 0x00,
  0x3f, 0x02, 0x00, 0x00, 0xde, 0x00, 0x00, 0x00, 0xa9, 0xfc, 0xff, 0xff,
  0xbf, 0x00, 0x00, 0x00, 0xd4, 0x03, 0x00, 0x00, 0x76, 0xec, 0xff, 0xff,
  0x04, 0x00, 0x00, 0x00, 0x00, 0x12, 0x00, 0x00, 0xee, 0xf7, 0x01, 0xea,
  0xfe, 0xd9, 0xfb, 0xdf, 0xf0, 0x06, 0xe3, 0x01, 0x10, 0xd9, 0xee, 0xdf,
  0xe6, 0xf2, 0x0a, 0xdc, 0xfb, 0xd3, 0xed, 0xde, 0xec, 0xfc, 0xff, 0x0d,
  0x1e, 0xdf, 0x1f, 0xd7, 0xf9, 0x0b, 0x0b, 0xc9, 0x00, 0xe3, 0xf8, 0x04,
  0xe4, 0xe1, 0xe5, 0x1a, 0x0d, 0xe1, 0x0d, 0x8e, 0xf4, 0xed, 0x04, 0xc1,
  0x0b, 0xd4, 0x09, 0xf5, 0xf1, 0xeb, 0xeb, 0x0d, 0xfc, 0xea, 0xfe, 0xf0,
  0xff, 0x0d, 0x0c, 0xee, 0xf7, 0xe1, 0xf5, 0x07, 0xe9, 0xec, 0xdb, 0x0a,
  0xbf, 0x0f, 0xd9, 0x2b, 0x0a, 0xfd, 0xf9, 0x29, 0x1d, 0xed, 0x17, 0xeb,
  0xe6, 0xc5, 0xc3, 0xea, 0xb5, 0x27, 0x90, 0x0d, 0xe8, 0x01, 0x13, 0xbf,
  0xf9, 0xed, 0x0d, 0xef, 0xf4, 0xd5, 0xfc, 0xfc, 0x1b, 0xf7, 0xbc, 0xfa,
  0xe4, 0x09, 0x03, 0xfe, 0xff, 0xf9, 0x02, 0xec, 0x0c, 0xfa, 0xed, 0x15,
  0xf6, 0x11, 0xb8, 0x17, 0x04, 0x13, 0xf5, 0xfc, 0xe9, 0xff, 0x0b, 0xef,
  0xf6, 0x07, 0xea, 0x14, 0xd2, 0xe8, 0xe6, 0x23, 0xe9, 0xfc, 0xf4, 0x59,
  0x00, 0xda, 0x05, 0xed, 0xf6, 0xea, 0xfc, 0x26, 0x40, 0xf5, 0x1a, 0x4a,
  0xeb, 0x06, 0xeb, 0x44, 0x06, 0xdf, 0xf8, 0xea, 0x13, 0xfe, 0xe5, 0x15,
  0x03, 0xfa, 0x39, 0x03, 0xdf, 0xff, 0xf7, 0xf7, 0xea, 0xec, 0xe4, 0xf7,
  0xe6, 0xea, 0xf9, 0x00, 0xfa, 0xec, 0xe5, 0xe9, 0x05, 0xf7, 0x1a, 0xf4,
  0x18, 0xe3, 0x03, 0xf7, 0x13, 0x21, 0x2c, 0x0c, 0x11, 0xf4, 0x33, 0xe7,
  0x29, 0x1d, 0x09, 0x17, 0x31, 0xe3, 0x18, 0x04, 0x13, 0xfc, 0x13, 0xf8,
  0x36, 0x02, 0x50, 0x0f, 0x15, 0xee, 0xf9, 0x02, 0x25, 0xc2, 0xff, 0x0d,
  0xf3, 0xc9, 0x2c, 0x04, 0x32, 0xdf, 0x37, 0x12, 0x39, 0xff, 0xf6, 0xde,
  0x22, 0xff, 0xf1, 0xe1, 0xef, 0xe5, 0xfb, 0x19, 0x16, 0xed, 0x47, 0x02,
  0x17, 0xef, 0xf4, 0xd4, 0x15, 0x00, 0xf8, 0xf8, 0xde, 0xe6, 0x37, 0xf6,
  0xf1, 0x09, 0x13, 0x16, 0x26, 0x05, 0xfb, 0x28, 0x0e, 0xfb, 0xfa, 0xf9,
  0xf3, 0xb7, 0x23, 0xf5, 0xe9, 0xff, 0xe4, 0x5c, 0x13, 0x06, 0x0c, 0x45,
  0x07, 0xcc, 0x05, 0x05, 0xe1, 0xd8, 0x0a, 0xf6, 0x20, 0x07, 0x1a, 0x3e,
  0x2f, 0xfe, 0x13, 0x37, 0x2b, 0xc8, 0x10, 0xee, 0x07, 0xed, 0x07, 0xf5,
  0x01, 0xee, 0x19, 0x53, 0x1f, 0xee, 0x1d, 0x38, 0x31, 0xe8, 0xf4, 0xe5,
  0x0a, 0xfe, 0x20, 0xed, 0x07, 0xf5, 0x57, 0x35, 0x1e, 0xf0, 0xe5, 0x27,
  0x2d, 0xef, 0xf8, 0xf3, 0x12, 0x0a, 0x5c, 0x04, 0x39, 0xd4, 0x33, 0xe9,
  0xfe, 0x12, 0xfc, 0x21, 0x12, 0xf4, 0xed, 0xf4, 0xf7, 0xfb, 0x2e, 0x00,
  0x31, 0xfd, 0x55, 0x06, 0xef, 0xf9, 0x18, 0xec, 0xeb, 0xd0, 0xeb, 0x07,
  0xd4, 0xde, 0x04, 0xfb, 0xf7, 0xfa, 0xf4, 0x01, 0x0a, 0x28, 0x2c, 0xe0,
  0x16, 0xdc, 0xfd, 0xdd, 0xfc, 0x1c, 0x3b, 0x16, 0x17, 0xe9, 0x2e, 0xd4,
  0x23, 0xfd, 0x2e, 0x04, 0x05, 0xc9, 0x09, 0xf9, 0xd6, 0x10, 0x36, 0x0e,
  0x17, 0xf3, 0x6d, 0x13, 0x1a, 0x21, 0x04, 0x0f, 0x18, 0xde, 0x16, 0xf1,
  0xff, 0xf4, 0x4b, 0x2e, 0x3d, 0xe0, 0x2a, 0xf8, 0x03, 0x04, 0x06, 0xff,
  0xef, 0x0e, 0xec, 0xe8, 0xe8, 0xe0, 0x20, 0xf6, 0x1d, 0x08, 0x5b, 0xee,
  0x14, 0x0d, 0x05, 0x1e, 0xf7, 0xeb, 0x0b, 0x0d, 0x02, 0xbe, 0x40, 0x0e,
  0x1a, 0xfe, 0x1c, 0x29, 0x18, 0xf5, 0xda, 0x1a, 0xf1, 0xe2, 0xef, 0x07,
  0xea, 0xe0, 0x54, 0xf4, 0x07, 0xfc, 0x32, 0x3e, 0x2a, 0x02, 0xec, 0x28,
  0x0d, 0xdd, 0xf1, 0x04, 0x11, 0xd1, 0xfa, 0xe8, 0x17, 0xf6, 0x24, 0x1d,
  0x37, 0x0e, 0xfc, 0x2d, 0x29, 0xe0, 0x0a, 0xf5, 0x04, 0xf9, 0x25, 0xf5,
  0x32, 0xfd, 0x4e, 0x01, 0x4e, 0x02, 0x1b, 0xff, 0x2b, 0xf3, 0x0c, 0xe9,
  0xfc, 0xdc, 0x10, 0x03, 0x33, 0x04, 0x5b, 0x08, 0x40, 0x17, 0x16, 0xd4,
  0x14, 0xc8, 0x0a, 0x0d, 0xee, 0x0a, 0x1e, 0x04, 0x48, 0xe3, 0x64, 0x00,
  0x22, 0x01, 0x16, 0xf7, 0x12, 0xec, 0x19, 0x0c, 0xf8, 0x01, 0x36, 0xee,
  0x27, 0xf3, 0x63, 0xd9, 0x45, 0xfe, 0x1d, 0xf5, 0x29, 0xd8, 0xee, 0xfb,
  0x03, 0xff, 0xf1, 0xf0, 0x02, 0xd7, 0x06, 0xcd, 0x0d, 0x22, 0x1e, 0xf3,
  0xfe, 0xee, 0x0c, 0x11, 0x03, 0xf8, 0x14, 0x23, 0xfb, 0x18, 0x00, 0xcd,
  0x13, 0x09, 0x26, 0x0a, 0xf2, 0xc4, 0x15, 0xf1, 0x00, 0xd8, 0xfc, 0x10,
  0x2e, 0xed, 0x58, 0x00, 0xf8, 0xfc, 0x13, 0x10, 0xd9, 0xe1, 0xf9, 0xe4,
  0xed, 0xd9, 0x0f, 0x0f, 0x2b, 0xfd, 0x41, 0xf8, 0x00, 0x01, 0x25, 0x25,
  0xe1, 0xd1, 0xf2, 0x07, 0xe9, 0xcf, 0xe8, 0x04, 0xfa, 0xfd, 0x74, 0x17,
  0x52, 0x00, 0x0b, 0x46, 0x01, 0xd8, 0xfe, 0x0a, 0x0d, 0xf3, 0x13, 0xeb,
  0x18, 0x08, 0x1b, 0x33, 0x2f, 0xfa, 0xf9, 0x08, 0xf1, 0xdd, 0xfb, 0x25,
  0xfc, 0x25, 0x59, 0xf7, 0x4f, 0x0f, 0x3f, 0x1b, 0x38, 0x0c, 0x0a, 0x2b,
  0x34, 0xc9, 0xfb, 0xfb, 0x05, 0x59, 0x14, 0x16, 0x09, 0x27, 0x4c, 0x15,
  0x3a, 0x07, 0x1c, 0x32, 0x19, 0xb7, 0x03, 0x08, 0x0c, 0x10, 0x3c, 0x1d,
  0x1c, 0x08, 0x22, 0x09, 0xf7, 0x10, 0x24, 0x24, 0xf9, 0xc7, 0xfe, 0x04,
  0xf7, 0xf7, 0x16, 0xfc, 0x35, 0xf2, 0x61, 0x0e, 0x00, 0x0f, 0x12, 0xf4,
  0xfb, 0xbf, 0xf7, 0xf9, 0xe8, 0xfd, 0xff, 0x1a, 0x0c, 0x01, 0x4d, 0x11,
  0xf0, 0x1c, 0x19, 0x17, 0xfc, 0x03, 0x16, 0x09, 0x07, 0xfb, 0xfa, 0xff,
  0x32, 0x0f, 0x25, 0xf5, 0x26, 0xfc, 0x17, 0xff, 0x0b, 0x09, 0xf4, 0x1e,
  0x15, 0xfa, 0x12, 0xf6, 0x08, 0xe7, 0xff, 0xee, 0xeb, 0x19, 0xff, 0xf6,
  0xd9, 0xf6, 0x03, 0xf2, 0xf6, 0x02, 0x03, 0x13, 0xd7, 0xed, 0x18, 0xf3,
  0xd1, 0xed, 0x26, 0x25, 0xc6, 0xcc, 0x04, 0xd8, 0xf4, 0xe5, 0xc7, 0x0b,
  0xdc, 0xff, 0xfd, 0x1b, 0x14, 0xe5, 0x00, 0x0f, 0xf4, 0xe8, 0xee, 0xee,
  0xf9, 0x11, 0x09, 0xfb, 0x1b, 0xdf, 0x0f, 0x0b, 0x18, 0xff, 0x16, 0x09,
  0x0f, 0xd6, 0x0d, 0xde, 0x14, 0x10, 0x14, 0x05, 0xfe, 0x08, 0x1a, 0xeb,
  0x1e, 0xf8, 0xf8, 0x39, 0xe0, 0xd8, 0xf8, 0x03, 0x2d, 0x0b, 0x08, 0xfe,
  0x09, 0x0a, 0xee, 0x03, 0x38, 0xe7, 0xeb, 0x08, 0x20, 0xe7, 0x0b, 0x17,
  0x23, 0x07, 0x3a, 0xe6, 0x09, 0x12, 0x27, 0xfe, 0x4a, 0x0f, 0x00, 0x2e,
  0x23, 0xf0, 0x01, 0xfb, 0x3f, 0x5d, 0x19, 0xfc, 0x0b, 0x2b, 0x38, 0xee,
  0x44, 0xf7, 0xff, 0x3a, 0x15, 0xdc, 0xec, 0xf3, 0x17, 0x3f, 0xf4, 0x05,
  0xfd, 0x13, 0x1a, 0x00, 0x07, 0xec, 0x0d, 0x01, 0xe5, 0xcd, 0x0b, 0x0c,
  0x27, 0x0d, 0xf8, 0x17, 0x01, 0x0b, 0x18, 0xfc, 0x19, 0x02, 0x21, 0x10,
  0xe0, 0xce, 0xf0, 0xfe, 0x02, 0x4c, 0x04, 0x02, 0xf9, 0xef, 0x0a, 0xe2,
  0xe4, 0x13, 0x15, 0x04, 0xfd, 0xf3, 0xfe, 0xf0, 0x00, 0xea, 0xd6, 0x10,
  0x11, 0x12, 0xe5, 0xfa, 0x21, 0x01, 0x0b, 0x19, 0xe6, 0xf3, 0x0f, 0xf8,
  0xfc, 0xf6, 0xf4, 0xe4, 0xfc, 0xef, 0x1f, 0xf2, 0x13, 0xf3, 0xfe, 0xfa,
  0x07, 0xeb, 0x00, 0x10, 0x1a, 0x17, 0xe5, 0x0d, 0xd6, 0xff, 0x26, 0xe7,
  0xe5, 0xf9, 0xfe, 0x0d, 0xc8, 0xbf, 0x08, 0xee, 0xf1, 0x24, 0xd5, 0x02,
  0xeb, 0xfc, 0xfb, 0xf7, 0x12, 0xe9, 0x02, 0x1c, 0xdd, 0xe5, 0x0d, 0xed,
  0xfa, 0x44, 0xfd, 0xeb, 0x23, 0x12, 0x28, 0x13, 0x27, 0xfb, 0x03, 0x0b,
  0x15, 0xfd, 0xfa, 0xf1, 0xf7, 0x35, 0xf2, 0xf5, 0xfa, 0x1c, 0x29, 0x17,
  0x33, 0xe7, 0x03, 0x05, 0x0b, 0xeb, 0x0d, 0x21, 0x05, 0x20, 0xfc, 0x01,
  0x0c, 0x21, 0xf7, 0x13, 0x53, 0xf8, 0xd9, 0xe6, 0x1d, 0xfe, 0x01, 0x15,
  0x24, 0x27, 0x3f, 0xe4, 0xee, 0x23, 0x20, 0x1b, 0x4d, 0x0a, 0xee, 0x0d,
  0x1c, 0xf9, 0x15, 0x1f, 0x0e, 0x1e, 0x28, 0xf4, 0x10, 0x35, 0x01, 0x22,
  0x1f, 0x0c, 0x07, 0x0e, 0x40, 0xc4, 0x11, 0xfb, 0x03, 0xfa, 0x0b, 0x0c,
  0xd7, 0x1b, 0x14, 0x1b, 0xef, 0xe1, 0x10, 0xf1, 0xf6, 0xd2, 0x0a, 0xed,
  0x0a, 0x07, 0x0f, 0xe8, 0x06, 0x14, 0x0a, 0xf0, 0xf6, 0xe8, 0x25, 0xe8,
  0xfa, 0xe0, 0x04, 0xe9, 0xff, 0x46, 0xf7, 0x10, 0xdf, 0xec, 0x16, 0xf9,
  0xff, 0xf7, 0x20, 0xe5, 0xe7, 0xe3, 0xee, 0xde, 0xf1, 0x37, 0xe9, 0xf2,
  0xec, 0xfe, 0xd4, 0xf6, 0xf5, 0x00, 0xfa, 0xea, 0xd2, 0x02, 0xf1, 0xe9,
  0x00, 0x0e, 0x05, 0x0d, 0xf8, 0x0a, 0xef, 0xe6, 0x06, 0x18, 0x18, 0xeb,
  0x01, 0x29, 0x15, 0x00, 0x02, 0x2e, 0x30, 0x0a, 0xf7, 0x0a, 0x49, 0x20,
  0x2b, 0xfa, 0x0c, 0xd5, 0x00, 0xe3, 0xf9, 0xe0, 0x01, 0x64, 0xf8, 0xfb,
  0xc6, 0xe6, 0x1e, 0xe3, 0x3d, 0x04, 0xf0, 0xdd, 0x11, 0xfc, 0xfc, 0xd6,
  0x07, 0x4a, 0xe8, 0x15, 0xfe, 0xef, 0x3e, 0xd7, 0x13, 0xec, 0xeb, 0xfb,
  0xf2, 0xe1, 0x0f, 0x14, 0xfa, 0x48, 0xf3, 0xe7, 0x00, 0xf3, 0x37, 0xf1,
  0x27, 0xff, 0xdd, 0xf7, 0xd8, 0xf6, 0xf9, 0x02, 0x1a, 0x18, 0x21, 0xdd,
  0x00, 0xf7, 0x23, 0xf7, 0x3d, 0x05, 0xe8, 0xe5, 0x0a, 0xf4, 0x05, 0x11,
  0xfc, 0x28, 0x33, 0xee, 0x23, 0x04, 0x35, 0x04, 0x23, 0xed, 0xea, 0x01,
  0x1d, 0xd6, 0xec, 0x05, 0x24, 0x0c, 0x52, 0xff, 0xed, 0xf5, 0x31, 0x28,
  0x10, 0xe8, 0xfa, 0xf4, 0x0f, 0xf1, 0xfc, 0xf7, 0x04, 0x0e, 0x13, 0xdb,
  0xf8, 0xfa, 0x2a, 0xf9, 0x38, 0x07, 0x04, 0xf2, 0x34, 0xe4, 0xf2, 0xf6,
  0xed, 0x27, 0xf3, 0xf5, 0xe9, 0xf0, 0x1e, 0x03, 0x39, 0x18, 0x20, 0xe3,
  0x0f, 0x02, 0xf8, 0x03, 0xed, 0x1e, 0x1d, 0x12, 0xf4, 0x05, 0x17, 0xfb,
  0x28, 0xf7, 0x17, 0xe7, 0x06, 0x12, 0xfa, 0xe0, 0xee, 0x2f, 0xf1, 0x18,
  0xf3, 0xf4, 0x03, 0xf4, 0x53, 0xf4, 0xfe, 0xef, 0x39, 0x09, 0xf6, 0xeb,
  0xfb, 0x35, 0x11, 0x2c, 0x02, 0x07, 0xf0, 0x0b, 0x12, 0x06, 0xf0, 0x1a,
  0x08, 0x05, 0xf6, 0x2b, 0x02, 0x38, 0x26, 0x21, 0x2f, 0xf7, 0x30, 0x08,
  0x0d, 0xf4, 0xf7, 0xb1, 0xf4, 0x08, 0x17, 0x15, 0x05, 0x49, 0x0d, 0x11,
  0xed, 0xf2, 0x4d, 0xe5, 0x0c, 0x09, 0xfa, 0xce, 0xe1, 0x02, 0x18, 0x0a,
  0x04, 0x26, 0xee, 0x03, 0x13, 0x0c, 0xf0, 0xce, 0x09, 0x09, 0xe9, 0xf6,
  0x17, 0xf0, 0x08, 0xee, 0xea, 0x52, 0xfc, 0xe5, 0xf6, 0xf5, 0x26, 0xd8,
  0x2b, 0xf2, 0xf1, 0xfa, 0xf1, 0xe3, 0xe6, 0x0b, 0x1c, 0x3a, 0x2d, 0xfe,
  0x0c, 0xf8, 0x22, 0xe4, 0x24, 0xd6, 0x01, 0x0a, 0xfd, 0xe4, 0xfc, 0x16,
  0x13, 0x23, 0x39, 0x01, 0x16, 0xf4, 0x3d, 0x09, 0x0b, 0xe0, 0x06, 0x04,
  0x15, 0xd3, 0x0b, 0x10, 0xf6, 0x1a, 0x0e, 0xe8, 0xff, 0x14, 0x45, 0xd8,
  0x06, 0xea, 0xe0, 0x0e, 0x19, 0xe6, 0xf1, 0xf7, 0xe3, 0x21, 0x0a, 0xcb,
  0x00, 0x03, 0x05, 0xda, 0x3b, 0x1a, 0xef, 0xf7, 0x43, 0x04, 0x14, 0x0e,
  0x0f, 0x32, 0x29, 0xef, 0xf6, 0x03, 0xee, 0xef, 0x2b, 0x13, 0x08, 0xff,
  0x03, 0x1d, 0x21, 0x08, 0xe9, 0x24, 0x01, 0xf7, 0x06, 0x10, 0x1b, 0xe4,
  0xf7, 0x0d, 0x2c, 0x1c, 0x12, 0xfd, 0x19, 0xec, 0xfc, 0x30, 0xd0, 0xff,
  0xed, 0x31, 0x18, 0x32, 0x44, 0xf4, 0x04, 0x27, 0x15, 0x09, 0x00, 0x1e,
  0xf9, 0x09, 0x14, 0xff, 0x04, 0xfe, 0xf4, 0x23, 0xe7, 0xf7, 0xf9, 0x02,
  0x13, 0xeb, 0x11, 0x26, 0x19, 0x0e, 0xf4, 0xf6, 0x12, 0x05, 0xfa, 0xdd,
  0xf1, 0xf1, 0x1d, 0xcf, 0xe7, 0xf1, 0x0b, 0x2c, 0x19, 0x07, 0x1a, 0x19,
  0x05, 0x03, 0x24, 0xff, 0x06, 0xf8, 0x08, 0xe1, 0x03, 0xd4, 0x0e, 0x04,
  0xf2, 0x0b, 0xf3, 0xf9, 0x13, 0x09, 0xf4, 0x08, 0x23, 0xec, 0x06, 0x04,
  0x20, 0xfc, 0x20, 0x0b, 0xe6, 0x3f, 0x04, 0xf2, 0x08, 0x09, 0x0e, 0x28,
  0x30, 0xed, 0xf9, 0xd9, 0x23, 0xe8, 0x08, 0x0c, 0xed, 0xef, 0x14, 0x0b,
  0x22, 0xf4, 0xed, 0xeb, 0x10, 0xe5, 0xee, 0xe1, 0x12, 0x0b, 0xf1, 0x11,
  0x04, 0x30, 0x25, 0xff, 0x1f, 0xfe, 0x16, 0xe1, 0x20, 0x04, 0x0d, 0x0c,
  0x28, 0x00, 0xfc, 0xe1, 0xec, 0x4a, 0x04, 0x0b, 0xd5, 0xf4, 0x2e, 0xe4,
  0x00, 0x12, 0xfc, 0x24, 0x25, 0xdd, 0xea, 0xe7, 0xeb, 0x17, 0x24, 0xd0,
  0xec, 0xf5, 0xec, 0xe4, 0xfe, 0xf2, 0xf3, 0x25, 0xfe, 0xe2, 0x02, 0x16,
  0x13, 0x30, 0x01, 0xee, 0x04, 0x16, 0x0a, 0x01, 0xec, 0x12, 0xfb, 0xe9,
  0xf9, 0xd3, 0x0c, 0xfa, 0xfa, 0x26, 0x1e, 0x00, 0x04, 0x0e, 0x1b, 0xea,
  0x0a, 0x12, 0x1b, 0x37, 0x1c, 0xe0, 0x19, 0xf7, 0xf4, 0x35, 0xe5, 0x0a,
  0xf2, 0x0b, 0x29, 0xf1, 0xfe, 0x03, 0x11, 0xf3, 0x53, 0xdb, 0x12, 0x1a,
  0xf8, 0x11, 0x2d, 0x1b, 0xfb, 0xfc, 0x2a, 0x1b, 0xe6, 0x07, 0x0b, 0x10,
  0xef, 0xf5, 0x08, 0xf1, 0x00, 0x03, 0x1e, 0xed, 0x07, 0xed, 0x12, 0xf3,
  0x04, 0x0f, 0x11, 0xb6, 0xfb, 0xfa, 0x17, 0xf6, 0x0c, 0x15, 0x16, 0x0e,
  0x11, 0xe4, 0x2c, 0xd0, 0x50, 0x0c, 0xee, 0xe7, 0xf9, 0xed, 0xf3, 0x0d,
  0x0c, 0xf9, 0x12, 0x0f, 0xee, 0x06, 0x33, 0xe5, 0xf6, 0xf8, 0x0f, 0xcb,
  0xfc, 0xce, 0xf6, 0xff, 0xf5, 0x13, 0x18, 0x0f, 0xfc, 0xf4, 0x1f, 0xe1,
  0x0e, 0xed, 0xea, 0xd0, 0xfc, 0xe0, 0xfa, 0xe9, 0xf8, 0xeb, 0x0d, 0xf4,
  0xf5, 0xe7, 0x0a, 0xfd, 0x47, 0xe9, 0xe1, 0xf7, 0x3b, 0xf6, 0xf5, 0xde,
  0xf2, 0x0b, 0xf3, 0xe8, 0x02, 0xf7, 0xf6, 0xfc, 0x3c, 0x03, 0x03, 0x10,
  0x1f, 0xf9, 0xe5, 0xf3, 0xe7, 0x52, 0x3d, 0xe8, 0xf4, 0x01, 0x19, 0x1c,
  0x03, 0xfa, 0xf1, 0xec, 0xe2, 0xda, 0x04, 0xe7, 0xea, 0x15, 0x16, 0xc8,
  0x01, 0x05, 0x39, 0xd0, 0x24, 0x09, 0xd6, 0x28, 0xe9, 0xee, 0xfe, 0xe3,
  0xfb, 0xea, 0x07, 0xdd, 0xfc, 0x08, 0xf9, 0xea, 0xf3, 0x17, 0xec, 0xf4,
  0xdd, 0x01, 0x05, 0xef, 0x13, 0xe6, 0x11, 0xec, 0x29, 0xf7, 0x0e, 0xed,
  0xf4, 0x12, 0x1f, 0xfe, 0xe6, 0xf9, 0x08, 0xe4, 0x2c, 0xeb, 0xe2, 0xfe,
  0xf8, 0x0e, 0x3c, 0xdd, 0xe1, 0x12, 0x06, 0x09, 0xf0, 0xe6, 0x10, 0x05,
  0x21, 0xf7, 0x00, 0x06, 0x07, 0xfe, 0xfe, 0xd3, 0xea, 0xf8, 0xfc, 0x09,
  0xf6, 0x00, 0x15, 0xef, 0x10, 0x08, 0x14, 0x23, 0x12, 0xfc, 0x06, 0xcf,
  0xc6, 0xf8, 0x02, 0xfd, 0xd2, 0xfb, 0xf8, 0x11, 0xf7, 0xe1, 0x00, 0xfb,
  0x2f, 0x05, 0x2d, 0x28, 0xf8, 0xf4, 0x0c, 0x18, 0xbc, 0x15, 0x09, 0xfb,
  0x0b, 0xf5, 0x17, 0x07, 0x37, 0xf5, 0x45, 0x1c, 0xd5, 0xfc, 0x04, 0xd5,
  0xe0, 0xf9, 0xee, 0x14, 0xfe, 0x27, 0xff, 0xf4, 0x1a, 0xf5, 0x61, 0xf1,
  0x17, 0x06, 0xe7, 0xe0, 0xd5, 0xf4, 0x07, 0xf5, 0x00, 0x1d, 0x1e, 0xf8,
  0x11, 0xf2, 0x3b, 0xe6, 0x0b, 0xe5, 0xd3, 0xfa, 0xcd, 0x0f, 0xdf, 0x0c,
  0xfa, 0xe4, 0x33, 0xbc, 0x05, 0xf9, 0x03, 0x21, 0x04, 0xd8, 0xd8, 0x03,
  0xa1, 0x04, 0xf7, 0xf5, 0xeb, 0x01, 0x14, 0xb4, 0x09, 0xed, 0x41, 0x1d,
  0x02, 0xfc, 0xf9, 0x1b, 0xd5, 0xf7, 0xe2, 0xf5, 0xef, 0x05, 0x1a, 0xc7,
  0xdc, 0x01, 0x60, 0x28, 0x13, 0x0e, 0xe3, 0x23, 0xd9, 0x10, 0xf2, 0x05,
  0x15, 0x07, 0x2e, 0xe5, 0x11, 0x10, 0x1c, 0xf9, 0x17, 0x03, 0x03, 0x37,
  0x03, 0xe1, 0x0f, 0xfb, 0x1c, 0xe8, 0x36, 0xf7, 0x49, 0xeb, 0x31, 0x0a,
  0xef, 0xf6, 0x09, 0x17, 0xec, 0xec, 0xf6, 0xee, 0x1e, 0xdd, 0x0f, 0xee,
  0x19, 0x0c, 0x42, 0x20, 0xef, 0xfd, 0xf0, 0x11, 0x1a, 0xe2, 0x06, 0x12,
  0x0a, 0xbd, 0xf8, 0x09, 0x12, 0xff, 0x07, 0x08, 0xee, 0x18, 0x29, 0xed,
  0xd6, 0x04, 0xe4, 0xf8, 0xfc, 0x29, 0xfa, 0x1d, 0x04, 0x08, 0x2a, 0xec,
  0xe8, 0x11, 0xfe, 0xe5, 0xe2, 0xee, 0xf8, 0xee, 0xf8, 0x15, 0x0e, 0x10,
  0xed, 0x01, 0x1a, 0xdd, 0xd0, 0x0c, 0x07, 0xf8, 0xc7, 0x1b, 0xed, 0x0b,
  0xec, 0x27, 0xf4, 0x16, 0x11, 0xfe, 0x67, 0xe9, 0xd9, 0x0c, 0xf9, 0x01,
  0xe3, 0xf6, 0xdb, 0xea, 0x00, 0x5a, 0x19, 0xfd, 0x0a, 0x00, 0x78, 0xea,
  0xfa, 0xff, 0xe8, 0x0b, 0xb4, 0x0a, 0xf4, 0x08, 0xf2, 0x3e, 0x3b, 0xf8,
  0x2f, 0xfa, 0x6a, 0xef, 0xca, 0xef, 0xe7, 0x25, 0x81, 0x15, 0xc4, 0xf7,
  0xeb, 0xe8, 0x23, 0xd9, 0xf8, 0x09, 0x17, 0x11, 0xfd, 0xd2, 0xf8, 0x22,
  0xa9, 0xf1, 0xe2, 0xf7, 0xe6, 0xf6, 0xe4, 0xc7, 0xe2, 0xfe, 0x3a, 0xf9,
  0x24, 0x02, 0xe8, 0x0d, 0xcd, 0x0f, 0xd3, 0xf9, 0x0a, 0x37, 0xfa, 0xfc,
  0xf0, 0xe5, 0x40, 0xdc, 0xec, 0xfb, 0x03, 0x12, 0xfc, 0x06, 0xe1, 0x0b,
  0x08, 0x25, 0xf0, 0xeb, 0x00, 0xf0, 0x46, 0xe8, 0x05, 0xff, 0x0c, 0x02,
  0xe9, 0xf1, 0xee, 0xfa, 0x0e, 0xfe, 0x11, 0x07, 0x0b, 0xf4, 0x28, 0xf8,
  0x01, 0x1a, 0x0e, 0x1a, 0xe8, 0x0f, 0xfa, 0xef, 0xf1, 0x01, 0x05, 0x06,
  0x01, 0x0b, 0x3a, 0xde, 0xc3, 0x07, 0x0a, 0xf1, 0xd3, 0xfc, 0xfa, 0x05,
  0x14, 0xc9, 0x00, 0xf6, 0x12, 0xfb, 0x1d, 0xd3, 0x00, 0x02, 0xf1, 0x03,
  0x11, 0x2f, 0xf6, 0x1a, 0x0d, 0xee, 0x07, 0xed, 0xdf, 0x20, 0x1d, 0x05,
  0xf4, 0xe9, 0xef, 0x22, 0xfd, 0x3a, 0x14, 0x08, 0xf9, 0xf2, 0xf7, 0xf9,
  0xed, 0x04, 0xf1, 0x1f, 0x1b, 0xf5, 0xf4, 0x29, 0x08, 0x22, 0xf9, 0x10,
  0x02, 0x0a, 0x09, 0x0c, 0xee, 0x0c, 0xfb, 0x69, 0x00, 0x07, 0xf5, 0x2e,
  0xf7, 0x13, 0xfe, 0x12, 0x1e, 0x0b, 0x11, 0x0e, 0xff, 0x1e, 0xfc, 0x0d,
  0x04, 0xea, 0x03, 0x11, 0x19, 0xfd, 0x0f, 0x17, 0x0c, 0x21, 0x37, 0xf7,
  0x42, 0x15, 0x2d, 0xd7, 0x03, 0xf2, 0xf7, 0xdf, 0xf3, 0x0f, 0xf0, 0x19,
  0x03, 0x2c, 0x4d, 0x0d, 0x4e, 0xee, 0x7f, 0x02, 0x1d, 0x09, 0x08, 0x3d,
  0xf7, 0xfa, 0xfe, 0x02, 0x0e, 0x2e, 0xfb, 0xf3, 0xf0, 0xf4, 0x27, 0x13,
  0xfe, 0xf7, 0x0b, 0x14, 0xfd, 0x04, 0x07, 0xfe, 0x17, 0x1d, 0x15, 0xfb,
  0x08, 0xfe, 0x2e, 0x0a, 0x04, 0xfc, 0xf7, 0xf7, 0xfc, 0xf8, 0x15, 0x20,
  0x1b, 0x06, 0x10, 0xef, 0x30, 0xfa, 0x0c, 0xfa, 0x19, 0xfb, 0x0b, 0xaf,
  0x0f, 0x19, 0x14, 0x05, 0xfa, 0xf5, 0x02, 0xf2, 0xba, 0x01, 0xee, 0xd5,
  0xf0, 0x18, 0x08, 0xc5, 0x08, 0x14, 0x1e, 0xfe, 0xf7, 0xf6, 0x0e, 0xf7,
  0xf3, 0x0b, 0xc3, 0xef, 0x19, 0x01, 0x0e, 0x0d, 0xf7, 0x24, 0x01, 0x19,
  0x1c, 0x08, 0xfd, 0xf8, 0x04, 0x26, 0x15, 0x0d, 0xf2, 0xfc, 0x03, 0x04,
  0xfd, 0x2d, 0x0f, 0x18, 0xeb, 0xdb, 0xd6, 0xf2, 0xf3, 0x1d, 0xe6, 0x2f,
  0xec, 0xfc, 0xfe, 0xf0, 0xea, 0x22, 0xed, 0x1b, 0xf9, 0xfc, 0xf1, 0xe6,
  0xf2, 0x15, 0xb6, 0x03, 0xe9, 0xf8, 0xf9, 0x11, 0xf0, 0x3b, 0xf4, 0x02,
  0x16, 0x2d, 0xd9, 0xe9, 0xce, 0x20, 0xc9, 0xec, 0xf3, 0x0d, 0xf1, 0x09,
  0xde, 0x0b, 0xf8, 0xff, 0xfb, 0x1b, 0xfc, 0xfd, 0xf6, 0x16, 0xe4, 0x06,
  0xf1, 0xef, 0x13, 0x19, 0xe9, 0x0e, 0xfa, 0xfc, 0x13, 0x31, 0xcd, 0x18,
  0x15, 0x0d, 0xe4, 0xd8, 0xe7, 0x05, 0x0d, 0xd1, 0xeb, 0x15, 0xfb, 0xf5,
  0x09, 0x38, 0xef, 0x13, 0x1d, 0xfe, 0x1b, 0xb9, 0xec, 0xea, 0xf4, 0xd6,
  0xe4, 0x2c, 0xf6, 0xf0, 0xf7, 0x28, 0xf9, 0x0c, 0xe7, 0x0f, 0xda, 0xc8,
  0xce, 0xfb, 0xf2, 0xb9, 0xec, 0x1d, 0x0f, 0x26, 0x1d, 0xf8, 0xf4, 0x0c,
  0x1a, 0x21, 0xe8, 0xd6, 0xcd, 0xf8, 0xf1, 0xcb, 0xe7, 0x18, 0xf8, 0x16,
  0x12, 0xfa, 0xed, 0xea, 0xea, 0x1a, 0xb2, 0xda, 0xcc, 0x10, 0xf8, 0xdf,
  0xd6, 0x22, 0x00, 0x08, 0xf4, 0xf4, 0xab, 0xf3, 0xc2, 0x0d, 0xcd, 0x1b,
  0x09, 0x10, 0x0e, 0xdf, 0xf0, 0x04, 0x15, 0x02, 0xf4, 0xe6, 0xeb, 0x17,
  0xd2, 0x0d, 0xab, 0xe2, 0x04, 0xfd, 0x0f, 0xf6, 0x0d, 0x1b, 0x1d, 0x0b,
  0x03, 0x13, 0xf3, 0xfb, 0x0d, 0x25, 0x05, 0x13, 0xe3, 0xeb, 0xfe, 0xf8,
  0xe4, 0x13, 0xfe, 0x12, 0x08, 0xd9, 0xe0, 0xe3, 0x05, 0x1a, 0xe8, 0x2d,
  0xe9, 0xef, 0xf5, 0x09, 0xdc, 0x2e, 0xfb, 0x1d, 0x11, 0xe8, 0xda, 0xe4,
  0xe5, 0x11, 0x9f, 0xfd, 0xf5, 0xf9, 0xf2, 0x05, 0xf1, 0x31, 0xf0, 0x1d,
  0x06, 0xf1, 0xcb, 0xe3, 0xd6, 0x1d, 0xd2, 0x15, 0xf4, 0xf6, 0x00, 0x11,
  0xf0, 0x07, 0xfd, 0x07, 0x06, 0x13, 0xc7, 0xeb, 0xe0, 0x0b, 0xc4, 0xf4,
  0xfc, 0xef, 0xed, 0xf4, 0x11, 0xfb, 0xf1, 0xed, 0x00, 0x3e, 0xc4, 0x0b,
  0xf0, 0x0d, 0xfb, 0xd3, 0xd7, 0x0a, 0x02, 0xe0, 0x12, 0xfd, 0x07, 0x03,
  0xfb, 0x32, 0xa7, 0x1d, 0xe0, 0x06, 0xe7, 0xe9, 0xe3, 0x0d, 0x00, 0xee,
  0xd7, 0x33, 0x1b, 0x0b, 0xf5, 0x28, 0xeb, 0x19, 0xe6, 0x0d, 0xc7, 0xe2,
  0xd0, 0xf4, 0xff, 0xf4, 0xf7, 0x1b, 0xf8, 0xfe, 0x02, 0x19, 0xd6, 0x03,
  0xd6, 0x01, 0xb3, 0x04, 0xb5, 0xfb, 0xeb, 0xfb, 0xf7, 0xfd, 0x12, 0x1a,
  0xe9, 0x0e, 0xe3, 0xdb, 0xd9, 0xf3, 0xb3, 0x08, 0xdd, 0xe7, 0xe6, 0x1e,
  0xd6, 0x27, 0xef, 0x0d, 0xf9, 0xe6, 0xd7, 0xfd, 0xc7, 0x2a, 0x9e, 0x05,
  0xe3, 0xfc, 0x00, 0x03, 0xe9, 0x2d, 0x05, 0x0d, 0x17, 0xf5, 0xd9, 0x03,
  0xeb, 0x1b, 0xa4, 0x13, 0xd2, 0xf5, 0xff, 0x1c, 0xcf, 0x26, 0x0b, 0xef,
  0x0e, 0xf6, 0x08, 0xf1, 0x09, 0x26, 0xfe, 0x37, 0x02, 0xf8, 0xd8, 0xee,
  0xec, 0x01, 0xfe, 0xff, 0x00, 0xf7, 0xe8, 0xf5, 0xe3, 0xe5, 0x0a, 0x14,
  0xfe, 0xe5, 0xda, 0xff, 0xf2, 0x17, 0xf0, 0x08, 0x0a, 0x27, 0xfc, 0xdf,
  0xc5, 0x0c, 0xbc, 0x05, 0x0e, 0xf2, 0xf9, 0xf4, 0x24, 0x16, 0xf6, 0x0f,
  0xf9, 0x2b, 0xee, 0xe8, 0xc2, 0xf4, 0xcc, 0xfb, 0x1f, 0x02, 0x05, 0x05,
  0x0f, 0x2a, 0xfc, 0x12, 0x17, 0x26, 0x08, 0xfe, 0xfe, 0x14, 0xa0, 0xe6,
  0xaf, 0xfe, 0xf1, 0xcb, 0xed, 0x16, 0x0d, 0x1c, 0xe7, 0xf9, 0xeb, 0x02,
  0xe0, 0x04, 0xf4, 0xe7, 0xf2, 0x08, 0x03, 0xf6, 0x0d, 0x3b, 0x0d, 0xde,
  0xf5, 0xf6, 0xa1, 0x17, 0xb2, 0x18, 0xaf, 0xff, 0xc5, 0xfe, 0xef, 0xd2,
  0xd0, 0x1b, 0x15, 0xfc, 0xfc, 0xca, 0xf7, 0x11, 0x0d, 0xe7, 0xa5, 0xfe,
  0xe0, 0xf5, 0xe6, 0xdb, 0xfa, 0x2a, 0x00, 0xf4, 0xf1, 0xf0, 0xd4, 0x07,
  0xc8, 0xe4, 0xcc, 0x09, 0x06, 0xf0, 0xfc, 0xe4, 0x13, 0x33, 0x14, 0xf1,
  0xe4, 0x00, 0x10, 0xf0, 0xe7, 0x00, 0xb8, 0xe3, 0xf7, 0xee, 0xe2, 0xf8,
  0xf9, 0x32, 0xed, 0x22, 0x04, 0x0f, 0xec, 0xdc, 0xe2, 0x15, 0xc7, 0xf3,
  0x11, 0x06, 0xf9, 0xfa, 0x0c, 0x1d, 0xff, 0x08, 0xfd, 0x10, 0xfc, 0xe6,
  0xe7, 0xf9, 0xe1, 0x02, 0xf5, 0x07, 0x05, 0x15, 0x02, 0x0f, 0xfd, 0xe9,
  0x0a, 0x04, 0xfd, 0xf5, 0xfd, 0x07, 0x07, 0x00, 0x19, 0x0a, 0xf4, 0xfc,
  0x08, 0x23, 0x08, 0x10, 0xfb, 0xff, 0x15, 0xee, 0x3a, 0x11, 0xe7, 0x07,
  0x1d, 0xf7, 0xf2, 0xf7, 0x14, 0x1a, 0x08, 0x21, 0x1f, 0xf9, 0x35, 0xf7,
  0x1c, 0x03, 0x0b, 0xfc, 0xe7, 0x16, 0xf2, 0xdd, 0x19, 0x13, 0xf9, 0x24,
  0x0f, 0xed, 0x15, 0xf8, 0xfe, 0x0f, 0xe8, 0xef, 0xed, 0x02, 0xed, 0xf6,
  0x01, 0x31, 0xf6, 0x15, 0x0b, 0xfb, 0xf0, 0xf1, 0x0b, 0x18, 0xdc, 0x29,
  0xf0, 0xf5, 0x13, 0xd6, 0x24, 0x13, 0x0a, 0xee, 0xef, 0xfb, 0xf9, 0x12,
  0xe8, 0x05, 0x01, 0xe2, 0xb5, 0xf7, 0x1f, 0x18, 0xf2, 0x27, 0xfd, 0xdc,
  0xe8, 0x0f, 0xe9, 0x2c, 0xf5, 0xe2, 0xc5, 0xf7, 0xbe, 0x00, 0x0b, 0xbd,
  0xe4, 0x09, 0x16, 0xf3, 0xd4, 0xc6, 0xe8, 0xf8, 0x10, 0xf5, 0xd5, 0x0d,
  0xd5, 0x09, 0xf0, 0xe6, 0xf5, 0x38, 0xff, 0xfb, 0xff, 0xc0, 0x09, 0xfc,
  0xf7, 0x09, 0xda, 0xfc, 0xf2, 0x0b, 0xf8, 0xfb, 0x14, 0x45, 0xf4, 0x0f,
  0x00, 0xf6, 0xff, 0xf6, 0xeb, 0xf6, 0xe0, 0x10, 0xeb, 0xf8, 0xdc, 0xff,
  0x0e, 0x41, 0x03, 0xf3, 0x09, 0xcf, 0x0b, 0xfd, 0x0f, 0x11, 0xfa, 0xf9,
  0x0c, 0x11, 0xd9, 0x02, 0x07, 0x09, 0xf3, 0x0d, 0x07, 0x1f, 0x3e, 0xf7,
  0xfd, 0xe5, 0x11, 0xf5, 0xe2, 0xff, 0x05, 0x04, 0x0a, 0xf7, 0xf0, 0x04,
  0xfe, 0x25, 0xfd, 0x10, 0x0b, 0xee, 0xe8, 0x00, 0xf9, 0xf4, 0xe7, 0x12,
  0x1e, 0x0a, 0x05, 0x07, 0xf4, 0xd0, 0x18, 0x08, 0x25, 0x0e, 0xc2, 0x1f,
  0x1f, 0x02, 0x02, 0x10, 0x36, 0x1c, 0x0f, 0x11, 0x15, 0xc5, 0x31, 0x03,
  0x17, 0x14, 0x0a, 0x0a, 0x01, 0xfb, 0xfa, 0xe5, 0x0d, 0x10, 0x03, 0xfd,
  0x0f, 0xc2, 0xfe, 0x18, 0xed, 0x0b, 0xd2, 0xe9, 0xdb, 0x13, 0xfd, 0xfc,
  0xd9, 0x0e, 0x0c, 0x12, 0xf6, 0xd3, 0x04, 0x0f, 0xed, 0xef, 0xe2, 0x00,
  0xea, 0x09, 0x08, 0xee, 0xee, 0x20, 0xf6, 0xe5, 0xdd, 0xf6, 0xe0, 0xf5,
  0x0f, 0xe6, 0x0f, 0xe9, 0xbd, 0x02, 0x1f, 0xfa, 0xe1, 0x12, 0xf0, 0xec,
  0xeb, 0xd7, 0xdc, 0x11, 0x04, 0xd7, 0xfa, 0xef, 0xcc, 0x0d, 0xff, 0xdf,
  0xce, 0x0a, 0xec, 0xf3, 0xd9, 0xcf, 0xf1, 0x09, 0x04, 0xe6, 0xe2, 0xf4,
  0xe8, 0xf9, 0xf6, 0xd6, 0xdd, 0x31, 0x01, 0xf8, 0xe5, 0x06, 0xfd, 0x0f,
  0x0b, 0xf9, 0xf9, 0xe3, 0x2f, 0x13, 0xde, 0xee, 0x11, 0x1a, 0x04, 0xf7,
  0xfa, 0x0a, 0x0b, 0xfc, 0x0d, 0x0f, 0x05, 0x17, 0x16, 0x17, 0xdb, 0x0a,
  0xff, 0x0f, 0x14, 0x1e, 0x24, 0x9d, 0xfd, 0xfa, 0x1b, 0xf7, 0xf4, 0x0c,
  0xfd, 0x15, 0xe5, 0x27, 0x14, 0xfe, 0x0b, 0x01, 0x0e, 0xe8, 0x14, 0x0d,
  0x0a, 0x1a, 0x15, 0xfd, 0xf2, 0x06, 0x08, 0x0b, 0x2a, 0xeb, 0x18, 0x0d,
  0x14, 0x05, 0x20, 0x17, 0xf5, 0xf0, 0x0f, 0xff, 0x06, 0x01, 0xf8, 0x07,
  0x0b, 0xe7, 0xf5, 0x00, 0xf1, 0xda, 0xd9, 0xf7, 0x0c, 0x0f, 0xc9, 0xe9,
  0xe4, 0xee, 0xf8, 0x2a, 0xf9, 0xfb, 0xff, 0x18, 0x21, 0xbc, 0x21, 0xf9,
  0x2a, 0x18, 0xe2, 0x1c, 0xcd, 0x03, 0x0e, 0x12, 0xe3, 0x19, 0x04, 0x1f,
  0xfc, 0xc1, 0x06, 0xf3, 0xdb, 0x07, 0xda, 0x26, 0xd9, 0x0c, 0x13, 0x11,
  0xf3, 0x1c, 0x0c, 0x11, 0x00, 0xbc, 0xf5, 0x03, 0x01, 0xf8, 0xbe, 0xf3,
  0xf4, 0x17, 0x01, 0x1d, 0x22, 0x11, 0xf4, 0xf2, 0x04, 0xdd, 0xef, 0x25,
  0xe3, 0xf3, 0xec, 0x05, 0xcb, 0x14, 0x0e, 0x0a, 0xd1, 0x1b, 0xf9, 0xe5,
  0x03, 0xcc, 0xdc, 0x2e, 0xec, 0x0d, 0xd3, 0xef, 0xe3, 0x1e, 0x16, 0x19,
  0xf1, 0x0c, 0x0f, 0x01, 0x01, 0xe8, 0xbd, 0x17, 0x09, 0xff, 0xef, 0xe1,
  0xed, 0x20, 0xf8, 0xff, 0xf8, 0x16, 0x11, 0xf1, 0xfb, 0xff, 0x07, 0x0c,
  0x14, 0x09, 0xf7, 0x10, 0xd8, 0xf9, 0x06, 0x08, 0xc1, 0x12, 0x13, 0x08,
  0xf5, 0xb8, 0x18, 0x06, 0x04, 0x16, 0x00, 0xe4, 0xe5, 0xff, 0xe8, 0x24,
  0xdc, 0xfa, 0xee, 0x16, 0x02, 0xf2, 0xd6, 0xf8, 0x05, 0x14, 0xf6, 0x02,
  0xe6, 0xef, 0xff, 0x05, 0xf3, 0xfa, 0x04, 0x1c, 0x08, 0xd2, 0x06, 0xfe,
  0x09, 0xf8, 0xf3, 0x15, 0xb7, 0xf1, 0xf7, 0x0a, 0xd2, 0xf7, 0x00, 0xfa,
  0x0f, 0xe5, 0xf2, 0xd7, 0x11, 0xfb, 0x04, 0x07, 0xe1, 0xee, 0x0b, 0xf3,
  0xdd, 0xec, 0xf2, 0xf1, 0xfc, 0xd4, 0xdd, 0xf6, 0xeb, 0xf2, 0xce, 0x03,
  0xd6, 0xf0, 0x06, 0x2d, 0xf6, 0xfd, 0xf0, 0x01, 0x08, 0xe1, 0xf2, 0xfd,
  0x07, 0x13, 0xbc, 0xfb, 0x14, 0xec, 0x14, 0x28, 0x18, 0x06, 0x07, 0xf4,
  0xed, 0xdf, 0x08, 0xfc, 0xf9, 0xf4, 0x17, 0x2e, 0xdc, 0xfc, 0x08, 0x29,
  0xf2, 0x0d, 0xed, 0x06, 0x02, 0xc3, 0xf5, 0x03, 0xf9, 0xfc, 0xe5, 0x11,
  0xec, 0x20, 0xfc, 0x0c, 0x0a, 0x1a, 0x12, 0xfa, 0xf3, 0xcd, 0xe2, 0x09,
  0xf6, 0xf3, 0xd9, 0x13, 0xf9, 0x22, 0x15, 0x0f, 0x08, 0x0b, 0x0d, 0x01,
  0xfe, 0xdc, 0xd0, 0x04, 0xda, 0x09, 0xcd, 0xfe, 0xeb, 0x1d, 0x19, 0x0c,
  0xf7, 0x19, 0xed, 0x0e, 0xfb, 0xf3, 0xeb, 0xfb, 0xfe, 0x04, 0xbd, 0x14,
  0x00, 0xf5, 0x0b, 0xf3, 0xe0, 0x12, 0xf7, 0x0e, 0xf5, 0xdc, 0xf8, 0x0f,
  0x10, 0xf9, 0xfa, 0x18, 0xc5, 0x0b, 0x0a, 0xe6, 0xe0, 0xf9, 0xfd, 0x12,
  0x10, 0xb2, 0xc0, 0x0c, 0x12, 0xe6, 0xfb, 0x11, 0xda, 0xf1, 0xfd, 0x12,
  0xf8, 0xfb, 0xf8, 0x0a, 0xf6, 0xf8, 0x06, 0xee, 0xee, 0xfc, 0xec, 0x1b,
  0xf9, 0xe6, 0xe2, 0xf6, 0xda, 0xfe, 0xf5, 0x02, 0x03, 0xd2, 0x26, 0x02,
  0x03, 0xec, 0xf6, 0xdf, 0xd3, 0xe7, 0xe8, 0xfe, 0xe6, 0xf9, 0x0a, 0xea,
  0xf9, 0xea, 0xe9, 0xf3, 0xfe, 0x02, 0xea, 0xff, 0x11, 0xfe, 0xfe, 0xe4,
  0x0a, 0xf6, 0xea, 0xed, 0xff, 0x10, 0xff, 0x0d, 0xea, 0xfd, 0xf0, 0x09,
  0x2c, 0xf5, 0xff, 0x15, 0x00, 0x1d, 0xed, 0xd4, 0xee, 0xd8, 0xec, 0xf2,
  0xf7, 0xf8, 0xe6, 0x11, 0x11, 0x04, 0xee, 0x1b, 0x01, 0x07, 0x06, 0x14,
  0x13, 0xf5, 0x0b, 0xf8, 0xf5, 0xf9, 0xfd, 0x0b, 0xeb, 0x01, 0x1b, 0x12,
  0xeb, 0x29, 0xf9, 0xe4, 0x1d, 0xe8, 0xf0, 0xed, 0x03, 0xed, 0xff, 0xdb,
  0xef, 0x19, 0x09, 0x3c, 0xf1, 0xfe, 0x04, 0x01, 0xfa, 0xfa, 0xd4, 0xec,
  0xd6, 0x19, 0x18, 0x03, 0xe1, 0x1e, 0x03, 0x03, 0xf9, 0xfd, 0x11, 0xeb,
  0x0d, 0xbe, 0xe0, 0x00, 0xdf, 0x08, 0xd8, 0x2b, 0xe9, 0x20, 0x07, 0xf2,
  0xdb, 0xeb, 0x09, 0x2e, 0x17, 0xb9, 0xf9, 0xfa, 0x29, 0x0f, 0xca, 0x1a,
  0x07, 0x12, 0x13, 0xe6, 0xee, 0x16, 0xf4, 0x0c, 0x1e, 0xff, 0xdc, 0x2a,
  0x0f, 0x0f, 0xf7, 0x23, 0x03, 0xef, 0x15, 0xdb, 0xf5, 0x01, 0x00, 0xff,
  0x0d, 0xe1, 0xeb, 0x01, 0xfe, 0x00, 0xf0, 0xe0, 0xff, 0x0a, 0x16, 0xef,
  0x0a, 0x07, 0xe8, 0x10, 0x07, 0xde, 0xee, 0x03, 0xe5, 0xf4, 0xd7, 0xf3,
  0x12, 0x07, 0xe2, 0xd2, 0xe0, 0x13, 0xfa, 0x12, 0x06, 0xd9, 0x06, 0x0e,
  0xec, 0xfb, 0xcf, 0x07, 0xea, 0xed, 0xf2, 0x03, 0xad, 0x04, 0xee, 0x02,
  0xea, 0xec, 0xda, 0xdc, 0xe7, 0xf5, 0xd6, 0xed, 0x0a, 0xe6, 0x12, 0xfd,
  0x14, 0x1f, 0x06, 0x02, 0xfa, 0xf1, 0xe8, 0x0b, 0xe2, 0x09, 0x07, 0xf2,
  0xf5, 0x00, 0x10, 0x3b, 0x11, 0x19, 0xf7, 0xf0, 0x04, 0xe9, 0xec, 0xf4,
  0xfe, 0x0f, 0xdf, 0x14, 0xba, 0x09, 0x0d, 0x2d, 0xfe, 0x03, 0x11, 0xfc,
  0xf3, 0x0b, 0x07, 0xe9, 0x09, 0xf3, 0xda, 0x1f, 0xf0, 0xfb, 0x13, 0x33,
  0x00, 0x1d, 0x05, 0xed, 0xfd, 0xdb, 0xfe, 0xfa, 0xf2, 0x10, 0xc1, 0x1d,
  0xfd, 0xf8, 0x04, 0x38, 0xe9, 0x1a, 0x08, 0x0b, 0xfe, 0x02, 0xe9, 0x0e,
  0x04, 0x24, 0xe3, 0x06, 0xc2, 0x14, 0x22, 0x16, 0xe5, 0x00, 0xf8, 0x10,
  0x1f, 0xe9, 0xfd, 0x0c, 0xfa, 0x0c, 0x18, 0xf0, 0xbf, 0x0b, 0x1b, 0x0c,
  0xeb, 0x09, 0x0d, 0x08, 0x1c, 0xd6, 0xe2, 0x0b, 0x1b, 0x01, 0xd3, 0xfc,
  0xfb, 0x01, 0x26, 0x0d, 0x00, 0x0c, 0xee, 0x02, 0x10, 0xf3, 0xfc, 0x20,
  0x0b, 0x18, 0xde, 0x2f, 0xea, 0x02, 0x17, 0xe7, 0x00, 0x2d, 0xe8, 0x1b,
  0xf7, 0x1a, 0x0e, 0x19, 0x00, 0xf0, 0xe4, 0x26, 0x0b, 0xfa, 0xff, 0x08,
  0x14, 0x1d, 0xf5, 0xfa, 0xe2, 0x05, 0xf8, 0x05, 0xd5, 0x07, 0xe6, 0x32,
  0x17, 0xe7, 0xed, 0xed, 0x0a, 0x1f, 0x10, 0x17, 0xf2, 0x19, 0x0e, 0x0c,
  0xf6, 0x0b, 0xe4, 0x3b, 0x10, 0xe3, 0xf0, 0xff, 0x0c, 0x30, 0xfe, 0xf7,
  0xdd, 0x0c, 0x00, 0xe6, 0xf3, 0xf8, 0x03, 0x3c, 0x25, 0xfe, 0xe9, 0x00,
  0x27, 0xf9, 0xe9, 0x05, 0xe2, 0x01, 0xea, 0xe6, 0xdd, 0x11, 0xfa, 0x06,
  0x22, 0x0e, 0xf7, 0x0a, 0x2f, 0xf2, 0xe8, 0x08, 0x20, 0x2b, 0xf8, 0xea,
  0xf6, 0x07, 0xf8, 0xe7, 0x01, 0xf7, 0xf5, 0xf5, 0x1f, 0x00, 0x08, 0x01,
  0xe5, 0x00, 0xdf, 0xea, 0xbf, 0xf8, 0xde, 0xfc, 0x26, 0x14, 0xfc, 0x28,
  0x12, 0x00, 0xf6, 0x05, 0xf9, 0xe3, 0xf3, 0x07, 0xf1, 0xfb, 0xa8, 0x08,
  0xd4, 0xfb, 0x26, 0x24, 0x2b, 0x03, 0x0d, 0xfd, 0x18, 0xef, 0xe6, 0x14,
  0xf8, 0x05, 0xc6, 0x14, 0xfa, 0x0f, 0x20, 0xfd, 0x4a, 0xf1, 0x1f, 0x04,
  0xfc, 0x03, 0xdc, 0x17, 0x19, 0xfc, 0xe7, 0xda, 0x0d, 0x12, 0x25, 0xe1,
  0x44, 0xdf, 0x1c, 0xf2, 0xec, 0xfb, 0xe1, 0x30, 0x09, 0x14, 0xd7, 0xd0,
  0x05, 0xfe, 0x0a, 0xdb, 0x41, 0x0b, 0x1a, 0x18, 0x0a, 0xf3, 0xd5, 0x2a,
  0x17, 0xf5, 0xb3, 0xd3, 0xd6, 0xf5, 0x15, 0xdf, 0x07, 0xfb, 0xfc, 0x17,
  0xee, 0x02, 0xe5, 0x16, 0xfe, 0x11, 0xe5, 0x01, 0xe9, 0x04, 0xff, 0xd0,
  0xfc, 0x0e, 0xfd, 0xe9, 0xf8, 0x23, 0xdb, 0x0a, 0xc9, 0x0c, 0xc3, 0x08,
  0x05, 0x02, 0x00, 0xf5, 0x1a, 0x12, 0x01, 0x07, 0xf7, 0x16, 0xeb, 0x02,
  0xfa, 0xf8, 0xac, 0xdd, 0x14, 0xe1, 0x08, 0xdc, 0xe8, 0x0a, 0xe8, 0xff,
  0xe7, 0x2f, 0xe9, 0xf1, 0xdd, 0xff, 0xf8, 0xeb, 0x02, 0x11, 0xdc, 0x08,
  0x2b, 0x03, 0x11, 0x0a, 0x0d, 0xe1, 0xf1, 0xca, 0x02, 0x1a, 0xf8, 0x01,
  0x19, 0xfd, 0xf1, 0x06, 0x12, 0xf2, 0xfa, 0x13, 0x0b, 0x08, 0xdd, 0xd1,
  0x09, 0x09, 0xd6, 0x0c, 0x28, 0xfe, 0xef, 0xec, 0x28, 0xe9, 0x19, 0x0e,
  0x0b, 0xdb, 0x08, 0xe2, 0xdc, 0xff, 0xa0, 0x15, 0x10, 0x12, 0xf7, 0x0d,
  0x2f, 0xf8, 0x14, 0x12, 0xf9, 0xad, 0x06, 0x06, 0xfb, 0x0e, 0x9c, 0xfc,
  0x12, 0x05, 0x05, 0xfb, 0x3a, 0xf7, 0x06, 0x08, 0x19, 0xe3, 0xf0, 0xf9,
  0xe5, 0xf5, 0x91, 0x20, 0x3d, 0x16, 0x1b, 0xef, 0x7b, 0x05, 0x30, 0x00,
  0x0e, 0xfc, 0xe3, 0x18, 0xfa, 0x1d, 0xe0, 0xf1, 0x04, 0x0b, 0x16, 0xdc,
  0x4e, 0xf5, 0x13, 0xfc, 0x08, 0xfa, 0xff, 0x24, 0x1d, 0x06, 0xe4, 0x09,
  0xe1, 0x03, 0xff, 0x03, 0x0d, 0x05, 0x11, 0x1c, 0xfc, 0xe5, 0x1a, 0x00,
  0x13, 0x0a, 0xd4, 0x09, 0x01, 0xeb, 0xef, 0xeb, 0x12, 0xfb, 0x18, 0x1b,
  0xf4, 0xda, 0xf9, 0x08, 0x0a, 0xfd, 0xcf, 0x16, 0xf4, 0x09, 0xf1, 0xed,
  0x2d, 0x0a, 0x03, 0x15, 0xf7, 0x01, 0xeb, 0xff, 0xe7, 0x13, 0xcd, 0x1a,
  0x18, 0xde, 0x06, 0xe9, 0x29, 0x14, 0x01, 0x08, 0xf8, 0x03, 0x0e, 0xf3,
  0x0e, 0x0c, 0xb8, 0x15, 0x32, 0xed, 0x0f, 0x0f, 0x17, 0xf8, 0x0f, 0x10,
  0xf9, 0x1f, 0xf8, 0xff, 0xfe, 0xfb, 0x06, 0x24, 0x82, 0xfe, 0xff, 0xff,
  0x04, 0x00, 0x00, 0x00, 0x08, 0x00, 0x00, 0x00, 0x55, 0xfe, 0xff, 0xff,
  0x87, 0x01, 0x00, 0x00, 0x96, 0xfe, 0xff, 0xff, 0x04, 0x00, 0x00, 0x00,
  0x04, 0x00, 0x00, 0x00, 0x00, 0x09, 0x00, 0x00, 0xa6, 0xfe, 0xff, 0xff,
  0x04, 0x00, 0x00, 0x00, 0x04, 0x00, 0x00, 0x00, 0x01, 0x00, 0x00, 0x00,
  0xb6, 0xfe, 0xff, 0xff, 0x04, 0x00, 0x00, 0x00, 0x04, 0x00, 0x00, 0x00,
  0x00, 0x00, 0x00, 0x00, 0xcc, 0xea, 0xff, 0xff, 0xd0, 0xea, 0xff, 0xff,
  0x0f, 0x00, 0x00, 0x00, 0x4d, 0x4c, 0x49, 0x52, 0x20, 0x43, 0x6f, 0x6e,
  0x76, 0x65, 0x72, 0x74, 0x65, 0x64, 0x2e, 0x00, 0x01, 0x00, 0x00, 0x00,
  0x14, 0x00, 0x00, 0x00, 0x00, 0x00, 0x0e, 0x00, 0x18, 0x00, 0x14, 0x00,
  0x10, 0x00, 0x0c, 0x00, 0x08, 0x00, 0x04, 0x00, 0x0e, 0x00, 0x00, 0x00,
  0x14, 0x00, 0x00, 0x00, 0x1c, 0x00, 0x00, 0x00, 0x54, 0x03, 0x00, 0x00,
  0x58, 0x03, 0x00, 0x00, 0x5c, 0x03, 0x00, 0x00, 0x04, 0x00, 0x00, 0x00,
  0x6d, 0x61, 0x69, 0x6e, 0x00, 0x00, 0x00, 0x00, 0x0c, 0x00, 0x00, 0x00,
  0xf0, 0x02, 0x00, 0x00, 0x90, 0x02, 0x00, 0x00, 0x40, 0x02, 0x00, 0x00,
  0x00, 0x02, 0x00, 0x00, 0xb0, 0x01, 0x00, 0x00, 0x70, 0x01, 0x00, 0x00,
  0x34, 0x01, 0x00, 0x00, 0xe4, 0x00, 0x00, 0x00, 0xa4, 0x00, 0x00, 0x00,
  0x7c, 0x00, 0x00, 0x00, 0x38, 0x00, 0x00, 0x00, 0x04, 0x00, 0x00, 0x00,
  0x32, 0xfe, 0xff, 0xff, 0x14, 0x00, 0x00, 0x00, 0x00, 0x00, 0x00, 0x09,
  0x14, 0x00, 0x00, 0x00, 0x18, 0x00, 0x00, 0x00, 0x07, 0x00, 0x00, 0x00,
  0x6a, 0xff, 0xff, 0xff, 0x00, 0x00, 0x80, 0x3f, 0x01, 0x00, 0x00, 0x00,
  0x17, 0x00, 0x00, 0x00, 0x01, 0x00, 0x00, 0x00, 0x16, 0x00, 0x00, 0x00,
  0x62, 0xfe, 0xff, 0xff, 0x14, 0x00, 0x00, 0x00, 0x00, 0x00, 0x00, 0x08,
  0x10, 0x00, 0x00, 0x00, 0x14, 0x00, 0x00, 0x00, 0x06, 0x00, 0x00, 0x00,
  0xa0, 0xeb, 0xff, 0xff, 0x01, 0x00, 0x00, 0x00, 0x16, 0x00, 0x00, 0x00,
  0x03, 0x00, 0x00, 0x00, 0x15, 0x00, 0x00, 0x00, 0x05, 0x00, 0x00, 0x00,
  0x04, 0x00, 0x00, 0x00, 0x00, 0x00, 0x0a, 0x00, 0x10, 0x00, 0x0c, 0x00,
  0x08, 0x00, 0x04, 0x00, 0x0a, 0x00, 0x00, 0x00, 0x0c, 0x00, 0x00, 0x00,
  0x10, 0x00, 0x00, 0x00, 0x05, 0x00, 0x00, 0x00, 0x01, 0x00, 0x00, 0x00,
  0x15, 0x00, 0x00, 0x00, 0x02, 0x00, 0x00, 0x00, 0x11, 0x00, 0x00, 0x00,
  0x14, 0x00, 0x00, 0x00, 0x3e, 0xfe, 0xff, 0xff, 0x1c, 0x00, 0x00, 0x00,
  0x00, 0x00, 0x00, 0x3b, 0x1c, 0x00, 0x00, 0x00, 0x20, 0x00, 0x00, 0x00,
  0x04, 0x00, 0x00, 0x00, 0x00, 0x00, 0x06, 0x00, 0x08, 0x00, 0x04, 0x00,
  0x06, 0x00, 0x00, 0x00, 0x02, 0x00, 0x00, 0x00, 0x01, 0x00, 0x00, 0x00,
  0x14, 0x00, 0x00, 0x00, 0x02, 0x00, 0x00, 0x00, 0x13, 0x00, 0x00, 0x00,
  0x03, 0x00, 0x00, 0x00, 0x7a, 0xfe, 0xff, 0xff, 0x24, 0x00, 0x00, 0x00,
  0x00, 0x00, 0x00, 0x20, 0x24, 0x00, 0x00, 0x00, 0x28, 0x00, 0x00, 0x00,
  0x03, 0x00, 0x00, 0x00, 0x00, 0x00, 0x0e, 0x00, 0x08, 0x00, 0x00, 0x00,
  0x00, 0x00, 0x00, 0x00, 0x00, 0x00, 0x04, 0x00, 0x0e, 0x00, 0x00, 0x00,
  0x01, 0x00, 0x00, 0x00, 0x01, 0x00, 0x00, 0x00, 0x13, 0x00, 0x00, 0x00,
  0x04, 0x00, 0x00, 0x00, 0x12, 0x00, 0x00, 0x00, 0x01, 0x00, 0x00, 0x00,
  0x02, 0x00, 0x00, 0x00, 0x02, 0x00, 0x00, 0x00, 0xc6, 0xfe, 0xff, 0xff,
  0x1c, 0x00, 0x00, 0x00, 0x00, 0x00, 0x00, 0x37, 0x1c, 0x00, 0x00, 0x00,
  0x20, 0x00, 0x00, 0x00, 0x02, 0x00, 0x00, 0x00, 0x00, 0x00, 0x06, 0x00,
  0x08, 0x00, 0x07, 0x00, 0x06, 0x00, 0x00, 0x00, 0x00, 0x00, 0x00, 0x02,
  0x01, 0x00, 0x00, 0x00, 0x12, 0x00, 0x00, 0x00, 0x01, 0x00, 0x00, 0x00,
  0x11, 0x00, 0x00, 0x00, 0x86, 0xff, 0xff, 0xff, 0x14, 0x00, 0x00, 0x00,
  0x00, 0x00, 0x00, 0x05, 0x20, 0x00, 0x00, 0x00, 0x24, 0x00, 0x00, 0x00,
  0x01, 0x00, 0x00, 0x00, 0xee, 0xfe, 0xff, 0xff, 0x02, 0x00, 0x00, 0x00,
  0x02, 0x00, 0x00, 0x00, 0x02, 0x00, 0x00, 0x00, 0x02, 0x00, 0x00, 0x00,
  0x01, 0x00, 0x00, 0x00, 0x11, 0x00, 0x00, 0x00, 0x01, 0x00, 0x00, 0x00,
  0x10, 0x00, 0x00, 0x00, 0xde, 0xfe, 0xff, 0xff, 0x10, 0x00, 0x00, 0x00,
  0x00, 0x00, 0x00, 0x01, 0x18, 0x00, 0x00, 0x00, 0x1c, 0x00, 0x00, 0x00,
  0xd0, 0xfe, 0xff, 0xff, 0x00, 0x00, 0x00, 0x01, 0x01, 0x00, 0x00, 0x00,
  0x01, 0x00, 0x00, 0x00, 0x01, 0x00, 0x00, 0x00, 0x10, 0x00, 0x00, 0x00,
  0x03, 0x00, 0x00, 0x00, 0x0f, 0x00, 0x00, 0x00, 0x07, 0x00, 0x00, 0x00,
  0x06, 0x00, 0x00, 0x00, 0x00, 0x00, 0x0e, 0x00, 0x18, 0x00, 0x14, 0x00,
  0x10, 0x00, 0x0c, 0x00, 0x0b, 0x00, 0x04, 0x00, 0x0e, 0x00, 0x00, 0x00,
  0x14, 0x00, 0x00, 0x00, 0x00, 0x00, 0x00, 0x05, 0x20, 0x00, 0x00, 0x00,
  0x24, 0x00, 0x00, 0x00, 0x01, 0x00, 0x00, 0x00, 0x76, 0xff, 0xff, 0xff,
  0x02, 0x00, 0x00, 0x00, 0x02, 0x00, 0x00, 0x00, 0x02, 0x00, 0x00, 0x00,
  0x02, 0x00, 0x00, 0x00, 0x01, 0x00, 0x00, 0x00, 0x0f, 0x00, 0x00, 0x00,
  0x01, 0x00, 0x00, 0x00, 0x0e, 0x00, 0x00, 0x00, 0x66, 0xff, 0xff, 0xff,
  0x10, 0x00, 0x00, 0x00, 0x00, 0x00, 0x00, 0x01, 0x18, 0x00, 0x00, 0x00,
  0x1c, 0x00, 0x00, 0x00, 0x58, 0xff, 0xff, 0xff, 0x00, 0x00, 0x00, 0x01,
  0x01, 0x00, 0x00, 0x00, 0x01, 0x00, 0x00, 0x00, 0x01, 0x00, 0x00, 0x00,
  0x0e, 0x00, 0x00, 0x00, 0x03, 0x00, 0x00, 0x00, 0x0d, 0x00, 0x00, 0x00,
  0x09, 0x00, 0x00, 0x00, 0x08, 0x00, 0x00, 0x00, 0x00, 0x00, 0x0e, 0x00,
  0x1a, 0x00, 0x14, 0x00, 0x10, 0x00, 0x0c, 0x00, 0x0b, 0x00, 0x04, 0x00,
  0x0e, 0x00, 0x00, 0x00, 0x24, 0x00, 0x00, 0x00, 0x00, 0x00, 0x00, 0x05,
  0x30, 0x00, 0x00, 0x00, 0x34, 0x00, 0x00, 0x00, 0x01, 0x00, 0x00, 0x00,
  0x00, 0x00, 0x0e, 0x00, 0x14, 0x00, 0x00, 0x00, 0x10, 0x00, 0x0c, 0x00,
  0x08, 0x00, 0x04, 0x00, 0x0e, 0x00, 0x00, 0x00, 0x02, 0x00, 0x00, 0x00,
  0x02, 0x00, 0x00, 0x00, 0x02, 0x00, 0x00, 0x00, 0x02, 0x00, 0x00, 0x00,
  0x01, 0x00, 0x00, 0x00, 0x0d, 0x00, 0x00, 0x00, 0x01, 0x00, 0x00, 0x00,
  0x0c, 0x00, 0x00, 0x00, 0x00, 0x00, 0x0e, 0x00, 0x14, 0x00, 0x00, 0x00,
  0x10, 0x00, 0x0c, 0x00, 0x0b, 0x00, 0x04, 0x00, 0x0e, 0x00, 0x00, 0x00,
  0x1c, 0x00, 0x00, 0x00, 0x00, 0x00, 0x00, 0x01, 0x24, 0x00, 0x00, 0x00,
  0x28, 0x00, 0x00, 0x00, 0x0c, 0x00, 0x10, 0x00, 0x00, 0x00, 0x0c, 0x00,
  0x08, 0x00, 0x07, 0x00, 0x0c, 0x00, 0x00, 0x00, 0x00, 0x00, 0x00, 0x01,
  0x01, 0x00, 0x00, 0x00, 0x01, 0x00, 0x00, 0x00, 0x01, 0x00, 0x00, 0x00,
  0x0c, 0x00, 0x00, 0x00, 0x03, 0x00, 0x00, 0x00, 0x00, 0x00, 0x00, 0x00,
  0x0b, 0x00, 0x00, 0x00, 0x0a, 0x00, 0x00, 0x00, 0x01, 0x00, 0x00, 0x00,
  0x17, 0x00, 0x00, 0x00, 0x01, 0x00, 0x00, 0x00, 0x00, 0x00, 0x00, 0x00,
  0x18, 0x00, 0x00, 0x00, 0xec, 0x11, 0x00, 0x00, 0x6c, 0x11, 0x00, 0x00,
  0x14, 0x11, 0x00, 0x00, 0xb8, 0x10, 0x00, 0x00, 0x38, 0x10, 0x00, 0x00,
  0xb4, 0x0f, 0x00, 0x00, 0x10, 0x0e, 0x00, 0x00, 0xd4, 0x0c, 0x00, 0x00,
  0x30, 0x0b, 0x00, 0x00, 0xf4, 0x09, 0x00, 0x00, 0xb8, 0x08, 0x00, 0x00,
  0xdc, 0x07, 0x00, 0x00, 0xd0, 0x06, 0x00, 0x00, 0x2c, 0x06, 0x00, 0x00,
  0x18, 0x05, 0x00, 0x00, 0x74, 0x04, 0x00, 0x00, 0x60, 0x03, 0x00, 0x00,
  0xbc, 0x02, 0x00, 0x00, 0x68, 0x02, 0x00, 0x00, 0x10, 0x02, 0x00, 0x00,
  0xb4, 0x01, 0x00, 0x00, 0x2c, 0x01, 0x00, 0x00, 0x80, 0x00, 0x00, 0x00,
  0x04, 0x00, 0x00, 0x00, 0x8a, 0xee, 0xff, 0xff, 0x00, 0x00, 0x00, 0x01,
  0x18, 0x00, 0x00, 0x00, 0x20, 0x00, 0x00, 0x00, 0x3c, 0x00, 0x00, 0x00,
  0x18, 0x00, 0x00, 0x00, 0x00, 0x00, 0x00, 0x09, 0x50, 0x00, 0x00, 0x00,
  0x02, 0x00, 0x00, 0x00, 0xff, 0xff, 0xff, 0xff, 0x02, 0x00, 0x00, 0x00,
  0x6c, 0xee, 0xff, 0xff, 0x08, 0x00, 0x00, 0x00, 0x10, 0x00, 0x00, 0x00,
  0x01, 0x00, 0x00, 0x00, 0x80, 0xff, 0xff, 0xff, 0xff, 0xff, 0xff, 0xff,
  0x01, 0x00, 0x00, 0x00, 0x00, 0x00, 0x80, 0x3b, 0x1b, 0x00, 0x00, 0x00,
  0x53, 0x74, 0x61, 0x74, 0x65, 0x66, 0x75, 0x6c, 0x50, 0x61, 0x72, 0x74,
  0x69, 0x74, 0x69, 0x6f, 0x6e, 0x65, 0x64, 0x43, 0x61, 0x6c, 0x6c, 0x5f,
  0x31, 0x3a, 0x30, 0x00, 0x02, 0x00, 0x00, 0x00, 0x01, 0x00, 0x00, 0x00,
  0x02, 0x00, 0x00, 0x00, 0x02, 0xef, 0xff, 0xff, 0x00, 0x00, 0x00, 0x01,
  0x18, 0x00, 0x00, 0x00, 0x20, 0x00, 0x00, 0x00, 0x3c, 0x00, 0x00, 0x00,
  0x17, 0x00, 0x00, 0x00, 0x00, 0x00, 0x00, 0x09, 0x80, 0x00, 0x00, 0x00,
  0x02, 0x00, 0x00, 0x00, 0xff, 0xff, 0xff, 0xff, 0x02, 0x00, 0x00, 0x00,
  0xe4, 0xee, 0xff, 0xff, 0x08, 0x00, 0x00, 0x00, 0x10, 0x00, 0x00, 0x00,
  0x01, 0x00, 0x00, 0x00, 0xf3, 0xff, 0xff, 0xff, 0xff, 0xff, 0xff, 0xff,
  0x01, 0x00, 0x00, 0x00, 0x31, 0xd1, 0x2c, 0x3d, 0x48, 0x00, 0x00, 0x00,
  0x65, 0x61, 0x67, 0x6c, 0x65, 0x65, 0x79, 0x65, 0x5f, 0x67, 0x72, 0x61,
  0x79, 0x5f, 0x63, 0x6e, 0x6e, 0x5f, 0x31, 0x2f, 0x79, 0x5f, 0x70, 0x72,
  0x65, 0x64, 0x5f, 0x31, 0x2f, 0x4d, 0x61, 0x74, 0x4d, 0x75, 0x6c, 0x3b,
  0x65, 0x61, 0x67, 0x6c, 0x65, 0x65, 0x79, 0x65, 0x5f, 0x67, 0x72, 0x61,
  0x79, 0x5f, 0x63, 0x6e, 0x6e, 0x5f, 0x31, 0x2f, 0x79, 0x5f, 0x70, 0x72,
  0x65, 0x64, 0x5f, 0x31, 0x2f, 0x42, 0x69, 0x61, 0x73, 0x41, 0x64, 0x64,
  0x00, 0x00, 0x00, 0x00, 0x02, 0x00, 0x00, 0x00, 0x01, 0x00, 0x00, 0x00,
  0x02, 0x00, 0x00, 0x00, 0xaa, 0xef, 0xff, 0xff, 0x00, 0x00, 0x00, 0x01,
  0x18, 0x00, 0x00, 0x00, 0x20, 0x00, 0x00, 0x00, 0x3c, 0x00, 0x00, 0x00,
  0x16, 0x00, 0x00, 0x00, 0x00, 0x00, 0x00, 0x09, 0x5c, 0x00, 0x00, 0x00,
  0x02, 0x00, 0x00, 0x00, 0xff, 0xff, 0xff, 0xff, 0x00, 0x09, 0x00, 0x00,
  0x8c, 0xef, 0xff, 0xff, 0x08, 0x00, 0x00, 0x00, 0x10, 0x00, 0x00, 0x00,
  0x01, 0x00, 0x00, 0x00, 0x80, 0xff, 0xff, 0xff, 0xff, 0xff, 0xff, 0xff,
  0x01, 0x00, 0x00, 0x00, 0x6b, 0x7b, 0x53, 0x3c, 0x25, 0x00, 0x00, 0x00,
  0x65, 0x61, 0x67, 0x6c, 0x65, 0x65, 0x79, 0x65, 0x5f, 0x67, 0x72, 0x61,
  0x79, 0x5f, 0x63, 0x6e, 0x6e, 0x5f, 0x31, 0x2f, 0x66, 0x6c, 0x61, 0x74,
  0x74, 0x65, 0x6e, 0x5f, 0x31, 0x2f, 0x52, 0x65, 0x73, 0x68, 0x61, 0x70,
  0x65, 0x00, 0x00, 0x00, 0x02, 0x00, 0x00, 0x00, 0x01, 0x00, 0x00, 0x00,
  0x00, 0x09, 0x00, 0x00, 0xaa, 0xf0, 0xff, 0xff, 0x00, 0x00, 0x00, 0x01,
  0x14, 0x00, 0x00, 0x00, 0x14, 0x00, 0x00, 0x00, 0x15, 0x00, 0x00, 0x00,
  0x00, 0x00, 0x00, 0x02, 0x38, 0x00, 0x00, 0x00, 0x94, 0xf0, 0xff, 0xff,
  0x2b, 0x00, 0x00, 0x00, 0x65, 0x61, 0x67, 0x6c, 0x65, 0x65, 0x79, 0x65,
  0x5f, 0x67, 0x72, 0x61, 0x79, 0x5f, 0x63, 0x6e, 0x6e, 0x5f, 0x31, 0x2f,
  0x66, 0x6c, 0x61, 0x74, 0x74, 0x65, 0x6e, 0x5f, 0x31, 0x2f, 0x52, 0x65,
  0x73, 0x68, 0x61, 0x70, 0x65, 0x2f, 0x73, 0x68, 0x61, 0x70, 0x65, 0x00,
  0x01, 0x00, 0x00, 0x00, 0x02, 0x00, 0x00, 0x00, 0x02, 0xf1, 0xff, 0xff,
  0x00, 0x00, 0x00, 0x01, 0x14, 0x00, 0x00, 0x00, 0x14, 0x00, 0x00, 0x00,
  0x14, 0x00, 0x00, 0x00, 0x00, 0x00, 0x00, 0x02, 0x38, 0x00, 0x00, 0x00,
  0xec, 0xf0, 0xff, 0xff, 0x2b, 0x00, 0x00, 0x00, 0x65, 0x61, 0x67, 0x6c,
  0x65, 0x65, 0x79, 0x65, 0x5f, 0x67, 0x72, 0x61, 0x79, 0x5f, 0x63, 0x6e,
  0x6e, 0x5f, 0x31, 0x2f, 0x66, 0x6c, 0x61, 0x74, 0x74, 0x65, 0x6e, 0x5f,
  0x31, 0x2f, 0x73, 0x74, 0x72, 0x69, 0x64, 0x65, 0x64, 0x5f, 0x73, 0x6c,
  0x69, 0x63, 0x65, 0x00, 0x00, 0x00, 0x00, 0x00, 0x56, 0xf1, 0xff, 0xff,
  0x00, 0x00, 0x00, 0x01, 0x14, 0x00, 0x00, 0x00, 0x14, 0x00, 0x00, 0x00,
  0x13, 0x00, 0x00, 0x00, 0x00, 0x00, 0x00, 0x02, 0x30, 0x00, 0x00, 0x00,
  0x40, 0xf1, 0xff, 0xff, 0x23, 0x00, 0x00, 0x00, 0x65, 0x61, 0x67, 0x6c,
  0x65, 0x65, 0x79, 0x65, 0x5f, 0x67, 0x72, 0x61, 0x79, 0x5f, 0x63, 0x6e,
  0x6e, 0x5f, 0x31, 0x2f, 0x66, 0x6c, 0x61, 0x74, 0x74, 0x65, 0x6e, 0x5f,
  0x31, 0x2f, 0x53, 0x68, 0x61, 0x70, 0x65, 0x00, 0x01, 0x00, 0x00, 0x00,
  0x04, 0x00, 0x00, 0x00, 0x2a, 0xf1, 0xff, 0xff, 0x00, 0x00, 0x00, 0x01,
  0x18, 0x00, 0x00, 0x00, 0x28, 0x00, 0x00, 0x00, 0x48, 0x00, 0x00, 0x00,
  0x12, 0x00, 0x00, 0x00, 0x00, 0x00, 0x00, 0x09, 0x70, 0x00, 0x00, 0x00,
  0x04, 0x00, 0x00, 0x00, 0xff, 0xff, 0xff, 0xff, 0x0c, 0x00, 0x00, 0x00,
  0x0c, 0x00, 0x00, 0x00, 0x10, 0x00, 0x00, 0x00, 0x14, 0xf1, 0xff, 0xff,
  0x08, 0x00, 0x00, 0x00, 0x14, 0x00, 0x00, 0x00, 0x01, 0x00, 0x00, 0x00,
  0x80, 0xff, 0xff, 0xff, 0xff, 0xff, 0xff, 0xff, 0x00, 0x00, 0x00, 0x00,
  0x01, 0x00, 0x00, 0x00, 0x6b, 0x7b, 0x53, 0x3c, 0x2f, 0x00, 0x00, 0x00,
  0x65, 0x61, 0x67, 0x6c, 0x65, 0x65, 0x79, 0x65, 0x5f, 0x67, 0x72, 0x61,
  0x79, 0x5f, 0x63, 0x6e, 0x6e, 0x5f, 0x31, 0x2f, 0x6d, 0x61, 0x78, 0x5f,
  0x70, 0x6f, 0x6f, 0x6c, 0x69, 0x6e, 0x67, 0x32, 0x64, 0x5f, 0x32, 0x5f,
  0x31, 0x2f, 0x4d, 0x61, 0x78, 0x50, 0x6f, 0x6f, 0x6c, 0x32, 0x64, 0x00,
  0x04, 0x00, 0x00, 0x00, 0x01, 0x00, 0x00, 0x00, 0x0c, 0x00, 0x00, 0x00,
  0x0c, 0x00, 0x00, 0x00, 0x10, 0x00, 0x00, 0x00, 0xca, 0xf1, 0xff, 0xff,
  0x00, 0x00, 0x00, 0x01, 0x18, 0x00, 0x00, 0x00, 0x28, 0x00, 0x00, 0x00,
  0x48, 0x00, 0x00, 0x00, 0x11, 0x00, 0x00, 0x00, 0x00, 0x00, 0x00, 0x09,
  0xe0, 0x00, 0x00, 0x00, 0x04, 0x00, 0x00, 0x00, 0xff, 0xff, 0xff, 0xff,
  0x18, 0x00, 0x00, 0x00, 0x18, 0x00, 0x00, 0x00, 0x10, 0x00, 0x00, 0x00,
  0xb4, 0xf1, 0xff, 0xff, 0x08, 0x00, 0x00, 0x00, 0x14, 0x00, 0x00, 0x00,
  0x01, 0x00, 0x00, 0x00, 0x80, 0xff, 0xff, 0xff, 0xff, 0xff, 0xff, 0xff,
  0x00, 0x00, 0x00, 0x00, 0x01, 0x00, 0x00, 0x00, 0x6b, 0x7b, 0x53, 0x3c,
  0x9d, 0x00, 0x00, 0x00, 0x65, 0x61, 0x67, 0x6c, 0x65, 0x65, 0x79, 0x65,
  0x5f, 0x67, 0x72, 0x61, 0x79, 0x5f, 0x63, 0x6e, 0x6e, 0x5f, 0x31, 0x2f,
  0x63, 0x6f, 0x6e, 0x76, 0x32, 0x64, 0x5f, 0x32, 0x5f, 0x31, 0x2f, 0x52,
  0x65, 0x6c, 0x75, 0x3b, 0x65, 0x61, 0x67, 0x6c, 0x65, 0x65, 0x79, 0x65,
  0x5f, 0x67, 0x72, 0x61, 0x79, 0x5f, 0x63, 0x6e, 0x6e, 0x5f, 0x31, 0x2f,
  0x63, 0x6f, 0x6e, 0x76, 0x32, 0x64, 0x5f, 0x32, 0x5f, 0x31, 0x2f, 0x42,
  0x69, 0x61, 0x73, 0x41, 0x64, 0x64, 0x3b, 0x65, 0x61, 0x67, 0x6c, 0x65,
  0x65, 0x79, 0x65, 0x5f, 0x67, 0x72, 0x61, 0x79, 0x5f, 0x63, 0x6e, 0x6e,
  0x5f, 0x31, 0x2f, 0x63, 0x6f, 0x6e, 0x76, 0x32, 0x64, 0x5f, 0x32, 0x5f,
  0x31, 0x2f, 0x63, 0x6f, 0x6e, 0x76, 0x6f, 0x6c, 0x75, 0x74, 0x69, 0x6f,
  0x6e, 0x3b, 0x65, 0x61, 0x67, 0x6c, 0x65, 0x65, 0x79, 0x65, 0x5f, 0x67,
  0x72, 0x61, 0x79, 0x5f, 0x63, 0x6e, 0x6e, 0x5f, 0x31, 0x2f, 0x63, 0x6f,
  0x6e, 0x76, 0x32, 0x64, 0x5f, 0x32, 0x5f, 0x31, 0x2f, 0x53, 0x71, 0x75,
  0x65, 0x65, 0x7a, 0x65, 0x31, 0x00, 0x00, 0x00, 0x04, 0x00, 0x00, 0x00,
  0x01, 0x00, 0x00, 0x00, 0x18, 0x00, 0x00, 0x00, 0x18, 0x00, 0x00, 0x00,
  0x10, 0x00, 0x00, 0x00, 0xda, 0xf2, 0xff, 0xff, 0x00, 0x00, 0x00, 0x01,
  0x18, 0x00, 0x00, 0x00, 0x28, 0x00, 0x00, 0x00, 0x48, 0x00, 0x00, 0x00,
  0x10, 0x00, 0x00, 0x00, 0x00, 0x00, 0x00, 0x09, 0x70, 0x00, 0x00, 0x00,
  0x04, 0x00, 0x00, 0x00, 0xff, 0xff, 0xff, 0xff, 0x18, 0x00, 0x00, 0x00,
  0x18, 0x00, 0x00, 0x00, 0x10, 0x00, 0x00, 0x00, 0xc4, 0xf2, 0xff, 0xff,
  0x08, 0x00, 0x00, 0x00, 0x14, 0x00, 0x00, 0x00, 0x01, 0x00, 0x00, 0x00,
  0x80, 0xff, 0xff, 0xff, 0xff, 0xff, 0xff, 0xff, 0x00, 0x00, 0x00, 0x00,
  0x01, 0x00, 0x00, 0x00, 0x34, 0xa1, 0x4a, 0x3c, 0x2f, 0x00, 0x00, 0x00,
  0x65, 0x61, 0x67, 0x6c, 0x65, 0x65, 0x79, 0x65, 0x5f, 0x67, 0x72, 0x61,
  0x79, 0x5f, 0x63, 0x6e, 0x6e, 0x5f, 0x31, 0x2f, 0x6d, 0x61, 0x78, 0x5f,
  0x70, 0x6f, 0x6f, 0x6c, 0x69, 0x6e, 0x67, 0x32, 0x64, 0x5f, 0x31, 0x5f,
  0x32, 0x2f, 0x4d, 0x61, 0x78, 0x50, 0x6f, 0x6f, 0x6c, 0x32, 0x64, 0x00,
  0x04, 0x00, 0x00, 0x00, 0x01, 0x00, 0x00, 0x00, 0x18, 0x00, 0x00, 0x00,
  0x18, 0x00, 0x00, 0x00, 0x10, 0x00, 0x00, 0x00, 0x7a, 0xf3, 0xff, 0xff,
  0x00, 0x00, 0x00, 0x01, 0x18, 0x00, 0x00, 0x00, 0x28, 0x00, 0x00, 0x00,
  0x48, 0x00, 0x00, 0x00, 0x0f, 0x00, 0x00, 0x00, 0x00, 0x00, 0x00, 0x09,
  0xe0, 0x00, 0x00, 0x00, 0x04, 0x00, 0x00, 0x00, 0xff, 0xff, 0xff, 0xff,
  0x30, 0x00, 0x00, 0x00, 0x30, 0x00, 0x00, 0x00, 0x10, 0x00, 0x00, 0x00,
  0x64, 0xf3, 0xff, 0xff, 0x08, 0x00, 0x00, 0x00, 0x14, 0x00, 0x00, 0x00,
  0x01, 0x00, 0x00, 0x00, 0x80, 0xff, 0xff, 0xff, 0xff, 0xff, 0xff, 0xff,
  0x00, 0x00, 0x00, 0x00, 0x01, 0x00, 0x00, 0x00, 0x34, 0xa1, 0x4a, 0x3c,
  0x9d, 0x00, 0x00, 0x00, 0x65, 0x61, 0x67, 0x6c, 0x65, 0x65, 0x79, 0x65,
  0x5f, 0x67, 0x72, 0x61, 0x79, 0x5f, 0x63, 0x6e, 0x6e, 0x5f, 0x31, 0x2f,
  0x63, 0x6f, 0x6e, 0x76, 0x32, 0x64, 0x5f, 0x31, 0x5f, 0x32, 0x2f, 0x52,
  0x65, 0x6c, 0x75, 0x3b, 0x65, 0x61, 0x67, 0x6c, 0x65, 0x65, 0x79, 0x65,
  0x5f, 0x67, 0x72, 0x61, 0x79, 0x5f, 0x63, 0x6e, 0x6e, 0x5f, 0x31, 0x2f,
  0x63, 0x6f, 0x6e, 0x76, 0x32, 0x64, 0x5f, 0x31, 0x5f, 0x32, 0x2f, 0x42,
  0x69, 0x61, 0x73, 0x41, 0x64, 0x64, 0x3b, 0x65, 0x61, 0x67, 0x6c, 0x65,
  0x65, 0x79, 0x65, 0x5f, 0x67, 0x72, 0x61, 0x79, 0x5f, 0x63, 0x6e, 0x6e,
  0x5f, 0x31, 0x2f, 0x63, 0x6f, 0x6e, 0x76, 0x32, 0x64, 0x5f, 0x31, 0x5f,
  0x32, 0x2f, 0x63, 0x6f, 0x6e, 0x76, 0x6f, 0x6c, 0x75, 0x74, 0x69, 0x6f,
  0x6e, 0x3b, 0x65, 0x61, 0x67, 0x6c, 0x65, 0x65, 0x79, 0x65, 0x5f, 0x67,
  0x72, 0x61, 0x79, 0x5f, 0x63, 0x6e, 0x6e, 0x5f, 0x31, 0x2f, 0x63, 0x6f,
  0x6e, 0x76, 0x32, 0x64, 0x5f, 0x31, 0x5f, 0x32, 0x2f, 0x53, 0x71, 0x75,
  0x65, 0x65, 0x7a, 0x65, 0x31, 0x00, 0x00, 0x00, 0x04, 0x00, 0x00, 0x00,
  0x01, 0x00, 0x00, 0x00, 0x30, 0x00, 0x00, 0x00, 0x30, 0x00, 0x00, 0x00,
  0x10, 0x00, 0x00, 0x00, 0x8a, 0xf4, 0xff, 0xff, 0x00, 0x00, 0x00, 0x01,
  0x18, 0x00, 0x00, 0x00, 0x28, 0x00, 0x00, 0x00, 0x48, 0x00, 0x00, 0x00,
  0x0e, 0x00, 0x00, 0x00, 0x00, 0x00, 0x00, 0x09, 0x70, 0x00, 0x00, 0x00,
  0x04, 0x00, 0x00, 0x00, 0xff, 0xff, 0xff, 0xff, 0x30, 0x00, 0x00, 0x00,
  0x30, 0x00, 0x00, 0x00, 0x08, 0x00, 0x00, 0x00, 0x74, 0xf4, 0xff, 0xff,
  0x08, 0x00, 0x00, 0x00, 0x14, 0x00, 0x00, 0x00, 0x01, 0x00, 0x00, 0x00,
  0x80, 0xff, 0xff, 0xff, 0xff, 0xff, 0xff, 0xff, 0x00, 0x00, 0x00, 0x00,
  0x01, 0x00, 0x00, 0x00, 0xf8, 0x5a, 0xba, 0x3b, 0x2d, 0x00, 0x00, 0x00,
  0x65, 0x61, 0x67, 0x6c, 0x65, 0x65, 0x79, 0x65, 0x5f, 0x67, 0x72, 0x61,
  0x79, 0x5f, 0x63, 0x6e, 0x6e, 0x5f, 0x31, 0x2f, 0x6d, 0x61, 0x78, 0x5f,
  0x70, 0x6f, 0x6f, 0x6c, 0x69, 0x6e, 0x67, 0x32, 0x64, 0x5f, 0x31, 0x2f,
  0x4d, 0x61, 0x78, 0x50, 0x6f, 0x6f, 0x6c, 0x32, 0x64, 0x00, 0x00, 0x00,
  0x04, 0x00, 0x00, 0x00, 0x01, 0x00, 0x00, 0x00, 0x30, 0x00, 0x00, 0x00,
  0x30, 0x00, 0x00, 0x00, 0x08, 0x00, 0x00, 0x00, 0x2a, 0xf5, 0xff, 0xff,
  0x00, 0x00, 0x00, 0x01, 0x18, 0x00, 0x00, 0x00, 0x28, 0x00, 0x00, 0x00,
  0x48, 0x00, 0x00, 0x00, 0x0d, 0x00, 0x00, 0x00, 0x00, 0x00, 0x00, 0x09,
  0xd8, 0x00, 0x00, 0x00, 0x04, 0x00, 0x00, 0x00, 0xff, 0xff, 0xff, 0xff,
  0x60, 0x00, 0x00, 0x00, 0x60, 0x00, 0x00, 0x00, 0x08, 0x00, 0x00, 0x00,
  0x14, 0xf5, 0xff, 0xff, 0x08, 0x00, 0x00, 0x00, 0x14, 0x00, 0x00, 0x00,
  0x01, 0x00, 0x00, 0x00, 0x80, 0xff, 0xff, 0xff, 0xff, 0xff, 0xff, 0xff,
  0x00, 0x00, 0x00, 0x00, 0x01, 0x00, 0x00, 0x00, 0xf8, 0x5a, 0xba, 0x3b,
  0x95, 0x00, 0x00, 0x00, 0x65, 0x61, 0x67, 0x6c, 0x65, 0x65, 0x79, 0x65,
  0x5f, 0x67, 0x72, 0x61, 0x79, 0x5f, 0x63, 0x6e, 0x6e, 0x5f, 0x31, 0x2f,
  0x63, 0x6f, 0x6e, 0x76, 0x32, 0x64, 0x5f, 0x31, 0x2f, 0x52, 0x65, 0x6c,
  0x75, 0x3b, 0x65, 0x61, 0x67, 0x6c, 0x65, 0x65, 0x79, 0x65, 0x5f, 0x67,
  0x72, 0x61, 0x79, 0x5f, 0x63, 0x6e, 0x6e, 0x5f, 0x31, 0x2f, 0x63, 0x6f,
  0x6e, 0x76, 0x32, 0x64, 0x5f, 0x31, 0x2f, 0x42, 0x69, 0x61, 0x73, 0x41,
  0x64, 0x64, 0x3b, 0x65, 0x61, 0x67, 0x6c, 0x65, 0x65, 0x79, 0x65, 0x5f,
  0x67, 0x72, 0x61, 0x79, 0x5f, 0x63, 0x6e, 0x6e, 0x5f, 0x31, 0x2f, 0x63,
  0x6f, 0x6e, 0x76, 0x32, 0x64, 0x5f, 0x31, 0x2f, 0x63, 0x6f, 0x6e, 0x76,
  0x6f, 0x6c, 0x75, 0x74, 0x69, 0x6f, 0x6e, 0x3b, 0x65, 0x61, 0x67, 0x6c,
  0x65, 0x65, 0x79, 0x65, 0x5f, 0x67, 0x72, 0x61, 0x79, 0x5f, 0x63, 0x6e,
  0x6e, 0x5f, 0x31, 0x2f, 0x63, 0x6f, 0x6e, 0x76, 0x32, 0x64, 0x5f, 0x31,
  0x2f, 0x53, 0x71, 0x75, 0x65, 0x65, 0x7a, 0x65, 0x31, 0x00, 0x00, 0x00,
  0x04, 0x00, 0x00, 0x00, 0x01, 0x00, 0x00, 0x00, 0x60, 0x00, 0x00, 0x00,
  0x60, 0x00, 0x00, 0x00, 0x08, 0x00, 0x00, 0x00, 0xae, 0xf6, 0xff, 0xff,
  0x00, 0x00, 0x00, 0x01, 0x14, 0x00, 0x00, 0x00, 0x88, 0x00, 0x00, 0x00,
  0x0c, 0x00, 0x00, 0x00, 0x00, 0x00, 0x00, 0x09, 0xac, 0x00, 0x00, 0x00,
  0x04, 0xf6, 0xff, 0xff, 0x08, 0x00, 0x00, 0x00, 0x4c, 0x00, 0x00, 0x00,
  0x08, 0x00, 0x00, 0x00, 0x00, 0x00, 0x00, 0x00, 0x00, 0x00, 0x00, 0x00,
  0x00, 0x00, 0x00, 0x00, 0x00, 0x00, 0x00, 0x00, 0x00, 0x00, 0x00, 0x00,
  0x00, 0x00, 0x00, 0x00, 0x00, 0x00, 0x00, 0x00, 0x00, 0x00, 0x00, 0x00,
  0x00, 0x00, 0x00, 0x00, 0x00, 0x00, 0x00, 0x00, 0x00, 0x00, 0x00, 0x00,
  0x00, 0x00, 0x00, 0x00, 0x00, 0x00, 0x00, 0x00, 0x00, 0x00, 0x00, 0x00,
  0x00, 0x00, 0x00, 0x00, 0x00, 0x00, 0x00, 0x00, 0x00, 0x00, 0x00, 0x00,
  0x08, 0x00, 0x00, 0x00, 0x6c, 0x82, 0x36, 0x3b, 0x94, 0x8f, 0x08, 0x3b,
  0x79, 0x51, 0x3c, 0x3b, 0x47, 0x32, 0x44, 0x3b, 0xc9, 0xa5, 0x11, 0x3b,
  0x08, 0xe6, 0x05, 0x3b, 0x19, 0xb9, 0x2b, 0x3b, 0xeb, 0xa8, 0x07, 0x3b,
  0x28, 0x00, 0x00, 0x00, 0x65, 0x61, 0x67, 0x6c, 0x65, 0x65, 0x79, 0x65,
  0x5f, 0x67, 0x72, 0x61, 0x79, 0x5f, 0x63, 0x6e, 0x6e, 0x5f, 0x31, 0x2f,
  0x63, 0x6f, 0x6e, 0x76, 0x32, 0x64, 0x5f, 0x31, 0x2f, 0x63, 0x6f, 0x6e,
  0x76, 0x6f, 0x6c, 0x75, 0x74, 0x69, 0x6f, 0x6e, 0x00, 0x00, 0x00, 0x00,
  0x04, 0x00, 0x00, 0x00, 0x08, 0x00, 0x00, 0x00, 0x03, 0x00, 0x00, 0x00,
  0x03, 0x00, 0x00, 0x00, 0x01, 0x00, 0x00, 0x00, 0x86, 0xf7, 0xff, 0xff,
  0x00, 0x00, 0x00, 0x01, 0x14, 0x00, 0x00, 0x00, 0x88, 0x00, 0x00, 0x00,
  0x0b, 0x00, 0x00, 0x00, 0x00, 0x00, 0x00, 0x02, 0x18, 0x01, 0x00, 0x00,
  0xdc, 0xf6, 0xff, 0xff, 0x08, 0x00, 0x00, 0x00, 0x4c, 0x00, 0x00, 0x00,
  0x08, 0x00, 0x00, 0x00, 0x00, 0x00, 0x00, 0x00, 0x00, 0x00, 0x00, 0x00,
  0x00, 0x00, 0x00, 0x00, 0x00, 0x00, 0x00, 0x00, 0x00, 0x00, 0x00, 0x00,
  0x00, 0x00, 0x00, 0x00, 0x00, 0x00, 0x00, 0x00, 0x00, 0x00, 0x00, 0x00,
  0x00, 0x00, 0x00, 0x00, 0x00, 0x00, 0x00, 0x00, 0x00, 0x00, 0x00, 0x00,
  0x00, 0x00, 0x00, 0x00, 0x00, 0x00, 0x00, 0x00, 0x00, 0x00, 0x00, 0x00,
  0x00, 0x00, 0x00, 0x00, 0x00, 0x00, 0x00, 0x00, 0x00, 0x00, 0x00, 0x00,
  0x08, 0x00, 0x00, 0x00, 0xa6, 0x39, 0x37, 0x37, 0xad, 0x18, 0x09, 0x37,
  0x88, 0x0e, 0x3d, 0x37, 0x3f, 0xf7, 0x44, 0x37, 0x02, 0x38, 0x12, 0x37,
  0x75, 0x6c, 0x06, 0x37, 0x7f, 0x65, 0x2c, 0x37, 0x1d, 0x31, 0x08, 0x37,
  0x94, 0x00, 0x00, 0x00, 0x65, 0x61, 0x67, 0x6c, 0x65, 0x65, 0x79, 0x65,
  0x5f, 0x67, 0x72, 0x61, 0x79, 0x5f, 0x63, 0x6e, 0x6e, 0x5f, 0x31, 0x2f,
  0x63, 0x6f, 0x6e, 0x76, 0x32, 0x64, 0x5f, 0x31, 0x2f, 0x52, 0x65, 0x6c,
  0x75, 0x3b, 0x65, 0x61, 0x67, 0x6c, 0x65, 0x65, 0x79, 0x65, 0x5f, 0x67,
  0x72, 0x61, 0x79, 0x5f, 0x63, 0x6e, 0x6e, 0x5f, 0x31, 0x2f, 0x63, 0x6f,
  0x6e, 0x76, 0x32, 0x64, 0x5f, 0x31, 0x2f, 0x42, 0x69, 0x61, 0x73, 0x41,
  0x64, 0x64, 0x3b, 0x65, 0x61, 0x67, 0x6c, 0x65, 0x65, 0x79, 0x65, 0x5f,
  0x67, 0x72, 0x61, 0x79, 0x5f, 0x63, 0x6e, 0x6e, 0x5f, 0x31, 0x2f, 0x63,
  0x6f, 0x6e, 0x76, 0x32, 0x64, 0x5f, 0x31, 0x2f, 0x63, 0x6f, 0x6e, 0x76,
  0x6f, 0x6c, 0x75, 0x74, 0x69, 0x6f, 0x6e, 0x3b, 0x65, 0x61, 0x67, 0x6c,
  0x65, 0x65, 0x79, 0x65, 0x5f, 0x67, 0x72, 0x61, 0x79, 0x5f, 0x63, 0x6e,
  0x6e, 0x5f, 0x31, 0x2f, 0x63, 0x6f, 0x6e, 0x76, 0x32, 0x64, 0x5f, 0x31,
  0x2f, 0x53, 0x71, 0x75, 0x65, 0x65, 0x7a, 0x65, 0x00, 0x00, 0x00, 0x00,
  0x01, 0x00, 0x00, 0x00, 0x08, 0x00, 0x00, 0x00, 0xbe, 0xf8, 0xff, 0xff,
  0x00, 0x00, 0x00, 0x01, 0x14, 0x00, 0x00, 0x00, 0xe8, 0x00, 0x00, 0x00,
  0x0a, 0x00, 0x00, 0x00, 0x00, 0x00, 0x00, 0x09, 0x0c, 0x01, 0x00, 0x00,
  0x14, 0xf8, 0xff, 0xff, 0x08, 0x00, 0x00, 0x00, 0x8c, 0x00, 0x00, 0x00,
  0x10, 0x00, 0x00, 0x00, 0x00, 0x00, 0x00, 0x00, 0x00, 0x00, 0x00, 0x00,
  0x00, 0x00, 0x00, 0x00, 0x00, 0x00, 0x00, 0x00, 0x00, 0x00, 0x00, 0x00,
  0x00, 0x00, 0x00, 0x00, 0x00, 0x00, 0x00, 0x00, 0x00, 0x00, 0x00, 0x00,
  0x00, 0x00, 0x00, 0x00, 0x00, 0x00, 0x00, 0x00, 0x00, 0x00, 0x00, 0x00,
  0x00, 0x00, 0x00, 0x00, 0x00, 0x00, 0x00, 0x00, 0x00, 0x00, 0x00, 0x00,
  0x00, 0x00, 0x00, 0x00, 0x00, 0x00, 0x00, 0x00, 0x00, 0x00, 0x00, 0x00,
  0x00, 0x00, 0x00, 0x00, 0x00, 0x00, 0x00, 0x00, 0x00, 0x00, 0x00, 0x00,
  0x00, 0x00, 0x00, 0x00, 0x00, 0x00, 0x00, 0x00, 0x00, 0x00, 0x00, 0x00,
  0x00, 0x00, 0x00, 0x00, 0x00, 0x00, 0x00, 0x00, 0x00, 0x00, 0x00, 0x00,
  0x00, 0x00, 0x00, 0x00, 0x00, 0x00, 0x00, 0x00, 0x00, 0x00, 0x00, 0x00,
  0x00, 0x00, 0x00, 0x00, 0x00, 0x00, 0x00, 0x00, 0x00, 0x00, 0x00, 0x00,
  0x00, 0x00, 0x00, 0x00, 0x10, 0x00, 0x00, 0x00, 0x94, 0xfe, 0x1d, 0x3b,
  0x04, 0xda, 0x0c, 0x3b, 0xae, 0x6d, 0x4a, 0x3b, 0x99, 0x02, 0x1f, 0x3b,
  0x3a, 0x2a, 0x23, 0x3b, 0x07, 0xb9, 0x18, 0x3b, 0xa3, 0x9f, 0x1f, 0x3b,
  0xbc, 0xcb, 0x1f, 0x3b, 0x25, 0xad, 0xc3, 0x3a, 0x67, 0xc8, 0x2e, 0x3b,
  0xb7, 0x96, 0x24, 0x3b, 0xad, 0xbe, 0x4e, 0x3b, 0x6d, 0xdb, 0xca, 0x3a,
  0x04, 0x72, 0x26, 0x3b, 0x62, 0x6d, 0x52, 0x3b, 0x3b, 0xa6, 0x29, 0x3b,
  0x2a, 0x00, 0x00, 0x00, 0x65, 0x61, 0x67, 0x6c, 0x65, 0x65, 0x79, 0x65,
  0x5f, 0x67, 0x72, 0x61, 0x79, 0x5f, 0x63, 0x6e, 0x6e, 0x5f, 0x31, 0x2f,
  0x63, 0x6f, 0x6e, 0x76, 0x32, 0x64, 0x5f, 0x31, 0x5f, 0x32, 0x2f, 0x63,
  0x6f, 0x6e, 0x76, 0x6f, 0x6c, 0x75, 0x74, 0x69, 0x6f, 0x6e, 0x00, 0x00,
  0x04, 0x00, 0x00, 0x00, 0x10, 0x00, 0x00, 0x00, 0x03, 0x00, 0x00, 0x00,
  0x03, 0x00, 0x00, 0x00, 0x08, 0x00, 0x00, 0x00, 0xf6, 0xf9, 0xff, 0xff,
  0x00, 0x00, 0x00, 0x01, 0x14, 0x00, 0x00, 0x00, 0xe8, 0x00, 0x00, 0x00,
  0x09, 0x00, 0x00, 0x00, 0x00, 0x00, 0x00, 0x02, 0x80, 0x01, 0x00, 0x00,
  0x4c, 0xf9, 0xff, 0xff, 0x08, 0x00, 0x00, 0x00, 0x8c, 0x00, 0x00, 0x00,
  0x10, 0x00, 0x00, 0x00, 0x00, 0x00, 0x00, 0x00, 0x00, 0x00, 0x00, 0x00,
  0x00, 0x00, 0x00, 0x00, 0x00, 0x00, 0x00, 0x00, 0x00, 0x00, 0x00, 0x00,
  0x00, 0x00, 0x00, 0x00, 0x00, 0x00, 0x00, 0x00, 0x00, 0x00, 0x00, 0x00,
  0x00, 0x00, 0x00, 0x00, 0x00, 0x00, 0x00, 0x00, 0x00, 0x00, 0x00, 0x00,
  0x00, 0x00, 0x00, 0x00, 0x00, 0x00, 0x00, 0x00, 0x00, 0x00, 0x00, 0x00,
  0x00, 0x00, 0x00, 0x00, 0x00, 0x00, 0x00, 0x00, 0x00, 0x00, 0x00, 0x00,
  0x00, 0x00, 0x00, 0x00, 0x00, 0x00, 0x00, 0x00, 0x00, 0x00, 0x00, 0x00,
  0x00, 0x00, 0x00, 0x00, 0x00, 0x00, 0x00, 0x00, 0x00, 0x00, 0x00, 0x00,
  0x00, 0x00, 0x00, 0x00, 0x00, 0x00, 0x00, 0x00, 0x00, 0x00, 0x00, 0x00,
  0x00, 0x00, 0x00, 0x00, 0x00, 0x00, 0x00, 0x00, 0x00, 0x00, 0x00, 0x00,
  0x00, 0x00, 0x00, 0x00, 0x00, 0x00, 0x00, 0x00, 0x00, 0x00, 0x00, 0x00,
  0x00, 0x00, 0x00, 0x00, 0x10, 0x00, 0x00, 0x00, 0x38, 0x06, 0x66, 0x37,
  0xe8, 0x10, 0x4d, 0x37, 0x9f, 0x5b, 0x93, 0x37, 0xc8, 0x80, 0x67, 0x37,
  0x52, 0x8d, 0x6d, 0x37, 0x68, 0x59, 0x5e, 0x37, 0x6a, 0x65, 0x68, 0x37,
  0x9e, 0xa5, 0x68, 0x37, 0x55, 0x71, 0x0e, 0x37, 0x6d, 0x77, 0x7e, 0x37,
  0xfb, 0x9f, 0x6f, 0x37, 0x01, 0x80, 0x96, 0x37, 0x83, 0xab, 0x13, 0x37,
  0xf8, 0x53, 0x72, 0x37, 0x40, 0x2e, 0x99, 0x37, 0x1f, 0xfe, 0x76, 0x37,
  0x9c, 0x00, 0x00, 0x00, 0x65, 0x61, 0x67, 0x6c, 0x65, 0x65, 0x79, 0x65,
  0x5f, 0x67, 0x72, 0x61, 0x79, 0x5f, 0x63, 0x6e, 0x6e, 0x5f, 0x31, 0x2f,
  0x63, 0x6f, 0x6e, 0x76, 0x32, 0x64, 0x5f, 0x31, 0x5f, 0x32, 0x2f, 0x52,
  0x65, 0x6c, 0x75, 0x3b, 0x65, 0x61, 0x67, 0x6c, 0x65, 0x65, 0x79, 0x65,
  0x5f, 0x67, 0x72, 0x61, 0x79, 0x5f, 0x63, 0x6e, 0x6e, 0x5f, 0x31, 0x2f,
  0x63, 0x6f, 0x6e, 0x76, 0x32, 0x64, 0x5f, 0x31, 0x5f, 0x32, 0x2f, 0x42,
  0x69, 0x61, 0x73, 0x41, 0x64, 0x64, 0x3b, 0x65, 0x61, 0x67, 0x6c, 0x65,
  0x65, 0x79, 0x65, 0x5f, 0x67, 0x72, 0x61, 0x79, 0x5f, 0x63, 0x6e, 0x6e,
  0x5f, 0x31, 0x2f, 0x63, 0x6f, 0x6e, 0x76, 0x32, 0x64, 0x5f, 0x31, 0x5f,
  0x32, 0x2f, 0x63, 0x6f, 0x6e, 0x76, 0x6f, 0x6c, 0x75, 0x74, 0x69, 0x6f,
  0x6e, 0x3b, 0x65, 0x61, 0x67, 0x6c, 0x65, 0x65, 0x79, 0x65, 0x5f, 0x67,
  0x72, 0x61, 0x79, 0x5f, 0x63, 0x6e, 0x6e, 0x5f, 0x31, 0x2f, 0x63, 0x6f,
  0x6e, 0x76, 0x32, 0x64, 0x5f, 0x31, 0x5f, 0x32, 0x2f, 0x53, 0x71, 0x75,
  0x65, 0x65, 0x7a, 0x65, 0x00, 0x00, 0x00, 0x00, 0x01, 0x00, 0x00, 0x00,
  0x10, 0x00, 0x00, 0x00, 0x96, 0xfb, 0xff, 0xff, 0x00, 0x00, 0x00, 0x01,
  0x14, 0x00, 0x00, 0x00, 0xe8, 0x00, 0x00, 0x00, 0x08, 0x00, 0x00, 0x00,
  0x00, 0x00, 0x00, 0x09, 0x0c, 0x01, 0x00, 0x00, 0xec, 0xfa, 0xff, 0xff,
  0x08, 0x00, 0x00, 0x00, 0x8c, 0x00, 0x00, 0x00, 0x10, 0x00, 0x00, 0x00,
  0x00, 0x00, 0x00, 0x00, 0x00, 0x00, 0x00, 0x00, 0x00, 0x00, 0x00, 0x00,
  0x00, 0x00, 0x00, 0x00, 0x00, 0x00, 0x00, 0x00, 0x00, 0x00, 0x00, 0x00,
  0x00, 0x00, 0x00, 0x00, 0x00, 0x00, 0x00, 0x00, 0x00, 0x00, 0x00, 0x00,
  0x00, 0x00, 0x00, 0x00, 0x00, 0x00, 0x00, 0x00, 0x00, 0x00, 0x00, 0x00,
  0x00, 0x00, 0x00, 0x00, 0x00, 0x00, 0x00, 0x00, 0x00, 0x00, 0x00, 0x00,
  0x00, 0x00, 0x00, 0x00, 0x00, 0x00, 0x00, 0x00, 0x00, 0x00, 0x00, 0x00,
  0x00, 0x00, 0x00, 0x00, 0x00, 0x00, 0x00, 0x00, 0x00, 0x00, 0x00, 0x00,
  0x00, 0x00, 0x00, 0x00, 0x00, 0x00, 0x00, 0x00, 0x00, 0x00, 0x00, 0x00,
  0x00, 0x00, 0x00, 0x00, 0x00, 0x00, 0x00, 0x00, 0x00, 0x00, 0x00, 0x00,
  0x00, 0x00, 0x00, 0x00, 0x00, 0x00, 0x00, 0x00, 0x00, 0x00, 0x00, 0x00,
  0x00, 0x00, 0x00, 0x00, 0x00, 0x00, 0x00, 0x00, 0x00, 0x00, 0x00, 0x00,
  0x10, 0x00, 0x00, 0x00, 0x84, 0x53, 0x1e, 0x3b, 0x65, 0xbf, 0x35, 0x3b,
  0xa0, 0x10, 0x16, 0x3b, 0x70, 0xf2, 0x61, 0x3b, 0xe1, 0x67, 0x3f, 0x3b,
  0xef, 0x55, 0xef, 0x3a, 0x30, 0xc8, 0x1e, 0x3b, 0xd2, 0xc6, 0xfa, 0x3a,
  0x69, 0x2e, 0x0d, 0x3b, 0xd9, 0x16, 0x2e, 0x3b, 0x2a, 0xac, 0xfd, 0x3a,
  0xc2, 0xe2, 0x33, 0x3b, 0x35, 0xfe, 0x00, 0x3b, 0x9e, 0x24, 0x19, 0x3b,
  0xe8, 0xdc, 0x0b, 0x3b, 0x8a, 0x8e, 0x23, 0x3b, 0x2a, 0x00, 0x00, 0x00,
  0x65, 0x61, 0x67, 0x6c, 0x65, 0x65, 0x79, 0x65, 0x5f, 0x67, 0x72, 0x61,
  0x79, 0x5f, 0x63, 0x6e, 0x6e, 0x5f, 0x31, 0x2f, 0x63, 0x6f, 0x6e, 0x76,
  0x32, 0x64, 0x5f, 0x32, 0x5f, 0x31, 0x2f, 0x63, 0x6f, 0x6e, 0x76, 0x6f,
  0x6c, 0x75, 0x74, 0x69, 0x6f, 0x6e, 0x00, 0x00, 0x04, 0x00, 0x00, 0x00,
  0x10, 0x00, 0x00, 0x00, 0x03, 0x00, 0x00, 0x00, 0x03, 0x00, 0x00, 0x00,
  0x10, 0x00, 0x00, 0x00, 0xce, 0xfc, 0xff, 0xff, 0x00, 0x00, 0x00, 0x01,
  0x14, 0x00, 0x00, 0x00, 0xe8, 0x00, 0x00, 0x00, 0x07, 0x00, 0x00, 0x00,
  0x00, 0x00, 0x00, 0x02, 0x80, 0x01, 0x00, 0x00, 0x24, 0xfc, 0xff, 0xff,
  0x08, 0x00, 0x00, 0x00, 0x8c, 0x00, 0x00, 0x00, 0x10, 0x00, 0x00, 0x00,
  0x00, 0x00, 0x00, 0x00, 0x00, 0x00, 0x00, 0x00, 0x00, 0x00, 0x00, 0x00,
  0x00, 0x00, 0x00, 0x00, 0x00, 0x00, 0x00, 0x00, 0x00, 0x00, 0x00, 0x00,
  0x00, 0x00, 0x00, 0x00, 0x00, 0x00, 0x00, 0x00, 0x00, 0x00, 0x00, 0x00,
  0x00, 0x00, 0x00, 0x00, 0x00, 0x00, 0x00, 0x00, 0x00, 0x00, 0x00, 0x00,
  0x00, 0x00, 0x00, 0x00, 0x00, 0x00, 0x00, 0x00, 0x00, 0x00, 0x00, 0x00,
  0x00, 0x00, 0x00, 0x00, 0x00, 0x00, 0x00, 0x00, 0x00, 0x00, 0x00, 0x00,
  0x00, 0x00, 0x00, 0x00, 0x00, 0x00, 0x00, 0x00, 0x00, 0x00, 0x00, 0x00,
  0x00, 0x00, 0x00, 0x00, 0x00, 0x00, 0x00, 0x00, 0x00, 0x00, 0x00, 0x00,
  0x00, 0x00, 0x00, 0x00, 0x00, 0x00, 0x00, 0x00, 0x00, 0x00, 0x00, 0x00,
  0x00, 0x00, 0x00, 0x00, 0x00, 0x00, 0x00, 0x00, 0x00, 0x00, 0x00, 0x00,
  0x00, 0x00, 0x00, 0x00, 0x00, 0x00, 0x00, 0x00, 0x00, 0x00, 0x00, 0x00,
  0x10, 0x00, 0x00, 0x00, 0x32, 0xa3, 0xfa, 0x37, 0x78, 0xdb, 0x0f, 0x38,
  0x3a, 0x8f, 0xed, 0x37, 0x94, 0xd7, 0x32, 0x38, 0x7f, 0x80, 0x17, 0x38,
  0x84, 0x70, 0xbd, 0x37, 0xe4, 0x5b, 0xfb, 0x37, 0xcc, 0x7e, 0xc6, 0x37,
  0x0b, 0x7f, 0xdf, 0x37, 0xa7, 0xcb, 0x09, 0x38, 0x96, 0xc9, 0xc8, 0x37,
  0x33, 0x62, 0x0e, 0x38, 0xa0, 0x33, 0xcc, 0x37, 0xa8, 0x6e, 0xf2, 0x37,
  0xc3, 0x68, 0xdd, 0x37, 0x77, 0x75, 0x01, 0x38, 0x9c, 0x00, 0x00, 0x00,
  0x65, 0x61, 0x67, 0x6c, 0x65, 0x65, 0x79, 0x65, 0x5f, 0x67, 0x72, 0x61,
  0x79, 0x5f, 0x63, 0x6e, 0x6e, 0x5f, 0x31, 0x2f, 0x63, 0x6f, 0x6e, 0x76,
  0x32, 0x64, 0x5f, 0x32, 0x5f, 0x31, 0x2f, 0x52, 0x65, 0x6c, 0x75, 0x3b,
  0x65, 0x61, 0x67, 0x6c, 0x65, 0x65, 0x79, 0x65, 0x5f, 0x67, 0x72, 0x61,
  0x79, 0x5f, 0x63, 0x6e, 0x6e, 0x5f, 0x31, 0x2f, 0x63, 0x6f, 0x6e, 0x76,
  0x32, 0x64, 0x5f, 0x32, 0x5f, 0x31, 0x2f, 0x42, 0x69, 0x61, 0x73, 0x41,
  0x64, 0x64, 0x3b, 0x65, 0x61, 0x67, 0x6c, 0x65, 0x65, 0x79, 0x65, 0x5f,
  0x67, 0x72, 0x61, 0x79, 0x5f, 0x63, 0x6e, 0x6e, 0x5f, 0x31, 0x2f, 0x63,
  0x6f, 0x6e, 0x76, 0x32, 0x64, 0x5f, 0x32, 0x5f, 0x31, 0x2f, 0x63, 0x6f,
  0x6e, 0x76, 0x6f, 0x6c, 0x75, 0x74, 0x69, 0x6f, 0x6e, 0x3b, 0x65, 0x61,
  0x67, 0x6c, 0x65, 0x65, 0x79, 0x65, 0x5f, 0x67, 0x72, 0x61, 0x79, 0x5f,
  0x63, 0x6e, 0x6e, 0x5f, 0x31, 0x2f, 0x63, 0x6f, 0x6e, 0x76, 0x32, 0x64,
  0x5f, 0x32, 0x5f, 0x31, 0x2f, 0x53, 0x71, 0x75, 0x65, 0x65, 0x7a, 0x65,
  0x00, 0x00, 0x00, 0x00, 0x01, 0x00, 0x00, 0x00, 0x10, 0x00, 0x00, 0x00,
  0x6e, 0xfe, 0xff, 0xff, 0x00, 0x00, 0x00, 0x01, 0x14, 0x00, 0x00, 0x00,
  0x40, 0x00, 0x00, 0x00, 0x06, 0x00, 0x00, 0x00, 0x00, 0x00, 0x00, 0x09,
  0x5c, 0x00, 0x00, 0x00, 0xc4, 0xfd, 0xff, 0xff, 0x08, 0x00, 0x00, 0x00,
  0x1c, 0x00, 0x00, 0x00, 0x02, 0x00, 0x00, 0x00, 0x00, 0x00, 0x00, 0x00,
  0x00, 0x00, 0x00, 0x00, 0x00, 0x00, 0x00, 0x00, 0x00, 0x00, 0x00, 0x00,
  0x00, 0x00, 0x00, 0x00, 0x02, 0x00, 0x00, 0x00, 0x1c, 0x20, 0x18, 0x3b,
  0xfd, 0x62, 0x26, 0x3b, 0x23, 0x00, 0x00, 0x00, 0x65, 0x61, 0x67, 0x6c,
  0x65, 0x65, 0x79, 0x65, 0x5f, 0x67, 0x72, 0x61, 0x79, 0x5f, 0x63, 0x6e,
  0x6e, 0x5f, 0x31, 0x2f, 0x79, 0x5f, 0x70, 0x72, 0x65, 0x64, 0x5f, 0x31,
  0x2f, 0x4d, 0x61, 0x74, 0x4d, 0x75, 0x6c, 0x00, 0x02, 0x00, 0x00, 0x00,
  0x02, 0x00, 0x00, 0x00, 0x00, 0x09, 0x00, 0x00, 0xee, 0xfe, 0xff, 0xff,
  0x00, 0x00, 0x00, 0x01, 0x14, 0x00, 0x00, 0x00, 0x3c, 0x00, 0x00, 0x00,
  0x05, 0x00, 0x00, 0x00, 0x00, 0x00, 0x00, 0x02, 0x5c, 0x00, 0x00, 0x00,
  0x44, 0xfe, 0xff, 0xff, 0x08, 0x00, 0x00, 0x00, 0x18, 0x00, 0x00, 0x00,
  0x02, 0x00, 0x00, 0x00, 0x00, 0x00, 0x00, 0x00, 0x00, 0x00, 0x00, 0x00,
  0x00, 0x00, 0x00, 0x00, 0x00, 0x00, 0x00, 0x00, 0x02, 0x00, 0x00, 0x00,
  0x9c, 0x57, 0xfb, 0x37, 0xce, 0x73, 0x09, 0x38, 0x24, 0x00, 0x00, 0x00,
  0x65, 0x61, 0x67, 0x6c, 0x65, 0x65, 0x79, 0x65, 0x5f, 0x67, 0x72, 0x61,
  0x79, 0x5f, 0x63, 0x6e, 0x6e, 0x5f, 0x31, 0x2f, 0x79, 0x5f, 0x70, 0x72,
  0x65, 0x64, 0x5f, 0x31, 0x2f, 0x42, 0x69, 0x61, 0x73, 0x41, 0x64, 0x64,
  0x00, 0x00, 0x00, 0x00, 0x01, 0x00, 0x00, 0x00, 0x02, 0x00, 0x00, 0x00,
  0x6a, 0xff, 0xff, 0xff, 0x00, 0x00, 0x00, 0x01, 0x14, 0x00, 0x00, 0x00,
  0x14, 0x00, 0x00, 0x00, 0x04, 0x00, 0x00, 0x00, 0x00, 0x00, 0x00, 0x02,
  0x3c, 0x00, 0x00, 0x00, 0x54, 0xff, 0xff, 0xff, 0x2d, 0x00, 0x00, 0x00,
  0x65, 0x61, 0x67, 0x6c, 0x65, 0x65, 0x79, 0x65, 0x5f, 0x67, 0x72, 0x61,
  0x79, 0x5f, 0x63, 0x6e, 0x6e, 0x5f, 0x31, 0x2f, 0x66, 0x6c, 0x61, 0x74,
  0x74, 0x65, 0x6e, 0x5f, 0x31, 0x2f, 0x52, 0x65, 0x73, 0x68, 0x61, 0x70,
  0x65, 0x2f, 0x73, 0x68, 0x61, 0x70, 0x65, 0x2f, 0x31, 0x00, 0x00, 0x00,
  0x00, 0x00, 0x00, 0x00, 0xc2, 0xff, 0xff, 0xff, 0x00, 0x00, 0x00, 0x01,
  0x14, 0x00, 0x00, 0x00, 0x14, 0x00, 0x00, 0x00, 0x03, 0x00, 0x00, 0x00,
  0x00, 0x00, 0x00, 0x02, 0x1c, 0x00, 0x00, 0x00, 0xac, 0xff, 0xff, 0xff,
  0x0e, 0x00, 0x00, 0x00, 0x61, 0x72, 0x69, 0x74, 0x68, 0x2e, 0x63, 0x6f,
  0x6e, 0x73, 0x74, 0x61, 0x6e, 0x74, 0x00, 0x00, 0x01, 0x00, 0x00, 0x00,
  0x01, 0x00, 0x00, 0x00, 0x00, 0x00, 0x16, 0x00, 0x1c, 0x00, 0x18, 0x00,
  0x17, 0x00, 0x10, 0x00, 0x0c, 0x00, 0x08, 0x00, 0x00, 0x00, 0x00, 0x00,
  0x00, 0x00, 0x07, 0x00, 0x16, 0x00, 0x00, 0x00, 0x00, 0x00, 0x00, 0x01,
  0x18, 0x00, 0x00, 0x00, 0x18, 0x00, 0x00, 0x00, 0x02, 0x00, 0x00, 0x00,
  0x00, 0x00, 0x00, 0x02, 0x44, 0x00, 0x00, 0x00, 0x04, 0x00, 0x04, 0x00,
  0x04, 0x00, 0x00, 0x00, 0x31, 0x00, 0x00, 0x00, 0x65, 0x61, 0x67, 0x6c,
  0x65, 0x65, 0x79, 0x65, 0x5f, 0x67, 0x72, 0x61, 0x79, 0x5f, 0x63, 0x6e,
  0x6e, 0x5f, 0x31, 0x2f, 0x66, 0x6c, 0x61, 0x74, 0x74, 0x65, 0x6e, 0x5f,
  0x31, 0x2f, 0x73, 0x74, 0x72, 0x69, 0x64, 0x65, 0x64, 0x5f, 0x73, 0x6c,
  0x69, 0x63, 0x65, 0x2f, 0x73, 0x74, 0x61, 0x63, 0x6b, 0x00, 0x00, 0x00,
  0x01, 0x00, 0x00, 0x00, 0x01, 0x00, 0x00, 0x00, 0x00, 0x00, 0x16, 0x00,
  0x20, 0x00, 0x1c, 0x00, 0x1b, 0x00, 0x14, 0x00, 0x10, 0x00, 0x0c, 0x00,
  0x00, 0x00, 0x00, 0x00, 0x08, 0x00, 0x07, 0x00, 0x16, 0x00, 0x00, 0x00,
  0x00, 0x00, 0x00, 0x01, 0x18, 0x00, 0x00, 0x00, 0x34, 0x00, 0x00, 0x00,
  0x50, 0x00, 0x00, 0x00, 0x01, 0x00, 0x00, 0x00, 0x00, 0x00, 0x00, 0x09,
  0x5c, 0x00, 0x00, 0x00, 0x04, 0x00, 0x00, 0x00, 0xff, 0xff, 0xff, 0xff,
  0x60, 0x00, 0x00, 0x00, 0x60, 0x00, 0x00, 0x00, 0x01, 0x00, 0x00, 0x00,
  0x0c, 0x00, 0x0c, 0x00, 0x00, 0x00, 0x00, 0x00, 0x08, 0x00, 0x04, 0x00,
  0x0c, 0x00, 0x00, 0x00, 0x08, 0x00, 0x00, 0x00, 0x10, 0x00, 0x00, 0x00,
  0x01, 0x00, 0x00, 0x00, 0x80, 0xff, 0xff, 0xff, 0xff, 0xff, 0xff, 0xff,
  0x01, 0x00, 0x00, 0x00, 0x81, 0x80, 0x80, 0x3b, 0x13, 0x00, 0x00, 0x00,
  0x73, 0x65, 0x72, 0x76, 0x69, 0x6e, 0x67, 0x5f, 0x64, 0x65, 0x66, 0x61,
  0x75, 0x6c, 0x74, 0x5f, 0x78, 0x3a, 0x30, 0x00, 0x04, 0x00, 0x00, 0x00,
  0x01, 0x00, 0x00, 0x00, 0x60, 0x00, 0x00, 0x00, 0x60, 0x00, 0x00, 0x00,
  0x01, 0x00, 0x00, 0x00, 0x08, 0x00, 0x00, 0x00, 0x98, 0x00, 0x00, 0x00,
  0x78, 0x00, 0x00, 0x00, 0x68, 0x00, 0x00, 0x00, 0x4c, 0x00, 0x00, 0x00,
  0x3c, 0x00, 0x00, 0x00, 0x2c, 0x00, 0x00, 0x00, 0x18, 0x00, 0x00, 0x00,
  0x04, 0x00, 0x00, 0x00, 0x94, 0xff, 0xff, 0xff, 0x19, 0x00, 0x00, 0x00,
  0x02, 0x00, 0x00, 0x00, 0x00, 0x00, 0x00, 0x19, 0xa4, 0xff, 0xff, 0xff,
  0x09, 0x00, 0x00, 0x00, 0x04, 0x00, 0x00, 0x00, 0x00, 0x00, 0x00, 0x09,
  0xdc, 0xff, 0xff, 0xff, 0x16, 0x00, 0x00, 0x00, 0x00, 0x00, 0x00, 0x16,
  0xe8, 0xff, 0xff, 0xff, 0x53, 0x00, 0x00, 0x00, 0x00, 0x00, 0x00, 0x53,
  0xf4, 0xff, 0xff, 0xff, 0x2d, 0x00, 0x00, 0x00, 0x00, 0x00, 0x00, 0x2d,
  0x0c, 0x00, 0x0c, 0x00, 0x0b, 0x00, 0x00, 0x00, 0x00, 0x00, 0x04, 0x00,
  0x0c, 0x00, 0x00, 0x00, 0x4d, 0x00, 0x00, 0x00, 0x00, 0x00, 0x00, 0x4d,
  0xf0, 0xff, 0xff, 0xff, 0x11, 0x00, 0x00, 0x00, 0x02, 0x00, 0x00, 0x00,
  0x00, 0x00, 0x00, 0x11, 0x0c, 0x00, 0x10, 0x00, 0x0f, 0x00, 0x00, 0x00,
  0x08, 0x00, 0x04, 0x00, 0x0c, 0x00, 0x00, 0x00, 0x03, 0x00, 0x00, 0x00,
  0x03, 0x00, 0x00, 0x00, 0x00, 0x00, 0x00, 0x03,
};
const unsigned int g_model_len = 14840;
#endif  // MODEL_DATA_H
