// Auto-generated in sketchboard by retrain_to_90.py
// Geometry-only augmentation: rotation and zoom. No colour/lightness changes.
#ifndef G_HUMAN_DETECT_MODEL_DATA_H
#define G_HUMAN_DETECT_MODEL_DATA_H

extern const unsigned char g_human_detect_model_data[];
extern const unsigned int g_human_detect_model_data_len;

const unsigned char g_human_detect_model_data[] = {
  0x20, 0x00, 0x00, 0x00, 0x54, 0x46, 0x4c, 0x33, 0x00, 0x00, 0x00, 0x00,
  0x14, 0x00, 0x20, 0x00, 0x1c, 0x00, 0x18, 0x00, 0x14, 0x00, 0x10, 0x00,
  0x0c, 0x00, 0x00, 0x00, 0x08, 0x00, 0x04, 0x00, 0x14, 0x00, 0x00, 0x00,
  0x1c, 0x00, 0x00, 0x00, 0x98, 0x00, 0x00, 0x00, 0xf0, 0x00, 0x00, 0x00,
  0x90, 0x1a, 0x00, 0x00, 0xa0, 0x1a, 0x00, 0x00, 0xa8, 0x33, 0x00, 0x00,
  0x03, 0x00, 0x00, 0x00, 0x01, 0x00, 0x00, 0x00, 0x10, 0x00, 0x00, 0x00,
  0x00, 0x00, 0x0a, 0x00, 0x10, 0x00, 0x0c, 0x00, 0x08, 0x00, 0x04, 0x00,
  0x0a, 0x00, 0x00, 0x00, 0x0c, 0x00, 0x00, 0x00, 0x1c, 0x00, 0x00, 0x00,
  0x3c, 0x00, 0x00, 0x00, 0x0f, 0x00, 0x00, 0x00, 0x73, 0x65, 0x72, 0x76,
  0x69, 0x6e, 0x67, 0x5f, 0x64, 0x65, 0x66, 0x61, 0x75, 0x6c, 0x74, 0x00,
  0x01, 0x00, 0x00, 0x00, 0x04, 0x00, 0x00, 0x00, 0x90, 0xff, 0xff, 0xff,
  0x15, 0x00, 0x00, 0x00, 0x04, 0x00, 0x00, 0x00, 0x08, 0x00, 0x00, 0x00,
  0x6f, 0x75, 0x74, 0x70, 0x75, 0x74, 0x5f, 0x30, 0x00, 0x00, 0x00, 0x00,
  0x01, 0x00, 0x00, 0x00, 0x04, 0x00, 0x00, 0x00, 0x4e, 0xe5, 0xff, 0xff,
  0x04, 0x00, 0x00, 0x00, 0x0c, 0x00, 0x00, 0x00, 0x6b, 0x65, 0x72, 0x61,
  0x73, 0x5f, 0x74, 0x65, 0x6e, 0x73, 0x6f, 0x72, 0x00, 0x00, 0x00, 0x00,
  0x02, 0x00, 0x00, 0x00, 0x34, 0x00, 0x00, 0x00, 0x04, 0x00, 0x00, 0x00,
  0xdc, 0xff, 0xff, 0xff, 0x18, 0x00, 0x00, 0x00, 0x04, 0x00, 0x00, 0x00,
  0x13, 0x00, 0x00, 0x00, 0x43, 0x4f, 0x4e, 0x56, 0x45, 0x52, 0x53, 0x49,
  0x4f, 0x4e, 0x5f, 0x4d, 0x45, 0x54, 0x41, 0x44, 0x41, 0x54, 0x41, 0x00,
  0x08, 0x00, 0x0c, 0x00, 0x08, 0x00, 0x04, 0x00, 0x08, 0x00, 0x00, 0x00,
  0x17, 0x00, 0x00, 0x00, 0x04, 0x00, 0x00, 0x00, 0x13, 0x00, 0x00, 0x00,
  0x6d, 0x69, 0x6e, 0x5f, 0x72, 0x75, 0x6e, 0x74, 0x69, 0x6d, 0x65, 0x5f,
  0x76, 0x65, 0x72, 0x73, 0x69, 0x6f, 0x6e, 0x00, 0x19, 0x00, 0x00, 0x00,
  0x9c, 0x19, 0x00, 0x00, 0x94, 0x19, 0x00, 0x00, 0x7c, 0x19, 0x00, 0x00,
  0x64, 0x19, 0x00, 0x00, 0x14, 0x19, 0x00, 0x00, 0x84, 0x18, 0x00, 0x00,
  0x74, 0x06, 0x00, 0x00, 0x24, 0x06, 0x00, 0x00, 0x94, 0x01, 0x00, 0x00,
  0x64, 0x01, 0x00, 0x00, 0x0c, 0x01, 0x00, 0x00, 0xf8, 0x00, 0x00, 0x00,
  0xe4, 0x00, 0x00, 0x00, 0xdc, 0x00, 0x00, 0x00, 0xd4, 0x00, 0x00, 0x00,
  0xcc, 0x00, 0x00, 0x00, 0xc4, 0x00, 0x00, 0x00, 0xbc, 0x00, 0x00, 0x00,
  0xb4, 0x00, 0x00, 0x00, 0xac, 0x00, 0x00, 0x00, 0xa4, 0x00, 0x00, 0x00,
  0x9c, 0x00, 0x00, 0x00, 0x94, 0x00, 0x00, 0x00, 0x74, 0x00, 0x00, 0x00,
  0x04, 0x00, 0x00, 0x00, 0x2e, 0xe6, 0xff, 0xff, 0x04, 0x00, 0x00, 0x00,
  0x60, 0x00, 0x00, 0x00, 0x0c, 0x00, 0x00, 0x00, 0x08, 0x00, 0x0e, 0x00,
  0x08, 0x00, 0x04, 0x00, 0x08, 0x00, 0x00, 0x00, 0x10, 0x00, 0x00, 0x00,
  0x28, 0x00, 0x00, 0x00, 0x00, 0x00, 0x06, 0x00, 0x08, 0x00, 0x04, 0x00,
  0x06, 0x00, 0x00, 0x00, 0x04, 0x00, 0x00, 0x00, 0x01, 0x00, 0x00, 0x00,
  0xeb, 0x03, 0x00, 0x00, 0x0c, 0x00, 0x18, 0x00, 0x14, 0x00, 0x10, 0x00,
  0x0c, 0x00, 0x04, 0x00, 0x0c, 0x00, 0x00, 0x00, 0x39, 0x3b, 0x75, 0x7a,
  0x9f, 0x16, 0x96, 0x79, 0x02, 0x00, 0x00, 0x00, 0x02, 0x00, 0x00, 0x00,
  0x04, 0x00, 0x00, 0x00, 0x06, 0x00, 0x00, 0x00, 0x32, 0x2e, 0x32, 0x31,
  0x2e, 0x30, 0x00, 0x00, 0x9a, 0xe6, 0xff, 0xff, 0x04, 0x00, 0x00, 0x00,
  0x10, 0x00, 0x00, 0x00, 0x31, 0x2e, 0x31, 0x34, 0x2e, 0x30, 0x00, 0x00,
  0x00, 0x00, 0x00, 0x00, 0x00, 0x00, 0x00, 0x00, 0x44, 0xcf, 0xff, 0xff,
  0x48, 0xcf, 0xff, 0xff, 0x4c, 0xcf, 0xff, 0xff, 0x50, 0xcf, 0xff, 0xff,
  0x54, 0xcf, 0xff, 0xff, 0x58, 0xcf, 0xff, 0xff, 0x5c, 0xcf, 0xff, 0xff,
  0x60, 0xcf, 0xff, 0xff, 0x64, 0xcf, 0xff, 0xff, 0x68, 0xcf, 0xff, 0xff,
  0xde, 0xe6, 0xff, 0xff, 0x04, 0x00, 0x00, 0x00, 0x01, 0x00, 0x00, 0x00,
  0x7f, 0x00, 0x00, 0x00, 0xee, 0xe6, 0xff, 0xff, 0x04, 0x00, 0x00, 0x00,
  0x01, 0x00, 0x00, 0x00, 0x80, 0x00, 0x00, 0x00, 0xfe, 0xe6, 0xff, 0xff,
  0x04, 0x00, 0x00, 0x00, 0x48, 0x00, 0x00, 0x00, 0x1c, 0xfb, 0xb0, 0x59,
  0xf5, 0x0c, 0x7f, 0x7e, 0xed, 0xb6, 0xb5, 0xc5, 0x00, 0xea, 0x81, 0x18,
  0x96, 0x1a, 0x8e, 0xbc, 0x0f, 0xc3, 0x81, 0xaa, 0xa9, 0x8a, 0x16, 0x7f,
  0x7c, 0x50, 0x6d, 0xc5, 0x13, 0x39, 0x26, 0x42, 0x7f, 0x39, 0x79, 0x78,
  0xb4, 0x71, 0x2b, 0x48, 0x77, 0xc6, 0x45, 0x1f, 0xd7, 0xf3, 0x7f, 0x05,
  0xae, 0xd9, 0x6d, 0x1f, 0xb0, 0x7f, 0x59, 0x9a, 0x56, 0x55, 0xd6, 0x81,
  0x93, 0x92, 0xc4, 0xe5, 0x97, 0xa3, 0xa1, 0xd8, 0x52, 0xe7, 0xff, 0xff,
  0x04, 0x00, 0x00, 0x00, 0x20, 0x00, 0x00, 0x00, 0x07, 0xea, 0xff, 0xff,
  0x92, 0xe0, 0xff, 0xff, 0xca, 0xfe, 0xff, 0xff, 0x7d, 0xfa, 0xff, 0xff,
  0x73, 0x43, 0x00, 0x00, 0xd9, 0xf8, 0xff, 0xff, 0x53, 0x36, 0x00, 0x00,
  0x1f, 0xed, 0xff, 0xff, 0x7e, 0xe7, 0xff, 0xff, 0x04, 0x00, 0x00, 0x00,
  0x80, 0x04, 0x00, 0x00, 0x05, 0xaa, 0x8a, 0x3d, 0x32, 0x05, 0x37, 0x9e,
  0x3e, 0xf1, 0xdc, 0x02, 0x1c, 0xe2, 0x3d, 0xac, 0xe4, 0x0e, 0xee, 0x32,
  0x1a, 0xe2, 0x0b, 0xe2, 0x4d, 0xc3, 0xc0, 0xf2, 0x2c, 0xd4, 0x4d, 0xab,
  0x13, 0xcc, 0xbe, 0x32, 0x16, 0xc7, 0x0b, 0xb0, 0x12, 0xeb, 0xc0, 0x3e,
  0xf8, 0xd7, 0x2c, 0xc7, 0x04, 0x8e, 0xc2, 0x38, 0x46, 0x9b, 0x39, 0x81,
  0x38, 0xd9, 0xf8, 0x2d, 0xea, 0xe2, 0x3d, 0xf6, 0xe9, 0xff, 0x10, 0x23,
  0x31, 0x97, 0x03, 0xce, 0x43, 0x5a, 0x2b, 0x1c, 0xf7, 0x19, 0x3e, 0x47,
  0xfb, 0x13, 0x1f, 0x08, 0xef, 0x0c, 0xfa, 0x32, 0x08, 0xee, 0x24, 0xc7,
  0xd9, 0x1b, 0xe5, 0x38, 0x48, 0x4a, 0x38, 0x07, 0xd9, 0x20, 0x39, 0x35,
  0xe8, 0x08, 0x38, 0xd7, 0xf0, 0xf4, 0xb0, 0x13, 0x37, 0x2b, 0xfb, 0x25,
  0xeb, 0x31, 0xf7, 0x00, 0x5c, 0x67, 0x0f, 0x62, 0x11, 0x01, 0x2b, 0x24,
  0xee, 0x42, 0x00, 0xa8, 0x81, 0xf0, 0xb2, 0x09, 0xc4, 0x25, 0x1e, 0xfa,
  0xd2, 0xf1, 0xb0, 0x4c, 0xca, 0x36, 0x0f, 0x1f, 0xdb, 0x3d, 0xf5, 0x26,
  0x11, 0x10, 0xe4, 0xd7, 0x02, 0x7f, 0xec, 0x38, 0xfe, 0x10, 0xfd, 0x27,
  0xda, 0x67, 0x24, 0xd6, 0xd7, 0xd4, 0x08, 0xe4, 0x1b, 0x55, 0x23, 0xef,
  0x2f, 0x2e, 0xdf, 0x08, 0x00, 0x34, 0x29, 0xf6, 0xc4, 0x0c, 0x39, 0xc8,
  0xb4, 0x34, 0xc2, 0x1e, 0x09, 0xdb, 0xd6, 0xe6, 0xf1, 0x21, 0x01, 0xaf,
  0x36, 0xee, 0xe1, 0xdc, 0x0d, 0xe2, 0x24, 0xdf, 0xba, 0x42, 0x46, 0xe8,
  0xd9, 0x22, 0xda, 0x29, 0x3b, 0x1b, 0xf0, 0x1e, 0x33, 0x26, 0xe2, 0x04,
  0x38, 0x02, 0x13, 0x35, 0x09, 0x6a, 0x08, 0xe5, 0x11, 0xd7, 0xed, 0xf9,
  0xee, 0xcf, 0x31, 0xc5, 0x0a, 0xdb, 0x13, 0x4b, 0x13, 0x52, 0x29, 0x0b,
  0x2c, 0xe9, 0xaa, 0x39, 0x27, 0x4b, 0x30, 0xef, 0x35, 0xc3, 0xe6, 0x36,
  0xe7, 0x7f, 0xf7, 0xa6, 0x2e, 0xd6, 0xaa, 0xdd, 0xd1, 0x3d, 0x06, 0xe2,
  0x08, 0xc5, 0xed, 0x05, 0xb9, 0xf8, 0x28, 0xb2, 0xa3, 0xaf, 0xd3, 0xab,
  0x8b, 0x7e, 0x8a, 0xb6, 0x29, 0x0d, 0xdf, 0xd4, 0xcd, 0x7f, 0x03, 0xbe,
  0xc6, 0x20, 0x41, 0xf3, 0xc4, 0x49, 0x15, 0x22, 0x02, 0x14, 0x31, 0x15,
  0x28, 0x09, 0x1a, 0x25, 0x28, 0x2c, 0xf0, 0x15, 0xce, 0x4b, 0xc3, 0x28,
  0xea, 0x1f, 0x00, 0xd6, 0x0f, 0x74, 0xf8, 0x0e, 0x27, 0xd3, 0x3c, 0xe6,
  0x19, 0x2e, 0xfa, 0x08, 0x12, 0x13, 0xd2, 0xcc, 0xe4, 0x2d, 0x3c, 0xf6,
  0xc4, 0x4f, 0x01, 0xec, 0xc9, 0x5a, 0x22, 0xe6, 0x01, 0x0a, 0x05, 0xf1,
  0xe8, 0x16, 0x19, 0xe7, 0xe3, 0x03, 0xcb, 0x1e, 0x2a, 0x4d, 0x03, 0x17,
  0x96, 0x0a, 0xc7, 0x04, 0xe1, 0x52, 0xc5, 0xd1, 0xd6, 0xac, 0x8f, 0x25,
  0xe9, 0x5c, 0xd7, 0xb5, 0x03, 0x3e, 0xe8, 0x97, 0xe1, 0x17, 0xc5, 0x48,
  0xf7, 0x51, 0x13, 0xd0, 0xaa, 0x1e, 0x81, 0x4c, 0xce, 0xff, 0xf8, 0x02,
  0xeb, 0x45, 0xef, 0xf9, 0xe8, 0x50, 0xfa, 0x15, 0x0f, 0x0c, 0x14, 0x24,
  0x13, 0x55, 0x0f, 0x12, 0xd0, 0x48, 0x3e, 0x4c, 0x14, 0x28, 0x1e, 0x34,
  0xf2, 0x36, 0x1d, 0x38, 0xa8, 0x21, 0x2f, 0x03, 0x00, 0x4f, 0xc2, 0x0b,
  0x07, 0x16, 0xd2, 0x1b, 0xd5, 0xcd, 0xf8, 0xcb, 0x47, 0x41, 0xe0, 0x4e,
  0x36, 0x22, 0x46, 0x1c, 0xf4, 0xec, 0x06, 0x8c, 0xe8, 0x16, 0x81, 0x38,
  0xce, 0xcb, 0xe7, 0xf1, 0xf4, 0xde, 0xea, 0x0a, 0x1d, 0xdb, 0xe8, 0x42,
  0x23, 0x5e, 0xfe, 0x15, 0xee, 0xf9, 0x39, 0xac, 0xa4, 0x4b, 0xb9, 0x0c,
  0xe2, 0xdd, 0x20, 0xde, 0x2e, 0x5d, 0xe6, 0x0f, 0x0b, 0x27, 0x03, 0x58,
  0x57, 0x74, 0x03, 0xe6, 0x26, 0xc2, 0xd5, 0xed, 0x35, 0x00, 0x13, 0xb3,
  0x04, 0xf5, 0xc9, 0x0a, 0xed, 0xeb, 0xf6, 0xf6, 0xcb, 0xdb, 0xcd, 0xf1,
  0xea, 0xe6, 0x37, 0x19, 0x26, 0x99, 0x81, 0x1f, 0x3c, 0x09, 0x3d, 0x9c,
  0x10, 0xff, 0xd7, 0x31, 0x40, 0xeb, 0x00, 0xc6, 0x2e, 0x24, 0xf2, 0x32,
  0x20, 0x04, 0x3b, 0xe0, 0xde, 0xda, 0xaf, 0x28, 0x29, 0xe5, 0xe0, 0xad,
  0x1f, 0x36, 0xf0, 0xf9, 0xed, 0x02, 0x04, 0x2d, 0x12, 0x24, 0x13, 0x2f,
  0x16, 0xd2, 0xd2, 0xf0, 0xeb, 0xc6, 0xde, 0xc7, 0x3e, 0x0b, 0x28, 0xcf,
  0x1b, 0x13, 0x2e, 0x3d, 0x36, 0x16, 0xe0, 0xd7, 0xb5, 0xf1, 0xfd, 0xeb,
  0x39, 0x43, 0x42, 0x21, 0xf1, 0xee, 0x15, 0xfc, 0xfc, 0x56, 0x33, 0xc0,
  0x39, 0xeb, 0x02, 0x15, 0xc2, 0x23, 0xc1, 0xed, 0x0a, 0x1e, 0x01, 0x45,
  0xa9, 0x12, 0x12, 0x7b, 0x2c, 0x4e, 0xb8, 0xca, 0x38, 0x3c, 0x1e, 0xb8,
  0xb5, 0x1e, 0xea, 0xa6, 0xa6, 0xe0, 0xe3, 0x12, 0xd5, 0x03, 0x49, 0x31,
  0xba, 0x3d, 0xfa, 0x7f, 0xad, 0xad, 0xfe, 0xf3, 0xb0, 0x4c, 0xb6, 0xc1,
  0xdb, 0xd9, 0xbe, 0xbe, 0xf9, 0x06, 0xf9, 0xc0, 0xe7, 0x7f, 0x44, 0xf2,
  0x66, 0x6c, 0x79, 0x43, 0x2b, 0x9f, 0x87, 0xa6, 0x02, 0x55, 0xf5, 0xe9,
  0xbc, 0x51, 0xeb, 0xe8, 0xe5, 0xdd, 0x20, 0xe6, 0xc4, 0x31, 0x1a, 0xc3,
  0x26, 0x26, 0xe1, 0x5f, 0xd1, 0x10, 0xfc, 0xd3, 0x48, 0xf1, 0xfe, 0xd4,
  0x19, 0x31, 0xd4, 0xca, 0x11, 0x2d, 0xcf, 0x15, 0x13, 0x03, 0x2f, 0xec,
  0x2a, 0xfa, 0x74, 0x24, 0x0a, 0xfb, 0xf5, 0xce, 0x0e, 0x14, 0xd4, 0xff,
  0x39, 0xfe, 0x0f, 0xf6, 0xe6, 0xe3, 0xe3, 0x0d, 0xfb, 0x2e, 0x31, 0xac,
  0x0a, 0x2e, 0xbf, 0x31, 0xdd, 0x1a, 0x0c, 0xf9, 0x13, 0x7f, 0x15, 0x05,
  0x00, 0xdc, 0xe4, 0x14, 0x09, 0x34, 0x28, 0xe1, 0x47, 0xec, 0xca, 0xce,
  0xe2, 0x1b, 0x33, 0x05, 0xf3, 0xf2, 0x27, 0x15, 0x23, 0x49, 0x1f, 0x47,
  0x0e, 0xe9, 0xe2, 0xf4, 0x44, 0x4f, 0xf3, 0xde, 0x46, 0x00, 0xd5, 0xfb,
  0xdf, 0x04, 0x4e, 0xf7, 0xff, 0x14, 0x01, 0xfa, 0xfe, 0x0c, 0x0c, 0xef,
  0x13, 0x03, 0x0f, 0xd1, 0xb5, 0x14, 0xf1, 0x2f, 0x21, 0x3c, 0x31, 0x09,
  0xc5, 0x7f, 0xff, 0x28, 0x2d, 0xe6, 0xa1, 0x3a, 0x18, 0x50, 0xfe, 0xe4,
  0xd4, 0x03, 0xe8, 0xcd, 0x1e, 0x17, 0x10, 0xee, 0x1d, 0x3a, 0x31, 0xfe,
  0xdd, 0x26, 0x19, 0xf5, 0x48, 0x06, 0xa4, 0x40, 0xf0, 0x68, 0x48, 0xbe,
  0xf5, 0xeb, 0xe4, 0x38, 0xf2, 0xf9, 0x55, 0xf4, 0x22, 0x4c, 0x3e, 0xc8,
  0xcf, 0x09, 0x2f, 0x37, 0x39, 0xf8, 0xc8, 0x3b, 0x30, 0x37, 0xe3, 0x16,
  0x2c, 0x24, 0x0b, 0x00, 0xe6, 0xd2, 0xdd, 0xba, 0x03, 0x17, 0xbc, 0xde,
  0x38, 0x68, 0xd5, 0xd1, 0x09, 0xe0, 0x21, 0x40, 0x36, 0x7f, 0xfa, 0x1d,
  0x4b, 0x1c, 0xf1, 0x4b, 0xdd, 0xf3, 0xc3, 0xaa, 0x0a, 0xec, 0xd3, 0x26,
  0x0d, 0x44, 0xde, 0x9d, 0xc9, 0xc1, 0x21, 0x25, 0x2b, 0xdb, 0xfb, 0xf2,
  0xf5, 0x1f, 0xce, 0x38, 0x33, 0xe4, 0x31, 0x16, 0xea, 0x2d, 0xd6, 0x30,
  0x0b, 0x4c, 0x11, 0xca, 0x63, 0x16, 0xe4, 0x13, 0x0e, 0xbe, 0x19, 0x9c,
  0x29, 0xe0, 0x11, 0x11, 0xe5, 0x3a, 0xef, 0x3f, 0x0c, 0x2f, 0x2c, 0x26,
  0x38, 0xea, 0x41, 0x41, 0x37, 0x3b, 0x12, 0x5e, 0xfc, 0x36, 0xdc, 0x9d,
  0xf8, 0x21, 0xde, 0x2b, 0x91, 0x55, 0xfd, 0xfc, 0x0b, 0x62, 0xe9, 0x21,
  0xb0, 0x51, 0xfc, 0x2f, 0x3f, 0x2f, 0xcd, 0xfd, 0xbd, 0x26, 0x53, 0xe0,
  0xdd, 0x5d, 0x03, 0xa2, 0xeb, 0xcd, 0xc3, 0xf2, 0xfc, 0x7f, 0xe9, 0xf8,
  0x32, 0x38, 0x0f, 0x5a, 0xf5, 0x7c, 0x25, 0xd6, 0xc3, 0x59, 0xb4, 0x37,
  0x5c, 0xf5, 0x4c, 0x33, 0xf6, 0x1c, 0xda, 0x3b, 0x11, 0xb8, 0x9c, 0x04,
  0x52, 0x72, 0x61, 0xa0, 0xe6, 0x5e, 0x2d, 0xf8, 0x20, 0x63, 0xd1, 0x4a,
  0xff, 0xf4, 0x16, 0x31, 0x37, 0x3d, 0x2b, 0xe6, 0x1c, 0xf4, 0xb7, 0x57,
  0x05, 0x58, 0x11, 0x9f, 0xd5, 0x05, 0x18, 0xec, 0x98, 0xf2, 0x81, 0x19,
  0xdb, 0xf9, 0xcf, 0xfe, 0xbb, 0xcc, 0xb8, 0xd0, 0xcf, 0xda, 0xb7, 0xd4,
  0xfc, 0xb0, 0xf2, 0xe8, 0x1e, 0xc0, 0x16, 0xf9, 0x39, 0x3f, 0x3a, 0x06,
  0x08, 0x06, 0x0f, 0xed, 0x3b, 0xe0, 0xeb, 0xe6, 0xf3, 0xdf, 0xaa, 0x12,
  0xca, 0xf0, 0x0b, 0xce, 0x0d, 0xfb, 0xe5, 0xe7, 0x3f, 0xfa, 0x33, 0xff,
  0x23, 0x24, 0xff, 0x31, 0x33, 0xf1, 0x3f, 0x1d, 0x10, 0xce, 0xfc, 0x06,
  0x13, 0x9f, 0x3b, 0x14, 0x30, 0xeb, 0x81, 0xf1, 0x17, 0xe5, 0xef, 0xdf,
  0x05, 0x0d, 0xce, 0x15, 0x28, 0xa6, 0x00, 0xe2, 0xdc, 0xd6, 0xc0, 0xd1,
  0x20, 0xad, 0xdc, 0xb0, 0x0a, 0xec, 0xff, 0xff, 0x04, 0x00, 0x00, 0x00,
  0x40, 0x00, 0x00, 0x00, 0x53, 0x17, 0x00, 0x00, 0x8a, 0xfd, 0xff, 0xff,
  0xc2, 0xef, 0xff, 0xff, 0x7b, 0xe7, 0xff, 0xff, 0xf7, 0xec, 0xff, 0xff,
  0x14, 0xe9, 0xff, 0xff, 0x49, 0xe7, 0xff, 0xff, 0xb5, 0x17, 0x00, 0x00,
  0x1f, 0xe5, 0xff, 0xff, 0x04, 0xf4, 0xff, 0xff, 0x36, 0xf2, 0xff, 0xff,
  0x46, 0xf4, 0xff, 0xff, 0x73, 0xec, 0xff, 0xff, 0x70, 0xd9, 0xff, 0xff,
  0x02, 0xf0, 0xff, 0xff, 0x3f, 0x15, 0x00, 0x00, 0x56, 0xec, 0xff, 0xff,
  0x04, 0x00, 0x00, 0x00, 0x00, 0x12, 0x00, 0x00, 0xf8, 0x02, 0x1d, 0x36,
  0xea, 0x6a, 0xe5, 0x02, 0x52, 0x4c, 0xe3, 0x42, 0xc8, 0x39, 0x99, 0xe4,
  0xdc, 0xd3, 0x3f, 0xee, 0x14, 0x37, 0x1d, 0xf6, 0x2b, 0xfa, 0xe6, 0x30,
  0xc7, 0xd8, 0xed, 0x05, 0xf8, 0x28, 0xf9, 0x45, 0x0d, 0x0e, 0xff, 0x02,
  0x32, 0x0e, 0x34, 0xe4, 0x19, 0xec, 0xca, 0xf0, 0xf1, 0xd9, 0x02, 0x20,
  0x0c, 0x2d, 0xd5, 0xe6, 0x41, 0x2b, 0x0c, 0x02, 0xdd, 0x4e, 0xf2, 0xf4,
  0x2d, 0xec, 0x15, 0x29, 0x14, 0xe3, 0xeb, 0x1a, 0x1d, 0x11, 0xc4, 0xc6,
  0x13, 0x11, 0x1a, 0x32, 0xf1, 0xe7, 0xe8, 0x23, 0x25, 0x02, 0x34, 0xd5,
  0x09, 0xad, 0x57, 0xed, 0xe8, 0xe6, 0xf4, 0xfd, 0xd0, 0x02, 0x21, 0x70,
  0xe6, 0xee, 0x44, 0xd8, 0x17, 0x37, 0x44, 0x0e, 0xd8, 0x51, 0x2d, 0x12,
  0x31, 0xf7, 0x20, 0x3f, 0x19, 0x03, 0xf9, 0x15, 0xe2, 0xed, 0x11, 0x01,
  0x3c, 0x1e, 0xca, 0xf1, 0xda, 0x2e, 0x29, 0x55, 0x33, 0xf5, 0x7f, 0xab,
  0xc3, 0x0b, 0x1b, 0x31, 0xfd, 0xd2, 0x0a, 0xd7, 0x18, 0xf0, 0x24, 0x02,
  0xf5, 0x24, 0xfc, 0x16, 0x3b, 0x15, 0x15, 0x14, 0xdf, 0x19, 0xa5, 0xd8,
  0x0f, 0xe2, 0xfd, 0xdd, 0x24, 0x25, 0xdf, 0xf5, 0x19, 0xd4, 0x2c, 0xf7,
  0x0c, 0x15, 0xea, 0xe9, 0x00, 0x2e, 0x25, 0x17, 0x17, 0x0f, 0x4f, 0xfd,
  0x02, 0x0b, 0x4a, 0x1c, 0x1a, 0x09, 0xf5, 0xe4, 0xff, 0x14, 0x09, 0x75,
  0xfa, 0x36, 0xe8, 0xf4, 0x41, 0x52, 0x12, 0xfb, 0x15, 0x11, 0x19, 0x23,
  0xe3, 0xe0, 0x01, 0x2e, 0xfb, 0x21, 0xf3, 0x13, 0xcd, 0xcd, 0x21, 0x09,
  0x1b, 0xe3, 0xed, 0xeb, 0xec, 0xf1, 0xd4, 0x1d, 0x29, 0xf5, 0x14, 0xf9,
  0xdf, 0xff, 0x22, 0x12, 0x21, 0xc2, 0xfb, 0xfd, 0xf3, 0x4a, 0xf0, 0x72,
  0x28, 0x5f, 0x05, 0x06, 0x0c, 0x0c, 0xe7, 0xef, 0x20, 0x3a, 0x3c, 0xe3,
  0x23, 0xd2, 0xd3, 0x2a, 0x01, 0x16, 0x01, 0xe7, 0x9d, 0xac, 0xf6, 0xe4,
  0x07, 0xbb, 0xf0, 0xe9, 0xec, 0xef, 0x27, 0xf0, 0xe9, 0xf4, 0x1c, 0xe8,
  0x81, 0xc8, 0xcb, 0xfd, 0xd3, 0xa8, 0xee, 0x03, 0xf0, 0x11, 0x36, 0xdb,
  0x02, 0x43, 0xd1, 0xe1, 0x52, 0x7d, 0xdd, 0x19, 0xc9, 0x4a, 0xd5, 0xc4,
  0x07, 0xed, 0x20, 0x21, 0xfc, 0x08, 0xc7, 0x06, 0xd6, 0xf0, 0xda, 0xc8,
  0xf2, 0xd1, 0xca, 0xf7, 0x0c, 0x2c, 0xd9, 0x42, 0xf7, 0x19, 0x28, 0x0d,
  0x1c, 0xfa, 0x35, 0x02, 0x13, 0xce, 0xda, 0xea, 0xe5, 0x11, 0xfd, 0x33,
  0xfe, 0x10, 0x0c, 0xd1, 0x45, 0x18, 0xc6, 0xdf, 0xf6, 0x26, 0xbf, 0x11,
  0xef, 0xd4, 0xda, 0x0e, 0x09, 0xdb, 0xeb, 0x20, 0x1e, 0x25, 0xd9, 0xd8,
  0x17, 0x00, 0x0f, 0x12, 0xdd, 0xed, 0x1e, 0x3a, 0xfe, 0x0e, 0x4e, 0xe9,
  0x08, 0xfc, 0x1f, 0x05, 0x1c, 0x0b, 0xd1, 0x1f, 0x1b, 0x31, 0xe5, 0x72,
  0xf0, 0xfd, 0x1e, 0x02, 0x19, 0x18, 0x3b, 0x1f, 0xec, 0x7f, 0xfd, 0x1e,
  0x0f, 0xec, 0x35, 0x43, 0xef, 0xf5, 0x26, 0x07, 0xe5, 0x14, 0x1f, 0xff,
  0x1b, 0x33, 0x18, 0x1b, 0xf6, 0x20, 0x3d, 0x49, 0xe8, 0xfd, 0x43, 0xec,
  0xe4, 0x12, 0x72, 0x43, 0x1a, 0x11, 0xd4, 0xd2, 0xf6, 0x1a, 0xc4, 0x02,
  0xfd, 0xb8, 0x27, 0x0a, 0x81, 0x86, 0x01, 0x02, 0x22, 0xb1, 0x6c, 0x33,
  0x24, 0xf8, 0xce, 0xec, 0xd3, 0xf4, 0x10, 0x18, 0x03, 0xe0, 0xdb, 0x0b,
  0xe3, 0x13, 0x41, 0x17, 0xfe, 0xa7, 0xde, 0xd7, 0xce, 0xa6, 0xc8, 0xf5,
  0x1c, 0x1d, 0xc5, 0x15, 0xeb, 0xea, 0xd0, 0x2b, 0x2d, 0x31, 0xd9, 0xe1,
  0x1f, 0x11, 0x0b, 0x28, 0xbc, 0x97, 0x04, 0x07, 0x10, 0xbf, 0xf8, 0xef,
  0x00, 0x22, 0xf9, 0xb3, 0xe3, 0x11, 0xee, 0x0b, 0x0f, 0xf4, 0xdd, 0xfe,
  0x0e, 0xf9, 0xf9, 0x1e, 0x20, 0x12, 0xd0, 0xcc, 0x14, 0xfd, 0xb9, 0x1b,
  0x17, 0x24, 0xe5, 0x01, 0xfe, 0xee, 0xe3, 0x13, 0x0c, 0xef, 0xf2, 0xcc,
  0x18, 0xe1, 0x18, 0x0f, 0x9d, 0xa2, 0xf9, 0xd9, 0x20, 0x88, 0xc5, 0xef,
  0xf5, 0xda, 0xcf, 0xe1, 0xe3, 0x1e, 0xc9, 0x0f, 0xfb, 0xc6, 0xbe, 0xda,
  0xfc, 0xc7, 0xfe, 0xfb, 0x07, 0x07, 0xcc, 0xc8, 0xfb, 0x00, 0xb9, 0x33,
  0xfd, 0x01, 0xca, 0xc6, 0xe9, 0xe1, 0xf7, 0x05, 0xf4, 0xeb, 0x27, 0x5d,
  0x38, 0x42, 0x1a, 0x15, 0x15, 0x4c, 0x19, 0x20, 0xf0, 0x04, 0xaf, 0xdd,
  0x1d, 0xfe, 0xd6, 0x25, 0x26, 0xfd, 0xd2, 0x18, 0x0b, 0xd3, 0x0e, 0xdb,
  0x21, 0x0a, 0xbf, 0xf2, 0xea, 0x11, 0x40, 0xff, 0x03, 0x08, 0x38, 0xf1,
  0xc1, 0xbc, 0x1c, 0x09, 0x04, 0xd8, 0x21, 0xe6, 0x25, 0x00, 0xfa, 0x7f,
  0x2f, 0x35, 0xe6, 0xf6, 0x3b, 0x31, 0x03, 0x03, 0xe2, 0x42, 0x2e, 0x28,
  0xdf, 0xf4, 0xf9, 0x44, 0x06, 0xef, 0xf7, 0xdb, 0xfb, 0xe8, 0xfc, 0xc0,
  0x23, 0xe6, 0xf7, 0xd9, 0xe0, 0xfe, 0xdc, 0xfb, 0xee, 0xf9, 0xf4, 0xef,
  0xdb, 0xdc, 0xed, 0xfb, 0x08, 0xcb, 0x02, 0xea, 0x19, 0x34, 0x32, 0x2a,
  0x3a, 0x1d, 0x01, 0x02, 0x3b, 0x34, 0xfc, 0x21, 0xde, 0x24, 0xef, 0xcf,
  0xdf, 0xf9, 0x02, 0x39, 0x21, 0x08, 0x30, 0x04, 0xe1, 0xe2, 0xef, 0xde,
  0x07, 0xba, 0xff, 0x0b, 0x00, 0xfc, 0x00, 0x22, 0xe1, 0xf4, 0x2e, 0x2a,
  0xab, 0xde, 0x22, 0xd7, 0x22, 0xb0, 0xe0, 0xfa, 0x0a, 0xc4, 0xfb, 0xdb,
  0x33, 0xf5, 0x03, 0xfd, 0x18, 0x13, 0xc9, 0x12, 0xdf, 0x1b, 0xd1, 0x05,
  0x0b, 0xce, 0x34, 0xee, 0x0c, 0x1d, 0xfc, 0xe7, 0x0c, 0x27, 0xea, 0x10,
  0x11, 0xed, 0xd2, 0xd6, 0x12, 0x2d, 0xf8, 0x09, 0x21, 0x5c, 0x43, 0xde,
  0x28, 0xcd, 0x0b, 0xe7, 0xed, 0xee, 0x16, 0x04, 0xfb, 0xa8, 0x17, 0x55,
  0x2a, 0xf0, 0x27, 0xea, 0x4b, 0x60, 0xef, 0x0f, 0xe0, 0x53, 0xfc, 0x22,
  0x13, 0xbf, 0xf5, 0x5c, 0x19, 0x0a, 0x24, 0xe2, 0x36, 0x09, 0xe0, 0xb6,
  0x33, 0xec, 0x1c, 0xfc, 0x12, 0x31, 0xfc, 0x45, 0x2b, 0x2d, 0x44, 0xf0,
  0xb0, 0xf5, 0xfd, 0x0c, 0xf4, 0xd7, 0x04, 0x2d, 0xc4, 0x14, 0x23, 0x25,
  0xf6, 0x29, 0x47, 0xc4, 0x33, 0x7f, 0x42, 0x17, 0x0b, 0x3b, 0x46, 0x22,
  0x07, 0xf2, 0x1b, 0x4f, 0xe3, 0xed, 0xed, 0x00, 0x0b, 0x1a, 0x23, 0xf4,
  0x1e, 0xe7, 0xc7, 0x0b, 0xc0, 0x24, 0x41, 0x32, 0x20, 0x05, 0x56, 0x0b,
  0xdd, 0xfa, 0x39, 0xfb, 0x0f, 0xe5, 0xbd, 0xc4, 0xdc, 0xa3, 0x11, 0xdb,
  0xe3, 0x03, 0x1f, 0xd4, 0x31, 0x67, 0xb8, 0xa3, 0xc2, 0xe9, 0xce, 0xf1,
  0xf0, 0x8b, 0x2e, 0x29, 0xd7, 0xc9, 0xef, 0x24, 0x2e, 0x05, 0xc5, 0x95,
  0x47, 0xed, 0xa5, 0x3d, 0x10, 0x15, 0x16, 0x55, 0x1c, 0x5f, 0x6c, 0x2c,
  0x00, 0xdc, 0x57, 0x33, 0x32, 0x0b, 0x11, 0x04, 0xf6, 0x0e, 0x51, 0xe9,
  0x0c, 0x0f, 0x4c, 0xde, 0x41, 0x7c, 0xfa, 0xde, 0xd9, 0x5d, 0x32, 0x1e,
  0xe8, 0xdd, 0x34, 0x22, 0x00, 0xff, 0xd6, 0x17, 0x27, 0xf8, 0x26, 0xdc,
  0xfb, 0xc7, 0x12, 0x34, 0xa3, 0xd8, 0x6c, 0x53, 0x0b, 0x2f, 0x71, 0xa4,
  0x10, 0x2e, 0x39, 0x33, 0xe7, 0x2f, 0xcc, 0xc0, 0xb8, 0x28, 0x0d, 0xee,
  0x04, 0x4c, 0x66, 0xd4, 0x27, 0x48, 0x13, 0x0a, 0xcf, 0x45, 0x43, 0xc8,
  0x48, 0xf0, 0xc5, 0x11, 0x0a, 0x07, 0xa8, 0x3b, 0xfc, 0xe8, 0xd4, 0xd8,
  0x1e, 0xb2, 0xb7, 0x54, 0xc0, 0x05, 0xdc, 0x43, 0xeb, 0x36, 0x7f, 0xcd,
  0xe3, 0x02, 0x54, 0x13, 0xf9, 0x17, 0xe8, 0x24, 0x09, 0x19, 0x21, 0x59,
  0xd6, 0xcc, 0x32, 0x23, 0xa9, 0x02, 0x39, 0x07, 0x23, 0xc5, 0x40, 0x28,
  0x13, 0x0e, 0xfb, 0xec, 0xe2, 0xb5, 0x26, 0x09, 0xf5, 0x3f, 0x14, 0x25,
  0x07, 0x06, 0x0a, 0x0f, 0x03, 0xef, 0xf3, 0xdb, 0xd1, 0x9b, 0x1d, 0x0b,
  0x38, 0x2e, 0x19, 0x0c, 0x15, 0x15, 0x13, 0x12, 0x17, 0xe1, 0xe3, 0xb7,
  0xba, 0xa7, 0x11, 0xff, 0xe9, 0xe5, 0xfd, 0xfb, 0x19, 0xda, 0xf2, 0xfb,
  0xf8, 0x00, 0xde, 0xc9, 0xf2, 0x14, 0xcc, 0x17, 0x18, 0x18, 0xed, 0xc0,
  0xe5, 0xf3, 0xec, 0x15, 0x20, 0xd3, 0x05, 0xbd, 0xf4, 0xe6, 0xd9, 0x19,
  0x1c, 0x41, 0xc8, 0xd3, 0xfb, 0x03, 0xcb, 0xf5, 0x15, 0xec, 0xdd, 0xdc,
  0xf1, 0xfb, 0x06, 0x35, 0xf3, 0xfa, 0xdc, 0xc6, 0xff, 0xc8, 0xaf, 0xf9,
  0x0d, 0x02, 0xf3, 0xcd, 0xe5, 0x1a, 0x9a, 0x20, 0x27, 0xf4, 0xc7, 0xed,
  0xff, 0xf1, 0x12, 0xe9, 0x22, 0x19, 0x04, 0xc5, 0x15, 0xd9, 0x81, 0x11,
  0xfe, 0x1a, 0xb0, 0xc6, 0x04, 0x01, 0xe0, 0x08, 0xde, 0xe2, 0x07, 0x09,
  0x30, 0x27, 0xe5, 0x00, 0x66, 0x7c, 0xe2, 0x31, 0xf5, 0x18, 0xb1, 0xdc,
  0x25, 0xf6, 0x15, 0x1d, 0xfa, 0x2d, 0xcc, 0xfc, 0x15, 0xf0, 0xfe, 0x11,
  0x1a, 0x05, 0x13, 0x1c, 0x00, 0x02, 0x0f, 0x2f, 0x1e, 0x18, 0x26, 0x0e,
  0x07, 0xc0, 0x25, 0xfd, 0x20, 0x01, 0xf9, 0x13, 0x19, 0xe8, 0xf7, 0x7f,
  0x21, 0x18, 0x18, 0xed, 0x38, 0x23, 0x0f, 0x08, 0x08, 0x26, 0xf3, 0x12,
  0xf2, 0xde, 0x08, 0x2d, 0x1b, 0x20, 0x0a, 0xf9, 0xd2, 0xe2, 0x0a, 0xfc,
  0x10, 0x00, 0xea, 0xe5, 0xa1, 0x18, 0x17, 0x0f, 0xe9, 0xfa, 0x4a, 0xae,
  0xbd, 0xfa, 0x28, 0xf5, 0xc1, 0xf1, 0xcb, 0xec, 0xee, 0x2b, 0xe8, 0x7a,
  0xff, 0x59, 0x26, 0xf2, 0x03, 0x2e, 0x17, 0xf1, 0x00, 0x46, 0x23, 0xd4,
  0x28, 0xef, 0xde, 0x2b, 0x1b, 0xfd, 0xea, 0x0e, 0xf1, 0xd6, 0x04, 0xfc,
  0x12, 0xc7, 0xe1, 0x32, 0x01, 0x0c, 0xd1, 0x17, 0x2b, 0xef, 0x4f, 0x0b,
  0xba, 0xf2, 0x5f, 0x20, 0x27, 0xca, 0xd1, 0x11, 0xcf, 0xdc, 0x40, 0x9a,
  0x05, 0xd6, 0x09, 0xdd, 0x2e, 0x58, 0x09, 0x2c, 0xe2, 0xec, 0xf3, 0xf1,
  0xce, 0xee, 0x21, 0xc0, 0xfb, 0x2b, 0x41, 0xde, 0x3b, 0x3d, 0xca, 0xfd,
  0xec, 0x2a, 0xe0, 0xf5, 0x12, 0x29, 0x26, 0x50, 0x1d, 0x7f, 0x2a, 0xff,
  0x1c, 0xfb, 0xf7, 0xf5, 0xf6, 0xd1, 0xb0, 0xe0, 0x15, 0xcc, 0xff, 0x40,
  0x0d, 0xc1, 0xc0, 0x21, 0x2b, 0x16, 0xf9, 0xfb, 0x4f, 0x4f, 0x12, 0x1f,
  0x03, 0xbe, 0x09, 0x57, 0xeb, 0x1b, 0x19, 0x02, 0x4c, 0x3f, 0x01, 0xef,
  0x13, 0x2f, 0xf9, 0x21, 0x28, 0x2c, 0x17, 0x57, 0x0b, 0x2d, 0x1c, 0x2d,
  0xd4, 0xb4, 0x06, 0xe6, 0x20, 0xfd, 0xe5, 0x1f, 0xd5, 0xc1, 0x6b, 0x17,
  0x17, 0xc4, 0x00, 0xcb, 0x32, 0x69, 0x20, 0x19, 0xd6, 0x34, 0xdd, 0xfe,
  0xdc, 0xf4, 0x41, 0x06, 0xee, 0xe6, 0x00, 0xf9, 0x2c, 0x54, 0x05, 0xf1,
  0xcd, 0x1c, 0xda, 0xe9, 0xd3, 0xf1, 0x43, 0x5e, 0x1e, 0x25, 0x52, 0xde,
  0xc7, 0xed, 0x2e, 0x21, 0xdf, 0xdb, 0xff, 0xec, 0x08, 0x0b, 0xdc, 0xb6,
  0xe4, 0x9a, 0x17, 0xe4, 0xa8, 0xe4, 0xe8, 0xb9, 0x0d, 0xd8, 0x44, 0x22,
  0xe3, 0x43, 0xf9, 0xdc, 0x1d, 0xf6, 0x07, 0x17, 0x01, 0xef, 0x0a, 0x15,
  0x05, 0x10, 0xf1, 0xf9, 0xf4, 0xee, 0x10, 0xb4, 0xd2, 0xcd, 0x11, 0x13,
  0xe7, 0x0f, 0xfc, 0x04, 0x10, 0x05, 0xff, 0x1f, 0xf7, 0xfd, 0xba, 0xbf,
  0xe2, 0xbd, 0x0b, 0xf3, 0xd9, 0xcc, 0xde, 0xc9, 0xe8, 0xb2, 0x36, 0x05,
  0x10, 0x12, 0x1e, 0x0a, 0xfe, 0x19, 0xe6, 0x03, 0x33, 0xff, 0x03, 0x06,
  0xeb, 0x19, 0x19, 0x03, 0xce, 0xe3, 0x02, 0xc3, 0xfd, 0xda, 0xf7, 0xec,
  0x27, 0xf8, 0xe7, 0x1c, 0xf3, 0x14, 0xe1, 0x09, 0xdf, 0x1b, 0xd3, 0xd6,
  0x00, 0xd4, 0x1b, 0x04, 0xb0, 0xf1, 0xd4, 0xbb, 0xdd, 0x81, 0x11, 0xfc,
  0xf0, 0x01, 0x17, 0x0f, 0xfe, 0x19, 0xe4, 0xfd, 0x2a, 0x42, 0x1a, 0x33,
  0xd7, 0x0b, 0x41, 0x06, 0xc8, 0xe0, 0x0d, 0xd8, 0x00, 0xd4, 0x15, 0xe6,
  0x3a, 0x3f, 0x06, 0x4f, 0xde, 0x22, 0x0a, 0x03, 0xdb, 0xe9, 0xd2, 0x04,
  0xfc, 0xcc, 0xd9, 0x0e, 0xb4, 0x81, 0xc7, 0xa1, 0xfe, 0xa3, 0xf5, 0x08,
  0xdf, 0x0e, 0x03, 0xc3, 0xff, 0x07, 0xd3, 0x27, 0x0b, 0xca, 0xfa, 0xd1,
  0x41, 0xf0, 0xd3, 0xde, 0xf4, 0x01, 0xcb, 0x8c, 0x02, 0xf1, 0x8d, 0xfa,
  0xfc, 0x0b, 0xb1, 0xfb, 0x18, 0xe7, 0xbb, 0xf2, 0xf9, 0x43, 0xaa, 0xa0,
  0x3c, 0x0a, 0x0b, 0xe0, 0xc1, 0xbd, 0x1c, 0xbc, 0x0f, 0xa2, 0xf3, 0x0a,
  0x03, 0x1d, 0x14, 0xc8, 0x06, 0x0c, 0x11, 0xf6, 0xfd, 0xed, 0x16, 0x06,
  0x33, 0xfb, 0x09, 0xf7, 0x03, 0x42, 0xfe, 0x0f, 0x15, 0xdc, 0xe3, 0xf9,
  0x2b, 0x06, 0xca, 0x17, 0x0b, 0x0e, 0x31, 0x15, 0xcf, 0x25, 0xe6, 0xda,
  0xf9, 0x00, 0xf7, 0xc0, 0xde, 0xe6, 0xcf, 0xe2, 0xea, 0x97, 0x31, 0x07,
  0xda, 0x3c, 0x0b, 0xb4, 0x01, 0xf2, 0xcf, 0x0d, 0x03, 0xf2, 0xcb, 0xf3,
  0xf6, 0xed, 0x09, 0x1a, 0x1c, 0x21, 0x14, 0xf8, 0xe7, 0xec, 0x9c, 0xd5,
  0xdd, 0x0f, 0xc7, 0xcb, 0xc7, 0x0a, 0x14, 0xec, 0x1c, 0xd7, 0xf8, 0x2b,
  0xdf, 0xaf, 0x13, 0x20, 0xda, 0x18, 0xdd, 0xe0, 0x00, 0xc6, 0x40, 0x32,
  0x10, 0x53, 0xe2, 0x02, 0x1e, 0x33, 0xdc, 0x0c, 0xd1, 0xd9, 0x06, 0xff,
  0xed, 0xd2, 0x32, 0x16, 0x09, 0xee, 0x11, 0xbb, 0xa8, 0x81, 0x2e, 0x28,
  0x04, 0x0d, 0x10, 0xec, 0xf8, 0xd6, 0x4b, 0x2b, 0xfc, 0xdc, 0xb0, 0xc1,
  0xed, 0xe1, 0xbe, 0x02, 0xc9, 0xc5, 0xbd, 0x84, 0x1d, 0xa9, 0x9f, 0x1d,
  0x20, 0x21, 0xdc, 0xf6, 0x12, 0x1f, 0xad, 0x25, 0xe6, 0xc6, 0xe7, 0xe0,
  0xe6, 0xd4, 0x07, 0x29, 0x06, 0xc0, 0xdf, 0xc6, 0x04, 0xd8, 0x8f, 0xf7,
  0x03, 0x0c, 0xab, 0xf4, 0x0f, 0xf6, 0xb2, 0x05, 0xe9, 0x02, 0xbb, 0xe1,
  0xfa, 0x30, 0xf5, 0xe3, 0x0a, 0xb7, 0xae, 0xae, 0x1c, 0xee, 0xab, 0xe2,
  0x0b, 0x33, 0x9f, 0xd1, 0xf1, 0x17, 0xbe, 0xe7, 0xd6, 0xbb, 0x9e, 0xd5,
  0xde, 0xc9, 0xde, 0x0b, 0x2b, 0x0f, 0xd9, 0xe0, 0x13, 0xf5, 0x89, 0x17,
  0x0e, 0xea, 0xd0, 0xc5, 0xf7, 0xf1, 0xdb, 0x03, 0x19, 0x28, 0xe6, 0x31,
  0x02, 0xc9, 0xf7, 0x1c, 0xa0, 0xd2, 0x0d, 0xd0, 0x08, 0x81, 0x5d, 0xf4,
  0x23, 0x2b, 0xf8, 0x0d, 0xe9, 0xe9, 0xca, 0xe9, 0xe0, 0x06, 0x23, 0x0b,
  0xf2, 0x00, 0x1e, 0xfd, 0x0e, 0xc2, 0x1b, 0xfa, 0xe8, 0xbd, 0xef, 0x13,
  0xf4, 0x39, 0x0f, 0x25, 0xf6, 0x28, 0x0a, 0x04, 0x0d, 0x1f, 0xdd, 0xc0,
  0xe8, 0xdc, 0xeb, 0x2a, 0xb7, 0xf1, 0xf1, 0xd4, 0x10, 0xb7, 0xab, 0xf5,
  0xf8, 0xff, 0xf1, 0xef, 0xec, 0x02, 0xe9, 0x24, 0x08, 0xf5, 0xdc, 0xf8,
  0x18, 0x06, 0x0b, 0xfd, 0x00, 0x07, 0xda, 0xc5, 0x09, 0x17, 0xa0, 0x06,
  0xf7, 0x2b, 0xd5, 0x13, 0x17, 0x0b, 0xf9, 0xfb, 0x1e, 0xe7, 0xc5, 0xb3,
  0xd8, 0xf7, 0xed, 0x14, 0xab, 0xe9, 0xbc, 0xe0, 0xf4, 0x96, 0x8d, 0x15,
  0x18, 0xc9, 0xd1, 0xbd, 0xf6, 0xeb, 0xb7, 0xf6, 0xdd, 0xe7, 0xc8, 0x9c,
  0x1b, 0xc2, 0xc7, 0x19, 0x2c, 0xd4, 0x05, 0xfa, 0xf6, 0x03, 0x93, 0x1c,
  0x1c, 0x29, 0xc8, 0xf9, 0x16, 0xcc, 0x04, 0x15, 0x97, 0xc5, 0xd3, 0xfc,
  0xc9, 0xd9, 0x8a, 0xc3, 0xe7, 0xca, 0xe5, 0x13, 0xb2, 0xdd, 0xa7, 0xaa,
  0xf6, 0x2f, 0x1e, 0x64, 0x37, 0x3f, 0x09, 0x0e, 0xf0, 0xef, 0x43, 0x48,
  0xed, 0x16, 0x3a, 0x1b, 0x18, 0xc2, 0x0c, 0x9f, 0xca, 0x8a, 0x04, 0x09,
  0x11, 0x06, 0xd5, 0xfe, 0xf5, 0xf4, 0x38, 0x22, 0x9b, 0xdd, 0xf8, 0xb7,
  0xc8, 0xf0, 0xec, 0xab, 0xf9, 0xbd, 0x34, 0x24, 0xb6, 0xf9, 0x3a, 0xa4,
  0x0d, 0x2f, 0x0f, 0xe3, 0x25, 0x1b, 0xee, 0x21, 0x03, 0xe8, 0x39, 0x37,
  0x18, 0xf9, 0xff, 0x09, 0x19, 0xf2, 0x01, 0xa9, 0x04, 0xc9, 0x10, 0x1b,
  0xf1, 0xe7, 0xe0, 0xfd, 0x12, 0x17, 0xf8, 0xea, 0x81, 0xe6, 0x35, 0x0b,
  0xe1, 0xf3, 0xef, 0xac, 0xe5, 0x05, 0x09, 0x38, 0xa0, 0xdf, 0xda, 0xba,
  0xfe, 0x1f, 0x26, 0xbd, 0x18, 0x23, 0x03, 0xf5, 0xce, 0xd1, 0x00, 0x16,
  0xe2, 0xdb, 0xf6, 0x06, 0x05, 0xce, 0xd0, 0xd0, 0xd6, 0xb9, 0xcf, 0x16,
  0xdf, 0x15, 0xb3, 0xf9, 0x02, 0xf3, 0xc8, 0x1a, 0x04, 0x33, 0xda, 0xe2,
  0xcd, 0x8e, 0xf7, 0xb7, 0xa4, 0x9c, 0x2d, 0xa5, 0x08, 0x81, 0x0a, 0xcf,
  0xed, 0xfb, 0xb2, 0xd6, 0x18, 0xeb, 0xc8, 0xf9, 0xcf, 0xeb, 0x0f, 0x11,
  0x17, 0xe6, 0xf4, 0x28, 0x2e, 0xfe, 0xe9, 0xb2, 0xd4, 0xdd, 0x81, 0x0e,
  0xd9, 0x25, 0xac, 0xf2, 0x07, 0x21, 0xfc, 0xe7, 0xe8, 0x20, 0x21, 0xe5,
  0xef, 0xe0, 0x53, 0xff, 0xf7, 0xbe, 0x6f, 0x3c, 0xf2, 0xab, 0x68, 0xf9,
  0xd3, 0x3b, 0x1e, 0xcc, 0x2d, 0x2c, 0xfc, 0x03, 0x06, 0xdf, 0x41, 0x26,
  0x12, 0xe6, 0xfa, 0xe1, 0xe2, 0x0d, 0xf4, 0xcc, 0x34, 0xf9, 0x04, 0x3c,
  0x07, 0xf7, 0x1d, 0x2c, 0x2d, 0xff, 0x10, 0x4a, 0xef, 0xe0, 0x2f, 0x85,
  0x26, 0xd3, 0x24, 0xb3, 0xbc, 0x46, 0x1a, 0x3e, 0xf2, 0x9f, 0x4c, 0xd1,
  0xea, 0xda, 0x7a, 0x2a, 0x1c, 0xbe, 0x0c, 0x11, 0x39, 0x11, 0x0d, 0x60,
  0x00, 0xe2, 0xf5, 0xd1, 0xce, 0xd4, 0x27, 0xc5, 0x04, 0xec, 0xe3, 0xf3,
  0x07, 0xf5, 0x05, 0xe2, 0xe3, 0xfc, 0x15, 0x14, 0x18, 0x29, 0x1b, 0x53,
  0xe3, 0xbb, 0x2b, 0x16, 0xdc, 0xf5, 0x47, 0x3d, 0x28, 0xf4, 0x7f, 0x0c,
  0xfa, 0x11, 0xfd, 0x0c, 0x06, 0xee, 0x1b, 0x1b, 0xf0, 0x21, 0x20, 0x02,
  0xe6, 0x05, 0x0d, 0x1c, 0x1e, 0xf4, 0x1f, 0x12, 0xc4, 0xb7, 0x23, 0xff,
  0xe1, 0x1d, 0x16, 0x0b, 0x01, 0x10, 0xfe, 0x22, 0x26, 0xf2, 0xf1, 0xc8,
  0xe5, 0xd6, 0x07, 0x0e, 0xdf, 0xe8, 0x01, 0xf2, 0x0d, 0xd3, 0xe5, 0x04,
  0xf9, 0xd5, 0xfb, 0xf0, 0xcc, 0x03, 0xd0, 0x15, 0x1a, 0x0f, 0x0c, 0x0e,
  0xf9, 0xf7, 0xde, 0xf3, 0xfc, 0xc0, 0xdf, 0xd8, 0xc9, 0xed, 0xcc, 0x09,
  0xfb, 0x22, 0xda, 0xf8, 0x08, 0x0a, 0xec, 0x0a, 0x29, 0xe6, 0xdd, 0xd1,
  0xe3, 0xc6, 0xf8, 0x1d, 0xf0, 0x04, 0x18, 0xc1, 0xf4, 0xc0, 0xcc, 0xfd,
  0x00, 0xe6, 0xf7, 0xee, 0x11, 0x21, 0xaa, 0x10, 0x2c, 0x25, 0x0c, 0xdd,
  0x12, 0x04, 0x07, 0x07, 0x24, 0x04, 0x0b, 0xe7, 0xea, 0xec, 0xb6, 0x17,
  0x1b, 0x16, 0xd7, 0xd3, 0xe6, 0xf8, 0xff, 0x0a, 0xea, 0xf5, 0x4c, 0xe5,
  0x15, 0x51, 0x00, 0xb9, 0x42, 0x60, 0x31, 0x0e, 0xfc, 0x1d, 0xe9, 0xc8,
  0xd9, 0xe9, 0x20, 0x0c, 0xe2, 0x2b, 0x02, 0x05, 0x05, 0x28, 0x07, 0xde,
  0xd1, 0x16, 0xe9, 0xf2, 0xb2, 0x23, 0xeb, 0x17, 0x19, 0x11, 0x15, 0xe1,
  0x21, 0x21, 0x1e, 0x20, 0xcc, 0x12, 0xb9, 0xfb, 0x05, 0x02, 0x0e, 0x55,
  0x02, 0x1e, 0xf3, 0x00, 0x3d, 0x3c, 0xcd, 0xea, 0xf1, 0x49, 0xe7, 0xdb,
  0x3e, 0x00, 0xe9, 0x18, 0x0b, 0xd4, 0xf3, 0x13, 0x10, 0xe5, 0xec, 0xf1,
  0x1f, 0xf6, 0x04, 0x1f, 0x25, 0x02, 0xdf, 0x17, 0x25, 0x1e, 0x0d, 0x20,
  0xe2, 0xb8, 0x06, 0xe2, 0x34, 0xf6, 0xea, 0x26, 0x22, 0xfa, 0x36, 0x72,
  0x47, 0x1d, 0x41, 0x02, 0x17, 0x33, 0x42, 0xef, 0x0c, 0x3a, 0x30, 0xec,
  0xed, 0xfa, 0x06, 0x3b, 0x30, 0xfe, 0xdd, 0xfc, 0xe9, 0xc7, 0x1b, 0xfc,
  0x37, 0x10, 0x06, 0x1a, 0xb0, 0xf9, 0x26, 0x4a, 0x04, 0x22, 0x33, 0x81,
  0xc0, 0xfd, 0x6a, 0x41, 0xcf, 0xea, 0x0b, 0x9e, 0xee, 0xcb, 0x43, 0xa9,
  0x22, 0xc6, 0xea, 0xe8, 0x09, 0x4c, 0xe1, 0xfb, 0x08, 0xaf, 0xd8, 0xe6,
  0xf3, 0xe6, 0x03, 0xe8, 0x05, 0xec, 0xd9, 0x15, 0xf7, 0x18, 0xb4, 0xe7,
  0x0d, 0x0e, 0xdb, 0xde, 0x22, 0x1e, 0xe4, 0x33, 0x06, 0x49, 0x51, 0x16,
  0x16, 0x16, 0x3a, 0xef, 0x3d, 0x11, 0xf6, 0xe9, 0x2e, 0xca, 0x2a, 0x01,
  0x01, 0x3e, 0xa5, 0x3c, 0xf8, 0x27, 0xea, 0xed, 0x17, 0x0d, 0xa7, 0x12,
  0xd8, 0xf3, 0x21, 0xe6, 0xf8, 0x1d, 0xfa, 0xae, 0x2e, 0x25, 0xec, 0x15,
  0xcb, 0x32, 0xd7, 0xc1, 0xf1, 0x18, 0xf2, 0x10, 0xf0, 0x54, 0x22, 0x21,
  0xc0, 0x29, 0xf2, 0xf7, 0x1f, 0xaf, 0xfb, 0xd7, 0xf3, 0x08, 0x16, 0xfb,
  0x4a, 0x46, 0xe3, 0xe4, 0x49, 0x34, 0x60, 0x28, 0x2f, 0x7f, 0xb9, 0x0c,
  0xc5, 0x10, 0x22, 0x16, 0x30, 0xeb, 0x6b, 0xe6, 0xf0, 0x04, 0x4f, 0xfd,
  0x06, 0x37, 0xfc, 0xce, 0x56, 0xdc, 0xfc, 0x10, 0xe2, 0x4e, 0x12, 0x1e,
  0xde, 0xb1, 0x47, 0xeb, 0x65, 0xdf, 0x4a, 0x1d, 0xd2, 0x1d, 0x4b, 0x5c,
  0x24, 0x60, 0xce, 0x27, 0x20, 0x08, 0x2f, 0x56, 0x03, 0x2e, 0xb9, 0xe8,
  0xa8, 0xf1, 0xe8, 0xdd, 0xfd, 0xde, 0xd7, 0xf1, 0x08, 0x3b, 0xdc, 0xfc,
  0xe8, 0xd0, 0xe1, 0xbd, 0xdd, 0xe9, 0x0d, 0x0e, 0x2d, 0x23, 0x6a, 0x14,
  0xba, 0xe1, 0x23, 0x92, 0x06, 0xbf, 0x09, 0xee, 0x42, 0x12, 0x0c, 0x7f,
  0x16, 0x20, 0xe2, 0x42, 0x54, 0xd3, 0xa4, 0xda, 0xf7, 0x23, 0xd6, 0x39,
  0xe2, 0xd5, 0xed, 0x3e, 0x1d, 0x26, 0x43, 0x16, 0xc8, 0xd1, 0x01, 0xcf,
  0xec, 0xfd, 0x36, 0x01, 0x35, 0xfe, 0xbb, 0x46, 0x0f, 0xf0, 0x52, 0x15,
  0xfe, 0xf0, 0x14, 0xd4, 0x3b, 0x97, 0x0c, 0x40, 0xcc, 0x15, 0xec, 0x1d,
  0x20, 0xee, 0xbf, 0xfb, 0x3d, 0x36, 0x32, 0x04, 0xe2, 0x4c, 0x9c, 0xe3,
  0xcb, 0xff, 0xfa, 0xdc, 0x27, 0xdb, 0x25, 0xa2, 0xf2, 0x30, 0x52, 0x39,
  0xf3, 0x09, 0xcd, 0x99, 0xf0, 0xe3, 0x4b, 0x26, 0x2a, 0x2b, 0x43, 0xef,
  0xd0, 0x15, 0x45, 0x0b, 0x2b, 0xae, 0xf6, 0xf6, 0xea, 0xbc, 0x0d, 0x88,
  0x0f, 0xe7, 0x0f, 0xf3, 0x29, 0x74, 0x0e, 0xc6, 0x0a, 0xf6, 0xe4, 0xc3,
  0x16, 0xd9, 0x07, 0xf8, 0x05, 0x16, 0x18, 0x0c, 0x05, 0x0c, 0x1f, 0xdb,
  0xe6, 0x18, 0xb9, 0x11, 0xf8, 0x1c, 0x25, 0x50, 0x06, 0x5f, 0x48, 0x21,
  0x1c, 0xdd, 0x17, 0x13, 0xfa, 0x14, 0xf5, 0x24, 0x0e, 0xbc, 0x02, 0x30,
  0x13, 0xec, 0x0b, 0x1f, 0x14, 0x77, 0xa9, 0xc6, 0xe1, 0x2a, 0x01, 0xd0,
  0x04, 0xe4, 0x0b, 0x1e, 0xf2, 0xf4, 0x11, 0xef, 0x19, 0x2d, 0xf1, 0xd3,
  0x13, 0x26, 0xd5, 0x1e, 0xd0, 0x2a, 0x04, 0x3d, 0x2c, 0x43, 0x17, 0xc1,
  0xe9, 0xc4, 0x35, 0x0d, 0x1a, 0x1c, 0xfa, 0xc3, 0xc4, 0x03, 0x21, 0x31,
  0x10, 0x15, 0x7b, 0xbe, 0x44, 0x7f, 0x6e, 0x0d, 0xcc, 0x58, 0x63, 0xd0,
  0x3c, 0xc4, 0xf1, 0x29, 0xe4, 0x01, 0xbd, 0x16, 0xe7, 0x0d, 0x22, 0xeb,
  0x51, 0xf4, 0x18, 0x12, 0xff, 0x0e, 0xd5, 0x0b, 0x1a, 0xef, 0x16, 0xd1,
  0x00, 0xf5, 0x0f, 0x0b, 0xf5, 0xf5, 0xd8, 0xdc, 0xe5, 0xf5, 0x3c, 0xf0,
  0x52, 0x64, 0xec, 0xdd, 0x45, 0x63, 0x49, 0x2e, 0xc5, 0x33, 0xbc, 0xcb,
  0xd1, 0xed, 0xeb, 0x9f, 0xfc, 0x31, 0xde, 0xb8, 0x1b, 0x10, 0x1d, 0x18,
  0xdd, 0xe7, 0xd4, 0xda, 0x07, 0x21, 0xf6, 0x48, 0x25, 0x1e, 0x03, 0xd7,
  0x33, 0xf0, 0xdb, 0xe5, 0xda, 0xea, 0xc9, 0x0c, 0x27, 0xec, 0xde, 0x65,
  0x36, 0x2b, 0xfc, 0xf8, 0x0f, 0x3b, 0xe5, 0xff, 0x27, 0x18, 0xd6, 0x3d,
  0x36, 0x19, 0xe5, 0x4a, 0xde, 0x18, 0xf2, 0x24, 0x12, 0xce, 0xbd, 0xd0,
  0xfc, 0xf2, 0x2d, 0x35, 0x16, 0xe6, 0xda, 0x4f, 0x07, 0x02, 0x24, 0xfe,
  0xe6, 0xbd, 0x36, 0xd9, 0x2e, 0x06, 0x1c, 0x35, 0xec, 0x0f, 0x21, 0x7f,
  0x11, 0x05, 0x0c, 0xfd, 0x2c, 0xfb, 0x1c, 0x1a, 0x05, 0x65, 0xd8, 0xc6,
  0xf5, 0x1c, 0x21, 0x1b, 0x0c, 0xf5, 0xee, 0xc6, 0xd9, 0xd3, 0x05, 0xda,
  0xdb, 0xd5, 0xf2, 0xc1, 0xb6, 0x04, 0x20, 0x11, 0x02, 0x19, 0x72, 0x93,
  0x98, 0xc2, 0x26, 0x30, 0xe7, 0xca, 0x11, 0xaa, 0x00, 0x17, 0x09, 0xa6,
  0xe1, 0xd0, 0xd0, 0x00, 0xfb, 0xec, 0x88, 0xd7, 0xde, 0xc2, 0xc4, 0xdd,
  0xeb, 0x32, 0x05, 0xfc, 0xf3, 0x21, 0xee, 0xf4, 0xf5, 0xf0, 0xf9, 0x06,
  0xd6, 0xff, 0xed, 0xc0, 0xf5, 0x13, 0xd5, 0xaf, 0x08, 0x01, 0xc7, 0x29,
  0xfa, 0xc2, 0xf6, 0x08, 0x30, 0xfb, 0xe4, 0x18, 0xb7, 0xdd, 0x0a, 0xa2,
  0xd5, 0x00, 0x0c, 0xbc, 0x17, 0xfd, 0x31, 0x24, 0xd9, 0xce, 0xe7, 0xa3,
  0x81, 0xf5, 0x0d, 0xbc, 0xfc, 0x01, 0xff, 0xa7, 0x18, 0x0c, 0x65, 0x39,
  0xd5, 0x0c, 0x4d, 0xe0, 0xdb, 0x20, 0x43, 0x03, 0x0f, 0xee, 0xe6, 0xfa,
  0x02, 0xfb, 0x18, 0x4d, 0xcf, 0x29, 0xe5, 0x25, 0xb5, 0xdb, 0x43, 0xc8,
  0x00, 0x36, 0x2e, 0xde, 0x6e, 0x65, 0x22, 0x21, 0xdc, 0xf5, 0x38, 0xe8,
  0xa1, 0xf1, 0x32, 0xe8, 0x16, 0xf9, 0x0d, 0xb2, 0x4e, 0x4e, 0x3c, 0x38,
  0xbf, 0x01, 0x18, 0xc2, 0xbb, 0x1b, 0x35, 0x15, 0x04, 0x0d, 0x0f, 0xab,
  0x42, 0x43, 0x28, 0x15, 0xcb, 0x20, 0x10, 0xfb, 0x17, 0xdc, 0x04, 0xd8,
  0x0d, 0xf7, 0x08, 0xd7, 0xed, 0x57, 0xf2, 0x16, 0xfa, 0xcc, 0xce, 0x15,
  0x2a, 0xdc, 0x0e, 0x16, 0x1d, 0x47, 0xf5, 0x28, 0x13, 0x0d, 0xc7, 0xf7,
  0x11, 0x31, 0xa9, 0x11, 0xf3, 0x08, 0xf5, 0x2e, 0x20, 0x20, 0x15, 0xfa,
  0x13, 0xd3, 0x5b, 0x1d, 0xf5, 0x03, 0xd5, 0x04, 0x00, 0xbd, 0x4e, 0xfc,
  0xfa, 0x27, 0x04, 0x14, 0x24, 0x30, 0x21, 0x34, 0xd0, 0x10, 0xfc, 0xd2,
  0xde, 0xf7, 0x08, 0xf3, 0x18, 0x11, 0x19, 0xe8, 0xfe, 0x37, 0xde, 0x1d,
  0xdf, 0x3e, 0xd8, 0xfe, 0xdf, 0x1a, 0x15, 0x47, 0xf7, 0x25, 0x42, 0x00,
  0xde, 0xff, 0x17, 0xc6, 0xfb, 0xba, 0xfc, 0x10, 0x2d, 0xff, 0x1e, 0x23,
  0xfc, 0x08, 0x81, 0x33, 0x23, 0x2a, 0x1a, 0x02, 0x0d, 0x3e, 0xa5, 0x20,
  0xc4, 0xfd, 0xeb, 0x22, 0x34, 0x16, 0x58, 0xc9, 0xf2, 0xfe, 0x1d, 0x1e,
  0x16, 0x23, 0xee, 0xed, 0x46, 0x01, 0x00, 0x47, 0xfe, 0x3d, 0x69, 0x0e,
  0xe5, 0xc0, 0x35, 0xf3, 0x4d, 0xc0, 0x0e, 0x27, 0xfd, 0xfa, 0xdc, 0x12,
  0xd8, 0xb2, 0x34, 0x01, 0x88, 0x89, 0x0f, 0xf5, 0xe8, 0x98, 0x54, 0x08,
  0xf5, 0x3d, 0xc7, 0xb8, 0x1a, 0xe3, 0xcf, 0xff, 0xfa, 0x08, 0xf7, 0x3c,
  0xd3, 0xdc, 0x14, 0xd7, 0x07, 0xe8, 0xfd, 0xb2, 0x0e, 0xbe, 0xa7, 0x29,
  0xf9, 0x04, 0xcc, 0x11, 0xee, 0x24, 0xfe, 0x05, 0xc6, 0x1f, 0xb8, 0x8a,
  0xed, 0xe2, 0x3c, 0xf5, 0xf3, 0x81, 0x10, 0xdb, 0x1b, 0x9f, 0x4c, 0xdd,
  0xd8, 0x01, 0xc8, 0xee, 0x37, 0x08, 0x0e, 0x08, 0x00, 0xc4, 0x1e, 0x0b,
  0xfe, 0x20, 0x59, 0x05, 0xea, 0x37, 0x2b, 0xc1, 0xe0, 0xd1, 0xbd, 0x06,
  0x48, 0xe1, 0xe2, 0x05, 0xcd, 0xfe, 0xf2, 0x27, 0x97, 0xe6, 0x15, 0xac,
  0xf5, 0x0f, 0x20, 0x9a, 0xac, 0xc7, 0x48, 0xf0, 0x04, 0xb5, 0x58, 0x08,
  0xe6, 0x44, 0x1b, 0x1b, 0x13, 0xe6, 0x23, 0xf5, 0x01, 0xd2, 0xf6, 0x19,
  0xf9, 0xd5, 0x1c, 0x01, 0xe0, 0xfd, 0xfe, 0xcb, 0x2c, 0xfe, 0x1d, 0xd2,
  0xf6, 0xed, 0xe1, 0x20, 0xc1, 0x10, 0x15, 0x0d, 0x0b, 0x10, 0x0a, 0x87,
  0xe4, 0xe7, 0xd3, 0xf7, 0xf2, 0xbb, 0xa0, 0xf2, 0xff, 0x89, 0xb3, 0xc0,
  0xde, 0x0a, 0xed, 0xe6, 0x1b, 0xff, 0xfe, 0x0b, 0xeb, 0xfb, 0xe0, 0xdf,
  0xfa, 0x00, 0x09, 0xb8, 0xf5, 0x13, 0xe1, 0xf4, 0x0e, 0xea, 0xdd, 0xf4,
  0xec, 0xf3, 0xdc, 0xfb, 0xf0, 0xec, 0xd4, 0x16, 0xc9, 0x00, 0x16, 0xba,
  0x17, 0xf3, 0x08, 0xda, 0x00, 0xe4, 0x1b, 0x12, 0xc4, 0x97, 0xf4, 0xb3,
  0xb3, 0x1c, 0x50, 0x1e, 0xdd, 0xe3, 0x4a, 0xbf, 0xdc, 0xf5, 0x7f, 0x5b,
  0x1b, 0x0e, 0x00, 0xd0, 0xf7, 0x24, 0x10, 0xc0, 0xec, 0xb8, 0x28, 0xe7,
  0x1e, 0x14, 0x24, 0x45, 0x0d, 0x33, 0x1d, 0x39, 0x9d, 0xb7, 0x1c, 0xd9,
  0xd8, 0xeb, 0xc5, 0xa9, 0x12, 0x56, 0xfc, 0x1f, 0xf3, 0x00, 0x6f, 0x06,
  0xa6, 0x29, 0x62, 0x0f, 0xf1, 0x16, 0x31, 0xba, 0x20, 0x57, 0x0e, 0x36,
  0xef, 0xef, 0x10, 0xee, 0xd1, 0xf0, 0x3b, 0xeb, 0x1e, 0xf1, 0x01, 0xf1,
  0x3d, 0x48, 0xe5, 0x42, 0xdb, 0x15, 0x00, 0x28, 0x03, 0xd4, 0xc5, 0x44,
  0xa9, 0xa7, 0x02, 0x01, 0xe1, 0xe8, 0xce, 0xeb, 0xf6, 0xce, 0x55, 0x26,
  0xfe, 0x40, 0xf2, 0xfc, 0x1f, 0x17, 0xf5, 0x02, 0xc9, 0xe2, 0x17, 0x24,
  0xfe, 0xf4, 0x35, 0x12, 0x03, 0xc9, 0x0c, 0xdb, 0xa9, 0x85, 0x1f, 0x03,
  0x08, 0x08, 0x22, 0x36, 0x08, 0xed, 0x3b, 0x0a, 0x12, 0xeb, 0xab, 0xc0,
  0x03, 0xf8, 0xe9, 0xfe, 0xc7, 0xbc, 0x03, 0xd4, 0xff, 0xb9, 0xc7, 0x0e,
  0x1c, 0x19, 0xca, 0xcd, 0x1a, 0x05, 0xca, 0x1c, 0x01, 0x04, 0x06, 0x07,
  0x0c, 0xe7, 0x0b, 0x20, 0x04, 0xf8, 0x05, 0xcb, 0xec, 0xd6, 0xe8, 0x10,
  0x21, 0x0e, 0xd3, 0x14, 0x0b, 0xfe, 0xfc, 0x0b, 0xf8, 0x06, 0x9a, 0xc9,
  0xe8, 0x05, 0xac, 0x2f, 0xd9, 0xae, 0xcd, 0x81, 0xee, 0xc4, 0xb9, 0xff,
  0xfb, 0x3a, 0xad, 0xd8, 0xee, 0x38, 0xc1, 0x09, 0x0c, 0xa5, 0xbe, 0xac,
  0xf9, 0xe8, 0xc8, 0x07, 0x1b, 0xdd, 0xf3, 0xc8, 0xf5, 0xaf, 0xbc, 0x0e,
  0xee, 0x0d, 0xb3, 0xc4, 0x11, 0xff, 0xe5, 0x1c, 0x20, 0x10, 0xfb, 0x29,
  0xdd, 0x11, 0x05, 0x1c, 0xe8, 0xf1, 0x0e, 0xf0, 0x12, 0xd9, 0x20, 0x09,
  0xf6, 0xde, 0xe9, 0xf0, 0xb6, 0xff, 0xfa, 0x11, 0x22, 0x17, 0xec, 0x00,
  0x14, 0xf1, 0x07, 0x1a, 0x15, 0xdd, 0xe6, 0xf4, 0xdc, 0x18, 0xe9, 0x15,
  0x10, 0x31, 0xf5, 0xf1, 0x0c, 0xe1, 0xfb, 0xf2, 0x08, 0xf9, 0x89, 0xef,
  0xcb, 0xee, 0xc3, 0x15, 0xfd, 0xb1, 0x8d, 0xae, 0x1a, 0xb6, 0xb7, 0x16,
  0x18, 0xf7, 0xbd, 0xf5, 0xfb, 0x09, 0xb0, 0xf9, 0x0f, 0xcb, 0xa6, 0xa6,
  0x11, 0xef, 0xf6, 0xe9, 0x09, 0x04, 0xae, 0xdf, 0xfe, 0x0e, 0xbc, 0x22,
  0xfc, 0xea, 0x81, 0xb4, 0x19, 0xe2, 0x05, 0x17, 0x01, 0x29, 0xeb, 0xb5,
  0xf5, 0x03, 0xc2, 0xfc, 0xf3, 0xee, 0xa0, 0xea, 0xdd, 0x04, 0xa1, 0xe0,
  0x0c, 0x28, 0xce, 0xec, 0x29, 0x21, 0xc8, 0xf1, 0x06, 0xbf, 0x92, 0xcb,
  0xe4, 0x07, 0xfc, 0xee, 0xfa, 0x1b, 0xdd, 0xba, 0x20, 0x08, 0xb4, 0xf4,
  0x05, 0xc0, 0x8e, 0xb4, 0x0e, 0xe9, 0xe0, 0xe7, 0xd8, 0xc7, 0xf1, 0xe5,
  0xea, 0x24, 0xbb, 0xf4, 0x33, 0x19, 0x07, 0x26, 0x1d, 0xe3, 0x81, 0x1e,
  0xc6, 0x09, 0x11, 0xff, 0xed, 0x10, 0x0a, 0xc9, 0x22, 0x55, 0xd7, 0xfd,
  0xda, 0xfe, 0x15, 0xdd, 0x30, 0xf2, 0x0c, 0x2d, 0x18, 0x33, 0x17, 0x21,
  0xf4, 0xda, 0x1c, 0xc9, 0x20, 0xe4, 0xda, 0x23, 0x22, 0xcd, 0x17, 0x3a,
  0x27, 0x2c, 0xf5, 0x1a, 0x08, 0x17, 0xd9, 0xe5, 0x2e, 0x15, 0xe7, 0x0a,
  0x28, 0xce, 0x03, 0x15, 0xe9, 0x15, 0x05, 0xeb, 0x1b, 0xfc, 0xed, 0xe7,
  0xe3, 0x06, 0x18, 0x06, 0x07, 0x09, 0xef, 0x60, 0x04, 0x1f, 0x54, 0x03,
  0xc2, 0xb5, 0xfd, 0xd5, 0x30, 0xd7, 0x4c, 0x28, 0xea, 0x18, 0x30, 0x28,
  0x23, 0xfa, 0xfa, 0xfd, 0x40, 0x5d, 0x28, 0x2e, 0xec, 0x47, 0x16, 0xe1,
  0xd0, 0xfe, 0x06, 0x17, 0xe6, 0x04, 0x44, 0xb7, 0xf0, 0x24, 0x1f, 0x20,
  0x00, 0xe4, 0xe3, 0x09, 0xf9, 0xe0, 0x10, 0xfc, 0xf2, 0xf8, 0x35, 0xcf,
  0xc6, 0xe3, 0x36, 0xfc, 0x22, 0x97, 0xec, 0xf2, 0xcf, 0xf3, 0x25, 0xf4,
  0xff, 0x5a, 0x1c, 0xcf, 0x2c, 0x7f, 0xea, 0x3a, 0xda, 0x46, 0x03, 0x0a,
  0x11, 0xf5, 0x1a, 0x13, 0x22, 0x31, 0xea, 0x25, 0x04, 0xe7, 0x0f, 0xe9,
  0x0b, 0xf3, 0xe7, 0x04, 0xc9, 0x12, 0xf0, 0x0b, 0x00, 0x0c, 0x17, 0xcd,
  0xf5, 0xea, 0x46, 0x1e, 0xf3, 0xf7, 0x1b, 0xf4, 0x1b, 0xd6, 0xdf, 0x36,
  0x0f, 0x2d, 0x29, 0xef, 0x21, 0x2d, 0xbd, 0xe9, 0x01, 0x28, 0x11, 0xf9,
  0x1f, 0xf7, 0x08, 0x3e, 0xe0, 0x1e, 0xd2, 0x12, 0x0a, 0xec, 0xdf, 0xd2,
  0x1b, 0x0d, 0xfb, 0x02, 0xf0, 0x1b, 0xf7, 0x26, 0xe2, 0x20, 0x14, 0x00,
  0xf5, 0xbf, 0x1c, 0x18, 0x2c, 0xd9, 0xe0, 0xeb, 0xe7, 0xe5, 0x2f, 0x1f,
  0x0b, 0xd9, 0x08, 0xf4, 0x2e, 0x1b, 0x40, 0x16, 0xe4, 0x13, 0xfb, 0xe8,
  0xe1, 0xf0, 0x2f, 0x3c, 0x14, 0xda, 0x00, 0xf9, 0x26, 0x14, 0x1d, 0xde,
  0x08, 0xf6, 0xd9, 0xe2, 0xfb, 0x02, 0x43, 0x39, 0x01, 0x28, 0x36, 0xd9,
  0x01, 0xd5, 0x2a, 0x2d, 0xdc, 0xf2, 0xfc, 0xed, 0xf7, 0x32, 0xca, 0xf9,
  0x15, 0xd6, 0x16, 0x12, 0xc9, 0x9e, 0x0c, 0xce, 0x0d, 0xb4, 0x30, 0xd0,
  0xe7, 0x0a, 0xed, 0xde, 0x07, 0x0c, 0x12, 0xe6, 0x00, 0xe1, 0xfb, 0x2a,
  0xe1, 0x09, 0xcd, 0x06, 0x0e, 0x06, 0xd3, 0xd9, 0x06, 0xd8, 0xc0, 0x08,
  0xf3, 0xe3, 0xb1, 0x18, 0x16, 0x0a, 0xce, 0x10, 0x9e, 0xea, 0x14, 0xb1,
  0xd3, 0xb7, 0x09, 0xc7, 0xd0, 0xf2, 0x7a, 0x33, 0x34, 0x08, 0x7f, 0xd6,
  0xf2, 0x2e, 0xfb, 0x04, 0xdf, 0xca, 0xe3, 0x07, 0x16, 0x0a, 0x55, 0x3f,
  0xfa, 0x14, 0x25, 0x2d, 0xe0, 0x0e, 0xe8, 0xf6, 0x16, 0xe6, 0x01, 0x03,
  0x2c, 0xfb, 0x08, 0xf8, 0xe4, 0xcf, 0x0b, 0xf4, 0x98, 0xde, 0x1e, 0xac,
  0xfc, 0x0e, 0xf1, 0xc9, 0x28, 0x15, 0x5c, 0x47, 0xc8, 0xf7, 0x5e, 0xf8,
  0xca, 0x04, 0x34, 0x22, 0x0c, 0xfd, 0xdd, 0xf8, 0x16, 0x1c, 0x4b, 0x32,
  0xc4, 0x1c, 0xe7, 0x0f, 0xb9, 0x04, 0x45, 0x0c, 0xf2, 0xc6, 0xf3, 0xfa,
  0xf8, 0x49, 0xd6, 0xfe, 0xef, 0xff, 0x0c, 0x24, 0xcb, 0xfd, 0x17, 0xe3,
  0x29, 0x44, 0xde, 0xd6, 0x37, 0x7f, 0xfe, 0x24, 0xfe, 0x21, 0xef, 0xd5,
  0x0c, 0x03, 0xef, 0x1a, 0xef, 0xef, 0xfc, 0x26, 0xf3, 0xe6, 0x0b, 0xfa,
  0x0d, 0xdf, 0xe2, 0x29, 0xe1, 0x03, 0x13, 0x03, 0x2b, 0x0e, 0x0a, 0x09,
  0x0f, 0xd1, 0x37, 0x3a, 0x21, 0xf5, 0xeb, 0xe5, 0xfa, 0x04, 0xdd, 0x58,
  0x01, 0x3e, 0x15, 0xde, 0x10, 0x50, 0xd9, 0xdf, 0xfa, 0x4e, 0xfe, 0xf1,
  0xfd, 0xf7, 0xed, 0x23, 0xf3, 0x00, 0xbd, 0x14, 0xe1, 0x09, 0xef, 0xfa,
  0x0b, 0xec, 0xf4, 0x01, 0xac, 0xfd, 0xf5, 0xfe, 0x15, 0x0a, 0x00, 0xbf,
  0xf2, 0x0e, 0x3d, 0x2e, 0xb5, 0x07, 0xaa, 0xd1, 0xe3, 0xfd, 0xee, 0x56,
  0xfd, 0x36, 0x45, 0xfa, 0x0b, 0x19, 0x1f, 0x05, 0x0b, 0x50, 0x21, 0xe8,
  0x2b, 0xfb, 0xe8, 0x25, 0xf7, 0x12, 0xe8, 0x16, 0xe0, 0xe9, 0x04, 0xe2,
  0x23, 0xf1, 0x08, 0x1e, 0x04, 0x3a, 0xeb, 0x24, 0x1a, 0x0c, 0x25, 0xfd,
  0xe6, 0xec, 0x3f, 0x16, 0x0e, 0x17, 0xe0, 0x22, 0x62, 0xfe, 0xff, 0xff,
  0x04, 0x00, 0x00, 0x00, 0x80, 0x00, 0x00, 0x00, 0xc4, 0xf5, 0xff, 0xff,
  0x84, 0xf7, 0xff, 0xff, 0x75, 0xf7, 0xff, 0xff, 0x50, 0x0b, 0x00, 0x00,
  0x96, 0xf5, 0xff, 0xff, 0x16, 0xf6, 0xff, 0xff, 0x80, 0xf7, 0xff, 0xff,
  0xb2, 0x09, 0x00, 0x00, 0xed, 0xf6, 0xff, 0xff, 0xaf, 0xf4, 0xff, 0xff,
  0xe8, 0x08, 0x00, 0x00, 0x58, 0x09, 0x00, 0x00, 0xf9, 0x0a, 0x00, 0x00,
  0x0e, 0x0a, 0x00, 0x00, 0x5a, 0x09, 0x00, 0x00, 0x00, 0x0a, 0x00, 0x00,
  0xe4, 0x08, 0x00, 0x00, 0xcf, 0xf4, 0xff, 0xff, 0xa2, 0xf4, 0xff, 0xff,
  0x64, 0xf6, 0xff, 0xff, 0x44, 0xf5, 0xff, 0xff, 0x93, 0xf2, 0xff, 0xff,
  0x0d, 0x08, 0x00, 0x00, 0x44, 0xf6, 0xff, 0xff, 0x70, 0x0d, 0x00, 0x00,
  0x98, 0x06, 0x00, 0x00, 0xda, 0x0b, 0x00, 0x00, 0xc8, 0x07, 0x00, 0x00,
  0x23, 0xf8, 0xff, 0xff, 0x77, 0xf8, 0xff, 0xff, 0x44, 0x07, 0x00, 0x00,
  0x53, 0xf7, 0xff, 0xff, 0xee, 0xfe, 0xff, 0xff, 0x04, 0x00, 0x00, 0x00,
  0x40, 0x00, 0x00, 0x00, 0x25, 0x65, 0x0c, 0x15, 0x32, 0x42, 0x6e, 0xab,
  0x2a, 0x2a, 0x9d, 0xb9, 0x81, 0x9d, 0xbb, 0xa2, 0xe2, 0x5f, 0x51, 0x65,
  0x16, 0x01, 0xbe, 0x01, 0xce, 0xc7, 0xa5, 0x8c, 0x64, 0x64, 0xb5, 0x3f,
  0xcf, 0xad, 0xc4, 0x4f, 0xbf, 0xe0, 0xd0, 0x0c, 0xa1, 0xb9, 0x30, 0x04,
  0x6c, 0x59, 0x7f, 0x51, 0x57, 0xf0, 0xfa, 0x94, 0x8f, 0xa1, 0x24, 0x97,
  0x12, 0x39, 0x0d, 0x60, 0x9e, 0x9b, 0x54, 0x8e, 0x3a, 0xff, 0xff, 0xff,
  0x04, 0x00, 0x00, 0x00, 0x08, 0x00, 0x00, 0x00, 0x2e, 0xf1, 0xff, 0xff,
  0xf5, 0x0d, 0x00, 0x00, 0x4e, 0xff, 0xff, 0xff, 0x04, 0x00, 0x00, 0x00,
  0x08, 0x00, 0x00, 0x00, 0x01, 0x00, 0x00, 0x00, 0x02, 0x00, 0x00, 0x00,
  0xf0, 0xe7, 0xff, 0xff, 0xf4, 0xe7, 0xff, 0xff, 0x0f, 0x00, 0x00, 0x00,
  0x4d, 0x4c, 0x49, 0x52, 0x20, 0x43, 0x6f, 0x6e, 0x76, 0x65, 0x72, 0x74,
  0x65, 0x64, 0x2e, 0x00, 0x01, 0x00, 0x00, 0x00, 0x14, 0x00, 0x00, 0x00,
  0x00, 0x00, 0x0e, 0x00, 0x18, 0x00, 0x14, 0x00, 0x10, 0x00, 0x0c, 0x00,
  0x08, 0x00, 0x04, 0x00, 0x0e, 0x00, 0x00, 0x00, 0x14, 0x00, 0x00, 0x00,
  0x1c, 0x00, 0x00, 0x00, 0xc8, 0x02, 0x00, 0x00, 0xcc, 0x02, 0x00, 0x00,
  0xd0, 0x02, 0x00, 0x00, 0x04, 0x00, 0x00, 0x00, 0x6d, 0x61, 0x69, 0x6e,
  0x00, 0x00, 0x00, 0x00, 0x0a, 0x00, 0x00, 0x00, 0x80, 0x02, 0x00, 0x00,
  0x3c, 0x02, 0x00, 0x00, 0xdc, 0x01, 0x00, 0x00, 0x88, 0x01, 0x00, 0x00,
  0x34, 0x01, 0x00, 0x00, 0xf0, 0x00, 0x00, 0x00, 0xac, 0x00, 0x00, 0x00,
  0x78, 0x00, 0x00, 0x00, 0x40, 0x00, 0x00, 0x00, 0x04, 0x00, 0x00, 0x00,
  0xa2, 0xfe, 0xff, 0xff, 0x1c, 0x00, 0x00, 0x00, 0x00, 0x00, 0x00, 0x09,
  0x1c, 0x00, 0x00, 0x00, 0x20, 0x00, 0x00, 0x00, 0x06, 0x00, 0x00, 0x00,
  0x00, 0x00, 0x06, 0x00, 0x08, 0x00, 0x04, 0x00, 0x06, 0x00, 0x00, 0x00,
  0x00, 0x00, 0x80, 0x3f, 0x01, 0x00, 0x00, 0x00, 0x15, 0x00, 0x00, 0x00,
  0x01, 0x00, 0x00, 0x00, 0x14, 0x00, 0x00, 0x00, 0x2e, 0xfe, 0xff, 0xff,
  0x14, 0x00, 0x00, 0x00, 0x00, 0x00, 0x00, 0x08, 0x10, 0x00, 0x00, 0x00,
  0x14, 0x00, 0x00, 0x00, 0x05, 0x00, 0x00, 0x00, 0xc4, 0xe8, 0xff, 0xff,
  0x01, 0x00, 0x00, 0x00, 0x14, 0x00, 0x00, 0x00, 0x03, 0x00, 0x00, 0x00,
  0x13, 0x00, 0x00, 0x00, 0x03, 0x00, 0x00, 0x00, 0x02, 0x00, 0x00, 0x00,
  0x62, 0xfe, 0xff, 0xff, 0x14, 0x00, 0x00, 0x00, 0x00, 0x00, 0x00, 0x1b,
  0x10, 0x00, 0x00, 0x00, 0x14, 0x00, 0x00, 0x00, 0x04, 0x00, 0x00, 0x00,
  0xf8, 0xe8, 0xff, 0xff, 0x01, 0x00, 0x00, 0x00, 0x13, 0x00, 0x00, 0x00,
  0x02, 0x00, 0x00, 0x00, 0x12, 0x00, 0x00, 0x00, 0x01, 0x00, 0x00, 0x00,
  0x92, 0xfe, 0xff, 0xff, 0x14, 0x00, 0x00, 0x00, 0x00, 0x00, 0x00, 0x01,
  0x1c, 0x00, 0x00, 0x00, 0x20, 0x00, 0x00, 0x00, 0x02, 0x00, 0x00, 0x00,
  0xe0, 0xfe, 0xff, 0xff, 0x00, 0x00, 0x00, 0x01, 0x01, 0x00, 0x00, 0x00,
  0x01, 0x00, 0x00, 0x00, 0x01, 0x00, 0x00, 0x00, 0x12, 0x00, 0x00, 0x00,
  0x03, 0x00, 0x00, 0x00, 0x11, 0x00, 0x00, 0x00, 0x05, 0x00, 0x00, 0x00,
  0x04, 0x00, 0x00, 0x00, 0xd2, 0xfe, 0xff, 0xff, 0x14, 0x00, 0x00, 0x00,
  0x00, 0x00, 0x00, 0x05, 0x24, 0x00, 0x00, 0x00, 0x28, 0x00, 0x00, 0x00,
  0x03, 0x00, 0x00, 0x00, 0x6e, 0xff, 0xff, 0xff, 0x02, 0x00, 0x00, 0x00,
  0x02, 0x00, 0x00, 0x00, 0x02, 0x00, 0x00, 0x00, 0x02, 0x00, 0x00, 0x00,
  0x00, 0x00, 0x00, 0x01, 0x01, 0x00, 0x00, 0x00, 0x11, 0x00, 0x00, 0x00,
  0x01, 0x00, 0x00, 0x00, 0x10, 0x00, 0x00, 0x00, 0x12, 0xff, 0xff, 0xff,
  0x14, 0x00, 0x00, 0x00, 0x00, 0x00, 0x00, 0x01, 0x1c, 0x00, 0x00, 0x00,
  0x20, 0x00, 0x00, 0x00, 0x02, 0x00, 0x00, 0x00, 0x60, 0xff, 0xff, 0xff,
  0x00, 0x00, 0x00, 0x01, 0x02, 0x00, 0x00, 0x00, 0x02, 0x00, 0x00, 0x00,
  0x01, 0x00, 0x00, 0x00, 0x10, 0x00, 0x00, 0x00, 0x03, 0x00, 0x00, 0x00,
  0x0f, 0x00, 0x00, 0x00, 0x07, 0x00, 0x00, 0x00, 0x06, 0x00, 0x00, 0x00,
  0x00, 0x00, 0x0e, 0x00, 0x1a, 0x00, 0x14, 0x00, 0x10, 0x00, 0x0c, 0x00,
  0x0b, 0x00, 0x04, 0x00, 0x0e, 0x00, 0x00, 0x00, 0x24, 0x00, 0x00, 0x00,
  0x00, 0x00, 0x00, 0x05, 0x34, 0x00, 0x00, 0x00, 0x38, 0x00, 0x00, 0x00,
  0x03, 0x00, 0x00, 0x00, 0x00, 0x00, 0x0e, 0x00, 0x18, 0x00, 0x17, 0x00,
  0x10, 0x00, 0x0c, 0x00, 0x08, 0x00, 0x04, 0x00, 0x0e, 0x00, 0x00, 0x00,
  0x02, 0x00, 0x00, 0x00, 0x02, 0x00, 0x00, 0x00, 0x02, 0x00, 0x00, 0x00,
  0x02, 0x00, 0x00, 0x00, 0x00, 0x00, 0x00, 0x01, 0x01, 0x00, 0x00, 0x00,
  0x0f, 0x00, 0x00, 0x00, 0x01, 0x00, 0x00, 0x00, 0x0e, 0x00, 0x00, 0x00,
  0xb2, 0xff, 0xff, 0xff, 0x20, 0x00, 0x00, 0x00, 0x00, 0x00, 0x00, 0x01,
  0x28, 0x00, 0x00, 0x00, 0x2c, 0x00, 0x00, 0x00, 0x02, 0x00, 0x00, 0x00,
  0x0c, 0x00, 0x10, 0x00, 0x00, 0x00, 0x0c, 0x00, 0x08, 0x00, 0x07, 0x00,
  0x0c, 0x00, 0x00, 0x00, 0x00, 0x00, 0x00, 0x01, 0x02, 0x00, 0x00, 0x00,
  0x02, 0x00, 0x00, 0x00, 0x01, 0x00, 0x00, 0x00, 0x0e, 0x00, 0x00, 0x00,
  0x03, 0x00, 0x00, 0x00, 0x0d, 0x00, 0x00, 0x00, 0x09, 0x00, 0x00, 0x00,
  0x08, 0x00, 0x00, 0x00, 0x00, 0x00, 0x0e, 0x00, 0x18, 0x00, 0x14, 0x00,
  0x10, 0x00, 0x0c, 0x00, 0x0b, 0x00, 0x04, 0x00, 0x0e, 0x00, 0x00, 0x00,
  0x14, 0x00, 0x00, 0x00, 0x00, 0x00, 0x00, 0x0b, 0x10, 0x00, 0x00, 0x00,
  0x14, 0x00, 0x00, 0x00, 0x01, 0x00, 0x00, 0x00, 0xa4, 0xea, 0xff, 0xff,
  0x01, 0x00, 0x00, 0x00, 0x0d, 0x00, 0x00, 0x00, 0x02, 0x00, 0x00, 0x00,
  0x0c, 0x00, 0x00, 0x00, 0x0a, 0x00, 0x00, 0x00, 0x00, 0x00, 0x0e, 0x00,
  0x14, 0x00, 0x00, 0x00, 0x10, 0x00, 0x0c, 0x00, 0x0b, 0x00, 0x04, 0x00,
  0x0e, 0x00, 0x00, 0x00, 0x10, 0x00, 0x00, 0x00, 0x00, 0x00, 0x00, 0x15,
  0x0c, 0x00, 0x00, 0x00, 0x10, 0x00, 0x00, 0x00, 0xe0, 0xea, 0xff, 0xff,
  0x01, 0x00, 0x00, 0x00, 0x0c, 0x00, 0x00, 0x00, 0x02, 0x00, 0x00, 0x00,
  0x00, 0x00, 0x00, 0x00, 0x0b, 0x00, 0x00, 0x00, 0x01, 0x00, 0x00, 0x00,
  0x15, 0x00, 0x00, 0x00, 0x01, 0x00, 0x00, 0x00, 0x00, 0x00, 0x00, 0x00,
  0x16, 0x00, 0x00, 0x00, 0x74, 0x15, 0x00, 0x00, 0xd4, 0x14, 0x00, 0x00,
  0x30, 0x14, 0x00, 0x00, 0x9c, 0x13, 0x00, 0x00, 0x00, 0x11, 0x00, 0x00,
  0xf4, 0x0e, 0x00, 0x00, 0x18, 0x0d, 0x00, 0x00, 0xcc, 0x0b, 0x00, 0x00,
  0x58, 0x0a, 0x00, 0x00, 0x74, 0x09, 0x00, 0x00, 0xf0, 0x08, 0x00, 0x00,
  0x6c, 0x08, 0x00, 0x00, 0xc8, 0x07, 0x00, 0x00, 0x24, 0x07, 0x00, 0x00,
  0xe0, 0x05, 0x00, 0x00, 0x34, 0x05, 0x00, 0x00, 0xe8, 0x03, 0x00, 0x00,
  0x34, 0x03, 0x00, 0x00, 0xe8, 0x01, 0x00, 0x00, 0x44, 0x01, 0x00, 0x00,
  0x80, 0x00, 0x00, 0x00, 0x04, 0x00, 0x00, 0x00, 0xfa, 0xea, 0xff, 0xff,
  0x00, 0x00, 0x00, 0x01, 0x18, 0x00, 0x00, 0x00, 0x20, 0x00, 0x00, 0x00,
  0x3c, 0x00, 0x00, 0x00, 0x16, 0x00, 0x00, 0x00, 0x00, 0x00, 0x00, 0x09,
  0x50, 0x00, 0x00, 0x00, 0x02, 0x00, 0x00, 0x00, 0xff, 0xff, 0xff, 0xff,
  0x02, 0x00, 0x00, 0x00, 0xdc, 0xea, 0xff, 0xff, 0x08, 0x00, 0x00, 0x00,
  0x10, 0x00, 0x00, 0x00, 0x01, 0x00, 0x00, 0x00, 0x80, 0xff, 0xff, 0xff,
  0xff, 0xff, 0xff, 0xff, 0x01, 0x00, 0x00, 0x00, 0x00, 0x00, 0x80, 0x3b,
  0x1b, 0x00, 0x00, 0x00, 0x53, 0x74, 0x61, 0x74, 0x65, 0x66, 0x75, 0x6c,
  0x50, 0x61, 0x72, 0x74, 0x69, 0x74, 0x69, 0x6f, 0x6e, 0x65, 0x64, 0x43,
  0x61, 0x6c, 0x6c, 0x5f, 0x31, 0x3a, 0x30, 0x00, 0x02, 0x00, 0x00, 0x00,
  0x01, 0x00, 0x00, 0x00, 0x02, 0x00, 0x00, 0x00, 0x72, 0xeb, 0xff, 0xff,
  0x00, 0x00, 0x00, 0x01, 0x18, 0x00, 0x00, 0x00, 0x20, 0x00, 0x00, 0x00,
  0x3c, 0x00, 0x00, 0x00, 0x15, 0x00, 0x00, 0x00, 0x00, 0x00, 0x00, 0x09,
  0x98, 0x00, 0x00, 0x00, 0x02, 0x00, 0x00, 0x00, 0xff, 0xff, 0xff, 0xff,
  0x02, 0x00, 0x00, 0x00, 0x54, 0xeb, 0xff, 0xff, 0x08, 0x00, 0x00, 0x00,
  0x10, 0x00, 0x00, 0x00, 0x01, 0x00, 0x00, 0x00, 0x00, 0x00, 0x00, 0x00,
  0x00, 0x00, 0x00, 0x00, 0x01, 0x00, 0x00, 0x00, 0xce, 0x0b, 0x20, 0x3d,
  0x62, 0x00, 0x00, 0x00, 0x65, 0x61, 0x67, 0x6c, 0x65, 0x65, 0x79, 0x65,
  0x5f, 0x75, 0x6c, 0x74, 0x72, 0x61, 0x74, 0x69, 0x6e, 0x79, 0x5f, 0x67,
  0x65, 0x6f, 0x6d, 0x65, 0x74, 0x72, 0x79, 0x5f, 0x61, 0x75, 0x67, 0x5f,
  0x31, 0x2f, 0x64, 0x65, 0x6e, 0x73, 0x65, 0x5f, 0x31, 0x2f, 0x4d, 0x61,
  0x74, 0x4d, 0x75, 0x6c, 0x3b, 0x65, 0x61, 0x67, 0x6c, 0x65, 0x65, 0x79,
  0x65, 0x5f, 0x75, 0x6c, 0x74, 0x72, 0x61, 0x74, 0x69, 0x6e, 0x79, 0x5f,
  0x67, 0x65, 0x6f, 0x6d, 0x65, 0x74, 0x72, 0x79, 0x5f, 0x61, 0x75, 0x67,
  0x5f, 0x31, 0x2f, 0x64, 0x65, 0x6e, 0x73, 0x65, 0x5f, 0x31, 0x2f, 0x42,
  0x69, 0x61, 0x73, 0x41, 0x64, 0x64, 0x00, 0x00, 0x02, 0x00, 0x00, 0x00,
  0x01, 0x00, 0x00, 0x00, 0x02, 0x00, 0x00, 0x00, 0x32, 0xec, 0xff, 0xff,
  0x00, 0x00, 0x00, 0x01, 0x18, 0x00, 0x00, 0x00, 0x20, 0x00, 0x00, 0x00,
  0x3c, 0x00, 0x00, 0x00, 0x14, 0x00, 0x00, 0x00, 0x00, 0x00, 0x00, 0x09,
  0x78, 0x00, 0x00, 0x00, 0x02, 0x00, 0x00, 0x00, 0xff, 0xff, 0xff, 0xff,
  0x20, 0x00, 0x00, 0x00, 0x14, 0xec, 0xff, 0xff, 0x08, 0x00, 0x00, 0x00,
  0x10, 0x00, 0x00, 0x00, 0x01, 0x00, 0x00, 0x00, 0x80, 0xff, 0xff, 0xff,
  0xff, 0xff, 0xff, 0xff, 0x01, 0x00, 0x00, 0x00, 0x8b, 0xc3, 0x29, 0x3c,
  0x41, 0x00, 0x00, 0x00, 0x65, 0x61, 0x67, 0x6c, 0x65, 0x65, 0x79, 0x65,
  0x5f, 0x75, 0x6c, 0x74, 0x72, 0x61, 0x74, 0x69, 0x6e, 0x79, 0x5f, 0x67,
  0x65, 0x6f, 0x6d, 0x65, 0x74, 0x72, 0x79, 0x5f, 0x61, 0x75, 0x67, 0x5f,
  0x31, 0x2f, 0x67, 0x6c, 0x6f, 0x62, 0x61, 0x6c, 0x5f, 0x61, 0x76, 0x65,
  0x72, 0x61, 0x67, 0x65, 0x5f, 0x70, 0x6f, 0x6f, 0x6c, 0x69, 0x6e, 0x67,
  0x32, 0x64, 0x5f, 0x31, 0x2f, 0x4d, 0x65, 0x61, 0x6e, 0x00, 0x00, 0x00,
  0x02, 0x00, 0x00, 0x00, 0x01, 0x00, 0x00, 0x00, 0x20, 0x00, 0x00, 0x00,
  0xd2, 0xec, 0xff, 0xff, 0x00, 0x00, 0x00, 0x01, 0x18, 0x00, 0x00, 0x00,
  0x28, 0x00, 0x00, 0x00, 0x48, 0x00, 0x00, 0x00, 0x13, 0x00, 0x00, 0x00,
  0x00, 0x00, 0x00, 0x09, 0x18, 0x01, 0x00, 0x00, 0x04, 0x00, 0x00, 0x00,
  0xff, 0xff, 0xff, 0xff, 0x03, 0x00, 0x00, 0x00, 0x03, 0x00, 0x00, 0x00,
  0x20, 0x00, 0x00, 0x00, 0xbc, 0xec, 0xff, 0xff, 0x08, 0x00, 0x00, 0x00,
  0x14, 0x00, 0x00, 0x00, 0x01, 0x00, 0x00, 0x00, 0x80, 0xff, 0xff, 0xff,
  0xff, 0xff, 0xff, 0xff, 0x00, 0x00, 0x00, 0x00, 0x01, 0x00, 0x00, 0x00,
  0x9f, 0x4e, 0x9d, 0x3c, 0xd5, 0x00, 0x00, 0x00, 0x65, 0x61, 0x67, 0x6c,
  0x65, 0x65, 0x79, 0x65, 0x5f, 0x75, 0x6c, 0x74, 0x72, 0x61, 0x74, 0x69,
  0x6e, 0x79, 0x5f, 0x67, 0x65, 0x6f, 0x6d, 0x65, 0x74, 0x72, 0x79, 0x5f,
  0x61, 0x75, 0x67, 0x5f, 0x31, 0x2f, 0x63, 0x6f, 0x6e, 0x76, 0x32, 0x64,
  0x5f, 0x32, 0x5f, 0x31, 0x2f, 0x52, 0x65, 0x6c, 0x75, 0x3b, 0x65, 0x61,
  0x67, 0x6c, 0x65, 0x65, 0x79, 0x65, 0x5f, 0x75, 0x6c, 0x74, 0x72, 0x61,
  0x74, 0x69, 0x6e, 0x79, 0x5f, 0x67, 0x65, 0x6f, 0x6d, 0x65, 0x74, 0x72,
  0x79, 0x5f, 0x61, 0x75, 0x67, 0x5f, 0x31, 0x2f, 0x63, 0x6f, 0x6e, 0x76,
  0x32, 0x64, 0x5f, 0x32, 0x5f, 0x31, 0x2f, 0x42, 0x69, 0x61, 0x73, 0x41,
  0x64, 0x64, 0x3b, 0x65, 0x61, 0x67, 0x6c, 0x65, 0x65, 0x79, 0x65, 0x5f,
  0x75, 0x6c, 0x74, 0x72, 0x61, 0x74, 0x69, 0x6e, 0x79, 0x5f, 0x67, 0x65,
  0x6f, 0x6d, 0x65, 0x74, 0x72, 0x79, 0x5f, 0x61, 0x75, 0x67, 0x5f, 0x31,
  0x2f, 0x63, 0x6f, 0x6e, 0x76, 0x32, 0x64, 0x5f, 0x32, 0x5f, 0x31, 0x2f,
  0x63, 0x6f, 0x6e, 0x76, 0x6f, 0x6c, 0x75, 0x74, 0x69, 0x6f, 0x6e, 0x3b,
  0x65, 0x61, 0x67, 0x6c, 0x65, 0x65, 0x79, 0x65, 0x5f, 0x75, 0x6c, 0x74,
  0x72, 0x61, 0x74, 0x69, 0x6e, 0x79, 0x5f, 0x67, 0x65, 0x6f, 0x6d, 0x65,
  0x74, 0x72, 0x79, 0x5f, 0x61, 0x75, 0x67, 0x5f, 0x31, 0x2f, 0x63, 0x6f,
  0x6e, 0x76, 0x32, 0x64, 0x5f, 0x32, 0x5f, 0x31, 0x2f, 0x53, 0x71, 0x75,
  0x65, 0x65, 0x7a, 0x65, 0x31, 0x00, 0x00, 0x00, 0x04, 0x00, 0x00, 0x00,
  0x01, 0x00, 0x00, 0x00, 0x03, 0x00, 0x00, 0x00, 0x03, 0x00, 0x00, 0x00,
  0x20, 0x00, 0x00, 0x00, 0x1a, 0xee, 0xff, 0xff, 0x00, 0x00, 0x00, 0x01,
  0x18, 0x00, 0x00, 0x00, 0x28, 0x00, 0x00, 0x00, 0x48, 0x00, 0x00, 0x00,
  0x12, 0x00, 0x00, 0x00, 0x00, 0x00, 0x00, 0x09, 0x80, 0x00, 0x00, 0x00,
  0x04, 0x00, 0x00, 0x00, 0xff, 0xff, 0xff, 0xff, 0x03, 0x00, 0x00, 0x00,
  0x03, 0x00, 0x00, 0x00, 0x10, 0x00, 0x00, 0x00, 0x04, 0xee, 0xff, 0xff,
  0x08, 0x00, 0x00, 0x00, 0x14, 0x00, 0x00, 0x00, 0x01, 0x00, 0x00, 0x00,
  0x80, 0xff, 0xff, 0xff, 0xff, 0xff, 0xff, 0xff, 0x00, 0x00, 0x00, 0x00,
  0x01, 0x00, 0x00, 0x00, 0x62, 0xb0, 0xb7, 0x3c, 0x3d, 0x00, 0x00, 0x00,
  0x65, 0x61, 0x67, 0x6c, 0x65, 0x65, 0x79, 0x65, 0x5f, 0x75, 0x6c, 0x74,
  0x72, 0x61, 0x74, 0x69, 0x6e, 0x79, 0x5f, 0x67, 0x65, 0x6f, 0x6d, 0x65,
  0x74, 0x72, 0x79, 0x5f, 0x61, 0x75, 0x67, 0x5f, 0x31, 0x2f, 0x6d, 0x61,
  0x78, 0x5f, 0x70, 0x6f, 0x6f, 0x6c, 0x69, 0x6e, 0x67, 0x32, 0x64, 0x5f,
  0x31, 0x5f, 0x32, 0x2f, 0x4d, 0x61, 0x78, 0x50, 0x6f, 0x6f, 0x6c, 0x32,
  0x64, 0x00, 0x00, 0x00, 0x04, 0x00, 0x00, 0x00, 0x01, 0x00, 0x00, 0x00,
  0x03, 0x00, 0x00, 0x00, 0x03, 0x00, 0x00, 0x00, 0x10, 0x00, 0x00, 0x00,
  0xca, 0xee, 0xff, 0xff, 0x00, 0x00, 0x00, 0x01, 0x18, 0x00, 0x00, 0x00,
  0x28, 0x00, 0x00, 0x00, 0x48, 0x00, 0x00, 0x00, 0x11, 0x00, 0x00, 0x00,
  0x00, 0x00, 0x00, 0x09, 0x18, 0x01, 0x00, 0x00, 0x04, 0x00, 0x00, 0x00,
  0xff, 0xff, 0xff, 0xff, 0x06, 0x00, 0x00, 0x00, 0x06, 0x00, 0x00, 0x00,
  0x10, 0x00, 0x00, 0x00, 0xb4, 0xee, 0xff, 0xff, 0x08, 0x00, 0x00, 0x00,
  0x14, 0x00, 0x00, 0x00, 0x01, 0x00, 0x00, 0x00, 0x80, 0xff, 0xff, 0xff,
  0xff, 0xff, 0xff, 0xff, 0x00, 0x00, 0x00, 0x00, 0x01, 0x00, 0x00, 0x00,
  0x62, 0xb0, 0xb7, 0x3c, 0xd5, 0x00, 0x00, 0x00, 0x65, 0x61, 0x67, 0x6c,
  0x65, 0x65, 0x79, 0x65, 0x5f, 0x75, 0x6c, 0x74, 0x72, 0x61, 0x74, 0x69,
  0x6e, 0x79, 0x5f, 0x67, 0x65, 0x6f, 0x6d, 0x65, 0x74, 0x72, 0x79, 0x5f,
  0x61, 0x75, 0x67, 0x5f, 0x31, 0x2f, 0x63, 0x6f, 0x6e, 0x76, 0x32, 0x64,
  0x5f, 0x31, 0x5f, 0x32, 0x2f, 0x52, 0x65, 0x6c, 0x75, 0x3b, 0x65, 0x61,
  0x67, 0x6c, 0x65, 0x65, 0x79, 0x65, 0x5f, 0x75, 0x6c, 0x74, 0x72, 0x61,
  0x74, 0x69, 0x6e, 0x79, 0x5f, 0x67, 0x65, 0x6f, 0x6d, 0x65, 0x74, 0x72,
  0x79, 0x5f, 0x61, 0x75, 0x67, 0x5f, 0x31, 0x2f, 0x63, 0x6f, 0x6e, 0x76,
  0x32, 0x64, 0x5f, 0x31, 0x5f, 0x32, 0x2f, 0x42, 0x69, 0x61, 0x73, 0x41,
  0x64, 0x64, 0x3b, 0x65, 0x61, 0x67, 0x6c, 0x65, 0x65, 0x79, 0x65, 0x5f,
  0x75, 0x6c, 0x74, 0x72, 0x61, 0x74, 0x69, 0x6e, 0x79, 0x5f, 0x67, 0x65,
  0x6f, 0x6d, 0x65, 0x74, 0x72, 0x79, 0x5f, 0x61, 0x75, 0x67, 0x5f, 0x31,
  0x2f, 0x63, 0x6f, 0x6e, 0x76, 0x32, 0x64, 0x5f, 0x31, 0x5f, 0x32, 0x2f,
  0x63, 0x6f, 0x6e, 0x76, 0x6f, 0x6c, 0x75, 0x74, 0x69, 0x6f, 0x6e, 0x3b,
  0x65, 0x61, 0x67, 0x6c, 0x65, 0x65, 0x79, 0x65, 0x5f, 0x75, 0x6c, 0x74,
  0x72, 0x61, 0x74, 0x69, 0x6e, 0x79, 0x5f, 0x67, 0x65, 0x6f, 0x6d, 0x65,
  0x74, 0x72, 0x79, 0x5f, 0x61, 0x75, 0x67, 0x5f, 0x31, 0x2f, 0x63, 0x6f,
  0x6e, 0x76, 0x32, 0x64, 0x5f, 0x31, 0x5f, 0x32, 0x2f, 0x53, 0x71, 0x75,
  0x65, 0x65, 0x7a, 0x65, 0x31, 0x00, 0x00, 0x00, 0x04, 0x00, 0x00, 0x00,
  0x01, 0x00, 0x00, 0x00, 0x06, 0x00, 0x00, 0x00, 0x06, 0x00, 0x00, 0x00,
  0x10, 0x00, 0x00, 0x00, 0x12, 0xf0, 0xff, 0xff, 0x00, 0x00, 0x00, 0x01,
  0x18, 0x00, 0x00, 0x00, 0x28, 0x00, 0x00, 0x00, 0x44, 0x00, 0x00, 0x00,
  0x10, 0x00, 0x00, 0x00, 0x00, 0x00, 0x00, 0x09, 0x78, 0x00, 0x00, 0x00,
  0x04, 0x00, 0x00, 0x00, 0xff, 0xff, 0xff, 0xff, 0x0c, 0x00, 0x00, 0x00,
  0x0c, 0x00, 0x00, 0x00, 0x08, 0x00, 0x00, 0x00, 0xfc, 0xef, 0xff, 0xff,
  0x08, 0x00, 0x00, 0x00, 0x10, 0x00, 0x00, 0x00, 0x01, 0x00, 0x00, 0x00,
  0x80, 0xff, 0xff, 0xff, 0xff, 0xff, 0xff, 0xff, 0x01, 0x00, 0x00, 0x00,
  0x42, 0xde, 0x36, 0x3c, 0x3b, 0x00, 0x00, 0x00, 0x65, 0x61, 0x67, 0x6c,
  0x65, 0x65, 0x79, 0x65, 0x5f, 0x75, 0x6c, 0x74, 0x72, 0x61, 0x74, 0x69,
  0x6e, 0x79, 0x5f, 0x67, 0x65, 0x6f, 0x6d, 0x65, 0x74, 0x72, 0x79, 0x5f,
  0x61, 0x75, 0x67, 0x5f, 0x31, 0x2f, 0x6d, 0x61, 0x78, 0x5f, 0x70, 0x6f,
  0x6f, 0x6c, 0x69, 0x6e, 0x67, 0x32, 0x64, 0x5f, 0x31, 0x2f, 0x4d, 0x61,
  0x78, 0x50, 0x6f, 0x6f, 0x6c, 0x32, 0x64, 0x00, 0x04, 0x00, 0x00, 0x00,
  0x01, 0x00, 0x00, 0x00, 0x0c, 0x00, 0x00, 0x00, 0x0c, 0x00, 0x00, 0x00,
  0x08, 0x00, 0x00, 0x00, 0xba, 0xf0, 0xff, 0xff, 0x00, 0x00, 0x00, 0x01,
  0x18, 0x00, 0x00, 0x00, 0x28, 0x00, 0x00, 0x00, 0x48, 0x00, 0x00, 0x00,
  0x0f, 0x00, 0x00, 0x00, 0x00, 0x00, 0x00, 0x09, 0x10, 0x01, 0x00, 0x00,
  0x04, 0x00, 0x00, 0x00, 0xff, 0xff, 0xff, 0xff, 0x18, 0x00, 0x00, 0x00,
  0x18, 0x00, 0x00, 0x00, 0x08, 0x00, 0x00, 0x00, 0xa4, 0xf0, 0xff, 0xff,
  0x08, 0x00, 0x00, 0x00, 0x14, 0x00, 0x00, 0x00, 0x01, 0x00, 0x00, 0x00,
  0x80, 0xff, 0xff, 0xff, 0xff, 0xff, 0xff, 0xff, 0x00, 0x00, 0x00, 0x00,
  0x01, 0x00, 0x00, 0x00, 0x42, 0xde, 0x36, 0x3c, 0xcd, 0x00, 0x00, 0x00,
  0x65, 0x61, 0x67, 0x6c, 0x65, 0x65, 0x79, 0x65, 0x5f, 0x75, 0x6c, 0x74,
  0x72, 0x61, 0x74, 0x69, 0x6e, 0x79, 0x5f, 0x67, 0x65, 0x6f, 0x6d, 0x65,
  0x74, 0x72, 0x79, 0x5f, 0x61, 0x75, 0x67, 0x5f, 0x31, 0x2f, 0x63, 0x6f,
  0x6e, 0x76, 0x32, 0x64, 0x5f, 0x31, 0x2f, 0x52, 0x65, 0x6c, 0x75, 0x3b,
  0x65, 0x61, 0x67, 0x6c, 0x65, 0x65, 0x79, 0x65, 0x5f, 0x75, 0x6c, 0x74,
  0x72, 0x61, 0x74, 0x69, 0x6e, 0x79, 0x5f, 0x67, 0x65, 0x6f, 0x6d, 0x65,
  0x74, 0x72, 0x79, 0x5f, 0x61, 0x75, 0x67, 0x5f, 0x31, 0x2f, 0x63, 0x6f,
  0x6e, 0x76, 0x32, 0x64, 0x5f, 0x31, 0x2f, 0x42, 0x69, 0x61, 0x73, 0x41,
  0x64, 0x64, 0x3b, 0x65, 0x61, 0x67, 0x6c, 0x65, 0x65, 0x79, 0x65, 0x5f,
  0x75, 0x6c, 0x74, 0x72, 0x61, 0x74, 0x69, 0x6e, 0x79, 0x5f, 0x67, 0x65,
  0x6f, 0x6d, 0x65, 0x74, 0x72, 0x79, 0x5f, 0x61, 0x75, 0x67, 0x5f, 0x31,
  0x2f, 0x63, 0x6f, 0x6e, 0x76, 0x32, 0x64, 0x5f, 0x31, 0x2f, 0x63, 0x6f,
  0x6e, 0x76, 0x6f, 0x6c, 0x75, 0x74, 0x69, 0x6f, 0x6e, 0x3b, 0x65, 0x61,
  0x67, 0x6c, 0x65, 0x65, 0x79, 0x65, 0x5f, 0x75, 0x6c, 0x74, 0x72, 0x61,
  0x74, 0x69, 0x6e, 0x79, 0x5f, 0x67, 0x65, 0x6f, 0x6d, 0x65, 0x74, 0x72,
  0x79, 0x5f, 0x61, 0x75, 0x67, 0x5f, 0x31, 0x2f, 0x63, 0x6f, 0x6e, 0x76,
  0x32, 0x64, 0x5f, 0x31, 0x2f, 0x53, 0x71, 0x75, 0x65, 0x65, 0x7a, 0x65,
  0x31, 0x00, 0x00, 0x00, 0x04, 0x00, 0x00, 0x00, 0x01, 0x00, 0x00, 0x00,
  0x18, 0x00, 0x00, 0x00, 0x18, 0x00, 0x00, 0x00, 0x08, 0x00, 0x00, 0x00,
  0xfa, 0xf1, 0xff, 0xff, 0x00, 0x00, 0x00, 0x01, 0x18, 0x00, 0x00, 0x00,
  0x28, 0x00, 0x00, 0x00, 0x44, 0x00, 0x00, 0x00, 0x0e, 0x00, 0x00, 0x00,
  0x00, 0x00, 0x00, 0x09, 0x70, 0x00, 0x00, 0x00, 0x04, 0x00, 0x00, 0x00,
  0xff, 0xff, 0xff, 0xff, 0x30, 0x00, 0x00, 0x00, 0x30, 0x00, 0x00, 0x00,
  0x01, 0x00, 0x00, 0x00, 0xe4, 0xf1, 0xff, 0xff, 0x08, 0x00, 0x00, 0x00,
  0x10, 0x00, 0x00, 0x00, 0x01, 0x00, 0x00, 0x00, 0xff, 0xff, 0xff, 0xff,
  0xff, 0xff, 0xff, 0xff, 0x01, 0x00, 0x00, 0x00, 0x81, 0x80, 0x00, 0x3c,
  0x31, 0x00, 0x00, 0x00, 0x65, 0x61, 0x67, 0x6c, 0x65, 0x65, 0x79, 0x65,
  0x5f, 0x75, 0x6c, 0x74, 0x72, 0x61, 0x74, 0x69, 0x6e, 0x79, 0x5f, 0x67,
  0x65, 0x6f, 0x6d, 0x65, 0x74, 0x72, 0x79, 0x5f, 0x61, 0x75, 0x67, 0x5f,
  0x31, 0x2f, 0x72, 0x65, 0x73, 0x63, 0x61, 0x6c, 0x69, 0x6e, 0x67, 0x5f,
  0x31, 0x2f, 0x61, 0x64, 0x64, 0x00, 0x00, 0x00, 0x04, 0x00, 0x00, 0x00,
  0x01, 0x00, 0x00, 0x00, 0x30, 0x00, 0x00, 0x00, 0x30, 0x00, 0x00, 0x00,
  0x01, 0x00, 0x00, 0x00, 0x9a, 0xf2, 0xff, 0xff, 0x00, 0x00, 0x00, 0x01,
  0x18, 0x00, 0x00, 0x00, 0x28, 0x00, 0x00, 0x00, 0x44, 0x00, 0x00, 0x00,
  0x0d, 0x00, 0x00, 0x00, 0x00, 0x00, 0x00, 0x09, 0x70, 0x00, 0x00, 0x00,
  0x04, 0x00, 0x00, 0x00, 0xff, 0xff, 0xff, 0xff, 0x30, 0x00, 0x00, 0x00,
  0x30, 0x00, 0x00, 0x00, 0x01, 0x00, 0x00, 0x00, 0x84, 0xf2, 0xff, 0xff,
  0x08, 0x00, 0x00, 0x00, 0x10, 0x00, 0x00, 0x00, 0x01, 0x00, 0x00, 0x00,
  0xd5, 0xff, 0xff, 0xff, 0xff, 0xff, 0xff, 0xff, 0x01, 0x00, 0x00, 0x00,
  0xc1, 0xc0, 0x40, 0x3c, 0x31, 0x00, 0x00, 0x00, 0x65, 0x61, 0x67, 0x6c,
  0x65, 0x65, 0x79, 0x65, 0x5f, 0x75, 0x6c, 0x74, 0x72, 0x61, 0x74, 0x69,
  0x6e, 0x79, 0x5f, 0x67, 0x65, 0x6f, 0x6d, 0x65, 0x74, 0x72, 0x79, 0x5f,
  0x61, 0x75, 0x67, 0x5f, 0x31, 0x2f, 0x72, 0x65, 0x73, 0x63, 0x61, 0x6c,
  0x69, 0x6e, 0x67, 0x5f, 0x31, 0x2f, 0x6d, 0x75, 0x6c, 0x00, 0x00, 0x00,
  0x04, 0x00, 0x00, 0x00, 0x01, 0x00, 0x00, 0x00, 0x30, 0x00, 0x00, 0x00,
  0x30, 0x00, 0x00, 0x00, 0x01, 0x00, 0x00, 0x00, 0xd6, 0xf3, 0xff, 0xff,
  0x00, 0x00, 0x00, 0x01, 0x14, 0x00, 0x00, 0x00, 0x34, 0x00, 0x00, 0x00,
  0x0c, 0x00, 0x00, 0x00, 0x00, 0x00, 0x00, 0x09, 0x64, 0x00, 0x00, 0x00,
  0x0c, 0xf3, 0xff, 0xff, 0x08, 0x00, 0x00, 0x00, 0x14, 0x00, 0x00, 0x00,
  0x01, 0x00, 0x00, 0x00, 0x80, 0xff, 0xff, 0xff, 0xff, 0xff, 0xff, 0xff,
  0x00, 0x00, 0x00, 0x00, 0x01, 0x00, 0x00, 0x00, 0x83, 0x01, 0x01, 0x38,
  0x34, 0x00, 0x00, 0x00, 0x65, 0x61, 0x67, 0x6c, 0x65, 0x65, 0x79, 0x65,
  0x5f, 0x75, 0x6c, 0x74, 0x72, 0x61, 0x74, 0x69, 0x6e, 0x79, 0x5f, 0x67,
  0x65, 0x6f, 0x6d, 0x65, 0x74, 0x72, 0x79, 0x5f, 0x61, 0x75, 0x67, 0x5f,
  0x31, 0x2f, 0x72, 0x65, 0x73, 0x63, 0x61, 0x6c, 0x69, 0x6e, 0x67, 0x5f,
  0x31, 0x2f, 0x43, 0x61, 0x73, 0x74, 0x2f, 0x78, 0x00, 0x00, 0x00, 0x00,
  0x00, 0x00, 0x00, 0x00, 0x56, 0xf4, 0xff, 0xff, 0x00, 0x00, 0x00, 0x01,
  0x14, 0x00, 0x00, 0x00, 0x34, 0x00, 0x00, 0x00, 0x0b, 0x00, 0x00, 0x00,
  0x00, 0x00, 0x00, 0x09, 0x64, 0x00, 0x00, 0x00, 0x8c, 0xf3, 0xff, 0xff,
  0x08, 0x00, 0x00, 0x00, 0x14, 0x00, 0x00, 0x00, 0x01, 0x00, 0x00, 0x00,
  0x7f, 0x00, 0x00, 0x00, 0x00, 0x00, 0x00, 0x00, 0x00, 0x00, 0x00, 0x00,
  0x01, 0x00, 0x00, 0x00, 0x81, 0x80, 0x80, 0x3b, 0x36, 0x00, 0x00, 0x00,
  0x65, 0x61, 0x67, 0x6c, 0x65, 0x65, 0x79, 0x65, 0x5f, 0x75, 0x6c, 0x74,
  0x72, 0x61, 0x74, 0x69, 0x6e, 0x79, 0x5f, 0x67, 0x65, 0x6f, 0x6d, 0x65,
  0x74, 0x72, 0x79, 0x5f, 0x61, 0x75, 0x67, 0x5f, 0x31, 0x2f, 0x72, 0x65,
  0x73, 0x63, 0x61, 0x6c, 0x69, 0x6e, 0x67, 0x5f, 0x31, 0x2f, 0x43, 0x61,
  0x73, 0x74, 0x5f, 0x31, 0x2f, 0x78, 0x00, 0x00, 0x00, 0x00, 0x00, 0x00,
  0xd6, 0xf4, 0xff, 0xff, 0x00, 0x00, 0x00, 0x01, 0x14, 0x00, 0x00, 0x00,
  0x84, 0x00, 0x00, 0x00, 0x0a, 0x00, 0x00, 0x00, 0x00, 0x00, 0x00, 0x09,
  0xb4, 0x00, 0x00, 0x00, 0x0c, 0xf4, 0xff, 0xff, 0x08, 0x00, 0x00, 0x00,
  0x48, 0x00, 0x00, 0x00, 0x08, 0x00, 0x00, 0x00, 0x00, 0x00, 0x00, 0x00,
  0x00, 0x00, 0x00, 0x00, 0x00, 0x00, 0x00, 0x00, 0x00, 0x00, 0x00, 0x00,
  0x00, 0x00, 0x00, 0x00, 0x00, 0x00, 0x00, 0x00, 0x00, 0x00, 0x00, 0x00,
  0x00, 0x00, 0x00, 0x00, 0x00, 0x00, 0x00, 0x00, 0x00, 0x00, 0x00, 0x00,
  0x00, 0x00, 0x00, 0x00, 0x00, 0x00, 0x00, 0x00, 0x00, 0x00, 0x00, 0x00,
  0x00, 0x00, 0x00, 0x00, 0x00, 0x00, 0x00, 0x00, 0x00, 0x00, 0x00, 0x00,
  0x08, 0x00, 0x00, 0x00, 0x15, 0x4d, 0x2c, 0x3b, 0x32, 0x1c, 0x1d, 0x3b,
  0x07, 0x2b, 0x45, 0x3b, 0x22, 0x27, 0x2c, 0x3b, 0x4e, 0x2f, 0x1a, 0x3b,
  0x3d, 0x85, 0x60, 0x3b, 0x79, 0x55, 0x12, 0x3b, 0xd0, 0x44, 0x83, 0x3b,
  0x36, 0x00, 0x00, 0x00, 0x65, 0x61, 0x67, 0x6c, 0x65, 0x65, 0x79, 0x65,
  0x5f, 0x75, 0x6c, 0x74, 0x72, 0x61, 0x74, 0x69, 0x6e, 0x79, 0x5f, 0x67,
  0x65, 0x6f, 0x6d, 0x65, 0x74, 0x72, 0x79, 0x5f, 0x61, 0x75, 0x67, 0x5f,
  0x31, 0x2f, 0x63, 0x6f, 0x6e, 0x76, 0x32, 0x64, 0x5f, 0x31, 0x2f, 0x63,
  0x6f, 0x6e, 0x76, 0x6f, 0x6c, 0x75, 0x74, 0x69, 0x6f, 0x6e, 0x00, 0x00,
  0x04, 0x00, 0x00, 0x00, 0x08, 0x00, 0x00, 0x00, 0x03, 0x00, 0x00, 0x00,
  0x03, 0x00, 0x00, 0x00, 0x01, 0x00, 0x00, 0x00, 0xb6, 0xf5, 0xff, 0xff,
  0x00, 0x00, 0x00, 0x01, 0x14, 0x00, 0x00, 0x00, 0x88, 0x00, 0x00, 0x00,
  0x09, 0x00, 0x00, 0x00, 0x00, 0x00, 0x00, 0x02, 0x50, 0x01, 0x00, 0x00,
  0xec, 0xf4, 0xff, 0xff, 0x08, 0x00, 0x00, 0x00, 0x4c, 0x00, 0x00, 0x00,
  0x08, 0x00, 0x00, 0x00, 0x00, 0x00, 0x00, 0x00, 0x00, 0x00, 0x00, 0x00,
  0x00, 0x00, 0x00, 0x00, 0x00, 0x00, 0x00, 0x00, 0x00, 0x00, 0x00, 0x00,
  0x00, 0x00, 0x00, 0x00, 0x00, 0x00, 0x00, 0x00, 0x00, 0x00, 0x00, 0x00,
  0x00, 0x00, 0x00, 0x00, 0x00, 0x00, 0x00, 0x00, 0x00, 0x00, 0x00, 0x00,
  0x00, 0x00, 0x00, 0x00, 0x00, 0x00, 0x00, 0x00, 0x00, 0x00, 0x00, 0x00,
  0x00, 0x00, 0x00, 0x00, 0x00, 0x00, 0x00, 0x00, 0x00, 0x00, 0x00, 0x00,
  0x08, 0x00, 0x00, 0x00, 0x10, 0xfa, 0xac, 0x37, 0xed, 0xb9, 0x9d, 0x37,
  0xf9, 0xf0, 0xc5, 0x37, 0xf7, 0xd3, 0xac, 0x37, 0x19, 0xca, 0x9a, 0x37,
  0xa5, 0x66, 0xe1, 0x37, 0x62, 0xe8, 0x92, 0x37, 0x99, 0xc8, 0x03, 0x38,
  0xcc, 0x00, 0x00, 0x00, 0x65, 0x61, 0x67, 0x6c, 0x65, 0x65, 0x79, 0x65,
  0x5f, 0x75, 0x6c, 0x74, 0x72, 0x61, 0x74, 0x69, 0x6e, 0x79, 0x5f, 0x67,
  0x65, 0x6f, 0x6d, 0x65, 0x74, 0x72, 0x79, 0x5f, 0x61, 0x75, 0x67, 0x5f,
  0x31, 0x2f, 0x63, 0x6f, 0x6e, 0x76, 0x32, 0x64, 0x5f, 0x31, 0x2f, 0x52,
  0x65, 0x6c, 0x75, 0x3b, 0x65, 0x61, 0x67, 0x6c, 0x65, 0x65, 0x79, 0x65,
  0x5f, 0x75, 0x6c, 0x74, 0x72, 0x61, 0x74, 0x69, 0x6e, 0x79, 0x5f, 0x67,
  0x65, 0x6f, 0x6d, 0x65, 0x74, 0x72, 0x79, 0x5f, 0x61, 0x75, 0x67, 0x5f,
  0x31, 0x2f, 0x63, 0x6f, 0x6e, 0x76, 0x32, 0x64, 0x5f, 0x31, 0x2f, 0x42,
  0x69, 0x61, 0x73, 0x41, 0x64, 0x64, 0x3b, 0x65, 0x61, 0x67, 0x6c, 0x65,
  0x65, 0x79, 0x65, 0x5f, 0x75, 0x6c, 0x74, 0x72, 0x61, 0x74, 0x69, 0x6e,
  0x79, 0x5f, 0x67, 0x65, 0x6f, 0x6d, 0x65, 0x74, 0x72, 0x79, 0x5f, 0x61,
  0x75, 0x67, 0x5f, 0x31, 0x2f, 0x63, 0x6f, 0x6e, 0x76, 0x32, 0x64, 0x5f,
  0x31, 0x2f, 0x63, 0x6f, 0x6e, 0x76, 0x6f, 0x6c, 0x75, 0x74, 0x69, 0x6f,
  0x6e, 0x3b, 0x65, 0x61, 0x67, 0x6c, 0x65, 0x65, 0x79, 0x65, 0x5f, 0x75,
  0x6c, 0x74, 0x72, 0x61, 0x74, 0x69, 0x6e, 0x79, 0x5f, 0x67, 0x65, 0x6f,
  0x6d, 0x65, 0x74, 0x72, 0x79, 0x5f, 0x61, 0x75, 0x67, 0x5f, 0x31, 0x2f,
  0x63, 0x6f, 0x6e, 0x76, 0x32, 0x64, 0x5f, 0x31, 0x2f, 0x53, 0x71, 0x75,
  0x65, 0x65, 0x7a, 0x65, 0x00, 0x00, 0x00, 0x00, 0x01, 0x00, 0x00, 0x00,
  0x08, 0x00, 0x00, 0x00, 0x26, 0xf7, 0xff, 0xff, 0x00, 0x00, 0x00, 0x01,
  0x14, 0x00, 0x00, 0x00, 0xe8, 0x00, 0x00, 0x00, 0x08, 0x00, 0x00, 0x00,
  0x00, 0x00, 0x00, 0x09, 0x1c, 0x01, 0x00, 0x00, 0x5c, 0xf6, 0xff, 0xff,
  0x08, 0x00, 0x00, 0x00, 0x8c, 0x00, 0x00, 0x00, 0x10, 0x00, 0x00, 0x00,
  0x00, 0x00, 0x00, 0x00, 0x00, 0x00, 0x00, 0x00, 0x00, 0x00, 0x00, 0x00,
  0x00, 0x00, 0x00, 0x00, 0x00, 0x00, 0x00, 0x00, 0x00, 0x00, 0x00, 0x00,
  0x00, 0x00, 0x00, 0x00, 0x00, 0x00, 0x00, 0x00, 0x00, 0x00, 0x00, 0x00,
  0x00, 0x00, 0x00, 0x00, 0x00, 0x00, 0x00, 0x00, 0x00, 0x00, 0x00, 0x00,
  0x00, 0x00, 0x00, 0x00, 0x00, 0x00, 0x00, 0x00, 0x00, 0x00, 0x00, 0x00,
  0x00, 0x00, 0x00, 0x00, 0x00, 0x00, 0x00, 0x00, 0x00, 0x00, 0x00, 0x00,
  0x00, 0x00, 0x00, 0x00, 0x00, 0x00, 0x00, 0x00, 0x00, 0x00, 0x00, 0x00,
  0x00, 0x00, 0x00, 0x00, 0x00, 0x00, 0x00, 0x00, 0x00, 0x00, 0x00, 0x00,
  0x00, 0x00, 0x00, 0x00, 0x00, 0x00, 0x00, 0x00, 0x00, 0x00, 0x00, 0x00,
  0x00, 0x00, 0x00, 0x00, 0x00, 0x00, 0x00, 0x00, 0x00, 0x00, 0x00, 0x00,
  0x00, 0x00, 0x00, 0x00, 0x00, 0x00, 0x00, 0x00, 0x00, 0x00, 0x00, 0x00,
  0x10, 0x00, 0x00, 0x00, 0x83, 0xde, 0x53, 0x3b, 0x4c, 0xf6, 0x50, 0x3b,
  0x48, 0x69, 0x3d, 0x3b, 0xe6, 0xde, 0x4f, 0x3b, 0xbc, 0x8f, 0x3c, 0x3b,
  0xaa, 0xf9, 0x3c, 0x3b, 0xae, 0x04, 0x40, 0x3b, 0xe8, 0x6a, 0x55, 0x3b,
  0x67, 0x30, 0x10, 0x3b, 0x1e, 0xc0, 0x13, 0x3b, 0x73, 0x62, 0x52, 0x3b,
  0x7c, 0xbe, 0x4f, 0x3b, 0x85, 0xb3, 0x22, 0x3b, 0xfd, 0xbe, 0x0c, 0x3b,
  0x6e, 0xa6, 0x51, 0x3b, 0x5e, 0x6b, 0x46, 0x3b, 0x38, 0x00, 0x00, 0x00,
  0x65, 0x61, 0x67, 0x6c, 0x65, 0x65, 0x79, 0x65, 0x5f, 0x75, 0x6c, 0x74,
  0x72, 0x61, 0x74, 0x69, 0x6e, 0x79, 0x5f, 0x67, 0x65, 0x6f, 0x6d, 0x65,
  0x74, 0x72, 0x79, 0x5f, 0x61, 0x75, 0x67, 0x5f, 0x31, 0x2f, 0x63, 0x6f,
  0x6e, 0x76, 0x32, 0x64, 0x5f, 0x31, 0x5f, 0x32, 0x2f, 0x63, 0x6f, 0x6e,
  0x76, 0x6f, 0x6c, 0x75, 0x74, 0x69, 0x6f, 0x6e, 0x00, 0x00, 0x00, 0x00,
  0x04, 0x00, 0x00, 0x00, 0x10, 0x00, 0x00, 0x00, 0x03, 0x00, 0x00, 0x00,
  0x03, 0x00, 0x00, 0x00, 0x08, 0x00, 0x00, 0x00, 0x6e, 0xf8, 0xff, 0xff,
  0x00, 0x00, 0x00, 0x01, 0x14, 0x00, 0x00, 0x00, 0xe8, 0x00, 0x00, 0x00,
  0x07, 0x00, 0x00, 0x00, 0x00, 0x00, 0x00, 0x02, 0xb8, 0x01, 0x00, 0x00,
  0xa4, 0xf7, 0xff, 0xff, 0x08, 0x00, 0x00, 0x00, 0x8c, 0x00, 0x00, 0x00,
  0x10, 0x00, 0x00, 0x00, 0x00, 0x00, 0x00, 0x00, 0x00, 0x00, 0x00, 0x00,
  0x00, 0x00, 0x00, 0x00, 0x00, 0x00, 0x00, 0x00, 0x00, 0x00, 0x00, 0x00,
  0x00, 0x00, 0x00, 0x00, 0x00, 0x00, 0x00, 0x00, 0x00, 0x00, 0x00, 0x00,
  0x00, 0x00, 0x00, 0x00, 0x00, 0x00, 0x00, 0x00, 0x00, 0x00, 0x00, 0x00,
  0x00, 0x00, 0x00, 0x00, 0x00, 0x00, 0x00, 0x00, 0x00, 0x00, 0x00, 0x00,
  0x00, 0x00, 0x00, 0x00, 0x00, 0x00, 0x00, 0x00, 0x00, 0x00, 0x00, 0x00,
  0x00, 0x00, 0x00, 0x00, 0x00, 0x00, 0x00, 0x00, 0x00, 0x00, 0x00, 0x00,
  0x00, 0x00, 0x00, 0x00, 0x00, 0x00, 0x00, 0x00, 0x00, 0x00, 0x00, 0x00,
  0x00, 0x00, 0x00, 0x00, 0x00, 0x00, 0x00, 0x00, 0x00, 0x00, 0x00, 0x00,
  0x00, 0x00, 0x00, 0x00, 0x00, 0x00, 0x00, 0x00, 0x00, 0x00, 0x00, 0x00,
  0x00, 0x00, 0x00, 0x00, 0x00, 0x00, 0x00, 0x00, 0x00, 0x00, 0x00, 0x00,
  0x00, 0x00, 0x00, 0x00, 0x10, 0x00, 0x00, 0x00, 0x23, 0x58, 0x17, 0x38,
  0x85, 0x44, 0x15, 0x38, 0x4b, 0x4d, 0x07, 0x38, 0xf0, 0x7c, 0x14, 0x38,
  0xe5, 0xb1, 0x06, 0x38, 0x90, 0xfd, 0x06, 0x38, 0x09, 0x2a, 0x09, 0x38,
  0x4b, 0x73, 0x18, 0x38, 0x31, 0xff, 0xcd, 0x37, 0xb8, 0x15, 0xd3, 0x37,
  0xa5, 0x48, 0x16, 0x38, 0xc9, 0x65, 0x14, 0x38, 0xc4, 0x71, 0xe8, 0x37,
  0xf4, 0x13, 0xc9, 0x37, 0x57, 0xc2, 0x15, 0x38, 0x99, 0xbc, 0x0d, 0x38,
  0xd4, 0x00, 0x00, 0x00, 0x65, 0x61, 0x67, 0x6c, 0x65, 0x65, 0x79, 0x65,
  0x5f, 0x75, 0x6c, 0x74, 0x72, 0x61, 0x74, 0x69, 0x6e, 0x79, 0x5f, 0x67,
  0x65, 0x6f, 0x6d, 0x65, 0x74, 0x72, 0x79, 0x5f, 0x61, 0x75, 0x67, 0x5f,
  0x31, 0x2f, 0x63, 0x6f, 0x6e, 0x76, 0x32, 0x64, 0x5f, 0x31, 0x5f, 0x32,
  0x2f, 0x52, 0x65, 0x6c, 0x75, 0x3b, 0x65, 0x61, 0x67, 0x6c, 0x65, 0x65,
  0x79, 0x65, 0x5f, 0x75, 0x6c, 0x74, 0x72, 0x61, 0x74, 0x69, 0x6e, 0x79,
  0x5f, 0x67, 0x65, 0x6f, 0x6d, 0x65, 0x74, 0x72, 0x79, 0x5f, 0x61, 0x75,
  0x67, 0x5f, 0x31, 0x2f, 0x63, 0x6f, 0x6e, 0x76, 0x32, 0x64, 0x5f, 0x31,
  0x5f, 0x32, 0x2f, 0x42, 0x69, 0x61, 0x73, 0x41, 0x64, 0x64, 0x3b, 0x65,
  0x61, 0x67, 0x6c, 0x65, 0x65, 0x79, 0x65, 0x5f, 0x75, 0x6c, 0x74, 0x72,
  0x61, 0x74, 0x69, 0x6e, 0x79, 0x5f, 0x67, 0x65, 0x6f, 0x6d, 0x65, 0x74,
  0x72, 0x79, 0x5f, 0x61, 0x75, 0x67, 0x5f, 0x31, 0x2f, 0x63, 0x6f, 0x6e,
  0x76, 0x32, 0x64, 0x5f, 0x31, 0x5f, 0x32, 0x2f, 0x63, 0x6f, 0x6e, 0x76,
  0x6f, 0x6c, 0x75, 0x74, 0x69, 0x6f, 0x6e, 0x3b, 0x65, 0x61, 0x67, 0x6c,
  0x65, 0x65, 0x79, 0x65, 0x5f, 0x75, 0x6c, 0x74, 0x72, 0x61, 0x74, 0x69,
  0x6e, 0x79, 0x5f, 0x67, 0x65, 0x6f, 0x6d, 0x65, 0x74, 0x72, 0x79, 0x5f,
  0x61, 0x75, 0x67, 0x5f, 0x31, 0x2f, 0x63, 0x6f, 0x6e, 0x76, 0x32, 0x64,
  0x5f, 0x31, 0x5f, 0x32, 0x2f, 0x53, 0x71, 0x75, 0x65, 0x65, 0x7a, 0x65,
  0x00, 0x00, 0x00, 0x00, 0x01, 0x00, 0x00, 0x00, 0x10, 0x00, 0x00, 0x00,
  0x46, 0xfa, 0xff, 0xff, 0x00, 0x00, 0x00, 0x01, 0x14, 0x00, 0x00, 0x00,
  0xa8, 0x01, 0x00, 0x00, 0x06, 0x00, 0x00, 0x00, 0x00, 0x00, 0x00, 0x09,
  0xdc, 0x01, 0x00, 0x00, 0x7c, 0xf9, 0xff, 0xff, 0x08, 0x00, 0x00, 0x00,
  0x0c, 0x01, 0x00, 0x00, 0x20, 0x00, 0x00, 0x00, 0x00, 0x00, 0x00, 0x00,
  0x00, 0x00, 0x00, 0x00, 0x00, 0x00, 0x00, 0x00, 0x00, 0x00, 0x00, 0x00,
  0x00, 0x00, 0x00, 0x00, 0x00, 0x00, 0x00, 0x00, 0x00, 0x00, 0x00, 0x00,
  0x00, 0x00, 0x00, 0x00, 0x00, 0x00, 0x00, 0x00, 0x00, 0x00, 0x00, 0x00,
  0x00, 0x00, 0x00, 0x00, 0x00, 0x00, 0x00, 0x00, 0x00, 0x00, 0x00, 0x00,
  0x00, 0x00, 0x00, 0x00, 0x00, 0x00, 0x00, 0x00, 0x00, 0x00, 0x00, 0x00,
  0x00, 0x00, 0x00, 0x00, 0x00, 0x00, 0x00, 0x00, 0x00, 0x00, 0x00, 0x00,
  0x00, 0x00, 0x00, 0x00, 0x00, 0x00, 0x00, 0x00, 0x00, 0x00, 0x00, 0x00,
  0x00, 0x00, 0x00, 0x00, 0x00, 0x00, 0x00, 0x00, 0x00, 0x00, 0x00, 0x00,
  0x00, 0x00, 0x00, 0x00, 0x00, 0x00, 0x00, 0x00, 0x00, 0x00, 0x00, 0x00,
  0x00, 0x00, 0x00, 0x00, 0x00, 0x00, 0x00, 0x00, 0x00, 0x00, 0x00, 0x00,
  0x00, 0x00, 0x00, 0x00, 0x00, 0x00, 0x00, 0x00, 0x00, 0x00, 0x00, 0x00,
  0x00, 0x00, 0x00, 0x00, 0x00, 0x00, 0x00, 0x00, 0x00, 0x00, 0x00, 0x00,
  0x00, 0x00, 0x00, 0x00, 0x00, 0x00, 0x00, 0x00, 0x00, 0x00, 0x00, 0x00,
  0x00, 0x00, 0x00, 0x00, 0x00, 0x00, 0x00, 0x00, 0x00, 0x00, 0x00, 0x00,
  0x00, 0x00, 0x00, 0x00, 0x00, 0x00, 0x00, 0x00, 0x00, 0x00, 0x00, 0x00,
  0x00, 0x00, 0x00, 0x00, 0x00, 0x00, 0x00, 0x00, 0x00, 0x00, 0x00, 0x00,
  0x00, 0x00, 0x00, 0x00, 0x00, 0x00, 0x00, 0x00, 0x00, 0x00, 0x00, 0x00,
  0x00, 0x00, 0x00, 0x00, 0x00, 0x00, 0x00, 0x00, 0x00, 0x00, 0x00, 0x00,
  0x00, 0x00, 0x00, 0x00, 0x00, 0x00, 0x00, 0x00, 0x00, 0x00, 0x00, 0x00,
  0x00, 0x00, 0x00, 0x00, 0x00, 0x00, 0x00, 0x00, 0x00, 0x00, 0x00, 0x00,
  0x00, 0x00, 0x00, 0x00, 0x00, 0x00, 0x00, 0x00, 0x00, 0x00, 0x00, 0x00,
  0x00, 0x00, 0x00, 0x00, 0x20, 0x00, 0x00, 0x00, 0x79, 0x33, 0x2b, 0x3b,
  0x7d, 0x82, 0x4b, 0x3b, 0xe2, 0xc3, 0x37, 0x3b, 0x2a, 0xaa, 0x4a, 0x3b,
  0xf9, 0x32, 0x42, 0x3b, 0xdd, 0x4e, 0x23, 0x3b, 0xeb, 0x10, 0x1a, 0x3b,
  0x35, 0x15, 0x63, 0x3b, 0x2e, 0xad, 0x4c, 0x3b, 0x55, 0xcf, 0x50, 0x3b,
  0xaa, 0xa5, 0x64, 0x3b, 0xa4, 0x71, 0x34, 0x3b, 0x27, 0x85, 0x59, 0x3b,
  0xf5, 0xd1, 0x47, 0x3b, 0x55, 0x45, 0x83, 0x3b, 0x88, 0x57, 0x25, 0x3b,
  0x2b, 0x3a, 0x89, 0x3b, 0xf1, 0xc7, 0x36, 0x3b, 0xfc, 0x31, 0x28, 0x3b,
  0x43, 0x5f, 0x22, 0x3b, 0x8b, 0x0a, 0x39, 0x3b, 0x51, 0x39, 0x3d, 0x3b,
  0xaf, 0x41, 0x54, 0x3b, 0x27, 0xe2, 0x4e, 0x3b, 0x86, 0xe3, 0x27, 0x3b,
  0xb9, 0x25, 0x27, 0x3b, 0xa5, 0x4e, 0x87, 0x3b, 0x9c, 0xeb, 0xa3, 0x3b,
  0xef, 0xd5, 0x41, 0x3b, 0x84, 0x19, 0x60, 0x3b, 0x06, 0xb5, 0x38, 0x3b,
  0x59, 0x94, 0x6d, 0x3b, 0x38, 0x00, 0x00, 0x00, 0x65, 0x61, 0x67, 0x6c,
  0x65, 0x65, 0x79, 0x65, 0x5f, 0x75, 0x6c, 0x74, 0x72, 0x61, 0x74, 0x69,
  0x6e, 0x79, 0x5f, 0x67, 0x65, 0x6f, 0x6d, 0x65, 0x74, 0x72, 0x79, 0x5f,
  0x61, 0x75, 0x67, 0x5f, 0x31, 0x2f, 0x63, 0x6f, 0x6e, 0x76, 0x32, 0x64,
  0x5f, 0x32, 0x5f, 0x31, 0x2f, 0x63, 0x6f, 0x6e, 0x76, 0x6f, 0x6c, 0x75,
  0x74, 0x69, 0x6f, 0x6e, 0x00, 0x00, 0x00, 0x00, 0x04, 0x00, 0x00, 0x00,
  0x20, 0x00, 0x00, 0x00, 0x03, 0x00, 0x00, 0x00, 0x03, 0x00, 0x00, 0x00,
  0x10, 0x00, 0x00, 0x00, 0x4e, 0xfc, 0xff, 0xff, 0x00, 0x00, 0x00, 0x01,
  0x14, 0x00, 0x00, 0x00, 0xa8, 0x01, 0x00, 0x00, 0x05, 0x00, 0x00, 0x00,
  0x00, 0x00, 0x00, 0x02, 0x78, 0x02, 0x00, 0x00, 0x84, 0xfb, 0xff, 0xff,
  0x08, 0x00, 0x00, 0x00, 0x0c, 0x01, 0x00, 0x00, 0x20, 0x00, 0x00, 0x00,
  0x00, 0x00, 0x00, 0x00, 0x00, 0x00, 0x00, 0x00, 0x00, 0x00, 0x00, 0x00,
  0x00, 0x00, 0x00, 0x00, 0x00, 0x00, 0x00, 0x00, 0x00, 0x00, 0x00, 0x00,
  0x00, 0x00, 0x00, 0x00, 0x00, 0x00, 0x00, 0x00, 0x00, 0x00, 0x00, 0x00,
  0x00, 0x00, 0x00, 0x00, 0x00, 0x00, 0x00, 0x00, 0x00, 0x00, 0x00, 0x00,
  0x00, 0x00, 0x00, 0x00, 0x00, 0x00, 0x00, 0x00, 0x00, 0x00, 0x00, 0x00,
  0x00, 0x00, 0x00, 0x00, 0x00, 0x00, 0x00, 0x00, 0x00, 0x00, 0x00, 0x00,
  0x00, 0x00, 0x00, 0x00, 0x00, 0x00, 0x00, 0x00, 0x00, 0x00, 0x00, 0x00,
  0x00, 0x00, 0x00, 0x00, 0x00, 0x00, 0x00, 0x00, 0x00, 0x00, 0x00, 0x00,
  0x00, 0x00, 0x00, 0x00, 0x00, 0x00, 0x00, 0x00, 0x00, 0x00, 0x00, 0x00,
  0x00, 0x00, 0x00, 0x00, 0x00, 0x00, 0x00, 0x00, 0x00, 0x00, 0x00, 0x00,
  0x00, 0x00, 0x00, 0x00, 0x00, 0x00, 0x00, 0x00, 0x00, 0x00, 0x00, 0x00,
  0x00, 0x00, 0x00, 0x00, 0x00, 0x00, 0x00, 0x00, 0x00, 0x00, 0x00, 0x00,
  0x00, 0x00, 0x00, 0x00, 0x00, 0x00, 0x00, 0x00, 0x00, 0x00, 0x00, 0x00,
  0x00, 0x00, 0x00, 0x00, 0x00, 0x00, 0x00, 0x00, 0x00, 0x00, 0x00, 0x00,
  0x00, 0x00, 0x00, 0x00, 0x00, 0x00, 0x00, 0x00, 0x00, 0x00, 0x00, 0x00,
  0x00, 0x00, 0x00, 0x00, 0x00, 0x00, 0x00, 0x00, 0x00, 0x00, 0x00, 0x00,
  0x00, 0x00, 0x00, 0x00, 0x00, 0x00, 0x00, 0x00, 0x00, 0x00, 0x00, 0x00,
  0x00, 0x00, 0x00, 0x00, 0x00, 0x00, 0x00, 0x00, 0x00, 0x00, 0x00, 0x00,
  0x00, 0x00, 0x00, 0x00, 0x00, 0x00, 0x00, 0x00, 0x00, 0x00, 0x00, 0x00,
  0x00, 0x00, 0x00, 0x00, 0x00, 0x00, 0x00, 0x00, 0x00, 0x00, 0x00, 0x00,
  0x00, 0x00, 0x00, 0x00, 0x00, 0x00, 0x00, 0x00, 0x00, 0x00, 0x00, 0x00,
  0x00, 0x00, 0x00, 0x00, 0x00, 0x00, 0x00, 0x00, 0x20, 0x00, 0x00, 0x00,
  0x81, 0xaf, 0x75, 0x38, 0x7f, 0x06, 0x92, 0x38, 0xa4, 0xdb, 0x83, 0x38,
  0x47, 0x6b, 0x91, 0x38, 0x3d, 0x58, 0x8b, 0x38, 0xc9, 0x5b, 0x6a, 0x38,
  0x7d, 0x18, 0x5d, 0x38, 0x9e, 0xf0, 0xa2, 0x38, 0xd1, 0xdc, 0x92, 0x38,
  0x14, 0xd4, 0x95, 0x38, 0xf6, 0x0f, 0xa4, 0x38, 0x8f, 0x79, 0x81, 0x38,
  0x0e, 0x14, 0x9c, 0x38, 0xc3, 0x60, 0x8f, 0x38, 0x03, 0x62, 0xbc, 0x38,
  0xfb, 0x46, 0x6d, 0x38, 0x43, 0xee, 0xc4, 0x38, 0xdd, 0x26, 0x83, 0x38,
  0x3c, 0x5f, 0x71, 0x38, 0xf1, 0x03, 0x69, 0x38, 0x07, 0xc6, 0x84, 0x38,
  0x59, 0xc6, 0x87, 0x38, 0x33, 0x4d, 0x98, 0x38, 0x35, 0x72, 0x94, 0x38,
  0xa3, 0xee, 0x70, 0x38, 0x42, 0xde, 0x6f, 0x38, 0xe4, 0x2c, 0xc2, 0x38,
  0xba, 0x3c, 0xeb, 0x38, 0x7b, 0x15, 0x8b, 0x38, 0xa5, 0xcc, 0xa0, 0x38,
  0xaa, 0x88, 0x84, 0x38, 0xbd, 0x78, 0xaa, 0x38, 0xd4, 0x00, 0x00, 0x00,
  0x65, 0x61, 0x67, 0x6c, 0x65, 0x65, 0x79, 0x65, 0x5f, 0x75, 0x6c, 0x74,
  0x72, 0x61, 0x74, 0x69, 0x6e, 0x79, 0x5f, 0x67, 0x65, 0x6f, 0x6d, 0x65,
  0x74, 0x72, 0x79, 0x5f, 0x61, 0x75, 0x67, 0x5f, 0x31, 0x2f, 0x63, 0x6f,
  0x6e, 0x76, 0x32, 0x64, 0x5f, 0x32, 0x5f, 0x31, 0x2f, 0x52, 0x65, 0x6c,
  0x75, 0x3b, 0x65, 0x61, 0x67, 0x6c, 0x65, 0x65, 0x79, 0x65, 0x5f, 0x75,
  0x6c, 0x74, 0x72, 0x61, 0x74, 0x69, 0x6e, 0x79, 0x5f, 0x67, 0x65, 0x6f,
  0x6d, 0x65, 0x74, 0x72, 0x79, 0x5f, 0x61, 0x75, 0x67, 0x5f, 0x31, 0x2f,
  0x63, 0x6f, 0x6e, 0x76, 0x32, 0x64, 0x5f, 0x32, 0x5f, 0x31, 0x2f, 0x42,
  0x69, 0x61, 0x73, 0x41, 0x64, 0x64, 0x3b, 0x65, 0x61, 0x67, 0x6c, 0x65,
  0x65, 0x79, 0x65, 0x5f, 0x75, 0x6c, 0x74, 0x72, 0x61, 0x74, 0x69, 0x6e,
  0x79, 0x5f, 0x67, 0x65, 0x6f, 0x6d, 0x65, 0x74, 0x72, 0x79, 0x5f, 0x61,
  0x75, 0x67, 0x5f, 0x31, 0x2f, 0x63, 0x6f, 0x6e, 0x76, 0x32, 0x64, 0x5f,
  0x32, 0x5f, 0x31, 0x2f, 0x63, 0x6f, 0x6e, 0x76, 0x6f, 0x6c, 0x75, 0x74,
  0x69, 0x6f, 0x6e, 0x3b, 0x65, 0x61, 0x67, 0x6c, 0x65, 0x65, 0x79, 0x65,
  0x5f, 0x75, 0x6c, 0x74, 0x72, 0x61, 0x74, 0x69, 0x6e, 0x79, 0x5f, 0x67,
  0x65, 0x6f, 0x6d, 0x65, 0x74, 0x72, 0x79, 0x5f, 0x61, 0x75, 0x67, 0x5f,
  0x31, 0x2f, 0x63, 0x6f, 0x6e, 0x76, 0x32, 0x64, 0x5f, 0x32, 0x5f, 0x31,
  0x2f, 0x53, 0x71, 0x75, 0x65, 0x65, 0x7a, 0x65, 0x00, 0x00, 0x00, 0x00,
  0x01, 0x00, 0x00, 0x00, 0x20, 0x00, 0x00, 0x00, 0xe6, 0xfe, 0xff, 0xff,
  0x00, 0x00, 0x00, 0x01, 0x14, 0x00, 0x00, 0x00, 0x40, 0x00, 0x00, 0x00,
  0x04, 0x00, 0x00, 0x00, 0x00, 0x00, 0x00, 0x09, 0x6c, 0x00, 0x00, 0x00,
  0x1c, 0xfe, 0xff, 0xff, 0x08, 0x00, 0x00, 0x00, 0x1c, 0x00, 0x00, 0x00,
  0x02, 0x00, 0x00, 0x00, 0x00, 0x00, 0x00, 0x00, 0x00, 0x00, 0x00, 0x00,
  0x00, 0x00, 0x00, 0x00, 0x00, 0x00, 0x00, 0x00, 0x00, 0x00, 0x00, 0x00,
  0x02, 0x00, 0x00, 0x00, 0x21, 0x59, 0xb4, 0x3b, 0x4d, 0x86, 0xbf, 0x3b,
  0x30, 0x00, 0x00, 0x00, 0x65, 0x61, 0x67, 0x6c, 0x65, 0x65, 0x79, 0x65,
  0x5f, 0x75, 0x6c, 0x74, 0x72, 0x61, 0x74, 0x69, 0x6e, 0x79, 0x5f, 0x67,
  0x65, 0x6f, 0x6d, 0x65, 0x74, 0x72, 0x79, 0x5f, 0x61, 0x75, 0x67, 0x5f,
  0x31, 0x2f, 0x64, 0x65, 0x6e, 0x73, 0x65, 0x5f, 0x31, 0x2f, 0x4d, 0x61,
  0x74, 0x4d, 0x75, 0x6c, 0x00, 0x00, 0x00, 0x00, 0x02, 0x00, 0x00, 0x00,
  0x02, 0x00, 0x00, 0x00, 0x20, 0x00, 0x00, 0x00, 0x76, 0xff, 0xff, 0xff,
  0x00, 0x00, 0x00, 0x01, 0x14, 0x00, 0x00, 0x00, 0x3c, 0x00, 0x00, 0x00,
  0x03, 0x00, 0x00, 0x00, 0x00, 0x00, 0x00, 0x02, 0x68, 0x00, 0x00, 0x00,
  0xac, 0xfe, 0xff, 0xff, 0x08, 0x00, 0x00, 0x00, 0x18, 0x00, 0x00, 0x00,
  0x02, 0x00, 0x00, 0x00, 0x00, 0x00, 0x00, 0x00, 0x00, 0x00, 0x00, 0x00,
  0x00, 0x00, 0x00, 0x00, 0x00, 0x00, 0x00, 0x00, 0x02, 0x00, 0x00, 0x00,
  0x31, 0x31, 0x6f, 0x38, 0xe8, 0x03, 0x7e, 0x38, 0x31, 0x00, 0x00, 0x00,
  0x65, 0x61, 0x67, 0x6c, 0x65, 0x65, 0x79, 0x65, 0x5f, 0x75, 0x6c, 0x74,
  0x72, 0x61, 0x74, 0x69, 0x6e, 0x79, 0x5f, 0x67, 0x65, 0x6f, 0x6d, 0x65,
  0x74, 0x72, 0x79, 0x5f, 0x61, 0x75, 0x67, 0x5f, 0x31, 0x2f, 0x64, 0x65,
  0x6e, 0x73, 0x65, 0x5f, 0x31, 0x2f, 0x42, 0x69, 0x61, 0x73, 0x41, 0x64,
  0x64, 0x00, 0x00, 0x00, 0x01, 0x00, 0x00, 0x00, 0x02, 0x00, 0x00, 0x00,
  0x00, 0x00, 0x16, 0x00, 0x1c, 0x00, 0x18, 0x00, 0x17, 0x00, 0x10, 0x00,
  0x0c, 0x00, 0x08, 0x00, 0x00, 0x00, 0x00, 0x00, 0x00, 0x00, 0x07, 0x00,
  0x16, 0x00, 0x00, 0x00, 0x00, 0x00, 0x00, 0x01, 0x18, 0x00, 0x00, 0x00,
  0x18, 0x00, 0x00, 0x00, 0x02, 0x00, 0x00, 0x00, 0x00, 0x00, 0x00, 0x02,
  0x64, 0x00, 0x00, 0x00, 0x04, 0x00, 0x04, 0x00, 0x04, 0x00, 0x00, 0x00,
  0x53, 0x00, 0x00, 0x00, 0x65, 0x61, 0x67, 0x6c, 0x65, 0x65, 0x79, 0x65,
  0x5f, 0x75, 0x6c, 0x74, 0x72, 0x61, 0x74, 0x69, 0x6e, 0x79, 0x5f, 0x67,
  0x65, 0x6f, 0x6d, 0x65, 0x74, 0x72, 0x79, 0x5f, 0x61, 0x75, 0x67, 0x5f,
  0x31, 0x2f, 0x67, 0x6c, 0x6f, 0x62, 0x61, 0x6c, 0x5f, 0x61, 0x76, 0x65,
  0x72, 0x61, 0x67, 0x65, 0x5f, 0x70, 0x6f, 0x6f, 0x6c, 0x69, 0x6e, 0x67,
  0x32, 0x64, 0x5f, 0x31, 0x2f, 0x4d, 0x65, 0x61, 0x6e, 0x2f, 0x72, 0x65,
  0x64, 0x75, 0x63, 0x74, 0x69, 0x6f, 0x6e, 0x5f, 0x69, 0x6e, 0x64, 0x69,
  0x63, 0x65, 0x73, 0x00, 0x01, 0x00, 0x00, 0x00, 0x02, 0x00, 0x00, 0x00,
  0x00, 0x00, 0x16, 0x00, 0x20, 0x00, 0x1c, 0x00, 0x1b, 0x00, 0x14, 0x00,
  0x10, 0x00, 0x0c, 0x00, 0x00, 0x00, 0x00, 0x00, 0x08, 0x00, 0x07, 0x00,
  0x16, 0x00, 0x00, 0x00, 0x00, 0x00, 0x00, 0x01, 0x18, 0x00, 0x00, 0x00,
  0x34, 0x00, 0x00, 0x00, 0x50, 0x00, 0x00, 0x00, 0x01, 0x00, 0x00, 0x00,
  0x00, 0x00, 0x00, 0x09, 0x68, 0x00, 0x00, 0x00, 0x04, 0x00, 0x00, 0x00,
  0xff, 0xff, 0xff, 0xff, 0x30, 0x00, 0x00, 0x00, 0x30, 0x00, 0x00, 0x00,
  0x01, 0x00, 0x00, 0x00, 0x0c, 0x00, 0x0c, 0x00, 0x00, 0x00, 0x00, 0x00,
  0x08, 0x00, 0x04, 0x00, 0x0c, 0x00, 0x00, 0x00, 0x08, 0x00, 0x00, 0x00,
  0x10, 0x00, 0x00, 0x00, 0x01, 0x00, 0x00, 0x00, 0x80, 0xff, 0xff, 0xff,
  0xff, 0xff, 0xff, 0xff, 0x01, 0x00, 0x00, 0x00, 0x00, 0x00, 0x80, 0x3f,
  0x1e, 0x00, 0x00, 0x00, 0x73, 0x65, 0x72, 0x76, 0x69, 0x6e, 0x67, 0x5f,
  0x64, 0x65, 0x66, 0x61, 0x75, 0x6c, 0x74, 0x5f, 0x6b, 0x65, 0x72, 0x61,
  0x73, 0x5f, 0x74, 0x65, 0x6e, 0x73, 0x6f, 0x72, 0x3a, 0x30, 0x00, 0x00,
  0x04, 0x00, 0x00, 0x00, 0x01, 0x00, 0x00, 0x00, 0x30, 0x00, 0x00, 0x00,
  0x30, 0x00, 0x00, 0x00, 0x01, 0x00, 0x00, 0x00, 0x07, 0x00, 0x00, 0x00,
  0x94, 0x00, 0x00, 0x00, 0x7c, 0x00, 0x00, 0x00, 0x60, 0x00, 0x00, 0x00,
  0x40, 0x00, 0x00, 0x00, 0x2c, 0x00, 0x00, 0x00, 0x18, 0x00, 0x00, 0x00,
  0x04, 0x00, 0x00, 0x00, 0x94, 0xff, 0xff, 0xff, 0x19, 0x00, 0x00, 0x00,
  0x02, 0x00, 0x00, 0x00, 0x00, 0x00, 0x00, 0x19, 0xa4, 0xff, 0xff, 0xff,
  0x09, 0x00, 0x00, 0x00, 0x04, 0x00, 0x00, 0x00, 0x00, 0x00, 0x00, 0x09,
  0xb4, 0xff, 0xff, 0xff, 0x28, 0x00, 0x00, 0x00, 0x02, 0x00, 0x00, 0x00,
  0x00, 0x00, 0x00, 0x28, 0xc4, 0xff, 0xff, 0xff, 0x11, 0x00, 0x00, 0x00,
  0x02, 0x00, 0x00, 0x00, 0x00, 0x00, 0x00, 0x11, 0x0c, 0x00, 0x0e, 0x00,
  0x0d, 0x00, 0x00, 0x00, 0x08, 0x00, 0x04, 0x00, 0x0c, 0x00, 0x00, 0x00,
  0x03, 0x00, 0x00, 0x00, 0x03, 0x00, 0x00, 0x00, 0x00, 0x03, 0x0a, 0x00,
  0x08, 0x00, 0x00, 0x00, 0x00, 0x00, 0x04, 0x00, 0x0a, 0x00, 0x00, 0x00,
  0x02, 0x00, 0x00, 0x00, 0x0c, 0x00, 0x10, 0x00, 0x0f, 0x00, 0x00, 0x00,
  0x08, 0x00, 0x04, 0x00, 0x0c, 0x00, 0x00, 0x00, 0x12, 0x00, 0x00, 0x00,
  0x02, 0x00, 0x00, 0x00, 0x00, 0x00, 0x00, 0x12,
};
const unsigned int g_human_detect_model_data_len = 13448;
#endif  // G_HUMAN_DETECT_MODEL_DATA_H
