// Auto-generated in sketchboard by retrain_to_90.py
// Geometry-only augmentation: rotation and zoom. No colour/lightness changes.
#ifndef G_HUMAN_DETECT_MODEL_DATA_H
#define G_HUMAN_DETECT_MODEL_DATA_H

extern const unsigned char g_human_detect_model_data[];
extern const unsigned int g_human_detect_model_data_len;

const unsigned char g_human_detect_model_data[] = {
  0x20, 0x00, 0x00, 0x00, 0x54, 0x46, 0x4c, 0x33, 0x00, 0x00, 0x00, 0x00,
  0x14, 0x00, 0x20, 0x00, 0x1c, 0x00, 0x18, 0x00, 0x14, 0x00, 0x10, 0x00,
  0x0c, 0x00, 0x00, 0x00, 0x08, 0x00, 0x04, 0x00, 0x14, 0x00, 0x00, 0x00,
  0x1c, 0x00, 0x00, 0x00, 0x98, 0x00, 0x00, 0x00, 0xf0, 0x00, 0x00, 0x00,
  0x38, 0x12, 0x00, 0x00, 0x48, 0x12, 0x00, 0x00, 0xfc, 0x39, 0x00, 0x00,
  0x03, 0x00, 0x00, 0x00, 0x01, 0x00, 0x00, 0x00, 0x10, 0x00, 0x00, 0x00,
  0x00, 0x00, 0x0a, 0x00, 0x10, 0x00, 0x0c, 0x00, 0x08, 0x00, 0x04, 0x00,
  0x0a, 0x00, 0x00, 0x00, 0x0c, 0x00, 0x00, 0x00, 0x1c, 0x00, 0x00, 0x00,
  0x3c, 0x00, 0x00, 0x00, 0x0f, 0x00, 0x00, 0x00, 0x73, 0x65, 0x72, 0x76,
  0x69, 0x6e, 0x67, 0x5f, 0x64, 0x65, 0x66, 0x61, 0x75, 0x6c, 0x74, 0x00,
  0x01, 0x00, 0x00, 0x00, 0x04, 0x00, 0x00, 0x00, 0x90, 0xff, 0xff, 0xff,
  0x1b, 0x00, 0x00, 0x00, 0x04, 0x00, 0x00, 0x00, 0x08, 0x00, 0x00, 0x00,
  0x6f, 0x75, 0x74, 0x70, 0x75, 0x74, 0x5f, 0x30, 0x00, 0x00, 0x00, 0x00,
  0x01, 0x00, 0x00, 0x00, 0x04, 0x00, 0x00, 0x00, 0x9e, 0xed, 0xff, 0xff,
  0x04, 0x00, 0x00, 0x00, 0x0c, 0x00, 0x00, 0x00, 0x6b, 0x65, 0x72, 0x61,
  0x73, 0x5f, 0x74, 0x65, 0x6e, 0x73, 0x6f, 0x72, 0x00, 0x00, 0x00, 0x00,
  0x02, 0x00, 0x00, 0x00, 0x34, 0x00, 0x00, 0x00, 0x04, 0x00, 0x00, 0x00,
  0xdc, 0xff, 0xff, 0xff, 0x1e, 0x00, 0x00, 0x00, 0x04, 0x00, 0x00, 0x00,
  0x13, 0x00, 0x00, 0x00, 0x43, 0x4f, 0x4e, 0x56, 0x45, 0x52, 0x53, 0x49,
  0x4f, 0x4e, 0x5f, 0x4d, 0x45, 0x54, 0x41, 0x44, 0x41, 0x54, 0x41, 0x00,
  0x08, 0x00, 0x0c, 0x00, 0x08, 0x00, 0x04, 0x00, 0x08, 0x00, 0x00, 0x00,
  0x1d, 0x00, 0x00, 0x00, 0x04, 0x00, 0x00, 0x00, 0x13, 0x00, 0x00, 0x00,
  0x6d, 0x69, 0x6e, 0x5f, 0x72, 0x75, 0x6e, 0x74, 0x69, 0x6d, 0x65, 0x5f,
  0x76, 0x65, 0x72, 0x73, 0x69, 0x6f, 0x6e, 0x00, 0x1f, 0x00, 0x00, 0x00,
  0x44, 0x11, 0x00, 0x00, 0x3c, 0x11, 0x00, 0x00, 0x24, 0x11, 0x00, 0x00,
  0x0c, 0x11, 0x00, 0x00, 0x7c, 0x10, 0x00, 0x00, 0x6c, 0x0f, 0x00, 0x00,
  0x5c, 0x07, 0x00, 0x00, 0xcc, 0x06, 0x00, 0x00, 0x9c, 0x05, 0x00, 0x00,
  0x0c, 0x05, 0x00, 0x00, 0xfc, 0x02, 0x00, 0x00, 0xac, 0x02, 0x00, 0x00,
  0x0c, 0x02, 0x00, 0x00, 0xbc, 0x01, 0x00, 0x00, 0x1c, 0x01, 0x00, 0x00,
  0x08, 0x01, 0x00, 0x00, 0xf4, 0x00, 0x00, 0x00, 0xec, 0x00, 0x00, 0x00,
  0xe4, 0x00, 0x00, 0x00, 0xdc, 0x00, 0x00, 0x00, 0xd4, 0x00, 0x00, 0x00,
  0xcc, 0x00, 0x00, 0x00, 0xc4, 0x00, 0x00, 0x00, 0xbc, 0x00, 0x00, 0x00,
  0xb4, 0x00, 0x00, 0x00, 0xac, 0x00, 0x00, 0x00, 0xa4, 0x00, 0x00, 0x00,
  0x9c, 0x00, 0x00, 0x00, 0x94, 0x00, 0x00, 0x00, 0x74, 0x00, 0x00, 0x00,
  0x04, 0x00, 0x00, 0x00, 0x96, 0xee, 0xff, 0xff, 0x04, 0x00, 0x00, 0x00,
  0x60, 0x00, 0x00, 0x00, 0x0c, 0x00, 0x00, 0x00, 0x08, 0x00, 0x0e, 0x00,
  0x08, 0x00, 0x04, 0x00, 0x08, 0x00, 0x00, 0x00, 0x10, 0x00, 0x00, 0x00,
  0x28, 0x00, 0x00, 0x00, 0x00, 0x00, 0x06, 0x00, 0x08, 0x00, 0x04, 0x00,
  0x06, 0x00, 0x00, 0x00, 0x04, 0x00, 0x00, 0x00, 0x01, 0x00, 0x00, 0x00,
  0xeb, 0x03, 0x00, 0x00, 0x0c, 0x00, 0x18, 0x00, 0x14, 0x00, 0x10, 0x00,
  0x0c, 0x00, 0x04, 0x00, 0x0c, 0x00, 0x00, 0x00, 0xb8, 0xf5, 0x28, 0x4a,
  0x75, 0x65, 0x72, 0x50, 0x02, 0x00, 0x00, 0x00, 0x02, 0x00, 0x00, 0x00,
  0x04, 0x00, 0x00, 0x00, 0x06, 0x00, 0x00, 0x00, 0x32, 0x2e, 0x32, 0x31,
  0x2e, 0x30, 0x00, 0x00, 0x02, 0xef, 0xff, 0xff, 0x04, 0x00, 0x00, 0x00,
  0x10, 0x00, 0x00, 0x00, 0x31, 0x2e, 0x31, 0x34, 0x2e, 0x30, 0x00, 0x00,
  0x00, 0x00, 0x00, 0x00, 0x00, 0x00, 0x00, 0x00, 0x0c, 0xc9, 0xff, 0xff,
  0x10, 0xc9, 0xff, 0xff, 0x14, 0xc9, 0xff, 0xff, 0x18, 0xc9, 0xff, 0xff,
  0x1c, 0xc9, 0xff, 0xff, 0x20, 0xc9, 0xff, 0xff, 0x24, 0xc9, 0xff, 0xff,
  0x28, 0xc9, 0xff, 0xff, 0x2c, 0xc9, 0xff, 0xff, 0x30, 0xc9, 0xff, 0xff,
  0x34, 0xc9, 0xff, 0xff, 0x38, 0xc9, 0xff, 0xff, 0x4e, 0xef, 0xff, 0xff,
  0x04, 0x00, 0x00, 0x00, 0x01, 0x00, 0x00, 0x00, 0x7f, 0x00, 0x00, 0x00,
  0x5e, 0xef, 0xff, 0xff, 0x04, 0x00, 0x00, 0x00, 0x01, 0x00, 0x00, 0x00,
  0x80, 0x00, 0x00, 0x00, 0x6e, 0xef, 0xff, 0xff, 0x04, 0x00, 0x00, 0x00,
  0x90, 0x00, 0x00, 0x00, 0xf9, 0xcf, 0x00, 0x81, 0xab, 0xe6, 0x9c, 0xaa,
  0x89, 0xdc, 0xd5, 0xbf, 0xa6, 0xaf, 0xc1, 0x01, 0xc3, 0x81, 0x62, 0xfb,
  0x30, 0x7f, 0x23, 0x09, 0x53, 0x05, 0xe0, 0x7f, 0x5c, 0x46, 0x5d, 0x36,
  0x23, 0x7d, 0x4a, 0xfa, 0xd8, 0x4e, 0x7f, 0xc8, 0x02, 0x2d, 0x85, 0xca,
  0x37, 0x7f, 0x65, 0xb4, 0x0f, 0xeb, 0xa9, 0x1c, 0xe1, 0xa0, 0xbf, 0xd4,
  0x81, 0xf5, 0xa1, 0x88, 0xb6, 0xcb, 0xb0, 0xb2, 0x5a, 0x20, 0x7f, 0xcf,
  0x1a, 0x23, 0xaa, 0xe4, 0xff, 0x41, 0x7f, 0xfc, 0x62, 0x40, 0x20, 0x45,
  0x5e, 0x81, 0xb6, 0x92, 0xb7, 0xab, 0xab, 0xe8, 0xbf, 0x99, 0x4e, 0x48,
  0x6c, 0x62, 0x75, 0x36, 0x02, 0x1a, 0x7f, 0x7f, 0x3d, 0xe2, 0x7d, 0x2b,
  0xf5, 0x5a, 0xbd, 0xe3, 0x75, 0x7f, 0x1c, 0x46, 0x06, 0x5d, 0x8b, 0xbb,
  0x44, 0x81, 0x0e, 0x2c, 0xde, 0x5e, 0x3c, 0x1e, 0x55, 0x2e, 0x8b, 0xd1,
  0x01, 0x81, 0xcc, 0xdb, 0x8a, 0xa6, 0xef, 0x81, 0x82, 0xac, 0xa0, 0xd2,
  0xba, 0xe8, 0xb9, 0xb1, 0x0a, 0xf0, 0xff, 0xff, 0x04, 0x00, 0x00, 0x00,
  0x40, 0x00, 0x00, 0x00, 0x1e, 0x23, 0x00, 0x00, 0x00, 0xba, 0xff, 0xff,
  0x35, 0x46, 0x00, 0x00, 0xf9, 0x20, 0x00, 0x00, 0xfc, 0xf2, 0xff, 0xff,
  0x5f, 0xf4, 0xff, 0xff, 0x20, 0xcd, 0xff, 0xff, 0xc4, 0x1a, 0x00, 0x00,
  0x66, 0xd8, 0xff, 0xff, 0x43, 0xe0, 0xff, 0xff, 0xf0, 0x1b, 0x00, 0x00,
  0x17, 0x44, 0x00, 0x00, 0x3c, 0xd9, 0xff, 0xff, 0x0f, 0x3d, 0x00, 0x00,
  0x2c, 0xf8, 0xff, 0xff, 0x0f, 0xea, 0xff, 0xff, 0x56, 0xf0, 0xff, 0xff,
  0x04, 0x00, 0x00, 0x00, 0x90, 0x00, 0x00, 0x00, 0xd2, 0xa9, 0x3f, 0x7f,
  0x05, 0xf2, 0x1c, 0xca, 0xb5, 0x31, 0x02, 0x0f, 0xbd, 0x42, 0x81, 0xdd,
  0x8e, 0xb4, 0x7f, 0x0e, 0x3d, 0xb3, 0x49, 0x7f, 0xb9, 0xf9, 0x4b, 0x07,
  0xd4, 0x4a, 0xe1, 0x85, 0x6f, 0xf3, 0x36, 0x00, 0x5b, 0xa1, 0xd9, 0x23,
  0xd6, 0x30, 0x34, 0xb2, 0x01, 0xcc, 0x38, 0x11, 0x4f, 0x81, 0x82, 0x3e,
  0x0d, 0xd2, 0x95, 0xeb, 0x81, 0x7f, 0xcd, 0x7f, 0xcc, 0xf0, 0x98, 0x28,
  0x9e, 0xbe, 0x23, 0xb1, 0x04, 0xb5, 0x81, 0x22, 0x2f, 0x07, 0x40, 0xa0,
  0x81, 0x4f, 0x1d, 0xa0, 0x7f, 0xa9, 0x32, 0xe1, 0x73, 0x81, 0xf3, 0x12,
  0x98, 0xd7, 0x7f, 0xe0, 0x81, 0xbe, 0x4e, 0x2d, 0xc9, 0xd8, 0xb7, 0x15,
  0x05, 0xd5, 0xed, 0x18, 0xce, 0x70, 0xe5, 0x61, 0xda, 0x68, 0xbc, 0x51,
  0xbe, 0xea, 0xfa, 0xeb, 0x2d, 0x84, 0xac, 0x14, 0x73, 0x44, 0x8c, 0x64,
  0xd5, 0x7f, 0x0c, 0x81, 0x6b, 0xce, 0x02, 0x94, 0x7f, 0x9b, 0xa7, 0x3e,
  0xe8, 0x22, 0xf0, 0x59, 0xe7, 0x0f, 0x1e, 0x91, 0xf2, 0xf0, 0xff, 0xff,
  0x04, 0x00, 0x00, 0x00, 0x40, 0x00, 0x00, 0x00, 0x00, 0x00, 0x00, 0x00,
  0x00, 0x00, 0x00, 0x00, 0x00, 0x00, 0x00, 0x00, 0x00, 0x00, 0x00, 0x00,
  0x00, 0x00, 0x00, 0x00, 0x00, 0x00, 0x00, 0x00, 0x00, 0x00, 0x00, 0x00,
  0x00, 0x00, 0x00, 0x00, 0x00, 0x00, 0x00, 0x00, 0x00, 0x00, 0x00, 0x00,
  0x00, 0x00, 0x00, 0x00, 0x00, 0x00, 0x00, 0x00, 0x00, 0x00, 0x00, 0x00,
  0x00, 0x00, 0x00, 0x00, 0x00, 0x00, 0x00, 0x00, 0x00, 0x00, 0x00, 0x00,
  0x3e, 0xf1, 0xff, 0xff, 0x04, 0x00, 0x00, 0x00, 0x00, 0x02, 0x00, 0x00,
  0x5e, 0x36, 0xa5, 0x36, 0x51, 0x89, 0x7f, 0xa5, 0xff, 0x04, 0x98, 0x5a,
  0xd9, 0x57, 0x40, 0x5b, 0xb4, 0x11, 0x2a, 0x94, 0x15, 0x2a, 0x08, 0xd9,
  0x04, 0x41, 0x0e, 0xd5, 0x05, 0x30, 0x81, 0x17, 0x26, 0xf5, 0x19, 0x09,
  0x17, 0x81, 0xc1, 0xc4, 0x0b, 0x14, 0xfe, 0xd4, 0x5d, 0xcf, 0x45, 0x06,
  0xe5, 0xdc, 0xc1, 0x7f, 0x17, 0x6b, 0x0c, 0xad, 0xc4, 0x15, 0xbd, 0x49,
  0xf5, 0xc8, 0xe7, 0xc8, 0xb7, 0x81, 0x32, 0xa8, 0x4b, 0x21, 0xcc, 0xdb,
  0xed, 0x04, 0x2b, 0xbb, 0xc0, 0x0a, 0xc7, 0xc7, 0xca, 0xdc, 0x31, 0x2b,
  0x7f, 0xc7, 0xdd, 0x0a, 0xd3, 0xc5, 0x4d, 0xcf, 0xd9, 0xd3, 0x09, 0x3f,
  0xd3, 0xf7, 0x17, 0x47, 0x54, 0x13, 0x1b, 0x0d, 0xb2, 0x30, 0x4d, 0x81,
  0x14, 0xd7, 0xe0, 0x04, 0x9f, 0xd2, 0x3d, 0x4f, 0x58, 0x37, 0x48, 0xdf,
  0xab, 0xbe, 0x75, 0x99, 0x81, 0x91, 0xf0, 0x40, 0x12, 0x40, 0x81, 0x2b,
  0x6d, 0xd4, 0xe5, 0x29, 0x0a, 0xcb, 0xe3, 0x32, 0xf4, 0x42, 0x4b, 0x08,
  0x9e, 0x14, 0x44, 0x32, 0x1a, 0x7f, 0xe7, 0x02, 0xb5, 0xdc, 0x56, 0xb9,
  0xa9, 0xbc, 0x17, 0x18, 0xd0, 0xdd, 0xf0, 0x81, 0x2e, 0xcc, 0x27, 0x3f,
  0xab, 0xac, 0x30, 0x63, 0xc8, 0xf9, 0x02, 0x1f, 0xfa, 0xeb, 0xce, 0x14,
  0x07, 0xdc, 0xe3, 0xfd, 0xd8, 0xd6, 0xc6, 0x1d, 0x14, 0x1a, 0x7f, 0xda,
  0x2b, 0x06, 0x87, 0xdb, 0x58, 0x28, 0x05, 0xdd, 0x7e, 0xe2, 0xd2, 0x19,
  0x7f, 0x46, 0x61, 0xcb, 0xb2, 0xed, 0x13, 0x26, 0x38, 0xd3, 0xea, 0xd8,
  0x2c, 0xf7, 0xa7, 0x37, 0x68, 0xb6, 0x7f, 0xaa, 0x03, 0x1e, 0xcf, 0x78,
  0x54, 0xe2, 0xb1, 0xdd, 0x13, 0xdc, 0xee, 0x64, 0x26, 0x48, 0x7f, 0xb9,
  0xb6, 0xdf, 0xf7, 0x23, 0x7f, 0xc6, 0x4a, 0x07, 0x90, 0x31, 0x30, 0xd2,
  0xe7, 0xa4, 0xfc, 0xd2, 0xd1, 0x57, 0x23, 0xc1, 0x04, 0x7f, 0x2f, 0x01,
  0x13, 0xd9, 0x4e, 0xc7, 0xa7, 0x2a, 0xed, 0x41, 0x07, 0xcd, 0x28, 0x49,
  0x45, 0x1d, 0xbd, 0x01, 0x18, 0x4e, 0x3f, 0xf4, 0x24, 0x45, 0x81, 0xcd,
  0xf9, 0x6a, 0x09, 0x60, 0x68, 0x91, 0xff, 0xed, 0x21, 0x2e, 0xb7, 0x5e,
  0xf7, 0xe6, 0x56, 0x7f, 0x31, 0x0a, 0x21, 0xdf, 0x25, 0xd3, 0x0c, 0xcd,
  0x34, 0x12, 0xcc, 0x24, 0x48, 0xf9, 0x7f, 0x09, 0x32, 0x81, 0x0b, 0x19,
  0xd4, 0x9f, 0xe7, 0x37, 0xe1, 0x3b, 0x17, 0xd5, 0xf3, 0xe2, 0xd6, 0xe3,
  0xdf, 0xda, 0x81, 0x51, 0xe7, 0x28, 0xed, 0xca, 0xf1, 0x1b, 0x09, 0xe6,
  0xbf, 0x86, 0xe5, 0xdc, 0x7f, 0xd1, 0x05, 0xdf, 0xe3, 0xf4, 0xbf, 0xf9,
  0x36, 0xef, 0xb8, 0xe4, 0x3e, 0xec, 0x3e, 0xf3, 0x38, 0x27, 0xd4, 0xe6,
  0x16, 0x81, 0xea, 0x13, 0xe2, 0xdd, 0x21, 0xde, 0xfc, 0x03, 0x51, 0xed,
  0xa5, 0x42, 0x17, 0x26, 0x81, 0x16, 0x38, 0x0e, 0xf4, 0xaa, 0x23, 0x2f,
  0x0f, 0xf5, 0xfd, 0x1b, 0x29, 0x2d, 0xf5, 0xb0, 0x53, 0x34, 0x9c, 0x81,
  0x69, 0x54, 0xeb, 0x16, 0x26, 0x81, 0x72, 0xb1, 0x28, 0xb2, 0x53, 0x7f,
  0x59, 0x58, 0x9d, 0x8b, 0x39, 0x55, 0x2d, 0xe0, 0x29, 0xf4, 0xf7, 0x39,
  0x1a, 0x59, 0x20, 0x05, 0x74, 0xcc, 0x11, 0x3c, 0xb3, 0x8e, 0xe4, 0x71,
  0xc7, 0x23, 0x4f, 0x7f, 0xd4, 0x51, 0xff, 0x2c, 0xe8, 0x3d, 0x5c, 0x18,
  0x01, 0x81, 0x02, 0x11, 0x0c, 0x4e, 0x16, 0x02, 0xe9, 0x12, 0x0d, 0xeb,
  0x7f, 0xe5, 0x3d, 0xe3, 0xd1, 0xf8, 0x35, 0xa5, 0xd5, 0xdb, 0xaa, 0x51,
  0x7f, 0x04, 0x2e, 0xc9, 0x94, 0xe9, 0x15, 0xcb, 0x37, 0xca, 0x12, 0xe3,
  0x17, 0xf9, 0x62, 0x39, 0x4a, 0xa2, 0x0c, 0xbf, 0x0b, 0x05, 0x91, 0xf7,
  0x5f, 0x7f, 0xd6, 0xe1, 0x5f, 0xc1, 0xf5, 0x97, 0x4a, 0xf3, 0xff, 0xff,
  0x04, 0x00, 0x00, 0x00, 0x80, 0x00, 0x00, 0x00, 0x1a, 0xf8, 0xff, 0xff,
  0xfd, 0xf7, 0xff, 0xff, 0x40, 0xf7, 0xff, 0xff, 0xea, 0xfd, 0xff, 0xff,
  0x49, 0xf5, 0xff, 0xff, 0xfe, 0xfc, 0xff, 0xff, 0x9e, 0xfa, 0xff, 0xff,
  0xa3, 0xfd, 0xff, 0xff, 0x92, 0xfa, 0xff, 0xff, 0x3f, 0xfc, 0xff, 0xff,
  0xee, 0xfd, 0xff, 0xff, 0x38, 0xfe, 0xff, 0xff, 0x60, 0xfd, 0xff, 0xff,
  0xbc, 0xfd, 0xff, 0xff, 0x07, 0xff, 0xff, 0xff, 0x8b, 0xf3, 0xff, 0xff,
  0xc9, 0xfa, 0xff, 0xff, 0x32, 0xfd, 0xff, 0xff, 0x69, 0xf9, 0xff, 0xff,
  0x03, 0x00, 0x00, 0x00, 0x35, 0xf9, 0xff, 0xff, 0x25, 0xff, 0xff, 0xff,
  0xb3, 0x00, 0x00, 0x00, 0xef, 0xf8, 0xff, 0xff, 0xf1, 0x06, 0x00, 0x00,
  0xf2, 0xfa, 0xff, 0xff, 0x41, 0xfa, 0xff, 0xff, 0x1a, 0xff, 0xff, 0xff,
  0xed, 0x07, 0x00, 0x00, 0xe6, 0xfa, 0xff, 0xff, 0x9c, 0x05, 0x00, 0x00,
  0x71, 0xf4, 0xff, 0xff, 0xd6, 0xf3, 0xff, 0xff, 0x04, 0x00, 0x00, 0x00,
  0x20, 0x01, 0x00, 0x00, 0xf5, 0x2b, 0x51, 0x22, 0xbd, 0xfd, 0xc7, 0x83,
  0x3d, 0x8d, 0x50, 0xc3, 0x8d, 0x79, 0x1b, 0xda, 0xfe, 0x81, 0x1d, 0xdf,
  0x7f, 0x9c, 0xec, 0x25, 0x69, 0xe6, 0x7f, 0xe1, 0x41, 0x81, 0x00, 0xf0,
  0xfe, 0x06, 0x1e, 0x7f, 0xe3, 0xba, 0x1e, 0xd6, 0x1e, 0x99, 0x2d, 0x2e,
  0xcd, 0x81, 0xfb, 0x22, 0xf8, 0x28, 0x65, 0xe8, 0x37, 0x81, 0x88, 0x07,
  0x6e, 0xe4, 0xc0, 0x32, 0x42, 0xb9, 0x81, 0x07, 0xd3, 0x01, 0x24, 0x1a,
  0x23, 0x81, 0x55, 0x7f, 0xf8, 0x21, 0xe7, 0xea, 0xe0, 0x1d, 0x5b, 0x1d,
  0x08, 0xc9, 0xde, 0x49, 0xc5, 0x0a, 0x81, 0xb1, 0x54, 0xdb, 0x75, 0xd5,
  0x70, 0xb1, 0xd0, 0xb3, 0xe4, 0x81, 0x65, 0x51, 0xf5, 0xe8, 0x1d, 0xed,
  0x07, 0xf1, 0x1d, 0xc6, 0x81, 0x3f, 0x46, 0x0b, 0x15, 0xd8, 0x15, 0xad,
  0xd8, 0xb1, 0x25, 0x30, 0x3d, 0xe6, 0x1d, 0xc6, 0x73, 0xc3, 0x13, 0xd1,
  0xe4, 0x27, 0xe5, 0x7b, 0x06, 0xce, 0x14, 0x77, 0x3d, 0x16, 0xab, 0xe5,
  0xfd, 0xde, 0xdc, 0x3c, 0x06, 0x22, 0xf0, 0xd5, 0x0f, 0x93, 0x56, 0x0a,
  0x7f, 0xeb, 0xb8, 0x22, 0x1a, 0x0c, 0x98, 0x2c, 0xcd, 0xdb, 0xad, 0xa5,
  0x26, 0xb2, 0x32, 0x74, 0x0f, 0x7f, 0xed, 0x0a, 0xa5, 0x05, 0x0d, 0x39,
  0x2b, 0xb4, 0x06, 0x16, 0x0e, 0xca, 0x17, 0x81, 0x4a, 0x24, 0x43, 0xa9,
  0x24, 0xf8, 0xd1, 0xe2, 0x81, 0xb5, 0x70, 0xd6, 0x81, 0x21, 0x25, 0x8d,
  0x7f, 0xb2, 0x09, 0x81, 0x98, 0x6c, 0x43, 0x45, 0x02, 0x01, 0x74, 0x81,
  0x97, 0xcd, 0xe8, 0x76, 0x26, 0x81, 0x40, 0x7f, 0x7f, 0xe3, 0x5b, 0x81,
  0xae, 0x10, 0xf7, 0x76, 0xd9, 0xed, 0x47, 0xe6, 0x1a, 0xd8, 0x81, 0xd8,
  0xb4, 0xaf, 0x81, 0x7d, 0x36, 0x1b, 0x7c, 0xd6, 0xf1, 0xa7, 0xac, 0x3c,
  0x60, 0xd7, 0xba, 0x68, 0x67, 0x3a, 0xb8, 0xfc, 0xa5, 0x9a, 0x81, 0xb2,
  0x38, 0xb6, 0x7f, 0x4b, 0x39, 0x19, 0xd0, 0x03, 0x8a, 0xd9, 0xd5, 0x7f,
  0x7f, 0xc3, 0x7f, 0xe3, 0x8f, 0x04, 0x0e, 0xaa, 0x71, 0xc0, 0x4f, 0xdb,
  0x3c, 0x37, 0xbe, 0xa0, 0x02, 0xf5, 0xff, 0xff, 0x04, 0x00, 0x00, 0x00,
  0x80, 0x00, 0x00, 0x00, 0x00, 0x00, 0x00, 0x00, 0x00, 0x00, 0x00, 0x00,
  0x00, 0x00, 0x00, 0x00, 0x00, 0x00, 0x00, 0x00, 0x00, 0x00, 0x00, 0x00,
  0x00, 0x00, 0x00, 0x00, 0x00, 0x00, 0x00, 0x00, 0x00, 0x00, 0x00, 0x00,
  0x00, 0x00, 0x00, 0x00, 0x00, 0x00, 0x00, 0x00, 0x00, 0x00, 0x00, 0x00,
  0x00, 0x00, 0x00, 0x00, 0x00, 0x00, 0x00, 0x00, 0x00, 0x00, 0x00, 0x00,
  0x00, 0x00, 0x00, 0x00, 0x00, 0x00, 0x00, 0x00, 0x00, 0x00, 0x00, 0x00,
  0x00, 0x00, 0x00, 0x00, 0x00, 0x00, 0x00, 0x00, 0x00, 0x00, 0x00, 0x00,
  0x00, 0x00, 0x00, 0x00, 0x00, 0x00, 0x00, 0x00, 0x00, 0x00, 0x00, 0x00,
  0x00, 0x00, 0x00, 0x00, 0x00, 0x00, 0x00, 0x00, 0x00, 0x00, 0x00, 0x00,
  0x00, 0x00, 0x00, 0x00, 0x00, 0x00, 0x00, 0x00, 0x00, 0x00, 0x00, 0x00,
  0x00, 0x00, 0x00, 0x00, 0x00, 0x00, 0x00, 0x00, 0x00, 0x00, 0x00, 0x00,
  0x8e, 0xf5, 0xff, 0xff, 0x04, 0x00, 0x00, 0x00, 0x00, 0x08, 0x00, 0x00,
  0x4f, 0x55, 0xc5, 0xfe, 0x0f, 0x33, 0x86, 0xf3, 0xdd, 0xf4, 0xeb, 0x46,
  0x49, 0xc3, 0x02, 0x88, 0x0f, 0xfe, 0x23, 0xc2, 0x44, 0x22, 0x7f, 0xcd,
  0x60, 0x4c, 0xdb, 0xe6, 0x56, 0xe2, 0xac, 0x56, 0xe3, 0xf9, 0x7f, 0xeb,
  0xdc, 0xd8, 0xd0, 0xf4, 0xff, 0x57, 0xd3, 0x1d, 0xfd, 0x55, 0x1b, 0x1d,
  0x33, 0x08, 0x19, 0x0b, 0xdc, 0xfb, 0xe1, 0x7e, 0x15, 0x10, 0x19, 0x43,
  0xbd, 0x25, 0x25, 0xdd, 0x7f, 0xff, 0x1c, 0xf6, 0x4d, 0x0b, 0xcd, 0x5d,
  0x9f, 0xfa, 0xb8, 0x3d, 0x3e, 0xc6, 0xb1, 0x92, 0xc7, 0x07, 0xa7, 0x5e,
  0x4f, 0x48, 0x63, 0x25, 0x9c, 0xfb, 0xdf, 0x33, 0x93, 0xbf, 0x4a, 0xe2,
  0xee, 0x67, 0x4a, 0x04, 0x0e, 0x38, 0x22, 0xfe, 0x96, 0x54, 0x33, 0xeb,
  0x0a, 0x58, 0x52, 0xc6, 0x39, 0x4d, 0xa8, 0x5b, 0xe1, 0x3c, 0xc6, 0xa2,
  0xaa, 0x62, 0x0d, 0xf8, 0x01, 0x39, 0xc4, 0x7f, 0x13, 0xc8, 0x02, 0x92,
  0x50, 0xd6, 0xd3, 0xe2, 0xe3, 0xed, 0x0a, 0x32, 0xe3, 0xa3, 0x19, 0x06,
  0xe1, 0xd0, 0xfa, 0x24, 0x0b, 0x7e, 0x06, 0x04, 0x04, 0x2d, 0x17, 0x81,
  0xe9, 0x3d, 0xf3, 0x2c, 0x12, 0xd6, 0xe1, 0x81, 0x43, 0xeb, 0xe8, 0x3a,
  0xdf, 0x1c, 0x08, 0x37, 0xf5, 0xdc, 0x00, 0xe1, 0xd1, 0xdd, 0xeb, 0x04,
  0x23, 0x6a, 0xe1, 0xe0, 0x14, 0x16, 0x27, 0xd2, 0xde, 0xf3, 0xef, 0x0c,
  0x12, 0xef, 0x11, 0xe1, 0x3e, 0xfc, 0x0c, 0x24, 0xf9, 0xff, 0xf2, 0x2c,
  0xe5, 0xb1, 0xdc, 0xe9, 0xec, 0xe0, 0x06, 0x36, 0x19, 0x7f, 0x19, 0x14,
  0x0a, 0x3b, 0x1d, 0xca, 0xe4, 0x2d, 0xf5, 0xea, 0xb8, 0x39, 0x53, 0xaf,
  0xc0, 0xd2, 0xd9, 0x53, 0x1a, 0x7f, 0xa9, 0xdb, 0xf9, 0x52, 0x9c, 0x0f,
  0x2f, 0xf8, 0x12, 0xd7, 0xae, 0x4d, 0x08, 0x7e, 0xfd, 0xfe, 0x31, 0x46,
  0xba, 0x4b, 0x03, 0x97, 0x05, 0x1f, 0x1d, 0x2d, 0x1e, 0x00, 0xd8, 0x02,
  0x17, 0xf8, 0xf4, 0x12, 0xe7, 0xdc, 0x20, 0xa9, 0xf6, 0x09, 0x07, 0xe5,
  0x2e, 0x31, 0x72, 0xeb, 0x16, 0x45, 0xa6, 0x37, 0x28, 0xc5, 0xc3, 0x7f,
  0x4d, 0x55, 0x02, 0x2d, 0x18, 0x18, 0xf8, 0xe6, 0xcc, 0x15, 0xea, 0x42,
  0x7f, 0xdd, 0xe6, 0xd8, 0x18, 0x6f, 0xbc, 0x4b, 0xe4, 0xf6, 0x14, 0xc4,
  0x50, 0xf2, 0xb4, 0x0b, 0x1f, 0x3c, 0xb4, 0xf8, 0x4b, 0x12, 0xb2, 0x48,
  0xfe, 0x10, 0x16, 0xfd, 0xe1, 0xf3, 0x0a, 0x6a, 0x35, 0x86, 0xeb, 0xef,
  0x02, 0x7f, 0xd9, 0x25, 0x19, 0xf5, 0xda, 0x87, 0xe6, 0xf8, 0xb2, 0x22,
  0x10, 0x09, 0xaf, 0x40, 0xf4, 0x18, 0x7f, 0xde, 0xdb, 0xee, 0xfd, 0x3a,
  0x06, 0x59, 0xfc, 0xda, 0x1b, 0x3e, 0x3c, 0x0a, 0x09, 0x2e, 0x11, 0xe9,
  0xf9, 0x37, 0xee, 0x40, 0x25, 0x0c, 0x40, 0xc4, 0xee, 0x74, 0x23, 0xf6,
  0xc7, 0xd3, 0x62, 0xfc, 0xfd, 0xde, 0xda, 0x1f, 0x13, 0x22, 0xd3, 0xdc,
  0xde, 0x7f, 0xee, 0x36, 0x5b, 0x01, 0x41, 0x18, 0xf0, 0x48, 0x0c, 0x5c,
  0x11, 0xe4, 0x0e, 0x44, 0xcd, 0x42, 0x3d, 0xc9, 0x15, 0x43, 0xc5, 0x2f,
  0x2d, 0x36, 0x9e, 0xd7, 0x05, 0x4b, 0xe9, 0x30, 0x48, 0xdc, 0x35, 0xb6,
  0xd5, 0x26, 0x04, 0xcd, 0x44, 0x35, 0x7f, 0xd8, 0x58, 0x75, 0xd8, 0xfe,
  0x59, 0x02, 0xad, 0x53, 0x16, 0x31, 0xe8, 0xc8, 0x7f, 0xfe, 0xdd, 0x20,
  0x06, 0xdd, 0xc6, 0x1e, 0xd8, 0xb1, 0x9a, 0x1d, 0xe8, 0x02, 0x2f, 0x27,
  0x05, 0x6e, 0x16, 0x17, 0x25, 0xf4, 0x29, 0xc4, 0xda, 0x34, 0x08, 0xe0,
  0x56, 0x72, 0xf8, 0x21, 0xf0, 0x4c, 0xb1, 0xf9, 0xa4, 0x24, 0xe2, 0x75,
  0x7a, 0x92, 0xf0, 0x9f, 0xd4, 0x5a, 0xd2, 0x4b, 0x10, 0xcd, 0x2b, 0xaa,
  0x6e, 0x2a, 0x81, 0x19, 0x23, 0x01, 0x90, 0x18, 0x18, 0xf9, 0x7f, 0xbb,
  0xef, 0xdd, 0x0f, 0x57, 0x1a, 0x3d, 0x09, 0xd7, 0xd3, 0x44, 0x28, 0x1e,
  0x06, 0x1c, 0xf1, 0x0e, 0xfa, 0x30, 0xdd, 0x36, 0x17, 0x0c, 0x23, 0xb4,
  0x24, 0x36, 0x04, 0x1a, 0x40, 0xde, 0xdf, 0x46, 0x05, 0xdd, 0x1b, 0x20,
  0xf7, 0xd7, 0xf8, 0x49, 0x2c, 0x9f, 0xd0, 0xf7, 0xd3, 0x5d, 0x22, 0x1f,
  0xf0, 0xe7, 0xf7, 0xda, 0xaf, 0xf0, 0x81, 0x00, 0xef, 0xcf, 0xa1, 0x56,
  0x7d, 0x6e, 0xd5, 0x3b, 0x17, 0x3e, 0xd8, 0xf7, 0xb1, 0xee, 0xe4, 0x3e,
  0x47, 0x81, 0xcb, 0xd8, 0x11, 0x7f, 0xb8, 0x57, 0x0a, 0xe5, 0x1a, 0xb5,
  0x2c, 0xf5, 0xbf, 0x1c, 0x40, 0xea, 0xac, 0x09, 0xe1, 0x03, 0x7b, 0xc7,
  0xed, 0xfd, 0xf2, 0x53, 0x18, 0x2f, 0xe8, 0x10, 0xf1, 0x28, 0xe0, 0xe6,
  0x2d, 0x13, 0x01, 0xe0, 0xd0, 0x38, 0xcc, 0x7f, 0x00, 0xe6, 0x0d, 0x21,
  0xef, 0x14, 0x0f, 0xc2, 0x58, 0x00, 0x81, 0xd1, 0xf6, 0x16, 0x1a, 0xf1,
  0x0c, 0xb3, 0x2d, 0x24, 0xed, 0xe9, 0xf2, 0x26, 0xc0, 0x2f, 0xce, 0x39,
  0xc6, 0xdd, 0xeb, 0xeb, 0x87, 0x09, 0x28, 0xc1, 0x33, 0xc3, 0xb3, 0xd8,
  0xfd, 0xd6, 0x0c, 0x50, 0x30, 0xbf, 0x10, 0xf3, 0x24, 0xbc, 0xf3, 0x34,
  0xc7, 0xdc, 0xd1, 0x11, 0x09, 0x45, 0xff, 0x1c, 0x0f, 0xf7, 0xfa, 0xdd,
  0x81, 0xe4, 0xb8, 0xe8, 0xbf, 0x9e, 0xde, 0x36, 0xb9, 0xf8, 0x70, 0xb7,
  0xce, 0xd8, 0xf4, 0x58, 0x02, 0x49, 0x96, 0x1f, 0xca, 0x52, 0xff, 0xf4,
  0x65, 0x05, 0x1a, 0xcb, 0xd0, 0x28, 0xc6, 0x7f, 0xef, 0xe8, 0xdc, 0x52,
  0xb3, 0x74, 0x2c, 0xcd, 0x2b, 0x10, 0xdc, 0x2e, 0x30, 0x49, 0xa6, 0x06,
  0x02, 0x59, 0x4f, 0xea, 0x45, 0x44, 0xcb, 0xbd, 0x02, 0x77, 0xdf, 0x6f,
  0x64, 0x36, 0xf9, 0xba, 0xbc, 0x23, 0x13, 0x17, 0x81, 0xf5, 0x48, 0xe5,
  0x01, 0x15, 0x51, 0xd3, 0x09, 0x00, 0x16, 0x35, 0x01, 0x15, 0xb9, 0xf1,
  0xd3, 0x07, 0x16, 0xd2, 0x42, 0x10, 0xff, 0xcb, 0xd5, 0x03, 0xf4, 0x7f,
  0xf7, 0xcd, 0xe9, 0x4e, 0xdf, 0x5a, 0x19, 0xce, 0x2c, 0x37, 0xc0, 0x15,
  0x0e, 0x20, 0xb3, 0xd0, 0xd2, 0x2b, 0xf9, 0x2f, 0x0e, 0xa3, 0x03, 0x82,
  0xde, 0x16, 0xf8, 0xd1, 0x63, 0x16, 0x7f, 0xb2, 0x53, 0x5f, 0xe7, 0x0b,
  0x3e, 0xd5, 0xbe, 0x61, 0xd8, 0x25, 0x31, 0xba, 0xf0, 0x04, 0x1e, 0x40,
  0xeb, 0x22, 0x81, 0xfe, 0xc4, 0x18, 0xea, 0x05, 0x08, 0x1c, 0x03, 0xd7,
  0xc7, 0x24, 0xf3, 0x74, 0x1f, 0xde, 0x14, 0x1c, 0xbe, 0x3d, 0xf6, 0xa4,
  0x32, 0x0c, 0xc5, 0xc6, 0x27, 0x34, 0x0a, 0xe7, 0xfa, 0xfb, 0x7f, 0xe9,
  0xde, 0xe9, 0xcb, 0xfc, 0xfd, 0xed, 0xf6, 0x8e, 0x0d, 0x1f, 0xea, 0x15,
  0xac, 0xf4, 0x1a, 0xef, 0xce, 0x1c, 0xbc, 0xf7, 0x53, 0xfc, 0x92, 0xd5,
  0x31, 0x03, 0x35, 0xf3, 0xfb, 0x81, 0x5f, 0xf1, 0xf2, 0xde, 0xae, 0xfc,
  0x07, 0x47, 0xeb, 0x14, 0xb8, 0xc2, 0xee, 0x13, 0xaf, 0xc8, 0x18, 0x98,
  0x85, 0xa8, 0xa8, 0xb6, 0x5e, 0x13, 0xc2, 0xf5, 0x01, 0x7f, 0x1f, 0xc3,
  0x0d, 0xeb, 0x64, 0xa0, 0xb0, 0xae, 0xcd, 0xf3, 0xb8, 0xfe, 0xeb, 0xbb,
  0x19, 0x54, 0xf2, 0x16, 0x89, 0xf6, 0x32, 0xbc, 0xc0, 0xda, 0xa0, 0xe4,
  0x20, 0x2e, 0x07, 0x0a, 0x22, 0x02, 0xbd, 0xd8, 0x1a, 0x0b, 0xf2, 0xe3,
  0xe7, 0xe0, 0x24, 0xa6, 0xdb, 0x0f, 0x1f, 0xd8, 0x3e, 0x3c, 0x7f, 0x05,
  0x33, 0x6e, 0xb5, 0x35, 0x2e, 0xa6, 0xcb, 0x7f, 0xf8, 0x03, 0x7f, 0xc9,
  0xda, 0xef, 0xea, 0x2d, 0x18, 0x52, 0xe5, 0x01, 0xf9, 0x1c, 0x1c, 0x01,
  0x11, 0x1b, 0x05, 0xd2, 0xdd, 0x28, 0xdc, 0x58, 0x0e, 0xd2, 0x28, 0xf7,
  0xef, 0x49, 0x2c, 0xe2, 0x71, 0x08, 0x81, 0xce, 0xee, 0x02, 0xdc, 0xb4,
  0xdf, 0xd5, 0x28, 0xe2, 0x12, 0xea, 0xe0, 0xdb, 0xd7, 0xdf, 0xc3, 0x13,
  0xdb, 0x06, 0xc0, 0xfa, 0xc5, 0xd3, 0x26, 0xa6, 0x10, 0x08, 0xd5, 0xdb,
  0x53, 0x74, 0xb0, 0x34, 0x09, 0x5e, 0x90, 0xc7, 0xb2, 0x46, 0xe6, 0x7f,
  0x70, 0x9e, 0xe8, 0xd0, 0xec, 0x65, 0xaa, 0x6e, 0xf9, 0x03, 0x08, 0xc2,
  0x69, 0xf3, 0x8f, 0x04, 0x54, 0x1c, 0xa2, 0x10, 0xee, 0x06, 0x21, 0xa7,
  0xf3, 0xf8, 0x17, 0x59, 0x41, 0x3b, 0xc5, 0x02, 0xc7, 0x26, 0xf2, 0x03,
  0x27, 0x13, 0x28, 0xd1, 0xdd, 0x32, 0xd3, 0x40, 0x06, 0xef, 0x1a, 0x09,
  0xdf, 0x7f, 0x28, 0x15, 0x2d, 0xda, 0x13, 0xaf, 0x6c, 0x03, 0x0d, 0x4b,
  0x19, 0x14, 0xc6, 0x7f, 0xe6, 0xcc, 0xca, 0x08, 0xde, 0xca, 0xfe, 0x1c,
  0x12, 0x77, 0x28, 0xd1, 0x0d, 0x48, 0x03, 0x14, 0xd9, 0x34, 0xe6, 0xfd,
  0x1f, 0xf0, 0x25, 0x22, 0xff, 0x02, 0xf8, 0xc5, 0xeb, 0xb8, 0x13, 0xeb,
  0xef, 0xe7, 0xfd, 0x14, 0xe6, 0x04, 0xdf, 0x1a, 0xcf, 0x0f, 0xfe, 0x0f,
  0x81, 0x0a, 0xfc, 0x01, 0x85, 0xd0, 0x9f, 0x29, 0x0e, 0x12, 0x81, 0xeb,
  0x34, 0xbe, 0x24, 0xd8, 0x02, 0xcb, 0x31, 0xcb, 0xfd, 0xdf, 0xe0, 0xea,
  0xc0, 0xf4, 0xed, 0xca, 0x06, 0xf4, 0xdb, 0x03, 0x82, 0xf8, 0xe5, 0xe2,
  0x8d, 0xf2, 0x0d, 0x09, 0x0b, 0xed, 0x37, 0xd5, 0xed, 0xf5, 0x21, 0x46,
  0x1e, 0x4e, 0xc2, 0xc8, 0x0d, 0xf9, 0xf8, 0xfe, 0x19, 0x41, 0x3b, 0xbf,
  0xee, 0x7f, 0xbb, 0x59, 0x20, 0x14, 0x3b, 0xd0, 0xba, 0x5f, 0x12, 0xec,
  0x40, 0x69, 0xab, 0x32, 0xe0, 0x56, 0x99, 0x1d, 0xb6, 0x02, 0xf6, 0x6a,
  0x56, 0x81, 0xea, 0xe8, 0x0d, 0x33, 0xb9, 0x0c, 0x22, 0xdf, 0x32, 0x96,
  0x4b, 0x22, 0x88, 0x0b, 0x3c, 0x06, 0x96, 0x05, 0xde, 0x48, 0x22, 0xb8,
  0x05, 0xd9, 0xfb, 0x22, 0x26, 0x35, 0xd6, 0xd0, 0xc1, 0x16, 0xd5, 0xde,
  0x44, 0x2e, 0x1b, 0xc4, 0xec, 0x5b, 0xc8, 0x26, 0x09, 0x0c, 0x24, 0xc0,
  0xdb, 0x7f, 0xf0, 0xe3, 0x1a, 0x16, 0xd6, 0xa7, 0x77, 0xe8, 0xec, 0xe7,
  0xe0, 0xff, 0xc9, 0x1e, 0xcb, 0xb8, 0x8d, 0x08, 0x10, 0xed, 0x40, 0x31,
  0x17, 0x6c, 0x05, 0x03, 0x0e, 0x04, 0x3e, 0x81, 0xdb, 0x52, 0x13, 0x05,
  0x0b, 0xcf, 0x7e, 0xda, 0xe2, 0xcd, 0x32, 0x7c, 0xdd, 0x1b, 0xb5, 0xd3,
  0x0f, 0x1f, 0xe3, 0x08, 0x1b, 0xf3, 0xf6, 0xdd, 0x20, 0x54, 0x07, 0x7f,
  0x2c, 0xf5, 0x32, 0xd4, 0xf3, 0x68, 0x41, 0x08, 0x5e, 0xff, 0xae, 0xae,
  0x01, 0x4e, 0xad, 0xe9, 0xe7, 0x7f, 0x00, 0x15, 0xff, 0x2b, 0x11, 0xd2,
  0x18, 0xf5, 0xea, 0x02, 0x08, 0xf0, 0x00, 0xeb, 0x27, 0x05, 0xfd, 0xff,
  0x5e, 0xfe, 0xeb, 0xc7, 0xfc, 0x03, 0xa5, 0xe3, 0x08, 0xf2, 0x14, 0x1b,
  0xf9, 0xc2, 0x49, 0xdc, 0xeb, 0xd8, 0xdd, 0x0c, 0xcb, 0xe5, 0xd1, 0x18,
  0xf8, 0x0f, 0xd9, 0x03, 0x81, 0x01, 0x13, 0xaf, 0xe9, 0x12, 0xf8, 0xe7,
  0x35, 0x26, 0xeb, 0xf8, 0xec, 0x2c, 0xac, 0xcf, 0x09, 0x1b, 0xf4, 0x09,
  0x05, 0xd9, 0x0d, 0x9c, 0xfa, 0xf1, 0x22, 0xdf, 0x48, 0x28, 0x7f, 0xdc,
  0x64, 0x4f, 0xfc, 0x04, 0x12, 0xb9, 0xae, 0x77, 0xf9, 0xf4, 0x4d, 0xdf,
  0xc4, 0xbf, 0xe9, 0x43, 0x18, 0x46, 0xa0, 0x11, 0xdf, 0x3f, 0xb0, 0xc6,
  0x15, 0x01, 0x58, 0x0d, 0xf2, 0x36, 0xf0, 0x60, 0xda, 0xe9, 0xf5, 0x25,
  0xc8, 0x7f, 0x25, 0xc6, 0x05, 0xe7, 0x2f, 0xb0, 0x33, 0xe5, 0xf7, 0x2a,
  0x01, 0x14, 0xf7, 0x0c, 0xce, 0xf3, 0x05, 0x10, 0x32, 0xf8, 0x06, 0x0a,
  0xfc, 0x47, 0xc4, 0x2e, 0x1d, 0x16, 0x2f, 0x81, 0xf7, 0x22, 0x0b, 0x1f,
  0xd4, 0xea, 0x5d, 0xbd, 0xe6, 0xc3, 0xda, 0x52, 0x3a, 0x12, 0xe5, 0x1f,
  0xd9, 0x03, 0xd5, 0x01, 0x54, 0x1b, 0x35, 0xe5, 0xf8, 0x70, 0xfe, 0x7f,
  0x57, 0xd7, 0x4a, 0x1d, 0xb6, 0x50, 0x35, 0x8d, 0x46, 0x57, 0x16, 0xff,
  0xe7, 0x30, 0xe3, 0x0b, 0xcf, 0x19, 0xd8, 0x7f, 0x56, 0xa2, 0xfb, 0x01,
  0xfd, 0x75, 0xbd, 0x57, 0xf7, 0xc5, 0x20, 0xda, 0x41, 0x06, 0xa9, 0x2d,
  0x19, 0xc6, 0xbf, 0x0c, 0xd6, 0xf9, 0x70, 0x04, 0xec, 0x02, 0xf6, 0x0c,
  0x26, 0x41, 0xcb, 0x0e, 0xdb, 0x2b, 0x4f, 0x19, 0x43, 0x29, 0x40, 0xd8,
  0x17, 0x27, 0x32, 0x76, 0xe8, 0x14, 0x40, 0xd5, 0xea, 0x7f, 0x5b, 0xcc,
  0xd2, 0xca, 0x7f, 0xaf, 0xeb, 0xe2, 0x0a, 0x20, 0xf9, 0xf4, 0xf2, 0x13,
  0xdb, 0x2a, 0x0f, 0xe6, 0x19, 0x22, 0xe8, 0x16, 0xd3, 0x2a, 0xe4, 0x7c,
  0x1e, 0xf5, 0x11, 0xdd, 0x03, 0x3c, 0x09, 0xc1, 0x5b, 0x48, 0xeb, 0x2a,
  0x00, 0x2f, 0xbb, 0xf0, 0xc2, 0x17, 0xf5, 0x4f, 0x6c, 0xbb, 0xf1, 0x0e,
  0xf5, 0x7f, 0xd0, 0x3f, 0xe2, 0xe6, 0x04, 0xcb, 0x22, 0x04, 0x8b, 0x25,
  0x33, 0x20, 0x8f, 0x0c, 0x4a, 0x69, 0xc4, 0x1a, 0xff, 0x24, 0xaf, 0xd1,
  0xad, 0x2a, 0x05, 0x6d, 0x6f, 0xb9, 0xc9, 0xbe, 0x11, 0x69, 0xd6, 0xff,
  0xf4, 0xd6, 0xf9, 0x81, 0x5d, 0x27, 0x81, 0x25, 0x35, 0x22, 0xb9, 0x04,
  0xce, 0x42, 0x53, 0xba, 0x46, 0xed, 0x16, 0x3d, 0x2c, 0x17, 0xe3, 0x2a,
  0xe0, 0xe6, 0xbf, 0xfc, 0x2c, 0xe2, 0x44, 0xde, 0xf9, 0x78, 0xe4, 0x3f,
  0x35, 0x1b, 0x08, 0xf3, 0xb7, 0x7f, 0x11, 0xdc, 0xcb, 0x1b, 0x17, 0xa1,
  0xd8, 0xcd, 0xf2, 0x46, 0x2b, 0x1e, 0xab, 0xf5, 0xe7, 0x10, 0xfd, 0xf7,
  0x40, 0x31, 0x13, 0xdb, 0x04, 0x60, 0xcb, 0x7f, 0xe3, 0x19, 0x0a, 0x0e,
  0xe1, 0x64, 0x1a, 0xc0, 0x21, 0xd7, 0xeb, 0x8e, 0x54, 0xfd, 0xe4, 0x3e,
  0xd1, 0xf9, 0xec, 0x2b, 0xdf, 0xe5, 0xd5, 0x09, 0xe8, 0xd4, 0xda, 0x1c,
  0x25, 0x7f, 0xfc, 0xd1, 0x12, 0x02, 0x16, 0x98, 0xe9, 0xd3, 0xed, 0x19,
  0xff, 0x34, 0x7f, 0xef, 0xe7, 0xe0, 0xda, 0x39, 0x15, 0xfb, 0x05, 0xf8,
  0xe8, 0x27, 0x1d, 0x03, 0x3b, 0xec, 0xec, 0xcc, 0xee, 0x43, 0x1b, 0x5d,
  0xf8, 0xda, 0xfd, 0xf9, 0x08, 0x30, 0x32, 0xe4, 0xde, 0x2b, 0x72, 0xc1,
  0xbc, 0xe5, 0x00, 0x59, 0x0c, 0x5f, 0x8d, 0xd2, 0xfe, 0x30, 0x0d, 0xe8,
  0x4a, 0xf8, 0x35, 0xe3, 0xc4, 0x21, 0x11, 0x7c, 0xdb, 0xef, 0x1e, 0x4f,
  0xe5, 0x7f, 0x20, 0xc8, 0x09, 0x3f, 0x25, 0xe1, 0xdf, 0xdd, 0x13, 0x28,
  0x1c, 0x4b, 0xd0, 0xd2, 0x0f, 0x71, 0x36, 0xf3, 0x33, 0x03, 0x38, 0xdc,
  0x04, 0x1c, 0x12, 0x20, 0xea, 0xf7, 0x37, 0x35, 0xf8, 0x7f, 0x2d, 0xf5,
  0xd5, 0xf2, 0x61, 0xf0, 0xd9, 0xeb, 0x05, 0x2b, 0x2e, 0x56, 0x05, 0x20,
  0xd8, 0x7f, 0xfe, 0xe1, 0x13, 0x08, 0x30, 0x22, 0xed, 0x07, 0x14, 0x72,
  0xdf, 0xf0, 0x02, 0x40, 0xd9, 0x4f, 0x23, 0xd2, 0xee, 0x35, 0x34, 0xe2,
  0x39, 0xfe, 0xf4, 0x25, 0x1a, 0xd3, 0xc6, 0x25, 0x59, 0x16, 0x0b, 0xfc,
  0xde, 0xf2, 0xb4, 0x34, 0xe8, 0x34, 0x1b, 0x3b, 0x9a, 0x49, 0x81, 0x19,
  0xa2, 0x09, 0x36, 0x09, 0x16, 0x19, 0x81, 0xed, 0x2b, 0xfa, 0x23, 0x11,
  0x05, 0xc8, 0x4f, 0xfb, 0x06, 0xdb, 0xf6, 0xfb, 0xf3, 0xf5, 0xf3, 0x0e,
  0xf7, 0x05, 0xe1, 0xf6, 0xc1, 0xd4, 0x26, 0xe0, 0xd7, 0xe2, 0x0f, 0xe1,
  0xe1, 0xf4, 0xbf, 0x0c, 0x0c, 0xd9, 0x07, 0xf7, 0x16, 0xd0, 0x2d, 0xdc,
  0xe4, 0x0c, 0x04, 0xf7, 0xfa, 0xf2, 0x29, 0xf9, 0x01, 0x0d, 0x03, 0xeb,
  0x81, 0xee, 0x0a, 0xc7, 0xb4, 0xdb, 0xd7, 0x0e, 0x9a, 0xfd, 0xff, 0xff,
  0x04, 0x00, 0x00, 0x00, 0x00, 0x01, 0x00, 0x00, 0x40, 0x04, 0x00, 0x00,
  0x50, 0xfd, 0xff, 0xff, 0x94, 0xfc, 0xff, 0xff, 0x10, 0xff, 0xff, 0xff,
  0x2c, 0x00, 0x00, 0x00, 0x76, 0x00, 0x00, 0x00, 0x2b, 0x00, 0x00, 0x00,
  0x73, 0xff, 0xff, 0xff, 0x67, 0x01, 0x00, 0x00, 0xc0, 0x04, 0x00, 0x00,
  0x4b, 0x02, 0x00, 0x00, 0x96, 0xff, 0xff, 0xff, 0x78, 0xff, 0xff, 0xff,
  0xf6, 0x01, 0x00, 0x00, 0xf6, 0xff, 0xff, 0xff, 0xfb, 0x05, 0x00, 0x00,
  0x35, 0x01, 0x00, 0x00, 0xf2, 0x00, 0x00, 0x00, 0xc8, 0x03, 0x00, 0x00,
  0xb2, 0xfe, 0xff, 0xff, 0x27, 0x03, 0x00, 0x00, 0xb3, 0xfe, 0xff, 0xff,
  0x58, 0xfe, 0xff, 0xff, 0x50, 0xff, 0xff, 0xff, 0xb5, 0xfd, 0xff, 0xff,
  0x41, 0x02, 0x00, 0x00, 0xdc, 0xfe, 0xff, 0xff, 0x09, 0x03, 0x00, 0x00,
  0xf4, 0x02, 0x00, 0x00, 0xca, 0x03, 0x00, 0x00, 0xa5, 0x02, 0x00, 0x00,
  0xab, 0xfe, 0xff, 0xff, 0x13, 0x02, 0x00, 0x00, 0xa9, 0x06, 0x00, 0x00,
  0x99, 0x00, 0x00, 0x00, 0x23, 0x00, 0x00, 0x00, 0x63, 0xff, 0xff, 0xff,
  0x1b, 0x00, 0x00, 0x00, 0xf9, 0xff, 0xff, 0xff, 0x9b, 0x04, 0x00, 0x00,
  0x67, 0x02, 0x00, 0x00, 0x58, 0x00, 0x00, 0x00, 0x53, 0xfd, 0xff, 0xff,
  0xc1, 0x04, 0x00, 0x00, 0x22, 0x01, 0x00, 0x00, 0x81, 0x01, 0x00, 0x00,
  0xef, 0xfe, 0xff, 0xff, 0x91, 0x00, 0x00, 0x00, 0xde, 0xfe, 0xff, 0xff,
  0xa1, 0x03, 0x00, 0x00, 0xec, 0xfe, 0xff, 0xff, 0x6b, 0xfe, 0xff, 0xff,
  0x55, 0x05, 0x00, 0x00, 0x91, 0x06, 0x00, 0x00, 0x23, 0x00, 0x00, 0x00,
  0xcd, 0x00, 0x00, 0x00, 0x97, 0x00, 0x00, 0x00, 0x18, 0xff, 0xff, 0xff,
  0x44, 0xfe, 0xff, 0xff, 0x6c, 0x00, 0x00, 0x00, 0x62, 0xfe, 0xff, 0xff,
  0xfa, 0xfe, 0xff, 0xff, 0x5d, 0x00, 0x00, 0x00, 0x61, 0xfe, 0xff, 0xff,
  0xa6, 0xfe, 0xff, 0xff, 0x04, 0x00, 0x00, 0x00, 0x80, 0x00, 0x00, 0x00,
  0x89, 0x15, 0xfe, 0x17, 0x49, 0x46, 0x53, 0xfd, 0xc7, 0xa1, 0xc8, 0x1e,
  0x27, 0xa7, 0x3c, 0xb2, 0x25, 0xbf, 0x9d, 0x11, 0xd8, 0xbe, 0x09, 0xe6,
  0x21, 0xab, 0x19, 0xc1, 0xe0, 0xaf, 0xb0, 0xf7, 0xd0, 0x81, 0x1a, 0x19,
  0xaa, 0xde, 0x22, 0xb3, 0x0b, 0x1d, 0xfb, 0xd4, 0xde, 0xa9, 0x1f, 0x16,
  0x18, 0xbf, 0x1a, 0x1a, 0x89, 0x98, 0x26, 0x16, 0x46, 0x12, 0x1d, 0x02,
  0x0f, 0x09, 0xe4, 0xc3, 0x7f, 0xed, 0x02, 0x05, 0xa6, 0x9a, 0xc3, 0xda,
  0x56, 0x4f, 0x59, 0xf9, 0xfb, 0x6a, 0xb5, 0x66, 0xe3, 0x4d, 0x64, 0xee,
  0xfa, 0x57, 0xd5, 0x13, 0xe8, 0x61, 0xf7, 0x32, 0x14, 0x4f, 0x70, 0xd0,
  0xf8, 0x6a, 0xdb, 0xe9, 0x6e, 0x21, 0xe9, 0x5f, 0xc8, 0xa7, 0xdc, 0x4b,
  0x0f, 0x47, 0xdc, 0xea, 0xfd, 0x37, 0xf0, 0xf5, 0x5a, 0x57, 0xde, 0xf4,
  0xac, 0xf0, 0xdb, 0xdb, 0xdd, 0x01, 0x0e, 0x34, 0x32, 0xff, 0xff, 0xff,
  0x04, 0x00, 0x00, 0x00, 0x08, 0x00, 0x00, 0x00, 0x8a, 0xfb, 0xff, 0xff,
  0xc3, 0x04, 0x00, 0x00, 0x46, 0xff, 0xff, 0xff, 0x04, 0x00, 0x00, 0x00,
  0x08, 0x00, 0x00, 0x00, 0x01, 0x00, 0x00, 0x00, 0x02, 0x00, 0x00, 0x00,
  0x48, 0xd9, 0xff, 0xff, 0x4c, 0xd9, 0xff, 0xff, 0x0f, 0x00, 0x00, 0x00,
  0x4d, 0x4c, 0x49, 0x52, 0x20, 0x43, 0x6f, 0x6e, 0x76, 0x65, 0x72, 0x74,
  0x65, 0x64, 0x2e, 0x00, 0x01, 0x00, 0x00, 0x00, 0x14, 0x00, 0x00, 0x00,
  0x00, 0x00, 0x0e, 0x00, 0x18, 0x00, 0x14, 0x00, 0x10, 0x00, 0x0c, 0x00,
  0x08, 0x00, 0x04, 0x00, 0x0e, 0x00, 0x00, 0x00, 0x14, 0x00, 0x00, 0x00,
  0x1c, 0x00, 0x00, 0x00, 0x70, 0x03, 0x00, 0x00, 0x74, 0x03, 0x00, 0x00,
  0x78, 0x03, 0x00, 0x00, 0x04, 0x00, 0x00, 0x00, 0x6d, 0x61, 0x69, 0x6e,
  0x00, 0x00, 0x00, 0x00, 0x0c, 0x00, 0x00, 0x00, 0x28, 0x03, 0x00, 0x00,
  0xe4, 0x02, 0x00, 0x00, 0x84, 0x02, 0x00, 0x00, 0x30, 0x02, 0x00, 0x00,
  0xd0, 0x01, 0x00, 0x00, 0x7c, 0x01, 0x00, 0x00, 0x38, 0x01, 0x00, 0x00,
  0xf4, 0x00, 0x00, 0x00, 0xac, 0x00, 0x00, 0x00, 0x78, 0x00, 0x00, 0x00,
  0x40, 0x00, 0x00, 0x00, 0x04, 0x00, 0x00, 0x00, 0x02, 0xfe, 0xff, 0xff,
  0x1c, 0x00, 0x00, 0x00, 0x00, 0x00, 0x00, 0x09, 0x1c, 0x00, 0x00, 0x00,
  0x20, 0x00, 0x00, 0x00, 0x07, 0x00, 0x00, 0x00, 0x00, 0x00, 0x06, 0x00,
  0x08, 0x00, 0x04, 0x00, 0x06, 0x00, 0x00, 0x00, 0x00, 0x00, 0x80, 0x3f,
  0x01, 0x00, 0x00, 0x00, 0x1b, 0x00, 0x00, 0x00, 0x01, 0x00, 0x00, 0x00,
  0x1a, 0x00, 0x00, 0x00, 0x8e, 0xfd, 0xff, 0xff, 0x14, 0x00, 0x00, 0x00,
  0x00, 0x00, 0x00, 0x08, 0x10, 0x00, 0x00, 0x00, 0x14, 0x00, 0x00, 0x00,
  0x06, 0x00, 0x00, 0x00, 0x24, 0xda, 0xff, 0xff, 0x01, 0x00, 0x00, 0x00,
  0x1a, 0x00, 0x00, 0x00, 0x03, 0x00, 0x00, 0x00, 0x19, 0x00, 0x00, 0x00,
  0x03, 0x00, 0x00, 0x00, 0x02, 0x00, 0x00, 0x00, 0xc2, 0xfd, 0xff, 0xff,
  0x14, 0x00, 0x00, 0x00, 0x00, 0x00, 0x00, 0x1b, 0x10, 0x00, 0x00, 0x00,
  0x14, 0x00, 0x00, 0x00, 0x05, 0x00, 0x00, 0x00, 0x58, 0xda, 0xff, 0xff,
  0x01, 0x00, 0x00, 0x00, 0x19, 0x00, 0x00, 0x00, 0x02, 0x00, 0x00, 0x00,
  0x18, 0x00, 0x00, 0x00, 0x01, 0x00, 0x00, 0x00, 0xf2, 0xfd, 0xff, 0xff,
  0x14, 0x00, 0x00, 0x00, 0x00, 0x00, 0x00, 0x01, 0x20, 0x00, 0x00, 0x00,
  0x24, 0x00, 0x00, 0x00, 0x02, 0x00, 0x00, 0x00, 0x3c, 0xff, 0xff, 0xff,
  0x00, 0x00, 0x00, 0x01, 0x01, 0x00, 0x00, 0x00, 0x01, 0x00, 0x00, 0x00,
  0x00, 0x00, 0x00, 0x01, 0x01, 0x00, 0x00, 0x00, 0x18, 0x00, 0x00, 0x00,
  0x03, 0x00, 0x00, 0x00, 0x17, 0x00, 0x00, 0x00, 0x05, 0x00, 0x00, 0x00,
  0x04, 0x00, 0x00, 0x00, 0x36, 0xfe, 0xff, 0xff, 0x14, 0x00, 0x00, 0x00,
  0x00, 0x00, 0x00, 0x02, 0x1c, 0x00, 0x00, 0x00, 0x20, 0x00, 0x00, 0x00,
  0x04, 0x00, 0x00, 0x00, 0x30, 0xff, 0xff, 0xff, 0x01, 0x00, 0x00, 0x00,
  0x01, 0x00, 0x00, 0x00, 0x01, 0x00, 0x00, 0x00, 0x01, 0x00, 0x00, 0x00,
  0x17, 0x00, 0x00, 0x00, 0x03, 0x00, 0x00, 0x00, 0x16, 0x00, 0x00, 0x00,
  0x07, 0x00, 0x00, 0x00, 0x06, 0x00, 0x00, 0x00, 0x76, 0xfe, 0xff, 0xff,
  0x14, 0x00, 0x00, 0x00, 0x00, 0x00, 0x00, 0x05, 0x24, 0x00, 0x00, 0x00,
  0x28, 0x00, 0x00, 0x00, 0x03, 0x00, 0x00, 0x00, 0x12, 0xff, 0xff, 0xff,
  0x02, 0x00, 0x00, 0x00, 0x02, 0x00, 0x00, 0x00, 0x02, 0x00, 0x00, 0x00,
  0x02, 0x00, 0x00, 0x00, 0x00, 0x00, 0x00, 0x01, 0x01, 0x00, 0x00, 0x00,
  0x16, 0x00, 0x00, 0x00, 0x01, 0x00, 0x00, 0x00, 0x15, 0x00, 0x00, 0x00,
  0xb6, 0xfe, 0xff, 0xff, 0x20, 0x00, 0x00, 0x00, 0x00, 0x00, 0x00, 0x01,
  0x2c, 0x00, 0x00, 0x00, 0x30, 0x00, 0x00, 0x00, 0x02, 0x00, 0x00, 0x00,
  0x0c, 0x00, 0x14, 0x00, 0x13, 0x00, 0x0c, 0x00, 0x08, 0x00, 0x07, 0x00,
  0x0c, 0x00, 0x00, 0x00, 0x00, 0x00, 0x00, 0x01, 0x01, 0x00, 0x00, 0x00,
  0x01, 0x00, 0x00, 0x00, 0x00, 0x00, 0x00, 0x01, 0x01, 0x00, 0x00, 0x00,
  0x15, 0x00, 0x00, 0x00, 0x03, 0x00, 0x00, 0x00, 0x14, 0x00, 0x00, 0x00,
  0x09, 0x00, 0x00, 0x00, 0x08, 0x00, 0x00, 0x00, 0x06, 0xff, 0xff, 0xff,
  0x20, 0x00, 0x00, 0x00, 0x00, 0x00, 0x00, 0x02, 0x28, 0x00, 0x00, 0x00,
  0x2c, 0x00, 0x00, 0x00, 0x04, 0x00, 0x00, 0x00, 0x0c, 0x00, 0x10, 0x00,
  0x00, 0x00, 0x0c, 0x00, 0x08, 0x00, 0x04, 0x00, 0x0c, 0x00, 0x00, 0x00,
  0x01, 0x00, 0x00, 0x00, 0x02, 0x00, 0x00, 0x00, 0x02, 0x00, 0x00, 0x00,
  0x01, 0x00, 0x00, 0x00, 0x14, 0x00, 0x00, 0x00, 0x03, 0x00, 0x00, 0x00,
  0x13, 0x00, 0x00, 0x00, 0x0b, 0x00, 0x00, 0x00, 0x0a, 0x00, 0x00, 0x00,
  0x00, 0x00, 0x0e, 0x00, 0x1a, 0x00, 0x14, 0x00, 0x10, 0x00, 0x0c, 0x00,
  0x0b, 0x00, 0x04, 0x00, 0x0e, 0x00, 0x00, 0x00, 0x24, 0x00, 0x00, 0x00,
  0x00, 0x00, 0x00, 0x05, 0x34, 0x00, 0x00, 0x00, 0x38, 0x00, 0x00, 0x00,
  0x03, 0x00, 0x00, 0x00, 0x00, 0x00, 0x0e, 0x00, 0x18, 0x00, 0x17, 0x00,
  0x10, 0x00, 0x0c, 0x00, 0x08, 0x00, 0x04, 0x00, 0x0e, 0x00, 0x00, 0x00,
  0x02, 0x00, 0x00, 0x00, 0x02, 0x00, 0x00, 0x00, 0x02, 0x00, 0x00, 0x00,
  0x02, 0x00, 0x00, 0x00, 0x00, 0x00, 0x00, 0x01, 0x01, 0x00, 0x00, 0x00,
  0x13, 0x00, 0x00, 0x00, 0x01, 0x00, 0x00, 0x00, 0x12, 0x00, 0x00, 0x00,
  0xb2, 0xff, 0xff, 0xff, 0x20, 0x00, 0x00, 0x00, 0x00, 0x00, 0x00, 0x01,
  0x28, 0x00, 0x00, 0x00, 0x2c, 0x00, 0x00, 0x00, 0x02, 0x00, 0x00, 0x00,
  0x0c, 0x00, 0x10, 0x00, 0x00, 0x00, 0x0c, 0x00, 0x08, 0x00, 0x07, 0x00,
  0x0c, 0x00, 0x00, 0x00, 0x00, 0x00, 0x00, 0x01, 0x02, 0x00, 0x00, 0x00,
  0x02, 0x00, 0x00, 0x00, 0x01, 0x00, 0x00, 0x00, 0x12, 0x00, 0x00, 0x00,
  0x03, 0x00, 0x00, 0x00, 0x11, 0x00, 0x00, 0x00, 0x0d, 0x00, 0x00, 0x00,
  0x0c, 0x00, 0x00, 0x00, 0x00, 0x00, 0x0e, 0x00, 0x18, 0x00, 0x14, 0x00,
  0x10, 0x00, 0x0c, 0x00, 0x0b, 0x00, 0x04, 0x00, 0x0e, 0x00, 0x00, 0x00,
  0x14, 0x00, 0x00, 0x00, 0x00, 0x00, 0x00, 0x0b, 0x10, 0x00, 0x00, 0x00,
  0x14, 0x00, 0x00, 0x00, 0x01, 0x00, 0x00, 0x00, 0xa4, 0xdc, 0xff, 0xff,
  0x01, 0x00, 0x00, 0x00, 0x11, 0x00, 0x00, 0x00, 0x02, 0x00, 0x00, 0x00,
  0x10, 0x00, 0x00, 0x00, 0x0e, 0x00, 0x00, 0x00, 0x00, 0x00, 0x0e, 0x00,
  0x14, 0x00, 0x00, 0x00, 0x10, 0x00, 0x0c, 0x00, 0x0b, 0x00, 0x04, 0x00,
  0x0e, 0x00, 0x00, 0x00, 0x10, 0x00, 0x00, 0x00, 0x00, 0x00, 0x00, 0x15,
  0x0c, 0x00, 0x00, 0x00, 0x10, 0x00, 0x00, 0x00, 0xe0, 0xdc, 0xff, 0xff,
  0x01, 0x00, 0x00, 0x00, 0x10, 0x00, 0x00, 0x00, 0x02, 0x00, 0x00, 0x00,
  0x00, 0x00, 0x00, 0x00, 0x0f, 0x00, 0x00, 0x00, 0x01, 0x00, 0x00, 0x00,
  0x1b, 0x00, 0x00, 0x00, 0x01, 0x00, 0x00, 0x00, 0x00, 0x00, 0x00, 0x00,
  0x1c, 0x00, 0x00, 0x00, 0x74, 0x23, 0x00, 0x00, 0xd4, 0x22, 0x00, 0x00,
  0x30, 0x22, 0x00, 0x00, 0x9c, 0x21, 0x00, 0x00, 0x58, 0x1d, 0x00, 0x00,
  0xc4, 0x19, 0x00, 0x00, 0xf0, 0x17, 0x00, 0x00, 0xb4, 0x15, 0x00, 0x00,
  0xe0, 0x12, 0x00, 0x00, 0xcc, 0x10, 0x00, 0x00, 0xb8, 0x0f, 0x00, 0x00,
  0x58, 0x0e, 0x00, 0x00, 0x88, 0x0c, 0x00, 0x00, 0x44, 0x0b, 0x00, 0x00,
  0xc0, 0x0a, 0x00, 0x00, 0x3c, 0x0a, 0x00, 0x00, 0x98, 0x09, 0x00, 0x00,
  0xf4, 0x08, 0x00, 0x00, 0xb0, 0x07, 0x00, 0x00, 0x04, 0x07, 0x00, 0x00,
  0x40, 0x06, 0x00, 0x00, 0xd4, 0x04, 0x00, 0x00, 0x20, 0x04, 0x00, 0x00,
  0x5c, 0x03, 0x00, 0x00, 0xe8, 0x01, 0x00, 0x00, 0x44, 0x01, 0x00, 0x00,
  0x80, 0x00, 0x00, 0x00, 0x04, 0x00, 0x00, 0x00, 0x12, 0xdd, 0xff, 0xff,
  0x00, 0x00, 0x00, 0x01, 0x18, 0x00, 0x00, 0x00, 0x20, 0x00, 0x00, 0x00,
  0x3c, 0x00, 0x00, 0x00, 0x1c, 0x00, 0x00, 0x00, 0x00, 0x00, 0x00, 0x09,
  0x50, 0x00, 0x00, 0x00, 0x02, 0x00, 0x00, 0x00, 0xff, 0xff, 0xff, 0xff,
  0x02, 0x00, 0x00, 0x00, 0xf4, 0xdc, 0xff, 0xff, 0x08, 0x00, 0x00, 0x00,
  0x10, 0x00, 0x00, 0x00, 0x01, 0x00, 0x00, 0x00, 0x80, 0xff, 0xff, 0xff,
  0xff, 0xff, 0xff, 0xff, 0x01, 0x00, 0x00, 0x00, 0x00, 0x00, 0x80, 0x3b,
  0x1b, 0x00, 0x00, 0x00, 0x53, 0x74, 0x61, 0x74, 0x65, 0x66, 0x75, 0x6c,
  0x50, 0x61, 0x72, 0x74, 0x69, 0x74, 0x69, 0x6f, 0x6e, 0x65, 0x64, 0x43,
  0x61, 0x6c, 0x6c, 0x5f, 0x31, 0x3a, 0x30, 0x00, 0x02, 0x00, 0x00, 0x00,
  0x01, 0x00, 0x00, 0x00, 0x02, 0x00, 0x00, 0x00, 0x8a, 0xdd, 0xff, 0xff,
  0x00, 0x00, 0x00, 0x01, 0x18, 0x00, 0x00, 0x00, 0x20, 0x00, 0x00, 0x00,
  0x3c, 0x00, 0x00, 0x00, 0x1b, 0x00, 0x00, 0x00, 0x00, 0x00, 0x00, 0x09,
  0x98, 0x00, 0x00, 0x00, 0x02, 0x00, 0x00, 0x00, 0xff, 0xff, 0xff, 0xff,
  0x02, 0x00, 0x00, 0x00, 0x6c, 0xdd, 0xff, 0xff, 0x08, 0x00, 0x00, 0x00,
  0x10, 0x00, 0x00, 0x00, 0x01, 0x00, 0x00, 0x00, 0x02, 0x00, 0x00, 0x00,
  0x00, 0x00, 0x00, 0x00, 0x01, 0x00, 0x00, 0x00, 0x05, 0x65, 0xd1, 0x3d,
  0x62, 0x00, 0x00, 0x00, 0x65, 0x61, 0x67, 0x6c, 0x65, 0x65, 0x79, 0x65,
  0x5f, 0x75, 0x6c, 0x74, 0x72, 0x61, 0x74, 0x69, 0x6e, 0x79, 0x5f, 0x67,
  0x65, 0x6f, 0x6d, 0x65, 0x74, 0x72, 0x79, 0x5f, 0x61, 0x75, 0x67, 0x5f,
  0x31, 0x2f, 0x64, 0x65, 0x6e, 0x73, 0x65, 0x5f, 0x31, 0x2f, 0x4d, 0x61,
  0x74, 0x4d, 0x75, 0x6c, 0x3b, 0x65, 0x61, 0x67, 0x6c, 0x65, 0x65, 0x79,
  0x65, 0x5f, 0x75, 0x6c, 0x74, 0x72, 0x61, 0x74, 0x69, 0x6e, 0x79, 0x5f,
  0x67, 0x65, 0x6f, 0x6d, 0x65, 0x74, 0x72, 0x79, 0x5f, 0x61, 0x75, 0x67,
  0x5f, 0x31, 0x2f, 0x64, 0x65, 0x6e, 0x73, 0x65, 0x5f, 0x31, 0x2f, 0x42,
  0x69, 0x61, 0x73, 0x41, 0x64, 0x64, 0x00, 0x00, 0x02, 0x00, 0x00, 0x00,
  0x01, 0x00, 0x00, 0x00, 0x02, 0x00, 0x00, 0x00, 0x4a, 0xde, 0xff, 0xff,
  0x00, 0x00, 0x00, 0x01, 0x18, 0x00, 0x00, 0x00, 0x20, 0x00, 0x00, 0x00,
  0x3c, 0x00, 0x00, 0x00, 0x1a, 0x00, 0x00, 0x00, 0x00, 0x00, 0x00, 0x09,
  0x78, 0x00, 0x00, 0x00, 0x02, 0x00, 0x00, 0x00, 0xff, 0xff, 0xff, 0xff,
  0x40, 0x00, 0x00, 0x00, 0x2c, 0xde, 0xff, 0xff, 0x08, 0x00, 0x00, 0x00,
  0x10, 0x00, 0x00, 0x00, 0x01, 0x00, 0x00, 0x00, 0x80, 0xff, 0xff, 0xff,
  0xff, 0xff, 0xff, 0xff, 0x01, 0x00, 0x00, 0x00, 0xb9, 0xd3, 0xbe, 0x3b,
  0x41, 0x00, 0x00, 0x00, 0x65, 0x61, 0x67, 0x6c, 0x65, 0x65, 0x79, 0x65,
  0x5f, 0x75, 0x6c, 0x74, 0x72, 0x61, 0x74, 0x69, 0x6e, 0x79, 0x5f, 0x67,
  0x65, 0x6f, 0x6d, 0x65, 0x74, 0x72, 0x79, 0x5f, 0x61, 0x75, 0x67, 0x5f,
  0x31, 0x2f, 0x67, 0x6c, 0x6f, 0x62, 0x61, 0x6c, 0x5f, 0x61, 0x76, 0x65,
  0x72, 0x61, 0x67, 0x65, 0x5f, 0x70, 0x6f, 0x6f, 0x6c, 0x69, 0x6e, 0x67,
  0x32, 0x64, 0x5f, 0x31, 0x2f, 0x4d, 0x65, 0x61, 0x6e, 0x00, 0x00, 0x00,
  0x02, 0x00, 0x00, 0x00, 0x01, 0x00, 0x00, 0x00, 0x40, 0x00, 0x00, 0x00,
  0xea, 0xde, 0xff, 0xff, 0x00, 0x00, 0x00, 0x01, 0x18, 0x00, 0x00, 0x00,
  0x28, 0x00, 0x00, 0x00, 0x44, 0x00, 0x00, 0x00, 0x19, 0x00, 0x00, 0x00,
  0x00, 0x00, 0x00, 0x09, 0x40, 0x01, 0x00, 0x00, 0x04, 0x00, 0x00, 0x00,
  0xff, 0xff, 0xff, 0xff, 0x03, 0x00, 0x00, 0x00, 0x03, 0x00, 0x00, 0x00,
  0x40, 0x00, 0x00, 0x00, 0xd4, 0xde, 0xff, 0xff, 0x08, 0x00, 0x00, 0x00,
  0x10, 0x00, 0x00, 0x00, 0x01, 0x00, 0x00, 0x00, 0x80, 0xff, 0xff, 0xff,
  0xff, 0xff, 0xff, 0xff, 0x01, 0x00, 0x00, 0x00, 0x95, 0x1b, 0x91, 0x3c,
  0x02, 0x01, 0x00, 0x00, 0x65, 0x61, 0x67, 0x6c, 0x65, 0x65, 0x79, 0x65,
  0x5f, 0x75, 0x6c, 0x74, 0x72, 0x61, 0x74, 0x69, 0x6e, 0x79, 0x5f, 0x67,
  0x65, 0x6f, 0x6d, 0x65, 0x74, 0x72, 0x79, 0x5f, 0x61, 0x75, 0x67, 0x5f,
  0x31, 0x2f, 0x73, 0x65, 0x70, 0x61, 0x72, 0x61, 0x62, 0x6c, 0x65, 0x5f,
  0x63, 0x6f, 0x6e, 0x76, 0x32, 0x64, 0x5f, 0x31, 0x5f, 0x32, 0x2f, 0x52,
  0x65, 0x6c, 0x75, 0x3b, 0x65, 0x61, 0x67, 0x6c, 0x65, 0x65, 0x79, 0x65,
  0x5f, 0x75, 0x6c, 0x74, 0x72, 0x61, 0x74, 0x69, 0x6e, 0x79, 0x5f, 0x67,
  0x65, 0x6f, 0x6d, 0x65, 0x74, 0x72, 0x79, 0x5f, 0x61, 0x75, 0x67, 0x5f,
  0x31, 0x2f, 0x73, 0x65, 0x70, 0x61, 0x72, 0x61, 0x62, 0x6c, 0x65, 0x5f,
  0x63, 0x6f, 0x6e, 0x76, 0x32, 0x64, 0x5f, 0x31, 0x5f, 0x32, 0x2f, 0x42,
  0x69, 0x61, 0x73, 0x41, 0x64, 0x64, 0x3b, 0x65, 0x61, 0x67, 0x6c, 0x65,
  0x65, 0x79, 0x65, 0x5f, 0x75, 0x6c, 0x74, 0x72, 0x61, 0x74, 0x69, 0x6e,
  0x79, 0x5f, 0x67, 0x65, 0x6f, 0x6d, 0x65, 0x74, 0x72, 0x79, 0x5f, 0x61,
  0x75, 0x67, 0x5f, 0x31, 0x2f, 0x73, 0x65, 0x70, 0x61, 0x72, 0x61, 0x62,
  0x6c, 0x65, 0x5f, 0x63, 0x6f, 0x6e, 0x76, 0x32, 0x64, 0x5f, 0x31, 0x5f,
  0x32, 0x2f, 0x73, 0x65, 0x70, 0x61, 0x72, 0x61, 0x62, 0x6c, 0x65, 0x5f,
  0x63, 0x6f, 0x6e, 0x76, 0x32, 0x64, 0x3b, 0x65, 0x61, 0x67, 0x6c, 0x65,
  0x65, 0x79, 0x65, 0x5f, 0x75, 0x6c, 0x74, 0x72, 0x61, 0x74, 0x69, 0x6e,
  0x79, 0x5f, 0x67, 0x65, 0x6f, 0x6d, 0x65, 0x74, 0x72, 0x79, 0x5f, 0x61,
  0x75, 0x67, 0x5f, 0x31, 0x2f, 0x73, 0x65, 0x70, 0x61, 0x72, 0x61, 0x62,
  0x6c, 0x65, 0x5f, 0x63, 0x6f, 0x6e, 0x76, 0x32, 0x64, 0x5f, 0x31, 0x5f,
  0x32, 0x2f, 0x53, 0x71, 0x75, 0x65, 0x65, 0x7a, 0x65, 0x31, 0x00, 0x00,
  0x04, 0x00, 0x00, 0x00, 0x01, 0x00, 0x00, 0x00, 0x03, 0x00, 0x00, 0x00,
  0x03, 0x00, 0x00, 0x00, 0x40, 0x00, 0x00, 0x00, 0x5a, 0xe0, 0xff, 0xff,
  0x00, 0x00, 0x00, 0x01, 0x18, 0x00, 0x00, 0x00, 0x28, 0x00, 0x00, 0x00,
  0x44, 0x00, 0x00, 0x00, 0x18, 0x00, 0x00, 0x00, 0x00, 0x00, 0x00, 0x09,
  0x90, 0x00, 0x00, 0x00, 0x04, 0x00, 0x00, 0x00, 0xff, 0xff, 0xff, 0xff,
  0x03, 0x00, 0x00, 0x00, 0x03, 0x00, 0x00, 0x00, 0x20, 0x00, 0x00, 0x00,
  0x44, 0xe0, 0xff, 0xff, 0x08, 0x00, 0x00, 0x00, 0x10, 0x00, 0x00, 0x00,
  0x01, 0x00, 0x00, 0x00, 0x27, 0x00, 0x00, 0x00, 0x00, 0x00, 0x00, 0x00,
  0x01, 0x00, 0x00, 0x00, 0xa0, 0x5d, 0x1c, 0x3d, 0x52, 0x00, 0x00, 0x00,
  0x65, 0x61, 0x67, 0x6c, 0x65, 0x65, 0x79, 0x65, 0x5f, 0x75, 0x6c, 0x74,
  0x72, 0x61, 0x74, 0x69, 0x6e, 0x79, 0x5f, 0x67, 0x65, 0x6f, 0x6d, 0x65,
  0x74, 0x72, 0x79, 0x5f, 0x61, 0x75, 0x67, 0x5f, 0x31, 0x2f, 0x73, 0x65,
  0x70, 0x61, 0x72, 0x61, 0x62, 0x6c, 0x65, 0x5f, 0x63, 0x6f, 0x6e, 0x76,
  0x32, 0x64, 0x5f, 0x31, 0x5f, 0x32, 0x2f, 0x73, 0x65, 0x70, 0x61, 0x72,
  0x61, 0x62, 0x6c, 0x65, 0x5f, 0x63, 0x6f, 0x6e, 0x76, 0x32, 0x64, 0x2f,
  0x64, 0x65, 0x70, 0x74, 0x68, 0x77, 0x69, 0x73, 0x65, 0x31, 0x00, 0x00,
  0x04, 0x00, 0x00, 0x00, 0x01, 0x00, 0x00, 0x00, 0x03, 0x00, 0x00, 0x00,
  0x03, 0x00, 0x00, 0x00, 0x20, 0x00, 0x00, 0x00, 0x1a, 0xe1, 0xff, 0xff,
  0x00, 0x00, 0x00, 0x01, 0x18, 0x00, 0x00, 0x00, 0x28, 0x00, 0x00, 0x00,
  0x48, 0x00, 0x00, 0x00, 0x17, 0x00, 0x00, 0x00, 0x00, 0x00, 0x00, 0x09,
  0x80, 0x00, 0x00, 0x00, 0x04, 0x00, 0x00, 0x00, 0xff, 0xff, 0xff, 0xff,
  0x03, 0x00, 0x00, 0x00, 0x03, 0x00, 0x00, 0x00, 0x20, 0x00, 0x00, 0x00,
  0x04, 0xe1, 0xff, 0xff, 0x08, 0x00, 0x00, 0x00, 0x14, 0x00, 0x00, 0x00,
  0x01, 0x00, 0x00, 0x00, 0x80, 0xff, 0xff, 0xff, 0xff, 0xff, 0xff, 0xff,
  0x00, 0x00, 0x00, 0x00, 0x01, 0x00, 0x00, 0x00, 0x19, 0xcb, 0xa9, 0x3c,
  0x3d, 0x00, 0x00, 0x00, 0x65, 0x61, 0x67, 0x6c, 0x65, 0x65, 0x79, 0x65,
  0x5f, 0x75, 0x6c, 0x74, 0x72, 0x61, 0x74, 0x69, 0x6e, 0x79, 0x5f, 0x67,
  0x65, 0x6f, 0x6d, 0x65, 0x74, 0x72, 0x79, 0x5f, 0x61, 0x75, 0x67, 0x5f,
  0x31, 0x2f, 0x6d, 0x61, 0x78, 0x5f, 0x70, 0x6f, 0x6f, 0x6c, 0x69, 0x6e,
  0x67, 0x32, 0x64, 0x5f, 0x31, 0x5f, 0x32, 0x2f, 0x4d, 0x61, 0x78, 0x50,
  0x6f, 0x6f, 0x6c, 0x32, 0x64, 0x00, 0x00, 0x00, 0x04, 0x00, 0x00, 0x00,
  0x01, 0x00, 0x00, 0x00, 0x03, 0x00, 0x00, 0x00, 0x03, 0x00, 0x00, 0x00,
  0x20, 0x00, 0x00, 0x00, 0xca, 0xe1, 0xff, 0xff, 0x00, 0x00, 0x00, 0x01,
  0x18, 0x00, 0x00, 0x00, 0x28, 0x00, 0x00, 0x00, 0x44, 0x00, 0x00, 0x00,
  0x16, 0x00, 0x00, 0x00, 0x00, 0x00, 0x00, 0x09, 0x38, 0x01, 0x00, 0x00,
  0x04, 0x00, 0x00, 0x00, 0xff, 0xff, 0xff, 0xff, 0x06, 0x00, 0x00, 0x00,
  0x06, 0x00, 0x00, 0x00, 0x20, 0x00, 0x00, 0x00, 0xb4, 0xe1, 0xff, 0xff,
  0x08, 0x00, 0x00, 0x00, 0x10, 0x00, 0x00, 0x00, 0x01, 0x00, 0x00, 0x00,
  0x80, 0xff, 0xff, 0xff, 0xff, 0xff, 0xff, 0xff, 0x01, 0x00, 0x00, 0x00,
  0x19, 0xcb, 0xa9, 0x3c, 0xfa, 0x00, 0x00, 0x00, 0x65, 0x61, 0x67, 0x6c,
  0x65, 0x65, 0x79, 0x65, 0x5f, 0x75, 0x6c, 0x74, 0x72, 0x61, 0x74, 0x69,
  0x6e, 0x79, 0x5f, 0x67, 0x65, 0x6f, 0x6d, 0x65, 0x74, 0x72, 0x79, 0x5f,
  0x61, 0x75, 0x67, 0x5f, 0x31, 0x2f, 0x73, 0x65, 0x70, 0x61, 0x72, 0x61,
  0x62, 0x6c, 0x65, 0x5f, 0x63, 0x6f, 0x6e, 0x76, 0x32, 0x64, 0x5f, 0x31,
  0x2f, 0x52, 0x65, 0x6c, 0x75, 0x3b, 0x65, 0x61, 0x67, 0x6c, 0x65, 0x65,
  0x79, 0x65, 0x5f, 0x75, 0x6c, 0x74, 0x72, 0x61, 0x74, 0x69, 0x6e, 0x79,
  0x5f, 0x67, 0x65, 0x6f, 0x6d, 0x65, 0x74, 0x72, 0x79, 0x5f, 0x61, 0x75,
  0x67, 0x5f, 0x31, 0x2f, 0x73, 0x65, 0x70, 0x61, 0x72, 0x61, 0x62, 0x6c,
  0x65, 0x5f, 0x63, 0x6f, 0x6e, 0x76, 0x32, 0x64, 0x5f, 0x31, 0x2f, 0x42,
  0x69, 0x61, 0x73, 0x41, 0x64, 0x64, 0x3b, 0x65, 0x61, 0x67, 0x6c, 0x65,
  0x65, 0x79, 0x65, 0x5f, 0x75, 0x6c, 0x74, 0x72, 0x61, 0x74, 0x69, 0x6e,
  0x79, 0x5f, 0x67, 0x65, 0x6f, 0x6d, 0x65, 0x74, 0x72, 0x79, 0x5f, 0x61,
  0x75, 0x67, 0x5f, 0x31, 0x2f, 0x73, 0x65, 0x70, 0x61, 0x72, 0x61, 0x62,
  0x6c, 0x65, 0x5f, 0x63, 0x6f, 0x6e, 0x76, 0x32, 0x64, 0x5f, 0x31, 0x2f,
  0x73, 0x65, 0x70, 0x61, 0x72, 0x61, 0x62, 0x6c, 0x65, 0x5f, 0x63, 0x6f,
  0x6e, 0x76, 0x32, 0x64, 0x3b, 0x65, 0x61, 0x67, 0x6c, 0x65, 0x65, 0x79,
  0x65, 0x5f, 0x75, 0x6c, 0x74, 0x72, 0x61, 0x74, 0x69, 0x6e, 0x79, 0x5f,
  0x67, 0x65, 0x6f, 0x6d, 0x65, 0x74, 0x72, 0x79, 0x5f, 0x61, 0x75, 0x67,
  0x5f, 0x31, 0x2f, 0x73, 0x65, 0x70, 0x61, 0x72, 0x61, 0x62, 0x6c, 0x65,
  0x5f, 0x63, 0x6f, 0x6e, 0x76, 0x32, 0x64, 0x5f, 0x31, 0x2f, 0x53, 0x71,
  0x75, 0x65, 0x65, 0x7a, 0x65, 0x31, 0x00, 0x00, 0x04, 0x00, 0x00, 0x00,
  0x01, 0x00, 0x00, 0x00, 0x06, 0x00, 0x00, 0x00, 0x06, 0x00, 0x00, 0x00,
  0x20, 0x00, 0x00, 0x00, 0x32, 0xe3, 0xff, 0xff, 0x00, 0x00, 0x00, 0x01,
  0x18, 0x00, 0x00, 0x00, 0x28, 0x00, 0x00, 0x00, 0x44, 0x00, 0x00, 0x00,
  0x15, 0x00, 0x00, 0x00, 0x00, 0x00, 0x00, 0x09, 0x90, 0x00, 0x00, 0x00,
  0x04, 0x00, 0x00, 0x00, 0xff, 0xff, 0xff, 0xff, 0x06, 0x00, 0x00, 0x00,
  0x06, 0x00, 0x00, 0x00, 0x10, 0x00, 0x00, 0x00, 0x1c, 0xe3, 0xff, 0xff,
  0x08, 0x00, 0x00, 0x00, 0x10, 0x00, 0x00, 0x00, 0x01, 0x00, 0x00, 0x00,
  0x04, 0x00, 0x00, 0x00, 0x00, 0x00, 0x00, 0x00, 0x01, 0x00, 0x00, 0x00,
  0x64, 0x37, 0xd2, 0x3c, 0x50, 0x00, 0x00, 0x00, 0x65, 0x61, 0x67, 0x6c,
  0x65, 0x65, 0x79, 0x65, 0x5f, 0x75, 0x6c, 0x74, 0x72, 0x61, 0x74, 0x69,
  0x6e, 0x79, 0x5f, 0x67, 0x65, 0x6f, 0x6d, 0x65, 0x74, 0x72, 0x79, 0x5f,
  0x61, 0x75, 0x67, 0x5f, 0x31, 0x2f, 0x73, 0x65, 0x70, 0x61, 0x72, 0x61,
  0x62, 0x6c, 0x65, 0x5f, 0x63, 0x6f, 0x6e, 0x76, 0x32, 0x64, 0x5f, 0x31,
  0x2f, 0x73, 0x65, 0x70, 0x61, 0x72, 0x61, 0x62, 0x6c, 0x65, 0x5f, 0x63,
  0x6f, 0x6e, 0x76, 0x32, 0x64, 0x2f, 0x64, 0x65, 0x70, 0x74, 0x68, 0x77,
  0x69, 0x73, 0x65, 0x31, 0x00, 0x00, 0x00, 0x00, 0x04, 0x00, 0x00, 0x00,
  0x01, 0x00, 0x00, 0x00, 0x06, 0x00, 0x00, 0x00, 0x06, 0x00, 0x00, 0x00,
  0x10, 0x00, 0x00, 0x00, 0xf2, 0xe3, 0xff, 0xff, 0x00, 0x00, 0x00, 0x01,
  0x18, 0x00, 0x00, 0x00, 0x28, 0x00, 0x00, 0x00, 0x44, 0x00, 0x00, 0x00,
  0x14, 0x00, 0x00, 0x00, 0x00, 0x00, 0x00, 0x09, 0x78, 0x00, 0x00, 0x00,
  0x04, 0x00, 0x00, 0x00, 0xff, 0xff, 0xff, 0xff, 0x0c, 0x00, 0x00, 0x00,
  0x0c, 0x00, 0x00, 0x00, 0x10, 0x00, 0x00, 0x00, 0xdc, 0xe3, 0xff, 0xff,
  0x08, 0x00, 0x00, 0x00, 0x10, 0x00, 0x00, 0x00, 0x01, 0x00, 0x00, 0x00,
  0x80, 0xff, 0xff, 0xff, 0xff, 0xff, 0xff, 0xff, 0x01, 0x00, 0x00, 0x00,
  0x64, 0xae, 0x53, 0x3c, 0x3b, 0x00, 0x00, 0x00, 0x65, 0x61, 0x67, 0x6c,
  0x65, 0x65, 0x79, 0x65, 0x5f, 0x75, 0x6c, 0x74, 0x72, 0x61, 0x74, 0x69,
  0x6e, 0x79, 0x5f, 0x67, 0x65, 0x6f, 0x6d, 0x65, 0x74, 0x72, 0x79, 0x5f,
  0x61, 0x75, 0x67, 0x5f, 0x31, 0x2f, 0x6d, 0x61, 0x78, 0x5f, 0x70, 0x6f,
  0x6f, 0x6c, 0x69, 0x6e, 0x67, 0x32, 0x64, 0x5f, 0x31, 0x2f, 0x4d, 0x61,
  0x78, 0x50, 0x6f, 0x6f, 0x6c, 0x32, 0x64, 0x00, 0x04, 0x00, 0x00, 0x00,
  0x01, 0x00, 0x00, 0x00, 0x0c, 0x00, 0x00, 0x00, 0x0c, 0x00, 0x00, 0x00,
  0x10, 0x00, 0x00, 0x00, 0x9a, 0xe4, 0xff, 0xff, 0x00, 0x00, 0x00, 0x01,
  0x18, 0x00, 0x00, 0x00, 0x28, 0x00, 0x00, 0x00, 0x48, 0x00, 0x00, 0x00,
  0x13, 0x00, 0x00, 0x00, 0x00, 0x00, 0x00, 0x09, 0x10, 0x01, 0x00, 0x00,
  0x04, 0x00, 0x00, 0x00, 0xff, 0xff, 0xff, 0xff, 0x18, 0x00, 0x00, 0x00,
  0x18, 0x00, 0x00, 0x00, 0x10, 0x00, 0x00, 0x00, 0x84, 0xe4, 0xff, 0xff,
  0x08, 0x00, 0x00, 0x00, 0x14, 0x00, 0x00, 0x00, 0x01, 0x00, 0x00, 0x00,
  0x80, 0xff, 0xff, 0xff, 0xff, 0xff, 0xff, 0xff, 0x00, 0x00, 0x00, 0x00,
  0x01, 0x00, 0x00, 0x00, 0x64, 0xae, 0x53, 0x3c, 0xcd, 0x00, 0x00, 0x00,
  0x65, 0x61, 0x67, 0x6c, 0x65, 0x65, 0x79, 0x65, 0x5f, 0x75, 0x6c, 0x74,
  0x72, 0x61, 0x74, 0x69, 0x6e, 0x79, 0x5f, 0x67, 0x65, 0x6f, 0x6d, 0x65,
  0x74, 0x72, 0x79, 0x5f, 0x61, 0x75, 0x67, 0x5f, 0x31, 0x2f, 0x63, 0x6f,
  0x6e, 0x76, 0x32, 0x64, 0x5f, 0x31, 0x2f, 0x52, 0x65, 0x6c, 0x75, 0x3b,
  0x65, 0x61, 0x67, 0x6c, 0x65, 0x65, 0x79, 0x65, 0x5f, 0x75, 0x6c, 0x74,
  0x72, 0x61, 0x74, 0x69, 0x6e, 0x79, 0x5f, 0x67, 0x65, 0x6f, 0x6d, 0x65,
  0x74, 0x72, 0x79, 0x5f, 0x61, 0x75, 0x67, 0x5f, 0x31, 0x2f, 0x63, 0x6f,
  0x6e, 0x76, 0x32, 0x64, 0x5f, 0x31, 0x2f, 0x42, 0x69, 0x61, 0x73, 0x41,
  0x64, 0x64, 0x3b, 0x65, 0x61, 0x67, 0x6c, 0x65, 0x65, 0x79, 0x65, 0x5f,
  0x75, 0x6c, 0x74, 0x72, 0x61, 0x74, 0x69, 0x6e, 0x79, 0x5f, 0x67, 0x65,
  0x6f, 0x6d, 0x65, 0x74, 0x72, 0x79, 0x5f, 0x61, 0x75, 0x67, 0x5f, 0x31,
  0x2f, 0x63, 0x6f, 0x6e, 0x76, 0x32, 0x64, 0x5f, 0x31, 0x2f, 0x63, 0x6f,
  0x6e, 0x76, 0x6f, 0x6c, 0x75, 0x74, 0x69, 0x6f, 0x6e, 0x3b, 0x65, 0x61,
  0x67, 0x6c, 0x65, 0x65, 0x79, 0x65, 0x5f, 0x75, 0x6c, 0x74, 0x72, 0x61,
  0x74, 0x69, 0x6e, 0x79, 0x5f, 0x67, 0x65, 0x6f, 0x6d, 0x65, 0x74, 0x72,
  0x79, 0x5f, 0x61, 0x75, 0x67, 0x5f, 0x31, 0x2f, 0x63, 0x6f, 0x6e, 0x76,
  0x32, 0x64, 0x5f, 0x31, 0x2f, 0x53, 0x71, 0x75, 0x65, 0x65, 0x7a, 0x65,
  0x31, 0x00, 0x00, 0x00, 0x04, 0x00, 0x00, 0x00, 0x01, 0x00, 0x00, 0x00,
  0x18, 0x00, 0x00, 0x00, 0x18, 0x00, 0x00, 0x00, 0x10, 0x00, 0x00, 0x00,
  0xda, 0xe5, 0xff, 0xff, 0x00, 0x00, 0x00, 0x01, 0x18, 0x00, 0x00, 0x00,
  0x28, 0x00, 0x00, 0x00, 0x44, 0x00, 0x00, 0x00, 0x12, 0x00, 0x00, 0x00,
  0x00, 0x00, 0x00, 0x09, 0x70, 0x00, 0x00, 0x00, 0x04, 0x00, 0x00, 0x00,
  0xff, 0xff, 0xff, 0xff, 0x30, 0x00, 0x00, 0x00, 0x30, 0x00, 0x00, 0x00,
  0x01, 0x00, 0x00, 0x00, 0xc4, 0xe5, 0xff, 0xff, 0x08, 0x00, 0x00, 0x00,
  0x10, 0x00, 0x00, 0x00, 0x01, 0x00, 0x00, 0x00, 0xff, 0xff, 0xff, 0xff,
  0xff, 0xff, 0xff, 0xff, 0x01, 0x00, 0x00, 0x00, 0x81, 0x80, 0x00, 0x3c,
  0x31, 0x00, 0x00, 0x00, 0x65, 0x61, 0x67, 0x6c, 0x65, 0x65, 0x79, 0x65,
  0x5f, 0x75, 0x6c, 0x74, 0x72, 0x61, 0x74, 0x69, 0x6e, 0x79, 0x5f, 0x67,
  0x65, 0x6f, 0x6d, 0x65, 0x74, 0x72, 0x79, 0x5f, 0x61, 0x75, 0x67, 0x5f,
  0x31, 0x2f, 0x72, 0x65, 0x73, 0x63, 0x61, 0x6c, 0x69, 0x6e, 0x67, 0x5f,
  0x31, 0x2f, 0x61, 0x64, 0x64, 0x00, 0x00, 0x00, 0x04, 0x00, 0x00, 0x00,
  0x01, 0x00, 0x00, 0x00, 0x30, 0x00, 0x00, 0x00, 0x30, 0x00, 0x00, 0x00,
  0x01, 0x00, 0x00, 0x00, 0x7a, 0xe6, 0xff, 0xff, 0x00, 0x00, 0x00, 0x01,
  0x18, 0x00, 0x00, 0x00, 0x28, 0x00, 0x00, 0x00, 0x44, 0x00, 0x00, 0x00,
  0x11, 0x00, 0x00, 0x00, 0x00, 0x00, 0x00, 0x09, 0x70, 0x00, 0x00, 0x00,
  0x04, 0x00, 0x00, 0x00, 0xff, 0xff, 0xff, 0xff, 0x30, 0x00, 0x00, 0x00,
  0x30, 0x00, 0x00, 0x00, 0x01, 0x00, 0x00, 0x00, 0x64, 0xe6, 0xff, 0xff,
  0x08, 0x00, 0x00, 0x00, 0x10, 0x00, 0x00, 0x00, 0x01, 0x00, 0x00, 0x00,
  0xd5, 0xff, 0xff, 0xff, 0xff, 0xff, 0xff, 0xff, 0x01, 0x00, 0x00, 0x00,
  0xc1, 0xc0, 0x40, 0x3c, 0x31, 0x00, 0x00, 0x00, 0x65, 0x61, 0x67, 0x6c,
  0x65, 0x65, 0x79, 0x65, 0x5f, 0x75, 0x6c, 0x74, 0x72, 0x61, 0x74, 0x69,
  0x6e, 0x79, 0x5f, 0x67, 0x65, 0x6f, 0x6d, 0x65, 0x74, 0x72, 0x79, 0x5f,
  0x61, 0x75, 0x67, 0x5f, 0x31, 0x2f, 0x72, 0x65, 0x73, 0x63, 0x61, 0x6c,
  0x69, 0x6e, 0x67, 0x5f, 0x31, 0x2f, 0x6d, 0x75, 0x6c, 0x00, 0x00, 0x00,
  0x04, 0x00, 0x00, 0x00, 0x01, 0x00, 0x00, 0x00, 0x30, 0x00, 0x00, 0x00,
  0x30, 0x00, 0x00, 0x00, 0x01, 0x00, 0x00, 0x00, 0xb6, 0xe7, 0xff, 0xff,
  0x00, 0x00, 0x00, 0x01, 0x14, 0x00, 0x00, 0x00, 0x34, 0x00, 0x00, 0x00,
  0x10, 0x00, 0x00, 0x00, 0x00, 0x00, 0x00, 0x09, 0x64, 0x00, 0x00, 0x00,
  0xec, 0xe6, 0xff, 0xff, 0x08, 0x00, 0x00, 0x00, 0x14, 0x00, 0x00, 0x00,
  0x01, 0x00, 0x00, 0x00, 0x80, 0xff, 0xff, 0xff, 0xff, 0xff, 0xff, 0xff,
  0x00, 0x00, 0x00, 0x00, 0x01, 0x00, 0x00, 0x00, 0x83, 0x01, 0x01, 0x38,
  0x34, 0x00, 0x00, 0x00, 0x65, 0x61, 0x67, 0x6c, 0x65, 0x65, 0x79, 0x65,
  0x5f, 0x75, 0x6c, 0x74, 0x72, 0x61, 0x74, 0x69, 0x6e, 0x79, 0x5f, 0x67,
  0x65, 0x6f, 0x6d, 0x65, 0x74, 0x72, 0x79, 0x5f, 0x61, 0x75, 0x67, 0x5f,
  0x31, 0x2f, 0x72, 0x65, 0x73, 0x63, 0x61, 0x6c, 0x69, 0x6e, 0x67, 0x5f,
  0x31, 0x2f, 0x43, 0x61, 0x73, 0x74, 0x2f, 0x78, 0x00, 0x00, 0x00, 0x00,
  0x00, 0x00, 0x00, 0x00, 0x36, 0xe8, 0xff, 0xff, 0x00, 0x00, 0x00, 0x01,
  0x14, 0x00, 0x00, 0x00, 0x34, 0x00, 0x00, 0x00, 0x0f, 0x00, 0x00, 0x00,
  0x00, 0x00, 0x00, 0x09, 0x64, 0x00, 0x00, 0x00, 0x6c, 0xe7, 0xff, 0xff,
  0x08, 0x00, 0x00, 0x00, 0x14, 0x00, 0x00, 0x00, 0x01, 0x00, 0x00, 0x00,
  0x7f, 0x00, 0x00, 0x00, 0x00, 0x00, 0x00, 0x00, 0x00, 0x00, 0x00, 0x00,
  0x01, 0x00, 0x00, 0x00, 0x81, 0x80, 0x80, 0x3b, 0x36, 0x00, 0x00, 0x00,
  0x65, 0x61, 0x67, 0x6c, 0x65, 0x65, 0x79, 0x65, 0x5f, 0x75, 0x6c, 0x74,
  0x72, 0x61, 0x74, 0x69, 0x6e, 0x79, 0x5f, 0x67, 0x65, 0x6f, 0x6d, 0x65,
  0x74, 0x72, 0x79, 0x5f, 0x61, 0x75, 0x67, 0x5f, 0x31, 0x2f, 0x72, 0x65,
  0x73, 0x63, 0x61, 0x6c, 0x69, 0x6e, 0x67, 0x5f, 0x31, 0x2f, 0x43, 0x61,
  0x73, 0x74, 0x5f, 0x31, 0x2f, 0x78, 0x00, 0x00, 0x00, 0x00, 0x00, 0x00,
  0xb6, 0xe8, 0xff, 0xff, 0x00, 0x00, 0x00, 0x01, 0x14, 0x00, 0x00, 0x00,
  0xe4, 0x00, 0x00, 0x00, 0x0e, 0x00, 0x00, 0x00, 0x00, 0x00, 0x00, 0x09,
  0x14, 0x01, 0x00, 0x00, 0xec, 0xe7, 0xff, 0xff, 0x08, 0x00, 0x00, 0x00,
  0x88, 0x00, 0x00, 0x00, 0x10, 0x00, 0x00, 0x00, 0x00, 0x00, 0x00, 0x00,
  0x00, 0x00, 0x00, 0x00, 0x00, 0x00, 0x00, 0x00, 0x00, 0x00, 0x00, 0x00,
  0x00, 0x00, 0x00, 0x00, 0x00, 0x00, 0x00, 0x00, 0x00, 0x00, 0x00, 0x00,
  0x00, 0x00, 0x00, 0x00, 0x00, 0x00, 0x00, 0x00, 0x00, 0x00, 0x00, 0x00,
  0x00, 0x00, 0x00, 0x00, 0x00, 0x00, 0x00, 0x00, 0x00, 0x00, 0x00, 0x00,
  0x00, 0x00, 0x00, 0x00, 0x00, 0x00, 0x00, 0x00, 0x00, 0x00, 0x00, 0x00,
  0x00, 0x00, 0x00, 0x00, 0x00, 0x00, 0x00, 0x00, 0x00, 0x00, 0x00, 0x00,
  0x00, 0x00, 0x00, 0x00, 0x00, 0x00, 0x00, 0x00, 0x00, 0x00, 0x00, 0x00,
  0x00, 0x00, 0x00, 0x00, 0x00, 0x00, 0x00, 0x00, 0x00, 0x00, 0x00, 0x00,
  0x00, 0x00, 0x00, 0x00, 0x00, 0x00, 0x00, 0x00, 0x00, 0x00, 0x00, 0x00,
  0x00, 0x00, 0x00, 0x00, 0x00, 0x00, 0x00, 0x00, 0x00, 0x00, 0x00, 0x00,
  0x00, 0x00, 0x00, 0x00, 0x10, 0x00, 0x00, 0x00, 0xec, 0xc5, 0x88, 0x3b,
  0x48, 0x4d, 0x39, 0x3b, 0xe7, 0xc2, 0x62, 0x3b, 0x91, 0xb9, 0x94, 0x3b,
  0xd8, 0x08, 0x7c, 0x3b, 0x60, 0xea, 0x67, 0x3b, 0x03, 0x9e, 0x1c, 0x3b,
  0xce, 0x01, 0x37, 0x3b, 0x3d, 0x03, 0x38, 0x3b, 0x4a, 0xa8, 0x31, 0x3b,
  0x23, 0x7b, 0x44, 0x3b, 0xd6, 0x54, 0x7a, 0x3b, 0xe9, 0x2b, 0x18, 0x3b,
  0x35, 0x67, 0x44, 0x3b, 0x47, 0x2f, 0xb4, 0x3b, 0xa6, 0x71, 0x75, 0x3b,
  0x36, 0x00, 0x00, 0x00, 0x65, 0x61, 0x67, 0x6c, 0x65, 0x65, 0x79, 0x65,
  0x5f, 0x75, 0x6c, 0x74, 0x72, 0x61, 0x74, 0x69, 0x6e, 0x79, 0x5f, 0x67,
  0x65, 0x6f, 0x6d, 0x65, 0x74, 0x72, 0x79, 0x5f, 0x61, 0x75, 0x67, 0x5f,
  0x31, 0x2f, 0x63, 0x6f, 0x6e, 0x76, 0x32, 0x64, 0x5f, 0x31, 0x2f, 0x63,
  0x6f, 0x6e, 0x76, 0x6f, 0x6c, 0x75, 0x74, 0x69, 0x6f, 0x6e, 0x00, 0x00,
  0x04, 0x00, 0x00, 0x00, 0x10, 0x00, 0x00, 0x00, 0x03, 0x00, 0x00, 0x00,
  0x03, 0x00, 0x00, 0x00, 0x01, 0x00, 0x00, 0x00, 0xf6, 0xe9, 0xff, 0xff,
  0x00, 0x00, 0x00, 0x01, 0x14, 0x00, 0x00, 0x00, 0xe4, 0x00, 0x00, 0x00,
  0x0d, 0x00, 0x00, 0x00, 0x00, 0x00, 0x00, 0x02, 0xac, 0x01, 0x00, 0x00,
  0x2c, 0xe9, 0xff, 0xff, 0x08, 0x00, 0x00, 0x00, 0x88, 0x00, 0x00, 0x00,
  0x10, 0x00, 0x00, 0x00, 0x00, 0x00, 0x00, 0x00, 0x00, 0x00, 0x00, 0x00,
  0x00, 0x00, 0x00, 0x00, 0x00, 0x00, 0x00, 0x00, 0x00, 0x00, 0x00, 0x00,
  0x00, 0x00, 0x00, 0x00, 0x00, 0x00, 0x00, 0x00, 0x00, 0x00, 0x00, 0x00,
  0x00, 0x00, 0x00, 0x00, 0x00, 0x00, 0x00, 0x00, 0x00, 0x00, 0x00, 0x00,
  0x00, 0x00, 0x00, 0x00, 0x00, 0x00, 0x00, 0x00, 0x00, 0x00, 0x00, 0x00,
  0x00, 0x00, 0x00, 0x00, 0x00, 0x00, 0x00, 0x00, 0x00, 0x00, 0x00, 0x00,
  0x00, 0x00, 0x00, 0x00, 0x00, 0x00, 0x00, 0x00, 0x00, 0x00, 0x00, 0x00,
  0x00, 0x00, 0x00, 0x00, 0x00, 0x00, 0x00, 0x00, 0x00, 0x00, 0x00, 0x00,
  0x00, 0x00, 0x00, 0x00, 0x00, 0x00, 0x00, 0x00, 0x00, 0x00, 0x00, 0x00,
  0x00, 0x00, 0x00, 0x00, 0x00, 0x00, 0x00, 0x00, 0x00, 0x00, 0x00, 0x00,
  0x00, 0x00, 0x00, 0x00, 0x00, 0x00, 0x00, 0x00, 0x00, 0x00, 0x00, 0x00,
  0x10, 0x00, 0x00, 0x00, 0x3c, 0x4f, 0x09, 0x38, 0x50, 0x07, 0xba, 0x37,
  0x8e, 0xa6, 0xe3, 0x37, 0xe0, 0x4e, 0x15, 0x38, 0xdf, 0x05, 0xfd, 0x37,
  0x34, 0xd3, 0xe8, 0x37, 0x3f, 0x3b, 0x9d, 0x37, 0x88, 0xb9, 0xb7, 0x37,
  0xfa, 0xbb, 0xb8, 0x37, 0xa5, 0x5a, 0xb2, 0x37, 0x64, 0x40, 0xc5, 0x37,
  0x27, 0x50, 0xfb, 0x37, 0xae, 0xc4, 0x98, 0x37, 0x62, 0x2c, 0xc5, 0x37,
  0x2c, 0xe4, 0x34, 0x38, 0x0f, 0x68, 0xf6, 0x37, 0xcc, 0x00, 0x00, 0x00,
  0x65, 0x61, 0x67, 0x6c, 0x65, 0x65, 0x79, 0x65, 0x5f, 0x75, 0x6c, 0x74,
  0x72, 0x61, 0x74, 0x69, 0x6e, 0x79, 0x5f, 0x67, 0x65, 0x6f, 0x6d, 0x65,
  0x74, 0x72, 0x79, 0x5f, 0x61, 0x75, 0x67, 0x5f, 0x31, 0x2f, 0x63, 0x6f,
  0x6e, 0x76, 0x32, 0x64, 0x5f, 0x31, 0x2f, 0x52, 0x65, 0x6c, 0x75, 0x3b,
  0x65, 0x61, 0x67, 0x6c, 0x65, 0x65, 0x79, 0x65, 0x5f, 0x75, 0x6c, 0x74,
  0x72, 0x61, 0x74, 0x69, 0x6e, 0x79, 0x5f, 0x67, 0x65, 0x6f, 0x6d, 0x65,
  0x74, 0x72, 0x79, 0x5f, 0x61, 0x75, 0x67, 0x5f, 0x31, 0x2f, 0x63, 0x6f,
  0x6e, 0x76, 0x32, 0x64, 0x5f, 0x31, 0x2f, 0x42, 0x69, 0x61, 0x73, 0x41,
  0x64, 0x64, 0x3b, 0x65, 0x61, 0x67, 0x6c, 0x65, 0x65, 0x79, 0x65, 0x5f,
  0x75, 0x6c, 0x74, 0x72, 0x61, 0x74, 0x69, 0x6e, 0x79, 0x5f, 0x67, 0x65,
  0x6f, 0x6d, 0x65, 0x74, 0x72, 0x79, 0x5f, 0x61, 0x75, 0x67, 0x5f, 0x31,
  0x2f, 0x63, 0x6f, 0x6e, 0x76, 0x32, 0x64, 0x5f, 0x31, 0x2f, 0x63, 0x6f,
  0x6e, 0x76, 0x6f, 0x6c, 0x75, 0x74, 0x69, 0x6f, 0x6e, 0x3b, 0x65, 0x61,
  0x67, 0x6c, 0x65, 0x65, 0x79, 0x65, 0x5f, 0x75, 0x6c, 0x74, 0x72, 0x61,
  0x74, 0x69, 0x6e, 0x79, 0x5f, 0x67, 0x65, 0x6f, 0x6d, 0x65, 0x74, 0x72,
  0x79, 0x5f, 0x61, 0x75, 0x67, 0x5f, 0x31, 0x2f, 0x63, 0x6f, 0x6e, 0x76,
  0x32, 0x64, 0x5f, 0x31, 0x2f, 0x53, 0x71, 0x75, 0x65, 0x65, 0x7a, 0x65,
  0x00, 0x00, 0x00, 0x00, 0x01, 0x00, 0x00, 0x00, 0x10, 0x00, 0x00, 0x00,
  0xc2, 0xeb, 0xff, 0xff, 0x00, 0x00, 0x00, 0x01, 0x14, 0x00, 0x00, 0x00,
  0xe8, 0x00, 0x00, 0x00, 0x0c, 0x00, 0x00, 0x00, 0x00, 0x00, 0x00, 0x09,
  0x30, 0x01, 0x00, 0x00, 0xb2, 0xf8, 0xff, 0xff, 0x03, 0x00, 0x00, 0x00,
  0x08, 0x00, 0x00, 0x00, 0x88, 0x00, 0x00, 0x00, 0x10, 0x00, 0x00, 0x00,
  0x00, 0x00, 0x00, 0x00, 0x00, 0x00, 0x00, 0x00, 0x00, 0x00, 0x00, 0x00,
  0x00, 0x00, 0x00, 0x00, 0x00, 0x00, 0x00, 0x00, 0x00, 0x00, 0x00, 0x00,
  0x00, 0x00, 0x00, 0x00, 0x00, 0x00, 0x00, 0x00, 0x00, 0x00, 0x00, 0x00,
  0x00, 0x00, 0x00, 0x00, 0x00, 0x00, 0x00, 0x00, 0x00, 0x00, 0x00, 0x00,
  0x00, 0x00, 0x00, 0x00, 0x00, 0x00, 0x00, 0x00, 0x00, 0x00, 0x00, 0x00,
  0x00, 0x00, 0x00, 0x00, 0x00, 0x00, 0x00, 0x00, 0x00, 0x00, 0x00, 0x00,
  0x00, 0x00, 0x00, 0x00, 0x00, 0x00, 0x00, 0x00, 0x00, 0x00, 0x00, 0x00,
  0x00, 0x00, 0x00, 0x00, 0x00, 0x00, 0x00, 0x00, 0x00, 0x00, 0x00, 0x00,
  0x00, 0x00, 0x00, 0x00, 0x00, 0x00, 0x00, 0x00, 0x00, 0x00, 0x00, 0x00,
  0x00, 0x00, 0x00, 0x00, 0x00, 0x00, 0x00, 0x00, 0x00, 0x00, 0x00, 0x00,
  0x00, 0x00, 0x00, 0x00, 0x00, 0x00, 0x00, 0x00, 0x10, 0x00, 0x00, 0x00,
  0x9b, 0xc9, 0x3a, 0x3b, 0x86, 0xa3, 0x82, 0x3b, 0x5e, 0xb8, 0x68, 0x3b,
  0x81, 0x8e, 0x8a, 0x3b, 0xd7, 0xbe, 0xd0, 0x3b, 0xdd, 0x98, 0xb2, 0x3b,
  0x65, 0x0b, 0x67, 0x3b, 0xf8, 0xae, 0x3a, 0x3b, 0xd3, 0x4e, 0x35, 0x3b,
  0xae, 0x25, 0x6d, 0x3b, 0x95, 0x76, 0x5b, 0x3b, 0x2c, 0x4b, 0x3e, 0x3b,
  0xf0, 0x4e, 0x45, 0x3b, 0x30, 0xd1, 0x6d, 0x3b, 0x05, 0xc6, 0x71, 0x3b,
  0xd5, 0xd6, 0x5d, 0x3b, 0x4f, 0x00, 0x00, 0x00, 0x65, 0x61, 0x67, 0x6c,
  0x65, 0x65, 0x79, 0x65, 0x5f, 0x75, 0x6c, 0x74, 0x72, 0x61, 0x74, 0x69,
  0x6e, 0x79, 0x5f, 0x67, 0x65, 0x6f, 0x6d, 0x65, 0x74, 0x72, 0x79, 0x5f,
  0x61, 0x75, 0x67, 0x5f, 0x31, 0x2f, 0x73, 0x65, 0x70, 0x61, 0x72, 0x61,
  0x62, 0x6c, 0x65, 0x5f, 0x63, 0x6f, 0x6e, 0x76, 0x32, 0x64, 0x5f, 0x31,
  0x2f, 0x73, 0x65, 0x70, 0x61, 0x72, 0x61, 0x62, 0x6c, 0x65, 0x5f, 0x63,
  0x6f, 0x6e, 0x76, 0x32, 0x64, 0x2f, 0x64, 0x65, 0x70, 0x74, 0x68, 0x77,
  0x69, 0x73, 0x65, 0x00, 0x04, 0x00, 0x00, 0x00, 0x01, 0x00, 0x00, 0x00,
  0x03, 0x00, 0x00, 0x00, 0x03, 0x00, 0x00, 0x00, 0x10, 0x00, 0x00, 0x00,
  0x1e, 0xed, 0xff, 0xff, 0x00, 0x00, 0x00, 0x01, 0x14, 0x00, 0x00, 0x00,
  0xe8, 0x00, 0x00, 0x00, 0x0b, 0x00, 0x00, 0x00, 0x00, 0x00, 0x00, 0x02,
  0xf0, 0x00, 0x00, 0x00, 0x54, 0xec, 0xff, 0xff, 0x08, 0x00, 0x00, 0x00,
  0x8c, 0x00, 0x00, 0x00, 0x10, 0x00, 0x00, 0x00, 0x00, 0x00, 0x00, 0x00,
  0x00, 0x00, 0x00, 0x00, 0x00, 0x00, 0x00, 0x00, 0x00, 0x00, 0x00, 0x00,
  0x00, 0x00, 0x00, 0x00, 0x00, 0x00, 0x00, 0x00, 0x00, 0x00, 0x00, 0x00,
  0x00, 0x00, 0x00, 0x00, 0x00, 0x00, 0x00, 0x00, 0x00, 0x00, 0x00, 0x00,
  0x00, 0x00, 0x00, 0x00, 0x00, 0x00, 0x00, 0x00, 0x00, 0x00, 0x00, 0x00,
  0x00, 0x00, 0x00, 0x00, 0x00, 0x00, 0x00, 0x00, 0x00, 0x00, 0x00, 0x00,
  0x00, 0x00, 0x00, 0x00, 0x00, 0x00, 0x00, 0x00, 0x00, 0x00, 0x00, 0x00,
  0x00, 0x00, 0x00, 0x00, 0x00, 0x00, 0x00, 0x00, 0x00, 0x00, 0x00, 0x00,
  0x00, 0x00, 0x00, 0x00, 0x00, 0x00, 0x00, 0x00, 0x00, 0x00, 0x00, 0x00,
  0x00, 0x00, 0x00, 0x00, 0x00, 0x00, 0x00, 0x00, 0x00, 0x00, 0x00, 0x00,
  0x00, 0x00, 0x00, 0x00, 0x00, 0x00, 0x00, 0x00, 0x00, 0x00, 0x00, 0x00,
  0x00, 0x00, 0x00, 0x00, 0x00, 0x00, 0x00, 0x00, 0x10, 0x00, 0x00, 0x00,
  0x69, 0x73, 0x1a, 0x38, 0x8b, 0x0b, 0x58, 0x38, 0x7e, 0x6e, 0x40, 0x38,
  0xaf, 0x23, 0x65, 0x38, 0x7e, 0x9b, 0xac, 0x38, 0xa8, 0xad, 0x93, 0x38,
  0xc8, 0x0b, 0x3f, 0x38, 0x62, 0x5d, 0x1a, 0x38, 0x7a, 0xeb, 0x15, 0x38,
  0x9b, 0x17, 0x44, 0x38, 0x3d, 0x78, 0x35, 0x38, 0x97, 0x59, 0x1d, 0x38,
  0x79, 0x26, 0x23, 0x38, 0x6c, 0xa5, 0x44, 0x38, 0xe9, 0xea, 0x47, 0x38,
  0x30, 0x6f, 0x37, 0x38, 0x0f, 0x00, 0x00, 0x00, 0x61, 0x72, 0x69, 0x74,
  0x68, 0x2e, 0x63, 0x6f, 0x6e, 0x73, 0x74, 0x61, 0x6e, 0x74, 0x31, 0x00,
  0x01, 0x00, 0x00, 0x00, 0x10, 0x00, 0x00, 0x00, 0x2e, 0xee, 0xff, 0xff,
  0x00, 0x00, 0x00, 0x01, 0x14, 0x00, 0x00, 0x00, 0xa4, 0x01, 0x00, 0x00,
  0x0a, 0x00, 0x00, 0x00, 0x00, 0x00, 0x00, 0x09, 0xe4, 0x01, 0x00, 0x00,
  0x64, 0xed, 0xff, 0xff, 0x08, 0x00, 0x00, 0x00, 0x08, 0x01, 0x00, 0x00,
  0x20, 0x00, 0x00, 0x00, 0x00, 0x00, 0x00, 0x00, 0x00, 0x00, 0x00, 0x00,
  0x00, 0x00, 0x00, 0x00, 0x00, 0x00, 0x00, 0x00, 0x00, 0x00, 0x00, 0x00,
  0x00, 0x00, 0x00, 0x00, 0x00, 0x00, 0x00, 0x00, 0x00, 0x00, 0x00, 0x00,
  0x00, 0x00, 0x00, 0x00, 0x00, 0x00, 0x00, 0x00, 0x00, 0x00, 0x00, 0x00,
  0x00, 0x00, 0x00, 0x00, 0x00, 0x00, 0x00, 0x00, 0x00, 0x00, 0x00, 0x00,
  0x00, 0x00, 0x00, 0x00, 0x00, 0x00, 0x00, 0x00, 0x00, 0x00, 0x00, 0x00,
  0x00, 0x00, 0x00, 0x00, 0x00, 0x00, 0x00, 0x00, 0x00, 0x00, 0x00, 0x00,
  0x00, 0x00, 0x00, 0x00, 0x00, 0x00, 0x00, 0x00, 0x00, 0x00, 0x00, 0x00,
  0x00, 0x00, 0x00, 0x00, 0x00, 0x00, 0x00, 0x00, 0x00, 0x00, 0x00, 0x00,
  0x00, 0x00, 0x00, 0x00, 0x00, 0x00, 0x00, 0x00, 0x00, 0x00, 0x00, 0x00,
  0x00, 0x00, 0x00, 0x00, 0x00, 0x00, 0x00, 0x00, 0x00, 0x00, 0x00, 0x00,
  0x00, 0x00, 0x00, 0x00, 0x00, 0x00, 0x00, 0x00, 0x00, 0x00, 0x00, 0x00,
  0x00, 0x00, 0x00, 0x00, 0x00, 0x00, 0x00, 0x00, 0x00, 0x00, 0x00, 0x00,
  0x00, 0x00, 0x00, 0x00, 0x00, 0x00, 0x00, 0x00, 0x00, 0x00, 0x00, 0x00,
  0x00, 0x00, 0x00, 0x00, 0x00, 0x00, 0x00, 0x00, 0x00, 0x00, 0x00, 0x00,
  0x00, 0x00, 0x00, 0x00, 0x00, 0x00, 0x00, 0x00, 0x00, 0x00, 0x00, 0x00,
  0x00, 0x00, 0x00, 0x00, 0x00, 0x00, 0x00, 0x00, 0x00, 0x00, 0x00, 0x00,
  0x00, 0x00, 0x00, 0x00, 0x00, 0x00, 0x00, 0x00, 0x00, 0x00, 0x00, 0x00,
  0x00, 0x00, 0x00, 0x00, 0x00, 0x00, 0x00, 0x00, 0x00, 0x00, 0x00, 0x00,
  0x00, 0x00, 0x00, 0x00, 0x00, 0x00, 0x00, 0x00, 0x00, 0x00, 0x00, 0x00,
  0x00, 0x00, 0x00, 0x00, 0x00, 0x00, 0x00, 0x00, 0x00, 0x00, 0x00, 0x00,
  0x00, 0x00, 0x00, 0x00, 0x00, 0x00, 0x00, 0x00, 0x20, 0x00, 0x00, 0x00,
  0x06, 0x6e, 0x87, 0x3b, 0xe8, 0xbf, 0xcf, 0x3b, 0x4f, 0xa9, 0x03, 0x3c,
  0x96, 0xdb, 0x03, 0x3c, 0x3f, 0x36, 0x9c, 0x3b, 0xdc, 0xf8, 0xcd, 0x3b,
  0x02, 0x2b, 0xc1, 0x3b, 0xa3, 0x69, 0x88, 0x3b, 0x1e, 0x2f, 0x9d, 0x3b,
  0x21, 0x85, 0xc9, 0x3b, 0x34, 0x74, 0xad, 0x3b, 0xbe, 0x03, 0xde, 0x3b,
  0x64, 0x9c, 0xa9, 0x3b, 0x49, 0xcd, 0xee, 0x3b, 0x04, 0xcc, 0x9b, 0x3b,
  0xc7, 0xa4, 0x99, 0x3b, 0xf2, 0x1c, 0xb7, 0x3b, 0x7e, 0xbf, 0xbe, 0x3b,
  0x9e, 0xea, 0x7f, 0x3b, 0xcd, 0x37, 0xd2, 0x3b, 0x61, 0x25, 0x8c, 0x3b,
  0x7d, 0x5a, 0x18, 0x3c, 0x26, 0x41, 0xfd, 0x3b, 0x9d, 0x5a, 0xf2, 0x3b,
  0x8f, 0xa1, 0x03, 0x3c, 0xa5, 0x80, 0x84, 0x3b, 0x50, 0x58, 0xac, 0x3b,
  0xc8, 0x01, 0xce, 0x3b, 0x00, 0x95, 0xba, 0x3b, 0x8e, 0x1c, 0xc7, 0x3b,
  0x35, 0x05, 0xbe, 0x3b, 0xff, 0x8e, 0x84, 0x3b, 0x45, 0x00, 0x00, 0x00,
  0x65, 0x61, 0x67, 0x6c, 0x65, 0x65, 0x79, 0x65, 0x5f, 0x75, 0x6c, 0x74,
  0x72, 0x61, 0x74, 0x69, 0x6e, 0x79, 0x5f, 0x67, 0x65, 0x6f, 0x6d, 0x65,
  0x74, 0x72, 0x79, 0x5f, 0x61, 0x75, 0x67, 0x5f, 0x31, 0x2f, 0x73, 0x65,
  0x70, 0x61, 0x72, 0x61, 0x62, 0x6c, 0x65, 0x5f, 0x63, 0x6f, 0x6e, 0x76,
  0x32, 0x64, 0x5f, 0x31, 0x2f, 0x73, 0x65, 0x70, 0x61, 0x72, 0x61, 0x62,
  0x6c, 0x65, 0x5f, 0x63, 0x6f, 0x6e, 0x76, 0x32, 0x64, 0x00, 0x00, 0x00,
  0x04, 0x00, 0x00, 0x00, 0x20, 0x00, 0x00, 0x00, 0x01, 0x00, 0x00, 0x00,
  0x01, 0x00, 0x00, 0x00, 0x10, 0x00, 0x00, 0x00, 0x3e, 0xf0, 0xff, 0xff,
  0x00, 0x00, 0x00, 0x01, 0x14, 0x00, 0x00, 0x00, 0xa4, 0x01, 0x00, 0x00,
  0x09, 0x00, 0x00, 0x00, 0x00, 0x00, 0x00, 0x02, 0x98, 0x02, 0x00, 0x00,
  0x74, 0xef, 0xff, 0xff, 0x08, 0x00, 0x00, 0x00, 0x08, 0x01, 0x00, 0x00,
  0x20, 0x00, 0x00, 0x00, 0x00, 0x00, 0x00, 0x00, 0x00, 0x00, 0x00, 0x00,
  0x00, 0x00, 0x00, 0x00, 0x00, 0x00, 0x00, 0x00, 0x00, 0x00, 0x00, 0x00,
  0x00, 0x00, 0x00, 0x00, 0x00, 0x00, 0x00, 0x00, 0x00, 0x00, 0x00, 0x00,
  0x00, 0x00, 0x00, 0x00, 0x00, 0x00, 0x00, 0x00, 0x00, 0x00, 0x00, 0x00,
  0x00, 0x00, 0x00, 0x00, 0x00, 0x00, 0x00, 0x00, 0x00, 0x00, 0x00, 0x00,
  0x00, 0x00, 0x00, 0x00, 0x00, 0x00, 0x00, 0x00, 0x00, 0x00, 0x00, 0x00,
  0x00, 0x00, 0x00, 0x00, 0x00, 0x00, 0x00, 0x00, 0x00, 0x00, 0x00, 0x00,
  0x00, 0x00, 0x00, 0x00, 0x00, 0x00, 0x00, 0x00, 0x00, 0x00, 0x00, 0x00,
  0x00, 0x00, 0x00, 0x00, 0x00, 0x00, 0x00, 0x00, 0x00, 0x00, 0x00, 0x00,
  0x00, 0x00, 0x00, 0x00, 0x00, 0x00, 0x00, 0x00, 0x00, 0x00, 0x00, 0x00,
  0x00, 0x00, 0x00, 0x00, 0x00, 0x00, 0x00, 0x00, 0x00, 0x00, 0x00, 0x00,
  0x00, 0x00, 0x00, 0x00, 0x00, 0x00, 0x00, 0x00, 0x00, 0x00, 0x00, 0x00,
  0x00, 0x00, 0x00, 0x00, 0x00, 0x00, 0x00, 0x00, 0x00, 0x00, 0x00, 0x00,
  0x00, 0x00, 0x00, 0x00, 0x00, 0x00, 0x00, 0x00, 0x00, 0x00, 0x00, 0x00,
  0x00, 0x00, 0x00, 0x00, 0x00, 0x00, 0x00, 0x00, 0x00, 0x00, 0x00, 0x00,
  0x00, 0x00, 0x00, 0x00, 0x00, 0x00, 0x00, 0x00, 0x00, 0x00, 0x00, 0x00,
  0x00, 0x00, 0x00, 0x00, 0x00, 0x00, 0x00, 0x00, 0x00, 0x00, 0x00, 0x00,
  0x00, 0x00, 0x00, 0x00, 0x00, 0x00, 0x00, 0x00, 0x00, 0x00, 0x00, 0x00,
  0x00, 0x00, 0x00, 0x00, 0x00, 0x00, 0x00, 0x00, 0x00, 0x00, 0x00, 0x00,
  0x00, 0x00, 0x00, 0x00, 0x00, 0x00, 0x00, 0x00, 0x00, 0x00, 0x00, 0x00,
  0x00, 0x00, 0x00, 0x00, 0x00, 0x00, 0x00, 0x00, 0x00, 0x00, 0x00, 0x00,
  0x00, 0x00, 0x00, 0x00, 0x00, 0x00, 0x00, 0x00, 0x20, 0x00, 0x00, 0x00,
  0x1d, 0x6b, 0xde, 0x38, 0x60, 0x98, 0x2a, 0x39, 0xbf, 0x3a, 0x58, 0x39,
  0x51, 0x8d, 0x58, 0x39, 0x4c, 0x46, 0x00, 0x39, 0xb5, 0x22, 0x29, 0x39,
  0x13, 0x9f, 0x1e, 0x39, 0x57, 0x08, 0xe0, 0x38, 0xa9, 0x12, 0x01, 0x39,
  0xcf, 0x7a, 0x25, 0x39, 0xda, 0x6e, 0x0e, 0x39, 0x1b, 0x4f, 0x36, 0x39,
  0xfd, 0x46, 0x0b, 0x39, 0x11, 0x18, 0x44, 0x39, 0x22, 0xde, 0xff, 0x38,
  0xd3, 0x54, 0xfc, 0x38, 0x5d, 0x5d, 0x16, 0x39, 0x5b, 0xa2, 0x1c, 0x39,
  0xd5, 0x25, 0xd2, 0x38, 0x42, 0x9f, 0x2c, 0x39, 0xf9, 0x29, 0xe6, 0x38,
  0x63, 0x36, 0x7a, 0x39, 0x3d, 0xf6, 0x4f, 0x39, 0xc5, 0x02, 0x47, 0x39,
  0x05, 0x2e, 0x58, 0x39, 0x65, 0x9c, 0xd9, 0x38, 0xbc, 0x85, 0x0d, 0x39,
  0x09, 0x2a, 0x29, 0x39, 0x99, 0x36, 0x19, 0x39, 0x81, 0x80, 0x23, 0x39,
  0x63, 0x09, 0x1c, 0x39, 0xf7, 0xb3, 0xd9, 0x38, 0xf9, 0x00, 0x00, 0x00,
  0x65, 0x61, 0x67, 0x6c, 0x65, 0x65, 0x79, 0x65, 0x5f, 0x75, 0x6c, 0x74,
  0x72, 0x61, 0x74, 0x69, 0x6e, 0x79, 0x5f, 0x67, 0x65, 0x6f, 0x6d, 0x65,
  0x74, 0x72, 0x79, 0x5f, 0x61, 0x75, 0x67, 0x5f, 0x31, 0x2f, 0x73, 0x65,
  0x70, 0x61, 0x72, 0x61, 0x62, 0x6c, 0x65, 0x5f, 0x63, 0x6f, 0x6e, 0x76,
  0x32, 0x64, 0x5f, 0x31, 0x2f, 0x52, 0x65, 0x6c, 0x75, 0x3b, 0x65, 0x61,
  0x67, 0x6c, 0x65, 0x65, 0x79, 0x65, 0x5f, 0x75, 0x6c, 0x74, 0x72, 0x61,
  0x74, 0x69, 0x6e, 0x79, 0x5f, 0x67, 0x65, 0x6f, 0x6d, 0x65, 0x74, 0x72,
  0x79, 0x5f, 0x61, 0x75, 0x67, 0x5f, 0x31, 0x2f, 0x73, 0x65, 0x70, 0x61,
  0x72, 0x61, 0x62, 0x6c, 0x65, 0x5f, 0x63, 0x6f, 0x6e, 0x76, 0x32, 0x64,
  0x5f, 0x31, 0x2f, 0x42, 0x69, 0x61, 0x73, 0x41, 0x64, 0x64, 0x3b, 0x65,
  0x61, 0x67, 0x6c, 0x65, 0x65, 0x79, 0x65, 0x5f, 0x75, 0x6c, 0x74, 0x72,
  0x61, 0x74, 0x69, 0x6e, 0x79, 0x5f, 0x67, 0x65, 0x6f, 0x6d, 0x65, 0x74,
  0x72, 0x79, 0x5f, 0x61, 0x75, 0x67, 0x5f, 0x31, 0x2f, 0x73, 0x65, 0x70,
  0x61, 0x72, 0x61, 0x62, 0x6c, 0x65, 0x5f, 0x63, 0x6f, 0x6e, 0x76, 0x32,
  0x64, 0x5f, 0x31, 0x2f, 0x73, 0x65, 0x70, 0x61, 0x72, 0x61, 0x62, 0x6c,
  0x65, 0x5f, 0x63, 0x6f, 0x6e, 0x76, 0x32, 0x64, 0x3b, 0x65, 0x61, 0x67,
  0x6c, 0x65, 0x65, 0x79, 0x65, 0x5f, 0x75, 0x6c, 0x74, 0x72, 0x61, 0x74,
  0x69, 0x6e, 0x79, 0x5f, 0x67, 0x65, 0x6f, 0x6d, 0x65, 0x74, 0x72, 0x79,
  0x5f, 0x61, 0x75, 0x67, 0x5f, 0x31, 0x2f, 0x73, 0x65, 0x70, 0x61, 0x72,
  0x61, 0x62, 0x6c, 0x65, 0x5f, 0x63, 0x6f, 0x6e, 0x76, 0x32, 0x64, 0x5f,
  0x31, 0x2f, 0x53, 0x71, 0x75, 0x65, 0x65, 0x7a, 0x65, 0x00, 0x00, 0x00,
  0x01, 0x00, 0x00, 0x00, 0x20, 0x00, 0x00, 0x00, 0x00, 0x00, 0x16, 0x00,
  0x1e, 0x00, 0x18, 0x00, 0x17, 0x00, 0x10, 0x00, 0x0c, 0x00, 0x08, 0x00,
  0x00, 0x00, 0x00, 0x00, 0x00, 0x00, 0x07, 0x00, 0x16, 0x00, 0x00, 0x00,
  0x00, 0x00, 0x00, 0x01, 0x28, 0x00, 0x00, 0x00, 0xc0, 0x01, 0x00, 0x00,
  0x08, 0x00, 0x00, 0x00, 0x00, 0x00, 0x00, 0x09, 0x0c, 0x02, 0x00, 0x00,
  0x00, 0x00, 0x12, 0x00, 0x10, 0x00, 0x00, 0x00, 0x00, 0x00, 0x0c, 0x00,
  0x08, 0x00, 0x00, 0x00, 0x00, 0x00, 0x04, 0x00, 0x12, 0x00, 0x00, 0x00,
  0x03, 0x00, 0x00, 0x00, 0x08, 0x00, 0x00, 0x00, 0x0c, 0x01, 0x00, 0x00,
  0x20, 0x00, 0x00, 0x00, 0x00, 0x00, 0x00, 0x00, 0x00, 0x00, 0x00, 0x00,
  0x00, 0x00, 0x00, 0x00, 0x00, 0x00, 0x00, 0x00, 0x00, 0x00, 0x00, 0x00,
  0x00, 0x00, 0x00, 0x00, 0x00, 0x00, 0x00, 0x00, 0x00, 0x00, 0x00, 0x00,
  0x00, 0x00, 0x00, 0x00, 0x00, 0x00, 0x00, 0x00, 0x00, 0x00, 0x00, 0x00,
  0x00, 0x00, 0x00, 0x00, 0x00, 0x00, 0x00, 0x00, 0x00, 0x00, 0x00, 0x00,
  0x00, 0x00, 0x00, 0x00, 0x00, 0x00, 0x00, 0x00, 0x00, 0x00, 0x00, 0x00,
  0x00, 0x00, 0x00, 0x00, 0x00, 0x00, 0x00, 0x00, 0x00, 0x00, 0x00, 0x00,
  0x00, 0x00, 0x00, 0x00, 0x00, 0x00, 0x00, 0x00, 0x00, 0x00, 0x00, 0x00,
  0x00, 0x00, 0x00, 0x00, 0x00, 0x00, 0x00, 0x00, 0x00, 0x00, 0x00, 0x00,
  0x00, 0x00, 0x00, 0x00, 0x00, 0x00, 0x00, 0x00, 0x00, 0x00, 0x00, 0x00,
  0x00, 0x00, 0x00, 0x00, 0x00, 0x00, 0x00, 0x00, 0x00, 0x00, 0x00, 0x00,
  0x00, 0x00, 0x00, 0x00, 0x00, 0x00, 0x00, 0x00, 0x00, 0x00, 0x00, 0x00,
  0x00, 0x00, 0x00, 0x00, 0x00, 0x00, 0x00, 0x00, 0x00, 0x00, 0x00, 0x00,
  0x00, 0x00, 0x00, 0x00, 0x00, 0x00, 0x00, 0x00, 0x00, 0x00, 0x00, 0x00,
  0x00, 0x00, 0x00, 0x00, 0x00, 0x00, 0x00, 0x00, 0x00, 0x00, 0x00, 0x00,
  0x00, 0x00, 0x00, 0x00, 0x00, 0x00, 0x00, 0x00, 0x00, 0x00, 0x00, 0x00,
  0x00, 0x00, 0x00, 0x00, 0x00, 0x00, 0x00, 0x00, 0x00, 0x00, 0x00, 0x00,
  0x00, 0x00, 0x00, 0x00, 0x00, 0x00, 0x00, 0x00, 0x00, 0x00, 0x00, 0x00,
  0x00, 0x00, 0x00, 0x00, 0x00, 0x00, 0x00, 0x00, 0x00, 0x00, 0x00, 0x00,
  0x00, 0x00, 0x00, 0x00, 0x00, 0x00, 0x00, 0x00, 0x00, 0x00, 0x00, 0x00,
  0x00, 0x00, 0x00, 0x00, 0x00, 0x00, 0x00, 0x00, 0x00, 0x00, 0x00, 0x00,
  0x00, 0x00, 0x00, 0x00, 0x00, 0x00, 0x00, 0x00, 0x00, 0x00, 0x00, 0x00,
  0x20, 0x00, 0x00, 0x00, 0xd4, 0xa6, 0x94, 0x3b, 0xec, 0x7c, 0x8f, 0x3b,
  0xc5, 0x9c, 0x5f, 0x3b, 0x31, 0x65, 0xee, 0x3a, 0x7d, 0x8c, 0x71, 0x3b,
  0x9b, 0xc4, 0x80, 0x3b, 0xfd, 0x00, 0x85, 0x3b, 0x46, 0x1c, 0x1d, 0x3b,
  0x8f, 0x24, 0x85, 0x3b, 0x2b, 0xe9, 0x31, 0x3b, 0x30, 0x77, 0x61, 0x3b,
  0x9f, 0xef, 0x9b, 0x3b, 0x35, 0x91, 0x5c, 0x3b, 0x9a, 0xb9, 0x61, 0x3b,
  0xe7, 0x2d, 0x5c, 0x3b, 0x1a, 0xa7, 0x64, 0x3b, 0x86, 0xae, 0x87, 0x3b,
  0x1c, 0xfc, 0x87, 0x3b, 0xe6, 0x3b, 0x28, 0x3b, 0x8f, 0x00, 0x5c, 0x3b,
  0x4e, 0xf2, 0x2c, 0x3b, 0x7e, 0xbb, 0x19, 0x3b, 0x88, 0x2c, 0x60, 0x3b,
  0x21, 0x7b, 0x62, 0x3b, 0x0d, 0x91, 0x88, 0x3b, 0x64, 0xac, 0x83, 0x3b,
  0xf4, 0xb0, 0x43, 0x3b, 0x3b, 0x2c, 0x89, 0x3b, 0x92, 0x08, 0x80, 0x3b,
  0x8e, 0x52, 0xa7, 0x3b, 0x91, 0x86, 0x93, 0x3b, 0x2c, 0xc8, 0x60, 0x3b,
  0x51, 0x00, 0x00, 0x00, 0x65, 0x61, 0x67, 0x6c, 0x65, 0x65, 0x79, 0x65,
  0x5f, 0x75, 0x6c, 0x74, 0x72, 0x61, 0x74, 0x69, 0x6e, 0x79, 0x5f, 0x67,
  0x65, 0x6f, 0x6d, 0x65, 0x74, 0x72, 0x79, 0x5f, 0x61, 0x75, 0x67, 0x5f,
  0x31, 0x2f, 0x73, 0x65, 0x70, 0x61, 0x72, 0x61, 0x62, 0x6c, 0x65, 0x5f,
  0x63, 0x6f, 0x6e, 0x76, 0x32, 0x64, 0x5f, 0x31, 0x5f, 0x32, 0x2f, 0x73,
  0x65, 0x70, 0x61, 0x72, 0x61, 0x62, 0x6c, 0x65, 0x5f, 0x63, 0x6f, 0x6e,
  0x76, 0x32, 0x64, 0x2f, 0x64, 0x65, 0x70, 0x74, 0x68, 0x77, 0x69, 0x73,
  0x65, 0x00, 0x00, 0x00, 0x04, 0x00, 0x00, 0x00, 0x01, 0x00, 0x00, 0x00,
  0x03, 0x00, 0x00, 0x00, 0x03, 0x00, 0x00, 0x00, 0x20, 0x00, 0x00, 0x00,
  0x46, 0xf5, 0xff, 0xff, 0x00, 0x00, 0x00, 0x01, 0x14, 0x00, 0x00, 0x00,
  0xa8, 0x01, 0x00, 0x00, 0x07, 0x00, 0x00, 0x00, 0x00, 0x00, 0x00, 0x02,
  0xb0, 0x01, 0x00, 0x00, 0x7c, 0xf4, 0xff, 0xff, 0x08, 0x00, 0x00, 0x00,
  0x0c, 0x01, 0x00, 0x00, 0x20, 0x00, 0x00, 0x00, 0x00, 0x00, 0x00, 0x00,
  0x00, 0x00, 0x00, 0x00, 0x00, 0x00, 0x00, 0x00, 0x00, 0x00, 0x00, 0x00,
  0x00, 0x00, 0x00, 0x00, 0x00, 0x00, 0x00, 0x00, 0x00, 0x00, 0x00, 0x00,
  0x00, 0x00, 0x00, 0x00, 0x00, 0x00, 0x00, 0x00, 0x00, 0x00, 0x00, 0x00,
  0x00, 0x00, 0x00, 0x00, 0x00, 0x00, 0x00, 0x00, 0x00, 0x00, 0x00, 0x00,
  0x00, 0x00, 0x00, 0x00, 0x00, 0x00, 0x00, 0x00, 0x00, 0x00, 0x00, 0x00,
  0x00, 0x00, 0x00, 0x00, 0x00, 0x00, 0x00, 0x00, 0x00, 0x00, 0x00, 0x00,
  0x00, 0x00, 0x00, 0x00, 0x00, 0x00, 0x00, 0x00, 0x00, 0x00, 0x00, 0x00,
  0x00, 0x00, 0x00, 0x00, 0x00, 0x00, 0x00, 0x00, 0x00, 0x00, 0x00, 0x00,
  0x00, 0x00, 0x00, 0x00, 0x00, 0x00, 0x00, 0x00, 0x00, 0x00, 0x00, 0x00,
  0x00, 0x00, 0x00, 0x00, 0x00, 0x00, 0x00, 0x00, 0x00, 0x00, 0x00, 0x00,
  0x00, 0x00, 0x00, 0x00, 0x00, 0x00, 0x00, 0x00, 0x00, 0x00, 0x00, 0x00,
  0x00, 0x00, 0x00, 0x00, 0x00, 0x00, 0x00, 0x00, 0x00, 0x00, 0x00, 0x00,
  0x00, 0x00, 0x00, 0x00, 0x00, 0x00, 0x00, 0x00, 0x00, 0x00, 0x00, 0x00,
  0x00, 0x00, 0x00, 0x00, 0x00, 0x00, 0x00, 0x00, 0x00, 0x00, 0x00, 0x00,
  0x00, 0x00, 0x00, 0x00, 0x00, 0x00, 0x00, 0x00, 0x00, 0x00, 0x00, 0x00,
  0x00, 0x00, 0x00, 0x00, 0x00, 0x00, 0x00, 0x00, 0x00, 0x00, 0x00, 0x00,
  0x00, 0x00, 0x00, 0x00, 0x00, 0x00, 0x00, 0x00, 0x00, 0x00, 0x00, 0x00,
  0x00, 0x00, 0x00, 0x00, 0x00, 0x00, 0x00, 0x00, 0x00, 0x00, 0x00, 0x00,
  0x00, 0x00, 0x00, 0x00, 0x00, 0x00, 0x00, 0x00, 0x00, 0x00, 0x00, 0x00,
  0x00, 0x00, 0x00, 0x00, 0x00, 0x00, 0x00, 0x00, 0x00, 0x00, 0x00, 0x00,
  0x00, 0x00, 0x00, 0x00, 0x00, 0x00, 0x00, 0x00, 0x00, 0x00, 0x00, 0x00,
  0x00, 0x00, 0x00, 0x00, 0x20, 0x00, 0x00, 0x00, 0x22, 0x30, 0xc5, 0x38,
  0x9c, 0x56, 0xbe, 0x38, 0xe5, 0x4f, 0x94, 0x38, 0xef, 0x1d, 0x1e, 0x38,
  0x61, 0x35, 0xa0, 0x38, 0xe6, 0xcf, 0xaa, 0x38, 0x58, 0x6e, 0xb0, 0x38,
  0x9e, 0x68, 0x50, 0x38, 0x87, 0x9d, 0xb0, 0x38, 0x25, 0x00, 0x6c, 0x38,
  0x8e, 0x8a, 0x95, 0x38, 0xcc, 0xd9, 0xce, 0x38, 0xd9, 0x4a, 0x92, 0x38,
  0x9b, 0xb6, 0x95, 0x38, 0xfb, 0x08, 0x92, 0x38, 0xb7, 0xa7, 0x97, 0x38,
  0xb6, 0xfb, 0xb3, 0x38, 0xa1, 0x62, 0xb4, 0x38, 0x06, 0x2a, 0x5f, 0x38,
  0xe8, 0xea, 0x91, 0x38, 0x55, 0x6a, 0x65, 0x38, 0x7a, 0xed, 0x4b, 0x38,
  0x3f, 0xaf, 0x94, 0x38, 0xf7, 0x36, 0x96, 0x38, 0x34, 0x28, 0xb5, 0x38,
  0x89, 0xaa, 0xae, 0x38, 0x12, 0xcb, 0x81, 0x38, 0x0d, 0xf6, 0xb5, 0x38,
  0x77, 0xd6, 0xa9, 0x38, 0x7d, 0xf4, 0xdd, 0x38, 0xc0, 0xb1, 0xc3, 0x38,
  0x7a, 0x16, 0x95, 0x38, 0x0e, 0x00, 0x00, 0x00, 0x61, 0x72, 0x69, 0x74,
  0x68, 0x2e, 0x63, 0x6f, 0x6e, 0x73, 0x74, 0x61, 0x6e, 0x74, 0x00, 0x00,
  0x01, 0x00, 0x00, 0x00, 0x20, 0x00, 0x00, 0x00, 0x16, 0xf7, 0xff, 0xff,
  0x00, 0x00, 0x00, 0x01, 0x14, 0x00, 0x00, 0x00, 0x24, 0x03, 0x00, 0x00,
  0x06, 0x00, 0x00, 0x00, 0x00, 0x00, 0x00, 0x09, 0x64, 0x03, 0x00, 0x00,
  0x4c, 0xf6, 0xff, 0xff, 0x08, 0x00, 0x00, 0x00, 0x08, 0x02, 0x00, 0x00,
  0x40, 0x00, 0x00, 0x00, 0x00, 0x00, 0x00, 0x00, 0x00, 0x00, 0x00, 0x00,
  0x00, 0x00, 0x00, 0x00, 0x00, 0x00, 0x00, 0x00, 0x00, 0x00, 0x00, 0x00,
  0x00, 0x00, 0x00, 0x00, 0x00, 0x00, 0x00, 0x00, 0x00, 0x00, 0x00, 0x00,
  0x00, 0x00, 0x00, 0x00, 0x00, 0x00, 0x00, 0x00, 0x00, 0x00, 0x00, 0x00,
  0x00, 0x00, 0x00, 0x00, 0x00, 0x00, 0x00, 0x00, 0x00, 0x00, 0x00, 0x00,
  0x00, 0x00, 0x00, 0x00, 0x00, 0x00, 0x00, 0x00, 0x00, 0x00, 0x00, 0x00,
  0x00, 0x00, 0x00, 0x00, 0x00, 0x00, 0x00, 0x00, 0x00, 0x00, 0x00, 0x00,
  0x00, 0x00, 0x00, 0x00, 0x00, 0x00, 0x00, 0x00, 0x00, 0x00, 0x00, 0x00,
  0x00, 0x00, 0x00, 0x00, 0x00, 0x00, 0x00, 0x00, 0x00, 0x00, 0x00, 0x00,
  0x00, 0x00, 0x00, 0x00, 0x00, 0x00, 0x00, 0x00, 0x00, 0x00, 0x00, 0x00,
  0x00, 0x00, 0x00, 0x00, 0x00, 0x00, 0x00, 0x00, 0x00, 0x00, 0x00, 0x00,
  0x00, 0x00, 0x00, 0x00, 0x00, 0x00, 0x00, 0x00, 0x00, 0x00, 0x00, 0x00,
  0x00, 0x00, 0x00, 0x00, 0x00, 0x00, 0x00, 0x00, 0x00, 0x00, 0x00, 0x00,
  0x00, 0x00, 0x00, 0x00, 0x00, 0x00, 0x00, 0x00, 0x00, 0x00, 0x00, 0x00,
  0x00, 0x00, 0x00, 0x00, 0x00, 0x00, 0x00, 0x00, 0x00, 0x00, 0x00, 0x00,
  0x00, 0x00, 0x00, 0x00, 0x00, 0x00, 0x00, 0x00, 0x00, 0x00, 0x00, 0x00,
  0x00, 0x00, 0x00, 0x00, 0x00, 0x00, 0x00, 0x00, 0x00, 0x00, 0x00, 0x00,
  0x00, 0x00, 0x00, 0x00, 0x00, 0x00, 0x00, 0x00, 0x00, 0x00, 0x00, 0x00,
  0x00, 0x00, 0x00, 0x00, 0x00, 0x00, 0x00, 0x00, 0x00, 0x00, 0x00, 0x00,
  0x00, 0x00, 0x00, 0x00, 0x00, 0x00, 0x00, 0x00, 0x00, 0x00, 0x00, 0x00,
  0x00, 0x00, 0x00, 0x00, 0x00, 0x00, 0x00, 0x00, 0x00, 0x00, 0x00, 0x00,
  0x00, 0x00, 0x00, 0x00, 0x00, 0x00, 0x00, 0x00, 0x00, 0x00, 0x00, 0x00,
  0x00, 0x00, 0x00, 0x00, 0x00, 0x00, 0x00, 0x00, 0x00, 0x00, 0x00, 0x00,
  0x00, 0x00, 0x00, 0x00, 0x00, 0x00, 0x00, 0x00, 0x00, 0x00, 0x00, 0x00,
  0x00, 0x00, 0x00, 0x00, 0x00, 0x00, 0x00, 0x00, 0x00, 0x00, 0x00, 0x00,
  0x00, 0x00, 0x00, 0x00, 0x00, 0x00, 0x00, 0x00, 0x00, 0x00, 0x00, 0x00,
  0x00, 0x00, 0x00, 0x00, 0x00, 0x00, 0x00, 0x00, 0x00, 0x00, 0x00, 0x00,
  0x00, 0x00, 0x00, 0x00, 0x00, 0x00, 0x00, 0x00, 0x00, 0x00, 0x00, 0x00,
  0x00, 0x00, 0x00, 0x00, 0x00, 0x00, 0x00, 0x00, 0x00, 0x00, 0x00, 0x00,
  0x00, 0x00, 0x00, 0x00, 0x00, 0x00, 0x00, 0x00, 0x00, 0x00, 0x00, 0x00,
  0x00, 0x00, 0x00, 0x00, 0x00, 0x00, 0x00, 0x00, 0x00, 0x00, 0x00, 0x00,
  0x00, 0x00, 0x00, 0x00, 0x00, 0x00, 0x00, 0x00, 0x00, 0x00, 0x00, 0x00,
  0x00, 0x00, 0x00, 0x00, 0x00, 0x00, 0x00, 0x00, 0x00, 0x00, 0x00, 0x00,
  0x00, 0x00, 0x00, 0x00, 0x00, 0x00, 0x00, 0x00, 0x00, 0x00, 0x00, 0x00,
  0x00, 0x00, 0x00, 0x00, 0x00, 0x00, 0x00, 0x00, 0x00, 0x00, 0x00, 0x00,
  0x00, 0x00, 0x00, 0x00, 0x00, 0x00, 0x00, 0x00, 0x00, 0x00, 0x00, 0x00,
  0x00, 0x00, 0x00, 0x00, 0x00, 0x00, 0x00, 0x00, 0x00, 0x00, 0x00, 0x00,
  0x00, 0x00, 0x00, 0x00, 0x00, 0x00, 0x00, 0x00, 0x00, 0x00, 0x00, 0x00,
  0x00, 0x00, 0x00, 0x00, 0x00, 0x00, 0x00, 0x00, 0x00, 0x00, 0x00, 0x00,
  0x00, 0x00, 0x00, 0x00, 0x00, 0x00, 0x00, 0x00, 0x00, 0x00, 0x00, 0x00,
  0x00, 0x00, 0x00, 0x00, 0x00, 0x00, 0x00, 0x00, 0x00, 0x00, 0x00, 0x00,
  0x00, 0x00, 0x00, 0x00, 0x00, 0x00, 0x00, 0x00, 0x00, 0x00, 0x00, 0x00,
  0x00, 0x00, 0x00, 0x00, 0x00, 0x00, 0x00, 0x00, 0x00, 0x00, 0x00, 0x00,
  0x40, 0x00, 0x00, 0x00, 0xf6, 0xca, 0xad, 0x3b, 0x6a, 0x6d, 0x9f, 0x3b,
  0xc7, 0x5b, 0x50, 0x3b, 0x98, 0x74, 0x36, 0x3b, 0x52, 0xc8, 0xdb, 0x3b,
  0x2d, 0x6e, 0x06, 0x3c, 0x5e, 0xa0, 0x17, 0x3c, 0x48, 0x95, 0x6e, 0x3b,
  0xfd, 0xb4, 0xe2, 0x3b, 0x8d, 0xba, 0xcf, 0x3b, 0x35, 0x72, 0xc4, 0x3b,
  0x31, 0xff, 0xba, 0x3b, 0xf8, 0xe9, 0x8f, 0x3b, 0x86, 0x93, 0xd5, 0x3b,
  0xec, 0x11, 0xd7, 0x3b, 0x42, 0x61, 0xa3, 0x3b, 0xbd, 0xb2, 0xd8, 0x3b,
  0xec, 0xd6, 0xcb, 0x3b, 0x20, 0x3b, 0xbd, 0x3b, 0x83, 0xb7, 0xc2, 0x3b,
  0x4f, 0xb0, 0x8a, 0x3b, 0xf8, 0xc7, 0xb8, 0x3b, 0x93, 0xfd, 0x8f, 0x3b,
  0x39, 0xf4, 0x2e, 0x3b, 0xee, 0xe2, 0xb8, 0x3b, 0x57, 0xdc, 0xd2, 0x3b,
  0xd7, 0x9c, 0xab, 0x3b, 0x72, 0xaf, 0xdc, 0x3b, 0x31, 0xfc, 0x76, 0x3b,
  0xfd, 0x16, 0xb2, 0x3b, 0x83, 0xcf, 0xec, 0x3b, 0x82, 0x9a, 0xd8, 0x3b,
  0x32, 0x73, 0xa6, 0x3b, 0xfa, 0x55, 0xa5, 0x3b, 0xac, 0x0d, 0xb6, 0x3b,
  0xdc, 0x02, 0xb0, 0x3b, 0xf5, 0x9a, 0x14, 0x3c, 0xac, 0x41, 0xb5, 0x3b,
  0x10, 0x91, 0x89, 0x3b, 0xdf, 0x91, 0xa1, 0x3b, 0x69, 0x73, 0xb8, 0x3b,
  0x4f, 0xc8, 0xd4, 0x3b, 0xba, 0x10, 0x80, 0x3b, 0xb9, 0x4d, 0xaf, 0x3b,
  0x8b, 0xc0, 0xaf, 0x3b, 0xaf, 0x2e, 0xca, 0x3b, 0x46, 0xf0, 0x90, 0x3b,
  0x45, 0x07, 0xd3, 0x3b, 0x5e, 0x09, 0x70, 0x3b, 0x17, 0xc7, 0xac, 0x3b,
  0x8b, 0x2b, 0xa9, 0x3b, 0xda, 0xd5, 0xc4, 0x3b, 0x9c, 0xa2, 0xcb, 0x3b,
  0x43, 0xf6, 0xb3, 0x3b, 0xf4, 0x94, 0x93, 0x3b, 0xfb, 0xcb, 0x9a, 0x3b,
  0xda, 0x20, 0xd4, 0x3b, 0x37, 0x9c, 0xb1, 0x3b, 0x2c, 0x62, 0x82, 0x3b,
  0xc8, 0xaf, 0xa9, 0x3b, 0x3c, 0x14, 0xc5, 0x3b, 0x8a, 0x44, 0x6a, 0x3b,
  0xb5, 0x6f, 0xbc, 0x3b, 0xf2, 0x68, 0xf9, 0x3b, 0x47, 0x00, 0x00, 0x00,
  0x65, 0x61, 0x67, 0x6c, 0x65, 0x65, 0x79, 0x65, 0x5f, 0x75, 0x6c, 0x74,
  0x72, 0x61, 0x74, 0x69, 0x6e, 0x79, 0x5f, 0x67, 0x65, 0x6f, 0x6d, 0x65,
  0x74, 0x72, 0x79, 0x5f, 0x61, 0x75, 0x67, 0x5f, 0x31, 0x2f, 0x73, 0x65,
  0x70, 0x61, 0x72, 0x61, 0x62, 0x6c, 0x65, 0x5f, 0x63, 0x6f, 0x6e, 0x76,
  0x32, 0x64, 0x5f, 0x31, 0x5f, 0x32, 0x2f, 0x73, 0x65, 0x70, 0x61, 0x72,
  0x61, 0x62, 0x6c, 0x65, 0x5f, 0x63, 0x6f, 0x6e, 0x76, 0x32, 0x64, 0x00,
  0x04, 0x00, 0x00, 0x00, 0x40, 0x00, 0x00, 0x00, 0x01, 0x00, 0x00, 0x00,
  0x01, 0x00, 0x00, 0x00, 0x20, 0x00, 0x00, 0x00, 0xa6, 0xfa, 0xff, 0xff,
  0x00, 0x00, 0x00, 0x01, 0x14, 0x00, 0x00, 0x00, 0x24, 0x03, 0x00, 0x00,
  0x05, 0x00, 0x00, 0x00, 0x00, 0x00, 0x00, 0x02, 0x20, 0x04, 0x00, 0x00,
  0xdc, 0xf9, 0xff, 0xff, 0x08, 0x00, 0x00, 0x00, 0x08, 0x02, 0x00, 0x00,
  0x40, 0x00, 0x00, 0x00, 0x00, 0x00, 0x00, 0x00, 0x00, 0x00, 0x00, 0x00,
  0x00, 0x00, 0x00, 0x00, 0x00, 0x00, 0x00, 0x00, 0x00, 0x00, 0x00, 0x00,
  0x00, 0x00, 0x00, 0x00, 0x00, 0x00, 0x00, 0x00, 0x00, 0x00, 0x00, 0x00,
  0x00, 0x00, 0x00, 0x00, 0x00, 0x00, 0x00, 0x00, 0x00, 0x00, 0x00, 0x00,
  0x00, 0x00, 0x00, 0x00, 0x00, 0x00, 0x00, 0x00, 0x00, 0x00, 0x00, 0x00,
  0x00, 0x00, 0x00, 0x00, 0x00, 0x00, 0x00, 0x00, 0x00, 0x00, 0x00, 0x00,
  0x00, 0x00, 0x00, 0x00, 0x00, 0x00, 0x00, 0x00, 0x00, 0x00, 0x00, 0x00,
  0x00, 0x00, 0x00, 0x00, 0x00, 0x00, 0x00, 0x00, 0x00, 0x00, 0x00, 0x00,
  0x00, 0x00, 0x00, 0x00, 0x00, 0x00, 0x00, 0x00, 0x00, 0x00, 0x00, 0x00,
  0x00, 0x00, 0x00, 0x00, 0x00, 0x00, 0x00, 0x00, 0x00, 0x00, 0x00, 0x00,
  0x00, 0x00, 0x00, 0x00, 0x00, 0x00, 0x00, 0x00, 0x00, 0x00, 0x00, 0x00,
  0x00, 0x00, 0x00, 0x00, 0x00, 0x00, 0x00, 0x00, 0x00, 0x00, 0x00, 0x00,
  0x00, 0x00, 0x00, 0x00, 0x00, 0x00, 0x00, 0x00, 0x00, 0x00, 0x00, 0x00,
  0x00, 0x00, 0x00, 0x00, 0x00, 0x00, 0x00, 0x00, 0x00, 0x00, 0x00, 0x00,
  0x00, 0x00, 0x00, 0x00, 0x00, 0x00, 0x00, 0x00, 0x00, 0x00, 0x00, 0x00,
  0x00, 0x00, 0x00, 0x00, 0x00, 0x00, 0x00, 0x00, 0x00, 0x00, 0x00, 0x00,
  0x00, 0x00, 0x00, 0x00, 0x00, 0x00, 0x00, 0x00, 0x00, 0x00, 0x00, 0x00,
  0x00, 0x00, 0x00, 0x00, 0x00, 0x00, 0x00, 0x00, 0x00, 0x00, 0x00, 0x00,
  0x00, 0x00, 0x00, 0x00, 0x00, 0x00, 0x00, 0x00, 0x00, 0x00, 0x00, 0x00,
  0x00, 0x00, 0x00, 0x00, 0x00, 0x00, 0x00, 0x00, 0x00, 0x00, 0x00, 0x00,
  0x00, 0x00, 0x00, 0x00, 0x00, 0x00, 0x00, 0x00, 0x00, 0x00, 0x00, 0x00,
  0x00, 0x00, 0x00, 0x00, 0x00, 0x00, 0x00, 0x00, 0x00, 0x00, 0x00, 0x00,
  0x00, 0x00, 0x00, 0x00, 0x00, 0x00, 0x00, 0x00, 0x00, 0x00, 0x00, 0x00,
  0x00, 0x00, 0x00, 0x00, 0x00, 0x00, 0x00, 0x00, 0x00, 0x00, 0x00, 0x00,
  0x00, 0x00, 0x00, 0x00, 0x00, 0x00, 0x00, 0x00, 0x00, 0x00, 0x00, 0x00,
  0x00, 0x00, 0x00, 0x00, 0x00, 0x00, 0x00, 0x00, 0x00, 0x00, 0x00, 0x00,
  0x00, 0x00, 0x00, 0x00, 0x00, 0x00, 0x00, 0x00, 0x00, 0x00, 0x00, 0x00,
  0x00, 0x00, 0x00, 0x00, 0x00, 0x00, 0x00, 0x00, 0x00, 0x00, 0x00, 0x00,
  0x00, 0x00, 0x00, 0x00, 0x00, 0x00, 0x00, 0x00, 0x00, 0x00, 0x00, 0x00,
  0x00, 0x00, 0x00, 0x00, 0x00, 0x00, 0x00, 0x00, 0x00, 0x00, 0x00, 0x00,
  0x00, 0x00, 0x00, 0x00, 0x00, 0x00, 0x00, 0x00, 0x00, 0x00, 0x00, 0x00,
  0x00, 0x00, 0x00, 0x00, 0x00, 0x00, 0x00, 0x00, 0x00, 0x00, 0x00, 0x00,
  0x00, 0x00, 0x00, 0x00, 0x00, 0x00, 0x00, 0x00, 0x00, 0x00, 0x00, 0x00,
  0x00, 0x00, 0x00, 0x00, 0x00, 0x00, 0x00, 0x00, 0x00, 0x00, 0x00, 0x00,
  0x00, 0x00, 0x00, 0x00, 0x00, 0x00, 0x00, 0x00, 0x00, 0x00, 0x00, 0x00,
  0x00, 0x00, 0x00, 0x00, 0x00, 0x00, 0x00, 0x00, 0x00, 0x00, 0x00, 0x00,
  0x00, 0x00, 0x00, 0x00, 0x00, 0x00, 0x00, 0x00, 0x00, 0x00, 0x00, 0x00,
  0x00, 0x00, 0x00, 0x00, 0x00, 0x00, 0x00, 0x00, 0x00, 0x00, 0x00, 0x00,
  0x00, 0x00, 0x00, 0x00, 0x00, 0x00, 0x00, 0x00, 0x00, 0x00, 0x00, 0x00,
  0x00, 0x00, 0x00, 0x00, 0x00, 0x00, 0x00, 0x00, 0x00, 0x00, 0x00, 0x00,
  0x00, 0x00, 0x00, 0x00, 0x00, 0x00, 0x00, 0x00, 0x00, 0x00, 0x00, 0x00,
  0x00, 0x00, 0x00, 0x00, 0x00, 0x00, 0x00, 0x00, 0x00, 0x00, 0x00, 0x00,
  0x00, 0x00, 0x00, 0x00, 0x00, 0x00, 0x00, 0x00, 0x00, 0x00, 0x00, 0x00,
  0x40, 0x00, 0x00, 0x00, 0x7b, 0x4e, 0x54, 0x39, 0xf6, 0xc1, 0x42, 0x39,
  0x42, 0x88, 0xfe, 0x38, 0x8e, 0xe3, 0xde, 0x38, 0x73, 0x3e, 0x86, 0x39,
  0x9b, 0x38, 0xa4, 0x39, 0x5b, 0x3a, 0xb9, 0x39, 0x39, 0xba, 0x11, 0x39,
  0x34, 0x79, 0x8a, 0x39, 0x4d, 0xc3, 0x7d, 0x39, 0xe1, 0xfa, 0x6f, 0x39,
  0xcb, 0x6f, 0x64, 0x39, 0x6a, 0xce, 0x2f, 0x39, 0x02, 0x74, 0x82, 0x39,
  0x94, 0x5d, 0x83, 0x39, 0x09, 0x96, 0x47, 0x39, 0x2c, 0x5c, 0x84, 0x39,
  0x09, 0x03, 0x79, 0x39, 0x78, 0x2a, 0x67, 0x39, 0x14, 0xde, 0x6d, 0x39,
  0x52, 0x6c, 0x29, 0x39, 0xdf, 0xba, 0x61, 0x39, 0x5d, 0xe6, 0x2f, 0x39,
  0x9e, 0xb9, 0xd5, 0x38, 0xce, 0xdb, 0x61, 0x39, 0x63, 0xcb, 0x80, 0x39,
  0xad, 0xa4, 0x51, 0x39, 0x9f, 0xcb, 0x86, 0x39, 0x02, 0xdc, 0x16, 0x39,
  0x48, 0x8e, 0x59, 0x39, 0x0f, 0xa5, 0x90, 0x39, 0x5f, 0x4d, 0x84, 0x39,
  0x25, 0x56, 0x4b, 0x39, 0xb8, 0xf9, 0x49, 0x39, 0xd3, 0x65, 0x5e, 0x39,
  0x3a, 0x04, 0x57, 0x39, 0x8d, 0x89, 0xb5, 0x39, 0x9e, 0x6c, 0x5d, 0x39,
  0x6b, 0x0d, 0x28, 0x39, 0xf6, 0x5f, 0x45, 0x39, 0x92, 0x53, 0x61, 0x39,
  0xe2, 0xf7, 0x81, 0x39, 0x0f, 0x72, 0x1c, 0x39, 0xf3, 0x26, 0x56, 0x39,
  0x37, 0xb3, 0x56, 0x39, 0xc8, 0xfc, 0x76, 0x39, 0xd9, 0x0e, 0x31, 0x39,
  0x9c, 0xe5, 0x80, 0x39, 0x7f, 0x9d, 0x12, 0x39, 0x05, 0x11, 0x53, 0x39,
  0xcf, 0xa8, 0x4e, 0x39, 0x9b, 0x74, 0x70, 0x39, 0x21, 0xc3, 0x78, 0x39,
  0xc4, 0xd7, 0x5b, 0x39, 0x7c, 0x49, 0x34, 0x39, 0xd4, 0x19, 0x3d, 0x39,
  0x99, 0x91, 0x81, 0x39, 0x4d, 0xf8, 0x58, 0x39, 0x04, 0x47, 0x1f, 0x39,
  0x5a, 0x4a, 0x4f, 0x39, 0xd0, 0xc0, 0x70, 0x39, 0x71, 0x17, 0x0f, 0x39,
  0xf9, 0x31, 0x66, 0x39, 0x2a, 0x57, 0x98, 0x39, 0x01, 0x01, 0x00, 0x00,
  0x65, 0x61, 0x67, 0x6c, 0x65, 0x65, 0x79, 0x65, 0x5f, 0x75, 0x6c, 0x74,
  0x72, 0x61, 0x74, 0x69, 0x6e, 0x79, 0x5f, 0x67, 0x65, 0x6f, 0x6d, 0x65,
  0x74, 0x72, 0x79, 0x5f, 0x61, 0x75, 0x67, 0x5f, 0x31, 0x2f, 0x73, 0x65,
  0x70, 0x61, 0x72, 0x61, 0x62, 0x6c, 0x65, 0x5f, 0x63, 0x6f, 0x6e, 0x76,
  0x32, 0x64, 0x5f, 0x31, 0x5f, 0x32, 0x2f, 0x52, 0x65, 0x6c, 0x75, 0x3b,
  0x65, 0x61, 0x67, 0x6c, 0x65, 0x65, 0x79, 0x65, 0x5f, 0x75, 0x6c, 0x74,
  0x72, 0x61, 0x74, 0x69, 0x6e, 0x79, 0x5f, 0x67, 0x65, 0x6f, 0x6d, 0x65,
  0x74, 0x72, 0x79, 0x5f, 0x61, 0x75, 0x67, 0x5f, 0x31, 0x2f, 0x73, 0x65,
  0x70, 0x61, 0x72, 0x61, 0x62, 0x6c, 0x65, 0x5f, 0x63, 0x6f, 0x6e, 0x76,
  0x32, 0x64, 0x5f, 0x31, 0x5f, 0x32, 0x2f, 0x42, 0x69, 0x61, 0x73, 0x41,
  0x64, 0x64, 0x3b, 0x65, 0x61, 0x67, 0x6c, 0x65, 0x65, 0x79, 0x65, 0x5f,
  0x75, 0x6c, 0x74, 0x72, 0x61, 0x74, 0x69, 0x6e, 0x79, 0x5f, 0x67, 0x65,
  0x6f, 0x6d, 0x65, 0x74, 0x72, 0x79, 0x5f, 0x61, 0x75, 0x67, 0x5f, 0x31,
  0x2f, 0x73, 0x65, 0x70, 0x61, 0x72, 0x61, 0x62, 0x6c, 0x65, 0x5f, 0x63,
  0x6f, 0x6e, 0x76, 0x32, 0x64, 0x5f, 0x31, 0x5f, 0x32, 0x2f, 0x73, 0x65,
  0x70, 0x61, 0x72, 0x61, 0x62, 0x6c, 0x65, 0x5f, 0x63, 0x6f, 0x6e, 0x76,
  0x32, 0x64, 0x3b, 0x65, 0x61, 0x67, 0x6c, 0x65, 0x65, 0x79, 0x65, 0x5f,
  0x75, 0x6c, 0x74, 0x72, 0x61, 0x74, 0x69, 0x6e, 0x79, 0x5f, 0x67, 0x65,
  0x6f, 0x6d, 0x65, 0x74, 0x72, 0x79, 0x5f, 0x61, 0x75, 0x67, 0x5f, 0x31,
  0x2f, 0x73, 0x65, 0x70, 0x61, 0x72, 0x61, 0x62, 0x6c, 0x65, 0x5f, 0x63,
  0x6f, 0x6e, 0x76, 0x32, 0x64, 0x5f, 0x31, 0x5f, 0x32, 0x2f, 0x53, 0x71,
  0x75, 0x65, 0x65, 0x7a, 0x65, 0x00, 0x00, 0x00, 0x01, 0x00, 0x00, 0x00,
  0x40, 0x00, 0x00, 0x00, 0xe6, 0xfe, 0xff, 0xff, 0x00, 0x00, 0x00, 0x01,
  0x14, 0x00, 0x00, 0x00, 0x40, 0x00, 0x00, 0x00, 0x04, 0x00, 0x00, 0x00,
  0x00, 0x00, 0x00, 0x09, 0x6c, 0x00, 0x00, 0x00, 0x1c, 0xfe, 0xff, 0xff,
  0x08, 0x00, 0x00, 0x00, 0x1c, 0x00, 0x00, 0x00, 0x02, 0x00, 0x00, 0x00,
  0x00, 0x00, 0x00, 0x00, 0x00, 0x00, 0x00, 0x00, 0x00, 0x00, 0x00, 0x00,
  0x00, 0x00, 0x00, 0x00, 0x00, 0x00, 0x00, 0x00, 0x02, 0x00, 0x00, 0x00,
  0x4d, 0x68, 0x1b, 0x3c, 0xc6, 0xac, 0x11, 0x3c, 0x30, 0x00, 0x00, 0x00,
  0x65, 0x61, 0x67, 0x6c, 0x65, 0x65, 0x79, 0x65, 0x5f, 0x75, 0x6c, 0x74,
  0x72, 0x61, 0x74, 0x69, 0x6e, 0x79, 0x5f, 0x67, 0x65, 0x6f, 0x6d, 0x65,
  0x74, 0x72, 0x79, 0x5f, 0x61, 0x75, 0x67, 0x5f, 0x31, 0x2f, 0x64, 0x65,
  0x6e, 0x73, 0x65, 0x5f, 0x31, 0x2f, 0x4d, 0x61, 0x74, 0x4d, 0x75, 0x6c,
  0x00, 0x00, 0x00, 0x00, 0x02, 0x00, 0x00, 0x00, 0x02, 0x00, 0x00, 0x00,
  0x40, 0x00, 0x00, 0x00, 0x76, 0xff, 0xff, 0xff, 0x00, 0x00, 0x00, 0x01,
  0x14, 0x00, 0x00, 0x00, 0x3c, 0x00, 0x00, 0x00, 0x03, 0x00, 0x00, 0x00,
  0x00, 0x00, 0x00, 0x02, 0x68, 0x00, 0x00, 0x00, 0xac, 0xfe, 0xff, 0xff,
  0x08, 0x00, 0x00, 0x00, 0x18, 0x00, 0x00, 0x00, 0x02, 0x00, 0x00, 0x00,
  0x00, 0x00, 0x00, 0x00, 0x00, 0x00, 0x00, 0x00, 0x00, 0x00, 0x00, 0x00,
  0x00, 0x00, 0x00, 0x00, 0x02, 0x00, 0x00, 0x00, 0xe1, 0xaf, 0x67, 0x38,
  0x6b, 0x2d, 0x59, 0x38, 0x31, 0x00, 0x00, 0x00, 0x65, 0x61, 0x67, 0x6c,
  0x65, 0x65, 0x79, 0x65, 0x5f, 0x75, 0x6c, 0x74, 0x72, 0x61, 0x74, 0x69,
  0x6e, 0x79, 0x5f, 0x67, 0x65, 0x6f, 0x6d, 0x65, 0x74, 0x72, 0x79, 0x5f,
  0x61, 0x75, 0x67, 0x5f, 0x31, 0x2f, 0x64, 0x65, 0x6e, 0x73, 0x65, 0x5f,
  0x31, 0x2f, 0x42, 0x69, 0x61, 0x73, 0x41, 0x64, 0x64, 0x00, 0x00, 0x00,
  0x01, 0x00, 0x00, 0x00, 0x02, 0x00, 0x00, 0x00, 0x00, 0x00, 0x16, 0x00,
  0x1c, 0x00, 0x18, 0x00, 0x17, 0x00, 0x10, 0x00, 0x0c, 0x00, 0x08, 0x00,
  0x00, 0x00, 0x00, 0x00, 0x00, 0x00, 0x07, 0x00, 0x16, 0x00, 0x00, 0x00,
  0x00, 0x00, 0x00, 0x01, 0x18, 0x00, 0x00, 0x00, 0x18, 0x00, 0x00, 0x00,
  0x02, 0x00, 0x00, 0x00, 0x00, 0x00, 0x00, 0x02, 0x64, 0x00, 0x00, 0x00,
  0x04, 0x00, 0x04, 0x00, 0x04, 0x00, 0x00, 0x00, 0x53, 0x00, 0x00, 0x00,
  0x65, 0x61, 0x67, 0x6c, 0x65, 0x65, 0x79, 0x65, 0x5f, 0x75, 0x6c, 0x74,
  0x72, 0x61, 0x74, 0x69, 0x6e, 0x79, 0x5f, 0x67, 0x65, 0x6f, 0x6d, 0x65,
  0x74, 0x72, 0x79, 0x5f, 0x61, 0x75, 0x67, 0x5f, 0x31, 0x2f, 0x67, 0x6c,
  0x6f, 0x62, 0x61, 0x6c, 0x5f, 0x61, 0x76, 0x65, 0x72, 0x61, 0x67, 0x65,
  0x5f, 0x70, 0x6f, 0x6f, 0x6c, 0x69, 0x6e, 0x67, 0x32, 0x64, 0x5f, 0x31,
  0x2f, 0x4d, 0x65, 0x61, 0x6e, 0x2f, 0x72, 0x65, 0x64, 0x75, 0x63, 0x74,
  0x69, 0x6f, 0x6e, 0x5f, 0x69, 0x6e, 0x64, 0x69, 0x63, 0x65, 0x73, 0x00,
  0x01, 0x00, 0x00, 0x00, 0x02, 0x00, 0x00, 0x00, 0x00, 0x00, 0x16, 0x00,
  0x20, 0x00, 0x1c, 0x00, 0x1b, 0x00, 0x14, 0x00, 0x10, 0x00, 0x0c, 0x00,
  0x00, 0x00, 0x00, 0x00, 0x08, 0x00, 0x07, 0x00, 0x16, 0x00, 0x00, 0x00,
  0x00, 0x00, 0x00, 0x01, 0x18, 0x00, 0x00, 0x00, 0x34, 0x00, 0x00, 0x00,
  0x54, 0x00, 0x00, 0x00, 0x01, 0x00, 0x00, 0x00, 0x00, 0x00, 0x00, 0x09,
  0x6c, 0x00, 0x00, 0x00, 0x04, 0x00, 0x00, 0x00, 0xff, 0xff, 0xff, 0xff,
  0x30, 0x00, 0x00, 0x00, 0x30, 0x00, 0x00, 0x00, 0x01, 0x00, 0x00, 0x00,
  0x0c, 0x00, 0x0c, 0x00, 0x00, 0x00, 0x00, 0x00, 0x08, 0x00, 0x04, 0x00,
  0x0c, 0x00, 0x00, 0x00, 0x08, 0x00, 0x00, 0x00, 0x14, 0x00, 0x00, 0x00,
  0x01, 0x00, 0x00, 0x00, 0x80, 0xff, 0xff, 0xff, 0xff, 0xff, 0xff, 0xff,
  0x00, 0x00, 0x00, 0x00, 0x01, 0x00, 0x00, 0x00, 0x00, 0x00, 0x80, 0x3f,
  0x1e, 0x00, 0x00, 0x00, 0x73, 0x65, 0x72, 0x76, 0x69, 0x6e, 0x67, 0x5f,
  0x64, 0x65, 0x66, 0x61, 0x75, 0x6c, 0x74, 0x5f, 0x6b, 0x65, 0x72, 0x61,
  0x73, 0x5f, 0x74, 0x65, 0x6e, 0x73, 0x6f, 0x72, 0x3a, 0x30, 0x00, 0x00,
  0x04, 0x00, 0x00, 0x00, 0x01, 0x00, 0x00, 0x00, 0x30, 0x00, 0x00, 0x00,
  0x30, 0x00, 0x00, 0x00, 0x01, 0x00, 0x00, 0x00, 0x08, 0x00, 0x00, 0x00,
  0xa8, 0x00, 0x00, 0x00, 0x90, 0x00, 0x00, 0x00, 0x74, 0x00, 0x00, 0x00,
  0x54, 0x00, 0x00, 0x00, 0x40, 0x00, 0x00, 0x00, 0x2c, 0x00, 0x00, 0x00,
  0x18, 0x00, 0x00, 0x00, 0x04, 0x00, 0x00, 0x00, 0x84, 0xff, 0xff, 0xff,
  0x19, 0x00, 0x00, 0x00, 0x02, 0x00, 0x00, 0x00, 0x00, 0x00, 0x00, 0x19,
  0x94, 0xff, 0xff, 0xff, 0x09, 0x00, 0x00, 0x00, 0x04, 0x00, 0x00, 0x00,
  0x00, 0x00, 0x00, 0x09, 0xa4, 0xff, 0xff, 0xff, 0x28, 0x00, 0x00, 0x00,
  0x02, 0x00, 0x00, 0x00, 0x00, 0x00, 0x00, 0x28, 0xb4, 0xff, 0xff, 0xff,
  0x04, 0x00, 0x00, 0x00, 0x03, 0x00, 0x00, 0x00, 0x00, 0x00, 0x00, 0x04,
  0xc4, 0xff, 0xff, 0xff, 0x11, 0x00, 0x00, 0x00, 0x02, 0x00, 0x00, 0x00,
  0x00, 0x00, 0x00, 0x11, 0x0c, 0x00, 0x0e, 0x00, 0x0d, 0x00, 0x00, 0x00,
  0x08, 0x00, 0x04, 0x00, 0x0c, 0x00, 0x00, 0x00, 0x03, 0x00, 0x00, 0x00,
  0x03, 0x00, 0x00, 0x00, 0x00, 0x03, 0x0a, 0x00, 0x08, 0x00, 0x00, 0x00,
  0x00, 0x00, 0x04, 0x00, 0x0a, 0x00, 0x00, 0x00, 0x02, 0x00, 0x00, 0x00,
  0x0c, 0x00, 0x10, 0x00, 0x0f, 0x00, 0x00, 0x00, 0x08, 0x00, 0x04, 0x00,
  0x0c, 0x00, 0x00, 0x00, 0x12, 0x00, 0x00, 0x00, 0x02, 0x00, 0x00, 0x00,
  0x00, 0x00, 0x00, 0x12,
};
const unsigned int g_human_detect_model_data_len = 15088;
#endif  // G_HUMAN_DETECT_MODEL_DATA_H
