// Auto-generated (Retrained in Sketchboard)
#ifndef G_HUMAN_DETECT_MODEL_DATA_H
#define G_HUMAN_DETECT_MODEL_DATA_H

extern const unsigned char g_human_detect_model_data[];
extern const unsigned int g_human_detect_model_data_len;

const unsigned char g_human_detect_model_data[] = {
0x20, 0x00, 0x00, 0x00, 0x54, 0x46, 0x4c, 0x33, 0x00, 0x00, 0x00, 0x00, 
0x14, 0x00, 0x20, 0x00, 0x1c, 0x00, 0x18, 0x00, 0x14, 0x00, 0x10, 0x00, 
0x0c, 0x00, 0x00, 0x00, 0x08, 0x00, 0x04, 0x00, 0x14, 0x00, 0x00, 0x00, 
0x1c, 0x00, 0x00, 0x00, 0x98, 0x00, 0x00, 0x00, 0xf0, 0x00, 0x00, 0x00, 
0x90, 0x1a, 0x00, 0x00, 0xa0, 0x1a, 0x00, 0x00, 0xa8, 0x30, 0x00, 0x00, 
0x03, 0x00, 0x00, 0x00, 0x01, 0x00, 0x00, 0x00, 0x10, 0x00, 0x00, 0x00, 
0x00, 0x00, 0x0a, 0x00, 0x10, 0x00, 0x0c, 0x00, 0x08, 0x00, 0x04, 0x00, 
0x0a, 0x00, 0x00, 0x00, 0x0c, 0x00, 0x00, 0x00, 0x1c, 0x00, 0x00, 0x00, 
0x3c, 0x00, 0x00, 0x00, 0x0f, 0x00, 0x00, 0x00, 0x73, 0x65, 0x72, 0x76, 
0x69, 0x6e, 0x67, 0x5f, 0x64, 0x65, 0x66, 0x61, 0x75, 0x6c, 0x74, 0x00, 
0x01, 0x00, 0x00, 0x00, 0x04, 0x00, 0x00, 0x00, 0x90, 0xff, 0xff, 0xff, 
0x15, 0x00, 0x00, 0x00, 0x04, 0x00, 0x00, 0x00, 0x08, 0x00, 0x00, 0x00, 
0x6f, 0x75, 0x74, 0x70, 0x75, 0x74, 0x5f, 0x30, 0x00, 0x00, 0x00, 0x00, 
0x01, 0x00, 0x00, 0x00, 0x04, 0x00, 0x00, 0x00, 0x4e, 0xe5, 0xff, 0xff, 
0x04, 0x00, 0x00, 0x00, 0x0c, 0x00, 0x00, 0x00, 0x6b, 0x65, 0x72, 0x61, 
0x73, 0x5f, 0x74, 0x65, 0x6e, 0x73, 0x6f, 0x72, 0x00, 0x00, 0x00, 0x00, 
0x02, 0x00, 0x00, 0x00, 0x34, 0x00, 0x00, 0x00, 0x04, 0x00, 0x00, 0x00, 
0xdc, 0xff, 0xff, 0xff, 0x18, 0x00, 0x00, 0x00, 0x04, 0x00, 0x00, 0x00, 
0x13, 0x00, 0x00, 0x00, 0x43, 0x4f, 0x4e, 0x56, 0x45, 0x52, 0x53, 0x49, 
0x4f, 0x4e, 0x5f, 0x4d, 0x45, 0x54, 0x41, 0x44, 0x41, 0x54, 0x41, 0x00, 
0x08, 0x00, 0x0c, 0x00, 0x08, 0x00, 0x04, 0x00, 0x08, 0x00, 0x00, 0x00, 
0x17, 0x00, 0x00, 0x00, 0x04, 0x00, 0x00, 0x00, 0x13, 0x00, 0x00, 0x00, 
0x6d, 0x69, 0x6e, 0x5f, 0x72, 0x75, 0x6e, 0x74, 0x69, 0x6d, 0x65, 0x5f, 
0x76, 0x65, 0x72, 0x73, 0x69, 0x6f, 0x6e, 0x00, 0x19, 0x00, 0x00, 0x00, 
0x9c, 0x19, 0x00, 0x00, 0x94, 0x19, 0x00, 0x00, 0x7c, 0x19, 0x00, 0x00, 
0x64, 0x19, 0x00, 0x00, 0x14, 0x19, 0x00, 0x00, 0x84, 0x18, 0x00, 0x00, 
0x74, 0x06, 0x00, 0x00, 0x24, 0x06, 0x00, 0x00, 0x94, 0x01, 0x00, 0x00, 
0x64, 0x01, 0x00, 0x00, 0x0c, 0x01, 0x00, 0x00, 0xf8, 0x00, 0x00, 0x00, 
0xe4, 0x00, 0x00, 0x00, 0xdc, 0x00, 0x00, 0x00, 0xd4, 0x00, 0x00, 0x00, 
0xcc, 0x00, 0x00, 0x00, 0xc4, 0x00, 0x00, 0x00, 0xbc, 0x00, 0x00, 0x00, 
0xb4, 0x00, 0x00, 0x00, 0xac, 0x00, 0x00, 0x00, 0xa4, 0x00, 0x00, 0x00, 
0x9c, 0x00, 0x00, 0x00, 0x94, 0x00, 0x00, 0x00, 0x74, 0x00, 0x00, 0x00, 
0x04, 0x00, 0x00, 0x00, 0x2e, 0xe6, 0xff, 0xff, 0x04, 0x00, 0x00, 0x00, 
0x60, 0x00, 0x00, 0x00, 0x0c, 0x00, 0x00, 0x00, 0x08, 0x00, 0x0e, 0x00, 
0x08, 0x00, 0x04, 0x00, 0x08, 0x00, 0x00, 0x00, 0x10, 0x00, 0x00, 0x00, 
0x28, 0x00, 0x00, 0x00, 0x00, 0x00, 0x06, 0x00, 0x08, 0x00, 0x04, 0x00, 
0x06, 0x00, 0x00, 0x00, 0x04, 0x00, 0x00, 0x00, 0x01, 0x00, 0x00, 0x00, 
0xeb, 0x03, 0x00, 0x00, 0x0c, 0x00, 0x18, 0x00, 0x14, 0x00, 0x10, 0x00, 
0x0c, 0x00, 0x04, 0x00, 0x0c, 0x00, 0x00, 0x00, 0x39, 0x3b, 0x75, 0x7a, 
0x9f, 0x16, 0x96, 0x79, 0x02, 0x00, 0x00, 0x00, 0x02, 0x00, 0x00, 0x00, 
0x04, 0x00, 0x00, 0x00, 0x06, 0x00, 0x00, 0x00, 0x32, 0x2e, 0x32, 0x31, 
0x2e, 0x30, 0x00, 0x00, 0x9a, 0xe6, 0xff, 0xff, 0x04, 0x00, 0x00, 0x00, 
0x10, 0x00, 0x00, 0x00, 0x31, 0x2e, 0x31, 0x34, 0x2e, 0x30, 0x00, 0x00, 
0x00, 0x00, 0x00, 0x00, 0x00, 0x00, 0x00, 0x00, 0x34, 0xd2, 0xff, 0xff, 
0x38, 0xd2, 0xff, 0xff, 0x3c, 0xd2, 0xff, 0xff, 0x40, 0xd2, 0xff, 0xff, 
0x44, 0xd2, 0xff, 0xff, 0x48, 0xd2, 0xff, 0xff, 0x4c, 0xd2, 0xff, 0xff, 
0x50, 0xd2, 0xff, 0xff, 0x54, 0xd2, 0xff, 0xff, 0x58, 0xd2, 0xff, 0xff, 
0xde, 0xe6, 0xff, 0xff, 0x04, 0x00, 0x00, 0x00, 0x01, 0x00, 0x00, 0x00, 
0x7f, 0x00, 0x00, 0x00, 0xee, 0xe6, 0xff, 0xff, 0x04, 0x00, 0x00, 0x00, 
0x01, 0x00, 0x00, 0x00, 0x80, 0x00, 0x00, 0x00, 0xfe, 0xe6, 0xff, 0xff, 
0x04, 0x00, 0x00, 0x00, 0x48, 0x00, 0x00, 0x00, 0x86, 0x81, 0xd6, 0xc4, 
0xf5, 0x9e, 0x92, 0xd1, 0x85, 0x94, 0x81, 0xdd, 0xf9, 0x89, 0xfe, 0x97, 
0xae, 0xde, 0x69, 0x25, 0x0b, 0x11, 0x4e, 0x7f, 0xd6, 0x40, 0x4a, 0x4d, 
0xce, 0x27, 0x06, 0x8b, 0x81, 0xd4, 0x1b, 0x85, 0x34, 0x49, 0x4c, 0xc7, 
0x7f, 0x6e, 0x58, 0x4e, 0xd3, 0x1f, 0x12, 0x7e, 0xb7, 0x4d, 0x2d, 0x7f, 
0x7a, 0x40, 0x74, 0xc3, 0xcf, 0x66, 0x03, 0x7f, 0x0a, 0xe9, 0x11, 0xcb, 
0xc6, 0x43, 0xf3, 0x81, 0x12, 0x8f, 0xa0, 0x41, 0x52, 0xe7, 0xff, 0xff, 
0x04, 0x00, 0x00, 0x00, 0x20, 0x00, 0x00, 0x00, 0x1e, 0x0e, 0x00, 0x00, 
0x6b, 0x02, 0x00, 0x00, 0x8b, 0x0c, 0x00, 0x00, 0x83, 0xfc, 0xff, 0xff, 
0xc7, 0x05, 0x00, 0x00, 0x10, 0xf5, 0xff, 0xff, 0x1d, 0x25, 0x00, 0x00, 
0x7e, 0x00, 0x00, 0x00, 0x7e, 0xe7, 0xff, 0xff, 0x04, 0x00, 0x00, 0x00, 
0x80, 0x04, 0x00, 0x00, 0xe1, 0x0c, 0x37, 0x44, 0x53, 0x14, 0xd2, 0x1b, 
0xf9, 0xc1, 0xe9, 0xf6, 0x68, 0x40, 0xc6, 0xda, 0x23, 0xd1, 0x45, 0xc8, 
0x62, 0x1a, 0x16, 0xce, 0xf6, 0x5b, 0xea, 0xf6, 0x6c, 0x04, 0xcb, 0x1f, 
0x37, 0xf1, 0x31, 0x30, 0xd3, 0x6c, 0x59, 0x0f, 0xd1, 0x59, 0xd4, 0xd9, 
0x73, 0x72, 0xed, 0x5c, 0xf9, 0xc0, 0xfc, 0xea, 0xd6, 0x7f, 0x65, 0x30, 
0x03, 0x47, 0x1a, 0xff, 0x15, 0x2e, 0x2c, 0x9c, 0xf6, 0xd0, 0x32, 0xe4, 
0x22, 0x47, 0xed, 0xc5, 0x19, 0x04, 0xdb, 0xed, 0x1c, 0xf4, 0xb9, 0x00, 
0x6c, 0x68, 0xf1, 0x29, 0xdd, 0xcf, 0x20, 0x59, 0xf3, 0xa4, 0x39, 0x9f, 
0xe4, 0x6f, 0x16, 0xd3, 0xd6, 0x4c, 0xd8, 0x39, 0x57, 0xd4, 0xd0, 0x32, 
0x18, 0x5c, 0x50, 0xf6, 0xd9, 0x56, 0xbd, 0x33, 0xfc, 0xfc, 0x1d, 0xc4, 
0x51, 0x44, 0xfb, 0x36, 0x1f, 0x3e, 0x1d, 0xe1, 0xdd, 0x01, 0xcd, 0xf9, 
0x0e, 0x1b, 0xde, 0x66, 0x02, 0xf0, 0xa2, 0x02, 0x29, 0xdd, 0x19, 0xc1, 
0xe3, 0x5b, 0xee, 0x7f, 0xe3, 0xe8, 0x0e, 0x35, 0xfb, 0x49, 0xb7, 0x08, 
0x05, 0x23, 0x69, 0x08, 0x0b, 0xfe, 0xa4, 0xad, 0xd5, 0xe3, 0x2e, 0x1a, 
0x67, 0x39, 0x57, 0x17, 0xb7, 0x66, 0x34, 0x5c, 0xe3, 0xb1, 0x05, 0xd5, 
0x2f, 0x2d, 0x3e, 0x58, 0xba, 0xe5, 0xdf, 0x5b, 0xf9, 0x5a, 0x67, 0x5e, 
0xff, 0xc7, 0x4f, 0x37, 0x26, 0x14, 0x31, 0x7f, 0x32, 0x12, 0xe8, 0x68, 
0xff, 0xd5, 0x8e, 0x3e, 0xb3, 0xb2, 0x3e, 0x37, 0xdb, 0x08, 0xfb, 0xe4, 
0xf0, 0x20, 0xc0, 0x6e, 0x14, 0xc4, 0xee, 0x61, 0x77, 0x76, 0x32, 0xe4, 
0xf8, 0x14, 0x79, 0x4d, 0x79, 0xce, 0x42, 0x24, 0xa6, 0xeb, 0x3a, 0xf9, 
0x21, 0x10, 0x24, 0xec, 0x1c, 0xc0, 0xf5, 0xe0, 0x7f, 0x55, 0x70, 0x5a, 
0x08, 0xb6, 0x46, 0x52, 0x08, 0x61, 0x10, 0x1c, 0xfe, 0x2b, 0xff, 0xfc, 
0x00, 0x4c, 0xe4, 0x65, 0xbb, 0xd3, 0x7b, 0x09, 0xe6, 0xf1, 0x3d, 0x6d, 
0x1b, 0xb0, 0x62, 0xf9, 0xe0, 0x7c, 0x44, 0xf2, 0x20, 0x11, 0xea, 0x67, 
0x4f, 0x34, 0x45, 0xad, 0xd5, 0xab, 0x3d, 0x40, 0x64, 0x63, 0x2b, 0xf1, 
0x9b, 0xb2, 0x17, 0xc3, 0xe7, 0xed, 0x34, 0xb7, 0xc2, 0x3a, 0xfa, 0x01, 
0xb9, 0x51, 0xe2, 0x6d, 0xd6, 0xc7, 0x24, 0x3a, 0x33, 0x53, 0xe9, 0xa1, 
0xe8, 0x03, 0xd1, 0x79, 0x5d, 0x3f, 0x7f, 0x21, 0xcd, 0x62, 0xca, 0x62, 
0x1b, 0xab, 0x4f, 0x21, 0xcd, 0xea, 0xd9, 0x2d, 0x0a, 0x69, 0x50, 0x0d, 
0x60, 0xf8, 0xbe, 0x4b, 0xc2, 0x1e, 0xf4, 0x01, 0x74, 0x48, 0xde, 0x04, 
0xb7, 0xca, 0x42, 0xea, 0xa7, 0x0a, 0x6c, 0x22, 0x5c, 0xe3, 0xc6, 0xc1, 
0xb8, 0x14, 0x05, 0xc8, 0x5f, 0x64, 0xb0, 0x34, 0xa8, 0x0d, 0xb6, 0xfc, 
0x0b, 0x29, 0xb7, 0xae, 0xe0, 0x97, 0xde, 0x6f, 0x22, 0xd5, 0xb9, 0xa9, 
0x98, 0xa5, 0x67, 0xe6, 0xe1, 0x62, 0x1d, 0x63, 0x75, 0x7e, 0x6d, 0x75, 
0x14, 0x3b, 0x16, 0x17, 0x35, 0x49, 0xb3, 0xd3, 0x16, 0x5a, 0x41, 0x28, 
0xb5, 0x75, 0xbc, 0x04, 0x54, 0xd4, 0x7f, 0xa6, 0x47, 0x04, 0x51, 0xcb, 
0x42, 0x1d, 0xc7, 0x35, 0xf4, 0xf3, 0x1b, 0x27, 0xd7, 0x35, 0x1e, 0x42, 
0x50, 0x15, 0x0d, 0xef, 0x18, 0xfc, 0xd1, 0xfb, 0xb4, 0xed, 0x01, 0x1d, 
0xda, 0x0f, 0x2e, 0x18, 0xe7, 0x78, 0x04, 0x77, 0x07, 0xc4, 0xb8, 0x7f, 
0x45, 0x4f, 0x31, 0xc6, 0xd1, 0x13, 0xfd, 0x54, 0x27, 0xc2, 0x40, 0x3d, 
0x27, 0xe8, 0xfa, 0x68, 0x6f, 0x6e, 0xff, 0x6b, 0x07, 0xb2, 0x0c, 0x5c, 
0x67, 0xfc, 0x0f, 0x1a, 0xb5, 0x0a, 0xc3, 0xe6, 0x3b, 0x56, 0x38, 0xf0, 
0x26, 0x4e, 0x10, 0x2a, 0x59, 0x23, 0x69, 0x3e, 0x51, 0x25, 0x5e, 0x0b, 
0x4c, 0x43, 0x06, 0x67, 0x14, 0xbd, 0xc7, 0xd7, 0x36, 0x25, 0xfe, 0xd6, 
0xc2, 0xfd, 0xcb, 0x14, 0xcf, 0x86, 0x2c, 0x99, 0x36, 0x2b, 0x2d, 0x15, 
0xc1, 0xc9, 0x41, 0x1a, 0x0a, 0x2e, 0x69, 0xa6, 0xc8, 0x12, 0xf4, 0x15, 
0x15, 0x50, 0xdd, 0x0d, 0xc8, 0xbc, 0xeb, 0xc0, 0x32, 0xf5, 0x7f, 0xd5, 
0xda, 0x3d, 0x3d, 0x1b, 0x2e, 0xf7, 0x5b, 0x62, 0xdb, 0xa6, 0x45, 0x18, 
0xed, 0xf9, 0xfd, 0x1d, 0x43, 0x7f, 0x01, 0x2c, 0xe0, 0xcd, 0xde, 0x23, 
0xcd, 0xdf, 0x61, 0xd4, 0xd6, 0x1d, 0xe0, 0xc3, 0xc1, 0x2b, 0x75, 0xb2, 
0x00, 0xf7, 0x42, 0xcf, 0x2e, 0x25, 0xb3, 0x19, 0x3e, 0x30, 0x28, 0x55, 
0xd1, 0xab, 0x18, 0xcf, 0x11, 0xce, 0x2d, 0x15, 0x02, 0xe4, 0x78, 0xb5, 
0x49, 0xd2, 0x7a, 0xde, 0x0f, 0x55, 0x50, 0xfb, 0x43, 0x0a, 0xe5, 0xfc, 
0x09, 0x0f, 0x2c, 0xa0, 0x2e, 0xb8, 0x68, 0x17, 0xee, 0xcc, 0x3b, 0xb8, 
0x07, 0x5a, 0xf8, 0x1c, 0x20, 0x0f, 0x26, 0x42, 0xd8, 0xcb, 0xfc, 0xde, 
0x44, 0x0e, 0xf4, 0x05, 0xce, 0x0b, 0xe0, 0x16, 0x0b, 0x0e, 0x11, 0x1b, 
0xfd, 0xc6, 0xdb, 0xc5, 0xfc, 0x52, 0x1f, 0xef, 0x0f, 0x1c, 0xdf, 0x34, 
0x48, 0xe3, 0x30, 0x12, 0xc6, 0xc4, 0x02, 0x55, 0xd9, 0xe5, 0xfb, 0xd7, 
0x0e, 0x1a, 0xf1, 0xeb, 0xfa, 0x12, 0x1c, 0x22, 0xd8, 0xcf, 0xd4, 0x03, 
0x52, 0x5f, 0xab, 0xe2, 0x05, 0xdc, 0x81, 0x18, 0xfc, 0xee, 0xc2, 0xf0, 
0xe7, 0xd7, 0x19, 0x21, 0x91, 0xd5, 0x1c, 0xdb, 0x0d, 0x33, 0x05, 0x02, 
0xb1, 0xe2, 0x32, 0xe3, 0x0d, 0x38, 0x7a, 0x81, 0xd5, 0xd4, 0x6b, 0xc6, 
0x47, 0xc0, 0x58, 0x97, 0x94, 0xba, 0x20, 0x42, 0xe9, 0xbc, 0x57, 0x96, 
0xd1, 0x06, 0x22, 0xa1, 0x13, 0xec, 0x19, 0x1d, 0x96, 0xe6, 0x66, 0x03, 
0x2e, 0xe6, 0x71, 0xd3, 0x44, 0x51, 0xf8, 0x26, 0xdb, 0xe3, 0x27, 0x40, 
0xcf, 0xec, 0x07, 0x49, 0xcd, 0xe7, 0x43, 0xe5, 0x67, 0xda, 0x18, 0x4a, 
0xdc, 0xdb, 0xf9, 0xf2, 0x8e, 0x81, 0x38, 0x04, 0xd9, 0x1d, 0x18, 0xb3, 
0x28, 0x39, 0x49, 0x33, 0xef, 0x1b, 0x0f, 0xea, 0xdb, 0x05, 0xd4, 0x6d, 
0x3a, 0x24, 0x03, 0x1a, 0x98, 0xbf, 0xf1, 0xca, 0xee, 0x20, 0x36, 0xb3, 
0x55, 0x30, 0xbf, 0xef, 0x2a, 0xbe, 0x0c, 0x24, 0x29, 0x6b, 0xc6, 0xdb, 
0xe9, 0x44, 0xd8, 0x27, 0x8b, 0xfa, 0x67, 0xb6, 0xfb, 0xf3, 0xf4, 0x05, 
0x4b, 0x4f, 0xbf, 0x0a, 0x57, 0xe0, 0x18, 0xc8, 0x58, 0x38, 0xea, 0x6f, 
0xdd, 0x17, 0xaf, 0x4a, 0x0f, 0xf8, 0xc7, 0xea, 0x0d, 0xec, 0xd5, 0xe4, 
0x25, 0xd1, 0xb0, 0xfb, 0xa7, 0x1a, 0x55, 0x1b, 0x36, 0xc9, 0xf0, 0xb1, 
0x3a, 0x0f, 0xbd, 0x0d, 0x13, 0x65, 0xc0, 0x4d, 0xca, 0xcf, 0x2e, 0x42, 
0x68, 0xf1, 0x37, 0x20, 0x23, 0x98, 0x48, 0x6b, 0xd0, 0xa9, 0xf9, 0xdb, 
0xf0, 0xd8, 0xc3, 0x1a, 0x5e, 0x0a, 0xab, 0x17, 0x22, 0xa0, 0xa7, 0x0d, 
0x6b, 0x4a, 0x14, 0x5c, 0xbf, 0x9c, 0x14, 0x43, 0xb6, 0xaf, 0x3c, 0xb2, 
0x0d, 0x1c, 0x1f, 0x81, 0x4d, 0x37, 0xee, 0x46, 0xa1, 0xb0, 0xf7, 0x3a, 
0x62, 0x5f, 0xa8, 0x36, 0xac, 0x07, 0x1d, 0x51, 0x4b, 0xe8, 0x40, 0xb4, 
0x38, 0x3c, 0x24, 0x91, 0xf4, 0xc7, 0xaf, 0x5c, 0x93, 0x09, 0xc6, 0xc3, 
0x68, 0x2d, 0x0c, 0x5d, 0x30, 0x91, 0xfb, 0x5d, 0x0d, 0x2d, 0xfc, 0xbf, 
0x42, 0xa2, 0x19, 0xb0, 0x0d, 0xd9, 0x0b, 0xc7, 0x83, 0xa1, 0x28, 0xf8, 
0x68, 0x63, 0x99, 0x15, 0x81, 0x11, 0x9f, 0x42, 0xce, 0xc6, 0x0b, 0xd0, 
0xb2, 0x9d, 0x5c, 0x02, 0x05, 0x05, 0xc5, 0x12, 0xd3, 0x94, 0xb6, 0x25, 
0x22, 0x21, 0xb7, 0x23, 0x93, 0xfd, 0xdc, 0x43, 0xcd, 0x41, 0xb7, 0xeb, 
0xc2, 0x36, 0xd6, 0x23, 0x58, 0x26, 0x9d, 0x44, 0x1d, 0xf9, 0xe9, 0xdb, 
0x21, 0x6d, 0xe4, 0x35, 0xbc, 0xcb, 0x32, 0x5e, 0xcb, 0xb1, 0xb1, 0xe3, 
0x13, 0xb7, 0xef, 0xea, 0x4a, 0x1e, 0x9e, 0x08, 0x94, 0x81, 0xaa, 0x47, 
0xf9, 0x29, 0x12, 0x4a, 0x13, 0xfa, 0x1b, 0x2a, 0x13, 0xf2, 0xd4, 0x1b, 
0xae, 0x9f, 0x46, 0xdb, 0x1f, 0xf5, 0x69, 0xd9, 0x1d, 0x55, 0xcf, 0xd1, 
0xdf, 0x38, 0x32, 0x4c, 0xdb, 0x6c, 0x13, 0xb5, 0xe7, 0xbf, 0xcd, 0x1f, 
0xd1, 0xf0, 0xf5, 0x50, 0x21, 0x43, 0x35, 0x1a, 0xe9, 0xd7, 0xc5, 0xe1, 
0xd1, 0xe8, 0x38, 0x60, 0xf8, 0x7f, 0xc2, 0xc2, 0x3e, 0x58, 0xee, 0x46, 
0xc7, 0xa9, 0xb3, 0xdc, 0xb7, 0xd0, 0x1d, 0x40, 0x77, 0x0d, 0x5c, 0xc3, 
0xac, 0x0f, 0x39, 0x69, 0xe4, 0x4c, 0x74, 0x2e, 0x43, 0x1b, 0xfc, 0xd5, 
0x23, 0x9d, 0xa9, 0xcd, 0x0a, 0xec, 0xff, 0xff, 0x04, 0x00, 0x00, 0x00, 
0x40, 0x00, 0x00, 0x00, 0x3e, 0xee, 0xff, 0xff, 0x05, 0xee, 0xff, 0xff, 
0x14, 0xdf, 0xff, 0xff, 0x13, 0xf7, 0xff, 0xff, 0x8f, 0x11, 0x00, 0x00, 
0xf7, 0xf8, 0xff, 0xff, 0x56, 0xef, 0xff, 0xff, 0x62, 0x1b, 0x00, 0x00, 
0xed, 0x2a, 0x00, 0x00, 0x66, 0x07, 0x00, 0x00, 0x95, 0x34, 0x00, 0x00, 
0xbb, 0xe9, 0xff, 0xff, 0x7b, 0x12, 0x00, 0x00, 0x4f, 0x12, 0x00, 0x00, 
0xc7, 0x10, 0x00, 0x00, 0x87, 0xdf, 0xff, 0xff, 0x56, 0xec, 0xff, 0xff, 
0x04, 0x00, 0x00, 0x00, 0x00, 0x12, 0x00, 0x00, 0x3e, 0x24, 0xcf, 0xc9, 
0x3d, 0xf9, 0xce, 0x2a, 0xf1, 0xb5, 0x03, 0xf9, 0xba, 0x93, 0xe6, 0x42, 
0xb5, 0x0a, 0x60, 0xe1, 0x30, 0xd7, 0xd1, 0xdc, 0xb3, 0x08, 0xe3, 0x7f, 
0xd4, 0xd5, 0xd2, 0x35, 0xc0, 0x33, 0x32, 0xf5, 0xf1, 0xfc, 0x61, 0xcc, 
0x34, 0xda, 0xe2, 0xe0, 0x1d, 0x50, 0xf9, 0x0d, 0x0a, 0x81, 0xe9, 0xab, 
0x06, 0xfd, 0x8b, 0x22, 0x1d, 0xf1, 0xe0, 0xfa, 0xa6, 0x89, 0xac, 0xf8, 
0xc8, 0xbc, 0x10, 0xfe, 0x01, 0x5d, 0x14, 0xd1, 0xa3, 0x14, 0x3f, 0x56, 
0xc3, 0x1d, 0xcf, 0xff, 0x6f, 0x26, 0x26, 0xcf, 0x25, 0x41, 0x71, 0xfd, 
0xf3, 0x3f, 0xc4, 0xb6, 0x45, 0xca, 0x03, 0x01, 0xca, 0xd3, 0xe4, 0x42, 
0x03, 0x36, 0xe5, 0x0a, 0x96, 0xbf, 0xdf, 0xfd, 0x99, 0x8c, 0xd8, 0xc2, 
0x2e, 0xab, 0x20, 0x2a, 0x1d, 0x10, 0xc0, 0xc9, 0xf0, 0x23, 0xb1, 0x7b, 
0x16, 0x2a, 0xc8, 0xdb, 0x30, 0xe4, 0x5f, 0xc2, 0xb5, 0x00, 0x73, 0xa1, 
0x39, 0xcf, 0xeb, 0xd5, 0x4c, 0x1c, 0x1e, 0xb6, 0xcc, 0xe5, 0x14, 0x37, 
0x33, 0x46, 0x3a, 0x36, 0x9f, 0xe9, 0x26, 0x20, 0x30, 0x1a, 0xcf, 0x5e, 
0xeb, 0x1a, 0xc6, 0x13, 0xe0, 0xd4, 0xb9, 0x1d, 0x57, 0x97, 0x41, 0x03, 
0xf2, 0x23, 0xf9, 0x1d, 0x08, 0xdc, 0x66, 0xf9, 0xd2, 0xea, 0x55, 0xea, 
0x1c, 0x11, 0x29, 0x43, 0xd6, 0xf1, 0x16, 0x0c, 0x40, 0x1e, 0x04, 0x04, 
0xbf, 0x58, 0x1a, 0x07, 0x9c, 0x3b, 0xa4, 0x20, 0x0e, 0x2c, 0xbe, 0x4b, 
0x74, 0xde, 0x3b, 0x72, 0x22, 0x49, 0xc8, 0xf9, 0x5b, 0x10, 0x47, 0x52, 
0xef, 0x23, 0xc0, 0x1c, 0x22, 0x39, 0x4c, 0xd4, 0xcc, 0xca, 0x0d, 0xb2, 
0xae, 0x16, 0x90, 0x5a, 0x00, 0xcc, 0x05, 0xc3, 0x32, 0xd0, 0xbe, 0xa5, 
0xba, 0xce, 0x2e, 0x92, 0x94, 0x56, 0x81, 0x09, 0x43, 0x29, 0xb9, 0xc0, 
0x41, 0x42, 0x2c, 0x06, 0xf3, 0x5a, 0x23, 0x48, 0x78, 0x9d, 0x5e, 0x3e, 
0xe5, 0xf1, 0xca, 0x4e, 0x48, 0xac, 0xb1, 0xc7, 0xd4, 0xe2, 0x3c, 0xb8, 
0xbb, 0xf3, 0x90, 0xf4, 0xa0, 0x9b, 0x3e, 0xfe, 0x0f, 0x31, 0x13, 0xbd, 
0x9b, 0xd5, 0x19, 0xa0, 0x3b, 0x33, 0x5b, 0xe3, 0x08, 0xf7, 0xf5, 0xe9, 
0x0b, 0xff, 0x1e, 0x9f, 0xf1, 0x07, 0xee, 0xbf, 0xd4, 0x35, 0x14, 0xe7, 
0x25, 0x0d, 0x00, 0xe0, 0xe4, 0xf2, 0xa6, 0x06, 0xdf, 0xaf, 0x09, 0xc6, 
0xdb, 0xe7, 0x0c, 0x45, 0xf5, 0x5d, 0x73, 0xf4, 0x2e, 0xc1, 0xdd, 0xe4, 
0xc4, 0xf7, 0x07, 0xdb, 0x39, 0x49, 0xcf, 0xc9, 0xd7, 0x36, 0x2f, 0xb9, 
0x08, 0x33, 0xb0, 0xa2, 0xb7, 0xbd, 0xfa, 0x2d, 0x2e, 0xd8, 0x20, 0x85, 
0xd2, 0x0b, 0x20, 0xb5, 0x2c, 0xdc, 0x06, 0xe8, 0x53, 0xaf, 0xb3, 0x56, 
0xb6, 0xfa, 0xb5, 0x41, 0x17, 0x47, 0x43, 0x4b, 0x03, 0x15, 0x0a, 0xce, 
0xfe, 0xeb, 0xd2, 0x4c, 0x70, 0xdb, 0x54, 0x81, 0x62, 0x0d, 0x13, 0xa3, 
0x13, 0x0e, 0xe4, 0x07, 0xf5, 0xbf, 0xfd, 0x2b, 0x38, 0x44, 0x62, 0x0b, 
0xd9, 0x1d, 0x1d, 0xab, 0xd0, 0xce, 0xec, 0x41, 0x52, 0x67, 0x0b, 0x7b, 
0x5b, 0x26, 0x68, 0x4d, 0x1c, 0xfc, 0x1e, 0x21, 0xda, 0x02, 0xfc, 0x24, 
0x56, 0xce, 0x5c, 0x3e, 0xb4, 0xf2, 0xa2, 0x4b, 0x5f, 0x26, 0xe1, 0x7f, 
0x37, 0x28, 0x52, 0xe2, 0xc3, 0xcf, 0xd9, 0x26, 0x3c, 0x15, 0x2e, 0xe6, 
0x27, 0x0b, 0xcf, 0xf1, 0xd2, 0x08, 0xee, 0x45, 0x1b, 0x2a, 0xe7, 0xb9, 
0x15, 0xd8, 0x2e, 0xe6, 0x18, 0xe0, 0xec, 0x2e, 0x27, 0x0f, 0x26, 0x48, 
0x22, 0xd0, 0x30, 0x1f, 0xd2, 0xdf, 0x0c, 0x7f, 0x5b, 0xfd, 0x5a, 0x35, 
0x05, 0xed, 0x22, 0x58, 0xf6, 0x00, 0xfe, 0x34, 0xc9, 0x15, 0xf4, 0x03, 
0x21, 0xc4, 0xac, 0x38, 0x3d, 0x48, 0x27, 0xb6, 0xc6, 0xcb, 0xe7, 0xfa, 
0xb8, 0x39, 0x92, 0x23, 0xcd, 0x2c, 0xf6, 0xfa, 0x36, 0x33, 0x34, 0xbe, 
0x00, 0xe1, 0x11, 0xfe, 0xe1, 0x3c, 0xfa, 0x33, 0x01, 0x04, 0x0c, 0x64, 
0x5e, 0x25, 0xe0, 0x32, 0xfe, 0x24, 0x26, 0x03, 0x2d, 0xfe, 0x16, 0x2e, 
0x23, 0xfa, 0xf6, 0x0b, 0x50, 0x65, 0x16, 0x1e, 0xe9, 0xbd, 0xe4, 0xc9, 
0x36, 0xe4, 0x9a, 0xca, 0x4a, 0xf9, 0x0e, 0x5c, 0xad, 0xf3, 0xee, 0xb1, 
0xdc, 0x2e, 0x39, 0xf9, 0xdc, 0x0f, 0x01, 0x8c, 0xce, 0xe4, 0x21, 0xeb, 
0xae, 0xd3, 0xf7, 0xf0, 0xb5, 0xa1, 0x1f, 0xb8, 0xf2, 0xe4, 0x19, 0x18, 
0x3e, 0xf7, 0xf5, 0xd9, 0x01, 0xe1, 0xef, 0x98, 0x33, 0x05, 0x03, 0xc9, 
0x81, 0xff, 0x0c, 0x07, 0x02, 0xc2, 0xf7, 0xe4, 0xbe, 0xe4, 0x07, 0x10, 
0xd3, 0xc0, 0xe5, 0x16, 0x00, 0x37, 0xb7, 0xc5, 0x25, 0x45, 0xec, 0xe4, 
0x23, 0x2e, 0xfa, 0xd4, 0xb1, 0xcf, 0x47, 0xba, 0xf0, 0x06, 0xfe, 0x23, 
0xd8, 0x56, 0x27, 0x38, 0xbb, 0xe6, 0xdc, 0xf2, 0x0c, 0xd3, 0x32, 0x28, 
0xa4, 0x2b, 0xcd, 0x36, 0x10, 0x3e, 0x2b, 0xf0, 0xf4, 0x32, 0xe7, 0xc0, 
0xd2, 0x17, 0xd3, 0x08, 0x6e, 0xf1, 0xd6, 0xe6, 0x36, 0x56, 0xef, 0x0e, 
0x34, 0x25, 0x0d, 0xc1, 0x20, 0xe1, 0x03, 0xd0, 0x2b, 0x26, 0xd0, 0xce, 
0xef, 0xfb, 0xe4, 0xcc, 0x11, 0x13, 0xf5, 0x2c, 0x12, 0x03, 0x21, 0xdd, 
0xf8, 0x20, 0xce, 0xed, 0xc9, 0x32, 0xc5, 0x4d, 0xfa, 0x18, 0xc2, 0xf1, 
0xc3, 0xfc, 0x4d, 0x0d, 0x0a, 0xef, 0x20, 0xf6, 0x1f, 0x46, 0x0b, 0xc5, 
0xae, 0x4e, 0x2a, 0xcc, 0xf7, 0x1a, 0x35, 0xd7, 0x18, 0x16, 0xe0, 0x26, 
0x28, 0x4b, 0xf3, 0xe1, 0xaf, 0x2b, 0xce, 0xdc, 0xdd, 0x16, 0x20, 0x15, 
0xdb, 0x3a, 0x30, 0x00, 0x1d, 0x0b, 0x03, 0x00, 0x07, 0x1b, 0xa8, 0xf0, 
0x00, 0x11, 0xb6, 0x0e, 0x3c, 0xca, 0x3a, 0xb5, 0xfa, 0xeb, 0xe9, 0x00, 
0x13, 0x35, 0x04, 0xbd, 0xf5, 0x29, 0xc6, 0x3f, 0x2b, 0xd8, 0x27, 0xde, 
0x23, 0x42, 0x12, 0x0b, 0x11, 0x08, 0xe9, 0x33, 0xe3, 0x3b, 0xeb, 0xfd, 
0xf2, 0x16, 0xe4, 0x04, 0xb6, 0xcf, 0xf7, 0xf5, 0x14, 0xf1, 0xfd, 0x38, 
0x1b, 0xf4, 0x1c, 0x54, 0xf8, 0xc4, 0x63, 0x09, 0xdd, 0xbe, 0xd9, 0x0d, 
0xf6, 0xff, 0x19, 0x27, 0x10, 0xf4, 0xda, 0x16, 0x2c, 0x0e, 0x17, 0x27, 
0x23, 0x0b, 0x2b, 0xdb, 0x1d, 0xfe, 0x0d, 0xef, 0x5e, 0x26, 0xc7, 0x4e, 
0xf2, 0xf4, 0x7f, 0xef, 0xb7, 0x1d, 0xb0, 0xf6, 0xad, 0xc3, 0x15, 0xf6, 
0xbb, 0xc9, 0xec, 0x3d, 0xbc, 0x4e, 0x2f, 0xe8, 0x05, 0x31, 0x36, 0x33, 
0xd7, 0x03, 0xce, 0xef, 0x09, 0x0b, 0xed, 0xe7, 0x02, 0x0d, 0x16, 0xd1, 
0xf7, 0x0d, 0xe5, 0x9c, 0xcd, 0x1f, 0xd7, 0xd8, 0xde, 0x1f, 0x05, 0x1b, 
0xe3, 0x1a, 0xdd, 0xc8, 0x30, 0x68, 0x46, 0x28, 0x39, 0x24, 0x14, 0x21, 
0x33, 0x2f, 0xd6, 0x11, 0x2a, 0x13, 0x4f, 0x04, 0xef, 0x53, 0x14, 0x44, 
0xd4, 0xff, 0xdf, 0x06, 0xf3, 0xfc, 0xb6, 0x1c, 0x1b, 0xeb, 0xf8, 0x1b, 
0x2c, 0x10, 0xdf, 0x05, 0xdb, 0x1a, 0xf3, 0x04, 0x5b, 0x12, 0x27, 0x1f, 
0xf2, 0xd8, 0xf3, 0xbf, 0x24, 0xd9, 0x43, 0x41, 0xc8, 0xbd, 0x28, 0x53, 
0x20, 0x2b, 0x04, 0x5c, 0x16, 0xbb, 0x52, 0xfe, 0x8c, 0xa6, 0x86, 0xe3, 
0x12, 0xec, 0x11, 0x36, 0x3d, 0x3a, 0xae, 0x24, 0xcf, 0xa6, 0x46, 0xf3, 
0xc8, 0x9d, 0xae, 0xda, 0xdf, 0x35, 0x33, 0xf9, 0x5a, 0xee, 0xb2, 0x2c, 
0x12, 0xc6, 0x7f, 0xf9, 0x46, 0xb5, 0x18, 0xce, 0xed, 0x19, 0xac, 0xa2, 
0x07, 0xdf, 0xc0, 0xed, 0x24, 0x43, 0x43, 0xef, 0x1b, 0xf8, 0xe8, 0xad, 
0xac, 0x42, 0x12, 0xe1, 0x1a, 0xb8, 0x11, 0xb6, 0xa2, 0x60, 0xd2, 0xc6, 
0xf1, 0x0d, 0xe3, 0xa9, 0x88, 0xde, 0xe9, 0xdc, 0x36, 0x10, 0xb0, 0xfd, 
0xa2, 0x1a, 0xd2, 0xe9, 0xdd, 0x26, 0xcb, 0xe4, 0xba, 0xaf, 0x05, 0xab, 
0xe7, 0xfd, 0xe6, 0x9c, 0xf2, 0xec, 0x1d, 0x9e, 0x46, 0x0f, 0xca, 0x19, 
0xa8, 0x41, 0xa9, 0xd5, 0x92, 0x1c, 0x11, 0x02, 0x09, 0x58, 0xe4, 0x3b, 
0x17, 0x46, 0x12, 0x2c, 0x81, 0x0b, 0x09, 0xb5, 0xd4, 0x1f, 0x16, 0x49, 
0xcc, 0xde, 0x96, 0x5e, 0xf6, 0x4e, 0x4c, 0x49, 0xb4, 0x26, 0xaf, 0x29, 
0x0d, 0x15, 0xff, 0x09, 0x67, 0x1a, 0x05, 0xb6, 0xee, 0x18, 0xe5, 0xc3, 
0x2e, 0x1f, 0xfc, 0xa3, 0x29, 0xf1, 0x4f, 0x21, 0x51, 0xeb, 0xad, 0xce, 
0x29, 0x6a, 0x41, 0x2e, 0xb6, 0xc5, 0x2c, 0xfe, 0x68, 0xbc, 0xce, 0x20, 
0x25, 0xbd, 0xcd, 0x10, 0x1e, 0xf9, 0xd0, 0x3d, 0xed, 0x30, 0xe7, 0xd0, 
0xa7, 0xb5, 0x2f, 0x96, 0xf6, 0xcb, 0xc2, 0x16, 0x2f, 0xe6, 0x58, 0xec, 
0xde, 0xc9, 0x2e, 0xa8, 0xdd, 0xf8, 0x1e, 0xb7, 0xe8, 0x36, 0xcd, 0xbe, 
0x4c, 0x32, 0xe9, 0x25, 0xb8, 0x31, 0x1d, 0xc5, 0xf3, 0xf4, 0xe2, 0x01, 
0xda, 0x5f, 0x23, 0x3e, 0xd4, 0x36, 0x22, 0xf6, 0x91, 0xe4, 0xd6, 0xd3, 
0x96, 0xcf, 0x21, 0xbd, 0xe8, 0x02, 0x90, 0xfd, 0xfb, 0x50, 0xd7, 0x1f, 
0x14, 0x22, 0xe9, 0x9f, 0xc7, 0xe9, 0xc9, 0xb7, 0xbe, 0xc4, 0xa1, 0x15, 
0xc0, 0x33, 0xdb, 0xcc, 0xee, 0x0d, 0x22, 0x81, 0xc7, 0xc6, 0xda, 0xd6, 
0x06, 0x08, 0xf9, 0x55, 0x34, 0x19, 0x3d, 0x05, 0xb8, 0x19, 0x11, 0xcb, 
0xe8, 0x9a, 0x12, 0xf7, 0x1e, 0x20, 0x8d, 0x0b, 0x23, 0x1d, 0x54, 0xfe, 
0x22, 0xfc, 0x01, 0xdf, 0x0c, 0x08, 0x3c, 0xc3, 0x13, 0x48, 0xe7, 0xf7, 
0xdd, 0xec, 0xf6, 0xb9, 0xa3, 0x4a, 0xe4, 0xaf, 0x0e, 0xbf, 0x26, 0xe2, 
0xd2, 0x38, 0xc2, 0x4e, 0xfc, 0xf2, 0x2e, 0xd7, 0xc1, 0xc9, 0xd6, 0xbb, 
0x12, 0x11, 0x0a, 0xf4, 0xf6, 0x18, 0x0a, 0x81, 0x04, 0x27, 0xf2, 0x82, 
0xea, 0xb2, 0xc2, 0x11, 0xa2, 0x00, 0x00, 0xde, 0xac, 0xd1, 0x3e, 0x0d, 
0x1b, 0xef, 0xdf, 0x8b, 0xc0, 0xa5, 0xc7, 0x03, 0x3a, 0x30, 0xbb, 0xfe, 
0x0d, 0x11, 0xef, 0xe2, 0xf6, 0x06, 0xf6, 0xdb, 0xf2, 0x10, 0x2c, 0x0d, 
0xe0, 0xbc, 0xe1, 0xbf, 0x3d, 0xcc, 0xf5, 0x12, 0x27, 0x2e, 0x4a, 0xd4, 
0xb9, 0xcb, 0x27, 0xa1, 0xdc, 0x11, 0x0c, 0xc4, 0xaf, 0x56, 0x3d, 0xea, 
0x48, 0x47, 0x1f, 0xfe, 0xc1, 0x23, 0x17, 0x18, 0xcc, 0xe0, 0x45, 0xf3, 
0xd0, 0x0f, 0xe5, 0xfe, 0x0f, 0x3f, 0x2b, 0xe8, 0xc3, 0x01, 0x00, 0xa2, 
0xc1, 0xe9, 0x4b, 0xe2, 0x1f, 0xf7, 0xca, 0x03, 0xcc, 0x09, 0xe7, 0x43, 
0xda, 0x26, 0x06, 0xc8, 0xf4, 0xb6, 0x00, 0x20, 0xd7, 0xd4, 0xc7, 0x2a, 
0x38, 0x3e, 0x21, 0x3b, 0xad, 0x23, 0xb8, 0xd7, 0xf7, 0xa3, 0xb5, 0x22, 
0xb2, 0x3f, 0xc2, 0x3c, 0x1a, 0xe6, 0x36, 0x17, 0xee, 0xcc, 0xbe, 0xce, 
0xee, 0xd0, 0x1c, 0xcb, 0xb5, 0xf7, 0x2d, 0xfb, 0x08, 0x08, 0x21, 0x91, 
0x88, 0x48, 0x13, 0xc2, 0xec, 0xf7, 0x0a, 0xe5, 0x0f, 0x65, 0x14, 0xf8, 
0x36, 0x5e, 0x4c, 0xab, 0x00, 0x0a, 0xfc, 0xa4, 0xe9, 0xf8, 0xea, 0xde, 
0x81, 0xcc, 0xf2, 0x32, 0x1d, 0xc9, 0xd0, 0xf5, 0xfa, 0xf7, 0xaa, 0xf9, 
0xf7, 0xc7, 0x08, 0xa5, 0xed, 0x2e, 0x13, 0xf7, 0x07, 0x22, 0xd6, 0xb4, 
0xaf, 0xe4, 0xf4, 0xfd, 0xef, 0xb9, 0xcf, 0xc5, 0xda, 0x0b, 0xfb, 0x08, 
0x05, 0x0f, 0x33, 0x14, 0xdb, 0x3d, 0xef, 0x09, 0xe2, 0xcd, 0xcf, 0xda, 
0xc1, 0x52, 0x03, 0x53, 0x2b, 0x52, 0xde, 0x19, 0x2f, 0xee, 0xe8, 0x2b, 
0xec, 0xfe, 0x2a, 0xf9, 0x4b, 0x0e, 0xdb, 0xd7, 0xf0, 0x0e, 0xd4, 0xdb, 
0xf6, 0x51, 0x3d, 0xbb, 0x43, 0xca, 0x15, 0xd8, 0x22, 0x52, 0x20, 0x16, 
0x4c, 0xd5, 0x28, 0x1b, 0xe3, 0x18, 0x28, 0x9f, 0x37, 0xf1, 0x29, 0xcf, 
0xc6, 0xdc, 0xc5, 0x48, 0x1d, 0xe7, 0xcc, 0xf9, 0x23, 0x30, 0x3d, 0x38, 
0x0c, 0xeb, 0xec, 0xe4, 0x17, 0xf3, 0x19, 0x63, 0x46, 0x0f, 0x39, 0x7f, 
0x0c, 0x31, 0x1f, 0x1c, 0xfc, 0x3f, 0xec, 0x09, 0x34, 0xbd, 0x15, 0x08, 
0xb8, 0xf8, 0xd5, 0x13, 0xf0, 0xe5, 0x35, 0x04, 0xfc, 0x3d, 0x5b, 0xf1, 
0xfc, 0x02, 0x16, 0x1a, 0xd3, 0xd3, 0x37, 0x4f, 0xed, 0xf7, 0x3f, 0xf5, 
0x24, 0x0f, 0x25, 0xfc, 0x17, 0xda, 0xbc, 0x78, 0x17, 0xdc, 0xee, 0x11, 
0x02, 0x23, 0x23, 0x49, 0x38, 0x00, 0x15, 0x39, 0x00, 0xd3, 0x28, 0xf3, 
0xd3, 0xca, 0x17, 0x03, 0x02, 0xf0, 0x27, 0x0e, 0xc5, 0x0f, 0x0b, 0xbf, 
0x41, 0x2c, 0x0e, 0xec, 0x02, 0x15, 0x26, 0x3e, 0xd5, 0x1b, 0xdf, 0x1e, 
0xde, 0xc7, 0x28, 0xe8, 0x19, 0x28, 0x8c, 0x41, 0x04, 0x26, 0x31, 0x3c, 
0xf2, 0x28, 0xdb, 0xf6, 0x08, 0x27, 0xf7, 0x03, 0x20, 0x2b, 0x10, 0x18, 
0x29, 0xbb, 0xf7, 0x4b, 0xd7, 0xe3, 0xf2, 0x26, 0xe8, 0xd0, 0x05, 0xc6, 
0x39, 0x0b, 0xfe, 0x2c, 0x14, 0xfd, 0xc8, 0xef, 0x00, 0xd7, 0xc2, 0xb5, 
0x44, 0xd4, 0x45, 0xdb, 0x0a, 0x2e, 0x1e, 0x26, 0x44, 0x41, 0xc2, 0x4c, 
0xcb, 0x1e, 0xac, 0xa9, 0x21, 0x0b, 0xf2, 0x21, 0x43, 0x5a, 0x1f, 0x33, 
0x5d, 0x3b, 0xfe, 0xb2, 0xf1, 0x11, 0xec, 0x1a, 0xba, 0xea, 0x2f, 0xe2, 
0xd0, 0x91, 0x26, 0x3e, 0x19, 0xf7, 0x16, 0xab, 0x1a, 0xad, 0x18, 0xf5, 
0x16, 0x10, 0x9e, 0x52, 0xde, 0x8e, 0x2e, 0x8b, 0xd2, 0xcc, 0xb3, 0xef, 
0x19, 0xed, 0xde, 0x2e, 0xe3, 0x01, 0xb9, 0x43, 0x15, 0x36, 0x10, 0x0c, 
0x0a, 0x54, 0x64, 0x01, 0x30, 0x88, 0xb0, 0x3d, 0xfb, 0xfa, 0xb9, 0x12, 
0xdf, 0xa7, 0x31, 0x36, 0xdd, 0x08, 0x2f, 0xb2, 0x2e, 0xc9, 0xbe, 0xdb, 
0x1b, 0x1e, 0xb1, 0xf2, 0x3f, 0x0e, 0x3c, 0xd8, 0xce, 0x3b, 0xae, 0xda, 
0xcc, 0xe7, 0x24, 0x3f, 0x23, 0xc7, 0x2f, 0xc9, 0x22, 0xfd, 0x66, 0xee, 
0x7f, 0x11, 0x20, 0xa0, 0x08, 0xa8, 0xca, 0x10, 0x28, 0x78, 0xec, 0xe0, 
0x00, 0xe2, 0x5b, 0xfb, 0x8b, 0xf6, 0xc7, 0x89, 0xad, 0xfd, 0xc0, 0xe5, 
0xed, 0xcf, 0xff, 0xa5, 0xe6, 0xde, 0xca, 0xec, 0xbb, 0xc2, 0xb7, 0x16, 
0x0b, 0xf5, 0x17, 0xe3, 0xed, 0xff, 0xc4, 0x07, 0x29, 0xc7, 0xf1, 0x3d, 
0xe3, 0xd2, 0xbd, 0x73, 0x27, 0x1f, 0x16, 0x08, 0xc3, 0xcd, 0x64, 0x18, 
0xd8, 0xf7, 0xf5, 0xfa, 0x54, 0x4e, 0x50, 0xd5, 0xdc, 0xa3, 0x90, 0x94, 
0xec, 0xbf, 0xa9, 0x9d, 0xac, 0xf2, 0xa5, 0xc0, 0xb2, 0xf3, 0x01, 0xf5, 
0x06, 0x30, 0xf1, 0x27, 0x38, 0x25, 0xcf, 0xf9, 0x06, 0xd6, 0x1f, 0x19, 
0xd1, 0x1e, 0xc4, 0x13, 0x12, 0x5d, 0x0d, 0x03, 0xcd, 0x13, 0x39, 0x0a, 
0x0f, 0x12, 0x00, 0x16, 0xfc, 0x32, 0x25, 0xe5, 0x9c, 0xef, 0xac, 0x91, 
0xd3, 0x81, 0xd8, 0xd5, 0xd9, 0xc2, 0xd0, 0xd4, 0xcb, 0x9c, 0xe4, 0xcf, 
0xf0, 0xe9, 0xf2, 0x43, 0x14, 0x34, 0xd6, 0x43, 0x04, 0x2e, 0x3b, 0x19, 
0x0c, 0xc9, 0xd7, 0x0d, 0x0c, 0x4c, 0x36, 0xd7, 0xa8, 0xc2, 0x4b, 0xfd, 
0xe6, 0x5e, 0x9a, 0x18, 0x34, 0x44, 0x00, 0xf2, 0x06, 0x07, 0xd1, 0xc0, 
0xac, 0x01, 0xe1, 0xea, 0x1a, 0xbb, 0x19, 0x03, 0xbe, 0xc4, 0xcf, 0xfe, 
0x01, 0xbe, 0x13, 0xf0, 0x44, 0x22, 0xc1, 0xf5, 0xdd, 0xdd, 0x04, 0x21, 
0xe8, 0x14, 0x19, 0x5b, 0x26, 0x0e, 0x69, 0xee, 0xf2, 0x0d, 0x16, 0xc7, 
0x0f, 0xf3, 0xf9, 0x0a, 0x5a, 0x36, 0x4a, 0x0c, 0xd1, 0xc0, 0xe0, 0xb1, 
0xaa, 0xc5, 0xbe, 0xbd, 0x92, 0xbc, 0xee, 0xdf, 0xe0, 0xd6, 0xc7, 0xf5, 
0x28, 0x14, 0xe5, 0xf8, 0xea, 0xf8, 0x2b, 0xf2, 0xe9, 0xd3, 0x11, 0x25, 
0xb7, 0xf6, 0xc4, 0x56, 0xeb, 0x4d, 0x5f, 0x3f, 0xe3, 0x10, 0x26, 0x27, 
0xef, 0xea, 0x10, 0x27, 0xfb, 0x40, 0x41, 0x0f, 0xed, 0xa3, 0x81, 0xf8, 
0xb9, 0x82, 0x89, 0xd5, 0xd4, 0xcb, 0xf4, 0xb8, 0xea, 0x94, 0xa5, 0xc3, 
0xed, 0xc9, 0xcc, 0xe5, 0x33, 0x16, 0xf0, 0x3a, 0x1c, 0xde, 0x25, 0x05, 
0xda, 0xf0, 0xdc, 0x53, 0x25, 0x4f, 0x13, 0xe2, 0x02, 0xaa, 0x60, 0xd1, 
0x10, 0x42, 0xc7, 0x0f, 0x4f, 0x22, 0x52, 0x08, 0xef, 0xc4, 0x18, 0xe5, 
0xef, 0xd3, 0xed, 0xa1, 0xfa, 0x05, 0x56, 0x81, 0xf1, 0x0e, 0xe7, 0xb2, 
0xc0, 0x16, 0xb3, 0x06, 0x9c, 0xd9, 0xb4, 0x0d, 0x2b, 0x07, 0xd4, 0x9e, 
0x1a, 0xd0, 0x1e, 0xe4, 0xf5, 0xd8, 0xab, 0xef, 0x3c, 0x17, 0x1c, 0xe3, 
0x22, 0x41, 0x23, 0xbc, 0x1b, 0xdc, 0xd3, 0xdc, 0x2b, 0x0a, 0xe3, 0x97, 
0xb3, 0x2c, 0x2b, 0xe0, 0x25, 0xfe, 0xcb, 0x99, 0xec, 0x47, 0x54, 0xf7, 
0xa9, 0xeb, 0xe5, 0x0f, 0xd5, 0x12, 0x20, 0xd2, 0x21, 0x2c, 0xea, 0x0a, 
0x5c, 0x44, 0xf1, 0xb7, 0x9a, 0x1c, 0xf3, 0x92, 0xff, 0x13, 0x07, 0xe8, 
0x08, 0x41, 0x39, 0x26, 0x02, 0x4a, 0x1b, 0xec, 0x2b, 0xe1, 0x15, 0x16, 
0xc0, 0xed, 0xf3, 0x0b, 0x3a, 0xe1, 0x17, 0x1a, 0x33, 0xfb, 0xfc, 0x3e, 
0x18, 0x5c, 0xbc, 0x13, 0xb3, 0xef, 0xbb, 0xce, 0x26, 0x44, 0xc0, 0x35, 
0x5a, 0xdf, 0x1e, 0xe8, 0x8b, 0xe4, 0xfb, 0xd6, 0xcf, 0x1c, 0x05, 0x22, 
0x95, 0x02, 0xac, 0x16, 0x4b, 0x05, 0x1a, 0x05, 0xe2, 0x99, 0xf7, 0xa8, 
0x45, 0x9e, 0xe8, 0xc0, 0x0e, 0x26, 0xe1, 0xf0, 0xf0, 0xc7, 0xd2, 0xec, 
0x09, 0xec, 0x15, 0x10, 0xed, 0xca, 0x57, 0xa5, 0x42, 0x62, 0xcc, 0x28, 
0x60, 0x6f, 0x5a, 0xbb, 0xcc, 0xdf, 0xa7, 0xd2, 0x24, 0xc9, 0xff, 0x37, 
0x4f, 0xdc, 0xea, 0x04, 0xab, 0xf1, 0xcb, 0xec, 0xc0, 0xae, 0x96, 0xee, 
0xd3, 0x3e, 0xeb, 0x24, 0x36, 0xd1, 0x0b, 0xd5, 0xf9, 0xb6, 0xf7, 0x21, 
0x34, 0x2b, 0xb1, 0xcd, 0x53, 0xdd, 0xd4, 0x38, 0x2a, 0xe3, 0xea, 0xc1, 
0x0f, 0x3f, 0x0e, 0xdc, 0x1c, 0xb6, 0xb6, 0x4b, 0xde, 0x1d, 0xf3, 0xd1, 
0xe9, 0x29, 0xd8, 0xf6, 0xcd, 0xc0, 0x36, 0x9f, 0x2e, 0xb1, 0x3e, 0x4f, 
0x1a, 0xd3, 0x18, 0x15, 0x3b, 0xeb, 0x3d, 0xa3, 0x8d, 0xc4, 0x98, 0xfc, 
0xee, 0x50, 0x58, 0x22, 0x42, 0xe1, 0xeb, 0xb9, 0x68, 0x31, 0x2b, 0x2b, 
0x0c, 0xe8, 0x26, 0xa3, 0x15, 0xf0, 0x52, 0x02, 0x74, 0x13, 0xe5, 0x4b, 
0x0f, 0xab, 0x7b, 0xfd, 0xb2, 0x81, 0x85, 0x13, 0x19, 0xe8, 0xfb, 0xe3, 
0xde, 0xea, 0xe5, 0x54, 0xf3, 0xea, 0x22, 0xb9, 0x35, 0xbd, 0xe7, 0xcf, 
0xe1, 0x5a, 0x0e, 0x1d, 0xb8, 0xb1, 0x33, 0xe5, 0x3f, 0xfd, 0x29, 0xbd, 
0x67, 0x00, 0x05, 0xee, 0xcf, 0xce, 0xcc, 0x06, 0x20, 0x22, 0xf0, 0x06, 
0x30, 0x15, 0x0b, 0xc8, 0xdf, 0x04, 0xb2, 0xe3, 0x15, 0xcd, 0xbe, 0x31, 
0x42, 0xfe, 0x07, 0x02, 0xca, 0x06, 0xfa, 0x81, 0x02, 0xb7, 0xf3, 0x9a, 
0xaf, 0x2a, 0xf6, 0x30, 0xf4, 0x00, 0x07, 0x40, 0x1f, 0xf3, 0x22, 0x9e, 
0xec, 0x27, 0x03, 0xd8, 0xf5, 0xfb, 0xe8, 0x0f, 0x45, 0xd7, 0xf7, 0x44, 
0x27, 0x23, 0xf0, 0xe1, 0x02, 0xe7, 0xbc, 0xd4, 0xef, 0xc8, 0xda, 0x4b, 
0x0f, 0x22, 0xcb, 0x0a, 0x26, 0xf1, 0x30, 0x12, 0x2a, 0xc9, 0xbe, 0xc0, 
0xc7, 0xd2, 0xfc, 0xd3, 0xf2, 0x39, 0x3c, 0x09, 0x2f, 0xe6, 0x58, 0x2b, 
0x58, 0x18, 0xf5, 0xb4, 0x37, 0x21, 0xd0, 0xd6, 0x6c, 0x43, 0xaf, 0xdb, 
0xe5, 0xe9, 0x26, 0x0a, 0xe8, 0xb2, 0xa6, 0xd1, 0xda, 0xfb, 0xce, 0xdf, 
0xfe, 0x10, 0xa6, 0xef, 0x40, 0xb5, 0xd6, 0xe9, 0x23, 0xd9, 0xed, 0x81, 
0x21, 0x06, 0xe6, 0xa9, 0xcf, 0xb2, 0x20, 0x9b, 0xe6, 0x31, 0xce, 0xea, 
0x4a, 0x6b, 0x76, 0xbc, 0xe5, 0x22, 0x8a, 0xa0, 0xf1, 0xf2, 0x41, 0xcd, 
0x87, 0xb6, 0xb3, 0xe8, 0xb7, 0x1a, 0x25, 0xff, 0x2d, 0xdd, 0xe1, 0xf6, 
0x0b, 0x15, 0x3b, 0xbb, 0xda, 0xe6, 0xad, 0xce, 0xe8, 0xb2, 0x3a, 0xa6, 
0x13, 0x25, 0xb3, 0xd6, 0x90, 0x12, 0x60, 0xc6, 0x4f, 0x06, 0xcf, 0x42, 
0x31, 0x1c, 0x4f, 0xce, 0xb8, 0xf7, 0xc4, 0x85, 0x2e, 0x9b, 0x18, 0x26, 
0x90, 0xfd, 0xc2, 0x05, 0x1e, 0xbc, 0xaa, 0x4e, 0x24, 0xbd, 0xee, 0xda, 
0x33, 0xbd, 0xb8, 0x43, 0xcd, 0xad, 0x63, 0x12, 0xa9, 0x0f, 0xac, 0x2e, 
0xf2, 0x0d, 0x32, 0x11, 0x4f, 0x24, 0x43, 0xea, 0x40, 0x5c, 0xdd, 0x42, 
0x3a, 0xf1, 0x30, 0xe9, 0xd7, 0x23, 0x9a, 0xfe, 0x31, 0x37, 0xc8, 0x39, 
0x9d, 0x1f, 0xac, 0x17, 0x18, 0xbe, 0x8b, 0x2c, 0xf3, 0xae, 0xa1, 0x4d, 
0x1e, 0x37, 0xd2, 0xeb, 0x1d, 0x11, 0x1f, 0xf4, 0xba, 0x9b, 0x0c, 0x12, 
0xed, 0x0b, 0x30, 0xc9, 0xe3, 0x21, 0x1a, 0x3c, 0x54, 0x4b, 0x2a, 0xce, 
0x61, 0xe5, 0x08, 0xef, 0xd3, 0xf2, 0xa2, 0x06, 0x26, 0xde, 0x02, 0x14, 
0x35, 0xe6, 0x4a, 0xfb, 0xc9, 0xf2, 0xd5, 0xe5, 0xde, 0xa2, 0xef, 0x1d, 
0x1b, 0x2a, 0xe5, 0x1e, 0x4c, 0xc6, 0xea, 0x81, 0x0a, 0xab, 0x0c, 0xef, 
0x16, 0x43, 0xc4, 0x2a, 0xf4, 0x16, 0x19, 0x46, 0x50, 0x3e, 0xfa, 0xbe, 
0xfe, 0x24, 0x37, 0xe5, 0xda, 0xcc, 0xeb, 0xfe, 0x44, 0x47, 0xe3, 0xfe, 
0xbe, 0xaf, 0x0f, 0xee, 0x9b, 0xfb, 0xf2, 0xfd, 0x23, 0x11, 0xbb, 0xe2, 
0x3b, 0x33, 0xed, 0xf7, 0xd5, 0x9c, 0x6f, 0x8d, 0xbb, 0xcc, 0x9f, 0xab, 
0x34, 0xde, 0xf0, 0xe5, 0x3f, 0xf7, 0x23, 0xe4, 0x18, 0x4a, 0x33, 0xcc, 
0x65, 0x44, 0x35, 0xc3, 0xcb, 0x01, 0x02, 0xd6, 0x13, 0x31, 0xf4, 0x0c, 
0xf4, 0xa7, 0x69, 0x3f, 0x9c, 0xe2, 0xdf, 0xa4, 0xf2, 0x26, 0x33, 0xf1, 
0x32, 0xf2, 0x3a, 0x42, 0x19, 0x3d, 0x1d, 0x61, 0x20, 0xd1, 0x9c, 0x1e, 
0xe6, 0xfd, 0x12, 0x5c, 0x6a, 0x5c, 0x3c, 0x1e, 0xd9, 0xc2, 0x08, 0x15, 
0x21, 0xb5, 0x0e, 0x36, 0xea, 0xd5, 0xe8, 0x29, 0xc8, 0x42, 0x61, 0xd2, 
0x26, 0xd0, 0xbc, 0xc2, 0x21, 0x06, 0xe9, 0x46, 0x04, 0xe0, 0xc2, 0xb3, 
0x08, 0x30, 0xb1, 0xdf, 0xf1, 0xc3, 0x9b, 0xea, 0xa7, 0xd6, 0x16, 0xe3, 
0xef, 0xb6, 0x24, 0x14, 0x06, 0x41, 0xe6, 0xc9, 0xc1, 0x38, 0xe9, 0x7a, 
0x22, 0xe7, 0xb1, 0x33, 0x0e, 0x54, 0x78, 0x4d, 0x39, 0xf0, 0x42, 0xe9, 
0xf9, 0xfd, 0xd3, 0xd7, 0x00, 0xf4, 0x35, 0xc2, 0x1e, 0x99, 0xea, 0xc2, 
0x08, 0xef, 0xad, 0x30, 0x33, 0xba, 0x29, 0x41, 0xa0, 0xdb, 0xf4, 0xb3, 
0x07, 0xf5, 0xd4, 0x4b, 0x78, 0xed, 0x17, 0x2a, 0xaa, 0x1e, 0xd3, 0x7f, 
0x02, 0xfb, 0xfa, 0x2b, 0xda, 0x56, 0xdb, 0xfd, 0x82, 0xb6, 0x12, 0xc2, 
0x27, 0x16, 0x08, 0xef, 0x10, 0x38, 0xf3, 0x3e, 0xcd, 0xb4, 0x88, 0x4e, 
0x32, 0x31, 0x82, 0xcb, 0x1a, 0x84, 0xf9, 0x83, 0x8e, 0x8b, 0xcf, 0xf4, 
0x38, 0xec, 0xc4, 0x38, 0xfa, 0x01, 0xdc, 0xde, 0x1d, 0x29, 0x45, 0x85, 
0x0c, 0x4d, 0x53, 0xe9, 0x19, 0xd5, 0xe7, 0xf8, 0x18, 0xdf, 0x8a, 0xe6, 
0xed, 0xc6, 0x5e, 0xbc, 0xdd, 0x81, 0x94, 0x07, 0xc1, 0xfb, 0xdb, 0x1b, 
0xc8, 0x10, 0x1a, 0xff, 0xde, 0xed, 0xf4, 0xa2, 0xfa, 0x17, 0xe5, 0xfc, 
0xc1, 0x26, 0xca, 0x11, 0x04, 0xe5, 0xe3, 0x20, 0x34, 0x4e, 0x14, 0x2f, 
0x74, 0x68, 0x58, 0xee, 0xf3, 0xdf, 0xe7, 0xc9, 0x22, 0x00, 0x0c, 0xec, 
0xc8, 0xfa, 0x78, 0x57, 0xb7, 0x2f, 0x4a, 0xe2, 0x0e, 0x28, 0x26, 0xa7, 
0xd5, 0xaf, 0x1c, 0xc9, 0x1c, 0xf2, 0x50, 0xcc, 0x14, 0xca, 0xeb, 0xe7, 
0xa0, 0x16, 0xd2, 0xeb, 0xa6, 0xdb, 0xfd, 0x1e, 0xf2, 0x4d, 0xd1, 0xcf, 
0x16, 0xec, 0x4f, 0x22, 0xda, 0xec, 0xc6, 0xa9, 0x2c, 0xe0, 0xec, 0xe9, 
0xbb, 0x3c, 0xba, 0x28, 0xd6, 0x3d, 0xd2, 0x08, 0xe4, 0x1f, 0x0d, 0xe4, 
0x25, 0xda, 0x1a, 0xf4, 0xd7, 0x11, 0x10, 0x4b, 0x50, 0x38, 0x32, 0xfe, 
0x4c, 0xf6, 0xd3, 0x0f, 0x36, 0xd6, 0x25, 0x29, 0xe9, 0xf2, 0xf2, 0xaf, 
0xd7, 0xe9, 0xbb, 0x3f, 0x90, 0xbb, 0xe0, 0xb3, 0xd0, 0x9b, 0x06, 0xb0, 
0xff, 0xd9, 0x8f, 0xc5, 0xac, 0x13, 0x02, 0xb0, 0xc0, 0xf0, 0xe8, 0x11, 
0xfd, 0x08, 0x46, 0xe0, 0xc0, 0x16, 0x9c, 0x2e, 0x26, 0xf2, 0x1e, 0x02, 
0x53, 0x2f, 0x16, 0x44, 0xe7, 0x23, 0x1a, 0x2a, 0x21, 0xec, 0xf6, 0x11, 
0xcc, 0xdc, 0xd5, 0x1c, 0xda, 0x0e, 0xf0, 0xba, 0xf1, 0xf2, 0x28, 0x0c, 
0x0d, 0x1c, 0xe1, 0xfd, 0xaf, 0xcb, 0xc6, 0x02, 0x04, 0xf5, 0x21, 0x15, 
0xd3, 0xe8, 0xd3, 0xdc, 0xea, 0x1f, 0xdd, 0x1e, 0x3f, 0x10, 0x45, 0x46, 
0x55, 0x23, 0xe7, 0x10, 0x17, 0x11, 0x13, 0x0d, 0xd2, 0xe6, 0xcf, 0xec, 
0x30, 0xd5, 0x28, 0x3c, 0xff, 0x30, 0x33, 0x13, 0xfb, 0xb1, 0x33, 0x09, 
0xce, 0xd6, 0x81, 0xe6, 0xe7, 0xf9, 0x01, 0x39, 0x15, 0xb2, 0xf3, 0xfa, 
0x25, 0x17, 0xa2, 0xd5, 0x26, 0xbf, 0x08, 0xe1, 0xf3, 0xc0, 0xf0, 0xbb, 
0xe2, 0x5a, 0x27, 0xc5, 0x39, 0xee, 0xed, 0xfc, 0x54, 0x0c, 0x16, 0xd0, 
0x78, 0x76, 0x70, 0xe5, 0xae, 0xb6, 0xfe, 0x1e, 0x1d, 0x28, 0xc8, 0x15, 
0xf0, 0x23, 0x31, 0xfd, 0x95, 0xc2, 0xb3, 0xb5, 0x32, 0xe9, 0xf8, 0xc0, 
0x03, 0x1a, 0x99, 0xb5, 0x1c, 0x8c, 0x50, 0xc7, 0x8d, 0x13, 0x91, 0xc2, 
0xcc, 0x36, 0x34, 0xf5, 0xfa, 0xde, 0xe3, 0x1d, 0x59, 0x2e, 0x41, 0xe3, 
0x31, 0x51, 0x56, 0x11, 0xea, 0xc8, 0xc1, 0xf1, 0xe9, 0xf3, 0xc6, 0x04, 
0x0b, 0xd6, 0x0e, 0x47, 0xf7, 0xa3, 0xad, 0xc7, 0xff, 0xe4, 0x29, 0xd9, 
0x34, 0xed, 0x9e, 0x0d, 0x59, 0xc2, 0x03, 0xc5, 0xe3, 0xc1, 0xc3, 0xff, 
0xfd, 0x5b, 0x44, 0xd9, 0xe0, 0x33, 0x18, 0x52, 0x58, 0x42, 0x7f, 0xcb, 
0x20, 0x44, 0x08, 0xde, 0xfe, 0xc9, 0xc4, 0xf5, 0x45, 0x11, 0xc6, 0xd4, 
0xf8, 0x1d, 0xfc, 0xe0, 0xc1, 0xb1, 0x8a, 0xb4, 0xa8, 0xd4, 0xe3, 0xc4, 
0xe0, 0xa5, 0xc8, 0x9d, 0x10, 0x43, 0x47, 0xbe, 0x3a, 0x3b, 0x4d, 0xde, 
0xf4, 0x4e, 0x17, 0xbf, 0xa2, 0xdb, 0xf4, 0x9f, 0xf5, 0x60, 0xfb, 0xa8, 
0x15, 0x0b, 0x22, 0xb6, 0xdb, 0xf7, 0x24, 0xde, 0xde, 0xe5, 0xc9, 0xf7, 
0xec, 0x50, 0x29, 0x06, 0x4a, 0xe8, 0x0f, 0xdc, 0xbd, 0x2c, 0xd9, 0xd3, 
0x81, 0xca, 0xfd, 0xe6, 0x02, 0x41, 0xf6, 0x02, 0x44, 0xe6, 0x23, 0xf9, 
0xb8, 0xfb, 0xc7, 0xa7, 0x96, 0x0f, 0xd7, 0xbd, 0xd2, 0xe2, 0xd5, 0xc1, 
0x50, 0x1b, 0x29, 0xef, 0xd1, 0x23, 0x10, 0x9d, 0x19, 0xbe, 0x1a, 0xd9, 
0xee, 0x29, 0xe2, 0x4e, 0xdf, 0x13, 0x38, 0xec, 0x21, 0x1e, 0xbc, 0xf2, 
0xb1, 0xc0, 0x0d, 0x39, 0x2a, 0xe2, 0xfe, 0x15, 0x01, 0xfb, 0x32, 0xe3, 
0xf6, 0x2a, 0x28, 0xcd, 0x29, 0xe9, 0xd0, 0x3e, 0x19, 0x09, 0x0f, 0xc7, 
0x56, 0x0b, 0x36, 0x45, 0xf5, 0x31, 0xb9, 0x00, 0xcd, 0xe4, 0x2a, 0x4a, 
0x27, 0x1b, 0x0f, 0x42, 0xfe, 0x2f, 0x17, 0x0d, 0x24, 0x4a, 0x51, 0x14, 
0x30, 0x1d, 0x50, 0x28, 0xcb, 0x16, 0xbd, 0x7f, 0x0b, 0x55, 0x1d, 0x21, 
0x39, 0xd0, 0x27, 0xde, 0x33, 0xf3, 0x06, 0x41, 0x05, 0xb2, 0xf5, 0xae, 
0x19, 0xd5, 0xfb, 0xe1, 0x24, 0xab, 0xe7, 0xd7, 0x2b, 0x01, 0xc8, 0x0d, 
0x2c, 0xba, 0x0a, 0xb8, 0xe5, 0xdc, 0xdc, 0x12, 0xc7, 0x48, 0x2b, 0x05, 
0xe2, 0xd2, 0xf7, 0xe3, 0xf7, 0x32, 0xd9, 0x6c, 0x0a, 0x31, 0x4f, 0x1f, 
0x4d, 0x1d, 0x25, 0x0d, 0x1c, 0x3f, 0xd0, 0xd9, 0x14, 0x0e, 0x06, 0xc2, 
0xba, 0xfd, 0xe1, 0x29, 0xd4, 0xa1, 0xe7, 0xfb, 0x19, 0xdb, 0xac, 0xd1, 
0xe1, 0x9a, 0x13, 0xac, 0x93, 0xc2, 0xb4, 0xd5, 0xce, 0xf1, 0xe7, 0xc6, 
0x16, 0xe3, 0x0e, 0xcd, 0x14, 0x2a, 0xca, 0x6d, 0x17, 0x2a, 0x0d, 0x3f, 
0x00, 0x25, 0x30, 0x2a, 0x18, 0x27, 0xec, 0xf1, 0x0d, 0x0e, 0xde, 0x15, 
0x1b, 0xc5, 0xe3, 0x36, 0x27, 0xd7, 0xef, 0x08, 0xff, 0xcc, 0xb3, 0xf5, 
0x23, 0xbc, 0xe5, 0x02, 0xc4, 0xaf, 0xb6, 0x08, 0x9b, 0x8b, 0x04, 0x91, 
0x0b, 0xdf, 0xe1, 0x81, 0x26, 0xca, 0x5d, 0xd8, 0x36, 0xf4, 0xe5, 0x0e, 
0x98, 0x26, 0x23, 0xe5, 0x84, 0x27, 0x08, 0xb3, 0xab, 0x0c, 0x2b, 0x08, 
0x1a, 0x08, 0x71, 0x16, 0xd0, 0x0d, 0x28, 0xda, 0x23, 0xe1, 0xf2, 0xec, 
0xa5, 0xfe, 0xa2, 0xc7, 0xd3, 0x1d, 0x30, 0xfe, 0xa4, 0x3f, 0x8f, 0x2f, 
0xc2, 0xae, 0x0a, 0x16, 0x44, 0x4f, 0x1a, 0x07, 0x3e, 0x22, 0x37, 0x4f, 
0xa5, 0xc4, 0xe7, 0x14, 0xf8, 0x2f, 0xf9, 0xb2, 0xa6, 0xcf, 0x8d, 0x2a, 
0x59, 0x6e, 0x70, 0xb6, 0xf4, 0xe0, 0xe3, 0xf3, 0x01, 0x06, 0xdc, 0x29, 
0xab, 0x47, 0xff, 0xf5, 0xa1, 0x29, 0x37, 0x17, 0xd6, 0xc0, 0xb0, 0xe3, 
0xa3, 0xd4, 0xd5, 0xbf, 0x4d, 0x54, 0xd8, 0xa4, 0xbc, 0xf2, 0xbc, 0x4a, 
0xd6, 0x2c, 0x51, 0x3c, 0xcd, 0x29, 0x40, 0xa5, 0x40, 0xe9, 0x33, 0x07, 
0x2f, 0x74, 0x3f, 0xb4, 0x1a, 0xcc, 0xee, 0xe5, 0xdc, 0xfa, 0x25, 0xe0, 
0x35, 0xf2, 0xd0, 0x2f, 0x13, 0x3a, 0x92, 0xb7, 0x27, 0x0f, 0x9e, 0xbe, 
0xc7, 0xc4, 0xbb, 0x56, 0x2b, 0x30, 0x4d, 0xb6, 0x31, 0xf2, 0xb9, 0xac, 
0x36, 0xec, 0xeb, 0xe2, 0xf5, 0xfe, 0xce, 0xfe, 0x49, 0x17, 0x39, 0x06, 
0x5b, 0x19, 0x48, 0xfa, 0x24, 0xf4, 0x9e, 0x8e, 0x13, 0x15, 0xd9, 0x16, 
0x88, 0x29, 0xf4, 0xc5, 0x3c, 0x25, 0x36, 0xaf, 0xfa, 0x1c, 0x9b, 0x1a, 
0xec, 0x31, 0xeb, 0x40, 0xe0, 0xd7, 0x54, 0xa5, 0x15, 0x17, 0x50, 0xc6, 
0xaf, 0xb1, 0xf3, 0xb2, 0x33, 0xea, 0xf5, 0xd1, 0x44, 0x6c, 0x10, 0xcd, 
0x39, 0x38, 0xea, 0x95, 0x24, 0x3f, 0xa1, 0x28, 0xb1, 0x9c, 0x84, 0xd2, 
0xde, 0xbf, 0x32, 0xe0, 0x22, 0x1e, 0x4b, 0x41, 0xfe, 0xf3, 0x20, 0x13, 
0x4c, 0x04, 0xbb, 0x4e, 0x2d, 0x2a, 0x65, 0xad, 0xf4, 0x3c, 0xb8, 0xc9, 
0xaa, 0x3c, 0x33, 0x46, 0x21, 0xdc, 0x0c, 0x4c, 0x11, 0xfc, 0x7f, 0xde, 
0x09, 0x17, 0x2c, 0xc0, 0x8f, 0x25, 0x21, 0x0d, 0x5d, 0xca, 0x19, 0xdd, 
0xf1, 0x27, 0xf8, 0x59, 0x38, 0x3d, 0xbe, 0xd1, 0xe2, 0xc1, 0xde, 0xfe, 
0xe8, 0x29, 0x10, 0xfe, 0x53, 0xb7, 0x33, 0xcc, 0xaa, 0x13, 0xe3, 0xd8, 
0xb9, 0x53, 0x44, 0x14, 0x03, 0x01, 0x45, 0xcc, 0xf8, 0x0f, 0xff, 0x01, 
0x4a, 0x7f, 0x5f, 0x2e, 0xcd, 0xf5, 0xdb, 0xcc, 0xf8, 0xc9, 0x1a, 0x3b, 
0x05, 0xc4, 0xec, 0x4d, 0xaf, 0xe1, 0xc2, 0xdc, 0xef, 0xd0, 0xbd, 0x0e, 
0xe9, 0x36, 0xdc, 0xf4, 0x08, 0xb2, 0x50, 0x9d, 0xb2, 0x16, 0xa5, 0xe0, 
0xd3, 0x1f, 0xf7, 0xf8, 0xee, 0xd4, 0xf3, 0x01, 0x4c, 0x21, 0x06, 0x16, 
0x60, 0x16, 0x26, 0xec, 0xbb, 0xc8, 0xf4, 0xf3, 0x3b, 0x16, 0xb9, 0xd3, 
0x0f, 0xbf, 0x24, 0x46, 0xbb, 0xe8, 0xab, 0x11, 0xfb, 0xb8, 0x06, 0x31, 
0xd4, 0x01, 0x0e, 0xdf, 0xf2, 0xb5, 0x3c, 0xc5, 0xfb, 0xbf, 0x95, 0x00, 
0x1a, 0x1a, 0xe5, 0x1f, 0x05, 0x1a, 0x27, 0x18, 0x42, 0x5a, 0x41, 0x2a, 
0x36, 0x22, 0x08, 0xfe, 0xdb, 0xcd, 0xc4, 0x33, 0x10, 0x1d, 0xc5, 0x3f, 
0x10, 0xc5, 0x01, 0x00, 0xad, 0x10, 0xd8, 0xda, 0x18, 0x23, 0x36, 0x40, 
0x3a, 0x35, 0xff, 0x1d, 0x13, 0x33, 0x06, 0x75, 0x2a, 0x2c, 0xe5, 0x3f, 
0x1d, 0x32, 0x10, 0x2d, 0xda, 0x2d, 0x4c, 0x1a, 0x37, 0xaf, 0xb6, 0xe0, 
0xc2, 0xd5, 0xa0, 0x3a, 0x11, 0x1d, 0x4a, 0xee, 0xec, 0x4b, 0x57, 0x04, 
0x08, 0x18, 0xce, 0xba, 0xf6, 0xef, 0xb8, 0x28, 0x22, 0x3f, 0x55, 0x28, 
0x0c, 0x1d, 0xd8, 0xec, 0x10, 0x47, 0xab, 0x06, 0xc4, 0x3b, 0xb5, 0x3b, 
0xdc, 0xfc, 0xe9, 0x3a, 0xeb, 0x3d, 0xf0, 0x05, 0x37, 0xca, 0x1d, 0x06, 
0xf1, 0xde, 0x00, 0x02, 0x44, 0xee, 0x4a, 0x07, 0x24, 0xfe, 0xee, 0x13, 
0xfb, 0x14, 0xba, 0xdf, 0xfd, 0x26, 0xe5, 0x36, 0xc6, 0x23, 0xe5, 0x46, 
0xb0, 0x40, 0xe5, 0xdf, 0xf4, 0xdb, 0xdd, 0x08, 0x30, 0xc6, 0x4f, 0x39, 
0x20, 0x40, 0x2b, 0xef, 0xf5, 0xe6, 0xc6, 0xe6, 0x31, 0x01, 0xd2, 0xf4, 
0xea, 0x15, 0xe2, 0x45, 0x26, 0xca, 0xcf, 0x2c, 0xfa, 0xcc, 0x1f, 0x01, 
0xbd, 0xf6, 0x81, 0xf3, 0xcc, 0xf4, 0x24, 0x4e, 0xc7, 0x13, 0xa6, 0xf6, 
0xfa, 0x2a, 0x16, 0xf2, 0xd3, 0x3c, 0xc6, 0xf8, 0xd5, 0xf5, 0xda, 0xe6, 
0xc8, 0x15, 0xb8, 0xf4, 0xb4, 0x08, 0xfa, 0xe1, 0xe3, 0x1c, 0x05, 0x24, 
0x27, 0x33, 0x01, 0xb8, 0x09, 0xda, 0xa9, 0xc5, 0xe0, 0x0f, 0x14, 0xd0, 
0x83, 0x1a, 0x1b, 0x42, 0xe8, 0x04, 0xf9, 0xbb, 0xfe, 0xeb, 0xa0, 0x10, 
0xf7, 0xf1, 0xe8, 0x0c, 0x1a, 0x25, 0xb7, 0xc7, 0x42, 0xda, 0x40, 0x16, 
0xdd, 0x47, 0xe2, 0xf8, 0xb7, 0xfd, 0xf6, 0xa8, 0x15, 0x0a, 0xd3, 0x1e, 
0x21, 0xdb, 0x36, 0x1b, 0xd6, 0xd2, 0xbf, 0x9a, 0xe4, 0xef, 0x0e, 0xa8, 
0xb0, 0x47, 0xed, 0x3b, 0x2f, 0x33, 0x3b, 0xe1, 0x21, 0xf5, 0xfc, 0xb6, 
0x2f, 0xf3, 0x3b, 0xdf, 0x0f, 0x1b, 0x38, 0xdf, 0xe9, 0x3b, 0xc5, 0xed, 
0xe4, 0xf7, 0x2d, 0xe7, 0xcb, 0xff, 0xe4, 0x3a, 0xf7, 0x4a, 0xe7, 0x1e, 
0x45, 0x0c, 0x51, 0xd4, 0x81, 0x17, 0xf9, 0xfd, 0x12, 0xf8, 0x0b, 0xfa, 
0xeb, 0x04, 0xd4, 0xfd, 0xd3, 0x1b, 0x23, 0xe3, 0xc8, 0x52, 0x64, 0x5c, 
0x3d, 0xd9, 0xe9, 0x11, 0x22, 0x68, 0xea, 0x5c, 0x22, 0x0f, 0xe7, 0x39, 
0xc7, 0x22, 0xd3, 0x46, 0xd8, 0x10, 0x4c, 0xbd, 0x25, 0x1a, 0x97, 0x0d, 
0xaf, 0xe5, 0xcd, 0x3a, 0x4b, 0x18, 0xe3, 0xd6, 0xf3, 0x1f, 0xbf, 0xef, 
0x51, 0x0b, 0x3d, 0xf0, 0x11, 0xa0, 0xa2, 0xd2, 0xe4, 0x32, 0xe7, 0x47, 
0x50, 0x4a, 0x33, 0x20, 0xfe, 0x4a, 0x01, 0x7f, 0xda, 0x4a, 0xf7, 0x16, 
0xc6, 0x16, 0x47, 0xee, 0xbf, 0x02, 0xcb, 0xcb, 0x38, 0x10, 0xc1, 0xea, 
0xac, 0x05, 0xef, 0xf2, 0x5d, 0x28, 0xe0, 0x4b, 0x27, 0x1a, 0xc6, 0x37, 
0xe8, 0xfe, 0x3a, 0xb3, 0xc2, 0x26, 0xfc, 0x3f, 0xeb, 0x55, 0x00, 0x30, 
0x68, 0x38, 0xf6, 0x00, 0xfe, 0x2c, 0xce, 0x27, 0x43, 0xdc, 0xe3, 0x49, 
0x46, 0x36, 0x3b, 0xdd, 0xa7, 0xc7, 0xed, 0xbb, 0x37, 0x41, 0xdd, 0xdf, 
0xc7, 0xd4, 0xba, 0x42, 0x1d, 0xc2, 0xf1, 0xe4, 0x2b, 0x68, 0xe1, 0xeb, 
0xf6, 0xe1, 0x06, 0xc1, 0xd9, 0x11, 0x05, 0x75, 0x62, 0xfe, 0xff, 0xff, 
0x04, 0x00, 0x00, 0x00, 0x80, 0x00, 0x00, 0x00, 0x7b, 0xf5, 0xff, 0xff, 
0x0e, 0xf4, 0xff, 0xff, 0x4c, 0x0b, 0x00, 0x00, 0xa6, 0xf1, 0xff, 0xff, 
0x64, 0x06, 0x00, 0x00, 0xd9, 0x0b, 0x00, 0x00, 0x26, 0x08, 0x00, 0x00, 
0xbe, 0x08, 0x00, 0x00, 0x8e, 0x05, 0x00, 0x00, 0xb6, 0x04, 0x00, 0x00, 
0x28, 0x07, 0x00, 0x00, 0x5c, 0xf4, 0xff, 0xff, 0xdc, 0x10, 0x00, 0x00, 
0x57, 0xf9, 0xff, 0xff, 0xf4, 0xf7, 0xff, 0xff, 0xba, 0x07, 0x00, 0x00, 
0x5e, 0x16, 0x00, 0x00, 0x5d, 0x0d, 0x00, 0x00, 0xff, 0x0c, 0x00, 0x00, 
0x2b, 0x11, 0x00, 0x00, 0x32, 0xf4, 0xff, 0xff, 0x3b, 0x12, 0x00, 0x00, 
0x60, 0xf8, 0xff, 0xff, 0x91, 0x15, 0x00, 0x00, 0x47, 0x08, 0x00, 0x00, 
0xf1, 0xf6, 0xff, 0xff, 0x1d, 0x06, 0x00, 0x00, 0x64, 0x0b, 0x00, 0x00, 
0xc5, 0x14, 0x00, 0x00, 0xb0, 0xf5, 0xff, 0xff, 0x87, 0x05, 0x00, 0x00, 
0x15, 0xf1, 0xff, 0xff, 0xee, 0xfe, 0xff, 0xff, 0x04, 0x00, 0x00, 0x00, 
0x40, 0x00, 0x00, 0x00, 0x71, 0x66, 0xf1, 0xf2, 0xcd, 0x93, 0x91, 0xa8, 
0xef, 0x05, 0xe3, 0x6d, 0x8b, 0x6d, 0x04, 0x97, 0xb9, 0x9b, 0xda, 0xd6, 
0x5a, 0x81, 0x4c, 0x0f, 0x96, 0x53, 0x90, 0xa4, 0xdc, 0xfe, 0xfe, 0x04, 
0x84, 0xf6, 0x3b, 0xda, 0x6c, 0xe2, 0x27, 0x0b, 0x3a, 0x6d, 0x0f, 0x57, 
0x70, 0xb1, 0x9d, 0xf1, 0x43, 0x59, 0x63, 0x49, 0xc9, 0xfa, 0x81, 0x7a, 
0xc7, 0xe9, 0xe3, 0x21, 0x51, 0x93, 0x32, 0x88, 0x3a, 0xff, 0xff, 0xff, 
0x04, 0x00, 0x00, 0x00, 0x08, 0x00, 0x00, 0x00, 0x84, 0xf8, 0xff, 0xff, 
0x75, 0x07, 0x00, 0x00, 0x4e, 0xff, 0xff, 0xff, 0x04, 0x00, 0x00, 0x00, 
0x08, 0x00, 0x00, 0x00, 0x01, 0x00, 0x00, 0x00, 0x02, 0x00, 0x00, 0x00, 
0xe0, 0xea, 0xff, 0xff, 0xe4, 0xea, 0xff, 0xff, 0x0f, 0x00, 0x00, 0x00, 
0x4d, 0x4c, 0x49, 0x52, 0x20, 0x43, 0x6f, 0x6e, 0x76, 0x65, 0x72, 0x74, 
0x65, 0x64, 0x2e, 0x00, 0x01, 0x00, 0x00, 0x00, 0x14, 0x00, 0x00, 0x00, 
0x00, 0x00, 0x0e, 0x00, 0x18, 0x00, 0x14, 0x00, 0x10, 0x00, 0x0c, 0x00, 
0x08, 0x00, 0x04, 0x00, 0x0e, 0x00, 0x00, 0x00, 0x14, 0x00, 0x00, 0x00, 
0x1c, 0x00, 0x00, 0x00, 0xc8, 0x02, 0x00, 0x00, 0xcc, 0x02, 0x00, 0x00, 
0xd0, 0x02, 0x00, 0x00, 0x04, 0x00, 0x00, 0x00, 0x6d, 0x61, 0x69, 0x6e, 
0x00, 0x00, 0x00, 0x00, 0x0a, 0x00, 0x00, 0x00, 0x80, 0x02, 0x00, 0x00, 
0x3c, 0x02, 0x00, 0x00, 0xdc, 0x01, 0x00, 0x00, 0x88, 0x01, 0x00, 0x00, 
0x34, 0x01, 0x00, 0x00, 0xf0, 0x00, 0x00, 0x00, 0xac, 0x00, 0x00, 0x00, 
0x78, 0x00, 0x00, 0x00, 0x40, 0x00, 0x00, 0x00, 0x04, 0x00, 0x00, 0x00, 
0xa2, 0xfe, 0xff, 0xff, 0x1c, 0x00, 0x00, 0x00, 0x00, 0x00, 0x00, 0x09, 
0x1c, 0x00, 0x00, 0x00, 0x20, 0x00, 0x00, 0x00, 0x06, 0x00, 0x00, 0x00, 
0x00, 0x00, 0x06, 0x00, 0x08, 0x00, 0x04, 0x00, 0x06, 0x00, 0x00, 0x00, 
0x00, 0x00, 0x80, 0x3f, 0x01, 0x00, 0x00, 0x00, 0x15, 0x00, 0x00, 0x00, 
0x01, 0x00, 0x00, 0x00, 0x14, 0x00, 0x00, 0x00, 0x2e, 0xfe, 0xff, 0xff, 
0x14, 0x00, 0x00, 0x00, 0x00, 0x00, 0x00, 0x08, 0x10, 0x00, 0x00, 0x00, 
0x14, 0x00, 0x00, 0x00, 0x05, 0x00, 0x00, 0x00, 0xb4, 0xeb, 0xff, 0xff, 
0x01, 0x00, 0x00, 0x00, 0x14, 0x00, 0x00, 0x00, 0x03, 0x00, 0x00, 0x00, 
0x13, 0x00, 0x00, 0x00, 0x03, 0x00, 0x00, 0x00, 0x02, 0x00, 0x00, 0x00, 
0x62, 0xfe, 0xff, 0xff, 0x14, 0x00, 0x00, 0x00, 0x00, 0x00, 0x00, 0x1b, 
0x10, 0x00, 0x00, 0x00, 0x14, 0x00, 0x00, 0x00, 0x04, 0x00, 0x00, 0x00, 
0xe8, 0xeb, 0xff, 0xff, 0x01, 0x00, 0x00, 0x00, 0x13, 0x00, 0x00, 0x00, 
0x02, 0x00, 0x00, 0x00, 0x12, 0x00, 0x00, 0x00, 0x01, 0x00, 0x00, 0x00, 
0x92, 0xfe, 0xff, 0xff, 0x14, 0x00, 0x00, 0x00, 0x00, 0x00, 0x00, 0x01, 
0x1c, 0x00, 0x00, 0x00, 0x20, 0x00, 0x00, 0x00, 0x02, 0x00, 0x00, 0x00, 
0xe0, 0xfe, 0xff, 0xff, 0x00, 0x00, 0x00, 0x01, 0x01, 0x00, 0x00, 0x00, 
0x01, 0x00, 0x00, 0x00, 0x01, 0x00, 0x00, 0x00, 0x12, 0x00, 0x00, 0x00, 
0x03, 0x00, 0x00, 0x00, 0x11, 0x00, 0x00, 0x00, 0x05, 0x00, 0x00, 0x00, 
0x04, 0x00, 0x00, 0x00, 0xd2, 0xfe, 0xff, 0xff, 0x14, 0x00, 0x00, 0x00, 
0x00, 0x00, 0x00, 0x05, 0x24, 0x00, 0x00, 0x00, 0x28, 0x00, 0x00, 0x00, 
0x03, 0x00, 0x00, 0x00, 0x6e, 0xff, 0xff, 0xff, 0x02, 0x00, 0x00, 0x00, 
0x02, 0x00, 0x00, 0x00, 0x02, 0x00, 0x00, 0x00, 0x02, 0x00, 0x00, 0x00, 
0x00, 0x00, 0x00, 0x01, 0x01, 0x00, 0x00, 0x00, 0x11, 0x00, 0x00, 0x00, 
0x01, 0x00, 0x00, 0x00, 0x10, 0x00, 0x00, 0x00, 0x12, 0xff, 0xff, 0xff, 
0x14, 0x00, 0x00, 0x00, 0x00, 0x00, 0x00, 0x01, 0x1c, 0x00, 0x00, 0x00, 
0x20, 0x00, 0x00, 0x00, 0x02, 0x00, 0x00, 0x00, 0x60, 0xff, 0xff, 0xff, 
0x00, 0x00, 0x00, 0x01, 0x02, 0x00, 0x00, 0x00, 0x02, 0x00, 0x00, 0x00, 
0x01, 0x00, 0x00, 0x00, 0x10, 0x00, 0x00, 0x00, 0x03, 0x00, 0x00, 0x00, 
0x0f, 0x00, 0x00, 0x00, 0x07, 0x00, 0x00, 0x00, 0x06, 0x00, 0x00, 0x00, 
0x00, 0x00, 0x0e, 0x00, 0x1a, 0x00, 0x14, 0x00, 0x10, 0x00, 0x0c, 0x00, 
0x0b, 0x00, 0x04, 0x00, 0x0e, 0x00, 0x00, 0x00, 0x24, 0x00, 0x00, 0x00, 
0x00, 0x00, 0x00, 0x05, 0x34, 0x00, 0x00, 0x00, 0x38, 0x00, 0x00, 0x00, 
0x03, 0x00, 0x00, 0x00, 0x00, 0x00, 0x0e, 0x00, 0x18, 0x00, 0x17, 0x00, 
0x10, 0x00, 0x0c, 0x00, 0x08, 0x00, 0x04, 0x00, 0x0e, 0x00, 0x00, 0x00, 
0x02, 0x00, 0x00, 0x00, 0x02, 0x00, 0x00, 0x00, 0x02, 0x00, 0x00, 0x00, 
0x02, 0x00, 0x00, 0x00, 0x00, 0x00, 0x00, 0x01, 0x01, 0x00, 0x00, 0x00, 
0x0f, 0x00, 0x00, 0x00, 0x01, 0x00, 0x00, 0x00, 0x0e, 0x00, 0x00, 0x00, 
0xb2, 0xff, 0xff, 0xff, 0x20, 0x00, 0x00, 0x00, 0x00, 0x00, 0x00, 0x01, 
0x28, 0x00, 0x00, 0x00, 0x2c, 0x00, 0x00, 0x00, 0x02, 0x00, 0x00, 0x00, 
0x0c, 0x00, 0x10, 0x00, 0x00, 0x00, 0x0c, 0x00, 0x08, 0x00, 0x07, 0x00, 
0x0c, 0x00, 0x00, 0x00, 0x00, 0x00, 0x00, 0x01, 0x02, 0x00, 0x00, 0x00, 
0x02, 0x00, 0x00, 0x00, 0x01, 0x00, 0x00, 0x00, 0x0e, 0x00, 0x00, 0x00, 
0x03, 0x00, 0x00, 0x00, 0x0d, 0x00, 0x00, 0x00, 0x09, 0x00, 0x00, 0x00, 
0x08, 0x00, 0x00, 0x00, 0x00, 0x00, 0x0e, 0x00, 0x18, 0x00, 0x14, 0x00, 
0x10, 0x00, 0x0c, 0x00, 0x0b, 0x00, 0x04, 0x00, 0x0e, 0x00, 0x00, 0x00, 
0x14, 0x00, 0x00, 0x00, 0x00, 0x00, 0x00, 0x0b, 0x10, 0x00, 0x00, 0x00, 
0x14, 0x00, 0x00, 0x00, 0x01, 0x00, 0x00, 0x00, 0x94, 0xed, 0xff, 0xff, 
0x01, 0x00, 0x00, 0x00, 0x0d, 0x00, 0x00, 0x00, 0x02, 0x00, 0x00, 0x00, 
0x0c, 0x00, 0x00, 0x00, 0x0a, 0x00, 0x00, 0x00, 0x00, 0x00, 0x0e, 0x00, 
0x14, 0x00, 0x00, 0x00, 0x10, 0x00, 0x0c, 0x00, 0x0b, 0x00, 0x04, 0x00, 
0x0e, 0x00, 0x00, 0x00, 0x10, 0x00, 0x00, 0x00, 0x00, 0x00, 0x00, 0x15, 
0x0c, 0x00, 0x00, 0x00, 0x10, 0x00, 0x00, 0x00, 0xd0, 0xed, 0xff, 0xff, 
0x01, 0x00, 0x00, 0x00, 0x0c, 0x00, 0x00, 0x00, 0x02, 0x00, 0x00, 0x00, 
0x00, 0x00, 0x00, 0x00, 0x0b, 0x00, 0x00, 0x00, 0x01, 0x00, 0x00, 0x00, 
0x15, 0x00, 0x00, 0x00, 0x01, 0x00, 0x00, 0x00, 0x00, 0x00, 0x00, 0x00, 
0x16, 0x00, 0x00, 0x00, 0x74, 0x12, 0x00, 0x00, 0xe4, 0x11, 0x00, 0x00, 
0x50, 0x11, 0x00, 0x00, 0xd4, 0x10, 0x00, 0x00, 0x88, 0x0e, 0x00, 0x00, 
0x94, 0x0c, 0x00, 0x00, 0x08, 0x0b, 0x00, 0x00, 0xd4, 0x09, 0x00, 0x00, 
0xb0, 0x08, 0x00, 0x00, 0xdc, 0x07, 0x00, 0x00, 0x70, 0x07, 0x00, 0x00, 
0x04, 0x07, 0x00, 0x00, 0x70, 0x06, 0x00, 0x00, 0xdc, 0x05, 0x00, 0x00, 
0xe8, 0x04, 0x00, 0x00, 0x4c, 0x04, 0x00, 0x00, 0x50, 0x03, 0x00, 0x00, 
0xb4, 0x02, 0x00, 0x00, 0xb8, 0x01, 0x00, 0x00, 0x24, 0x01, 0x00, 0x00, 
0x80, 0x00, 0x00, 0x00, 0x04, 0x00, 0x00, 0x00, 0xfa, 0xed, 0xff, 0xff, 
0x00, 0x00, 0x00, 0x01, 0x18, 0x00, 0x00, 0x00, 0x20, 0x00, 0x00, 0x00, 
0x3c, 0x00, 0x00, 0x00, 0x16, 0x00, 0x00, 0x00, 0x00, 0x00, 0x00, 0x09, 
0x50, 0x00, 0x00, 0x00, 0x02, 0x00, 0x00, 0x00, 0xff, 0xff, 0xff, 0xff, 
0x02, 0x00, 0x00, 0x00, 0xdc, 0xed, 0xff, 0xff, 0x08, 0x00, 0x00, 0x00, 
0x10, 0x00, 0x00, 0x00, 0x01, 0x00, 0x00, 0x00, 0x80, 0xff, 0xff, 0xff, 
0xff, 0xff, 0xff, 0xff, 0x01, 0x00, 0x00, 0x00, 0x00, 0x00, 0x80, 0x3b, 
0x1b, 0x00, 0x00, 0x00, 0x53, 0x74, 0x61, 0x74, 0x65, 0x66, 0x75, 0x6c, 
0x50, 0x61, 0x72, 0x74, 0x69, 0x74, 0x69, 0x6f, 0x6e, 0x65, 0x64, 0x43, 
0x61, 0x6c, 0x6c, 0x5f, 0x31, 0x3a, 0x30, 0x00, 0x02, 0x00, 0x00, 0x00, 
0x01, 0x00, 0x00, 0x00, 0x02, 0x00, 0x00, 0x00, 0x72, 0xee, 0xff, 0xff, 
0x00, 0x00, 0x00, 0x01, 0x18, 0x00, 0x00, 0x00, 0x20, 0x00, 0x00, 0x00, 
0x40, 0x00, 0x00, 0x00, 0x15, 0x00, 0x00, 0x00, 0x00, 0x00, 0x00, 0x09, 
0x78, 0x00, 0x00, 0x00, 0x02, 0x00, 0x00, 0x00, 0xff, 0xff, 0xff, 0xff, 
0x02, 0x00, 0x00, 0x00, 0x54, 0xee, 0xff, 0xff, 0x08, 0x00, 0x00, 0x00, 
0x14, 0x00, 0x00, 0x00, 0x01, 0x00, 0x00, 0x00, 0x08, 0x00, 0x00, 0x00, 
0x00, 0x00, 0x00, 0x00, 0x00, 0x00, 0x00, 0x00, 0x01, 0x00, 0x00, 0x00, 
0x3c, 0xec, 0xcf, 0x3c, 0x3c, 0x00, 0x00, 0x00, 0x73, 0x65, 0x71, 0x75, 
0x65, 0x6e, 0x74, 0x69, 0x61, 0x6c, 0x5f, 0x31, 0x5f, 0x31, 0x2f, 0x64, 
0x65, 0x6e, 0x73, 0x65, 0x5f, 0x31, 0x2f, 0x4d, 0x61, 0x74, 0x4d, 0x75, 
0x6c, 0x3b, 0x73, 0x65, 0x71, 0x75, 0x65, 0x6e, 0x74, 0x69, 0x61, 0x6c, 
0x5f, 0x31, 0x5f, 0x31, 0x2f, 0x64, 0x65, 0x6e, 0x73, 0x65, 0x5f, 0x31, 
0x2f, 0x42, 0x69, 0x61, 0x73, 0x41, 0x64, 0x64, 0x00, 0x00, 0x00, 0x00, 
0x02, 0x00, 0x00, 0x00, 0x01, 0x00, 0x00, 0x00, 0x02, 0x00, 0x00, 0x00, 
0x12, 0xef, 0xff, 0xff, 0x00, 0x00, 0x00, 0x01, 0x18, 0x00, 0x00, 0x00, 
0x20, 0x00, 0x00, 0x00, 0x40, 0x00, 0x00, 0x00, 0x14, 0x00, 0x00, 0x00, 
0x00, 0x00, 0x00, 0x09, 0x68, 0x00, 0x00, 0x00, 0x02, 0x00, 0x00, 0x00, 
0xff, 0xff, 0xff, 0xff, 0x20, 0x00, 0x00, 0x00, 0xf4, 0xee, 0xff, 0xff, 
0x08, 0x00, 0x00, 0x00, 0x14, 0x00, 0x00, 0x00, 0x01, 0x00, 0x00, 0x00, 
0x80, 0xff, 0xff, 0xff, 0xff, 0xff, 0xff, 0xff, 0x00, 0x00, 0x00, 0x00, 
0x01, 0x00, 0x00, 0x00, 0x97, 0x86, 0x11, 0x3c, 0x2e, 0x00, 0x00, 0x00, 
0x73, 0x65, 0x71, 0x75, 0x65, 0x6e, 0x74, 0x69, 0x61, 0x6c, 0x5f, 0x31, 
0x5f, 0x31, 0x2f, 0x67, 0x6c, 0x6f, 0x62, 0x61, 0x6c, 0x5f, 0x61, 0x76, 
0x65, 0x72, 0x61, 0x67, 0x65, 0x5f, 0x70, 0x6f, 0x6f, 0x6c, 0x69, 0x6e, 
0x67, 0x32, 0x64, 0x5f, 0x31, 0x2f, 0x4d, 0x65, 0x61, 0x6e, 0x00, 0x00, 
0x02, 0x00, 0x00, 0x00, 0x01, 0x00, 0x00, 0x00, 0x20, 0x00, 0x00, 0x00, 
0xa2, 0xef, 0xff, 0xff, 0x00, 0x00, 0x00, 0x01, 0x18, 0x00, 0x00, 0x00, 
0x28, 0x00, 0x00, 0x00, 0x44, 0x00, 0x00, 0x00, 0x13, 0x00, 0x00, 0x00, 
0x00, 0x00, 0x00, 0x09, 0xc8, 0x00, 0x00, 0x00, 0x04, 0x00, 0x00, 0x00, 
0xff, 0xff, 0xff, 0xff, 0x03, 0x00, 0x00, 0x00, 0x03, 0x00, 0x00, 0x00, 
0x20, 0x00, 0x00, 0x00, 0x8c, 0xef, 0xff, 0xff, 0x08, 0x00, 0x00, 0x00, 
0x10, 0x00, 0x00, 0x00, 0x01, 0x00, 0x00, 0x00, 0x80, 0xff, 0xff, 0xff, 
0xff, 0xff, 0xff, 0xff, 0x01, 0x00, 0x00, 0x00, 0xf5, 0xea, 0xb4, 0x3c, 
0x89, 0x00, 0x00, 0x00, 0x73, 0x65, 0x71, 0x75, 0x65, 0x6e, 0x74, 0x69, 
0x61, 0x6c, 0x5f, 0x31, 0x5f, 0x31, 0x2f, 0x63, 0x6f, 0x6e, 0x76, 0x32, 
0x64, 0x5f, 0x32, 0x5f, 0x31, 0x2f, 0x52, 0x65, 0x6c, 0x75, 0x3b, 0x73, 
0x65, 0x71, 0x75, 0x65, 0x6e, 0x74, 0x69, 0x61, 0x6c, 0x5f, 0x31, 0x5f, 
0x31, 0x2f, 0x63, 0x6f, 0x6e, 0x76, 0x32, 0x64, 0x5f, 0x32, 0x5f, 0x31, 
0x2f, 0x42, 0x69, 0x61, 0x73, 0x41, 0x64, 0x64, 0x3b, 0x73, 0x65, 0x71, 
0x75, 0x65, 0x6e, 0x74, 0x69, 0x61, 0x6c, 0x5f, 0x31, 0x5f, 0x31, 0x2f, 
0x63, 0x6f, 0x6e, 0x76, 0x32, 0x64, 0x5f, 0x32, 0x5f, 0x31, 0x2f, 0x63, 
0x6f, 0x6e, 0x76, 0x6f, 0x6c, 0x75, 0x74, 0x69, 0x6f, 0x6e, 0x3b, 0x73, 
0x65, 0x71, 0x75, 0x65, 0x6e, 0x74, 0x69, 0x61, 0x6c, 0x5f, 0x31, 0x5f, 
0x31, 0x2f, 0x63, 0x6f, 0x6e, 0x76, 0x32, 0x64, 0x5f, 0x32, 0x5f, 0x31, 
0x2f, 0x53, 0x71, 0x75, 0x65, 0x65, 0x7a, 0x65, 0x31, 0x00, 0x00, 0x00, 
0x04, 0x00, 0x00, 0x00, 0x01, 0x00, 0x00, 0x00, 0x03, 0x00, 0x00, 0x00, 
0x03, 0x00, 0x00, 0x00, 0x20, 0x00, 0x00, 0x00, 0x9a, 0xf0, 0xff, 0xff, 
0x00, 0x00, 0x00, 0x01, 0x18, 0x00, 0x00, 0x00, 0x28, 0x00, 0x00, 0x00, 
0x44, 0x00, 0x00, 0x00, 0x12, 0x00, 0x00, 0x00, 0x00, 0x00, 0x00, 0x09, 
0x68, 0x00, 0x00, 0x00, 0x04, 0x00, 0x00, 0x00, 0xff, 0xff, 0xff, 0xff, 
0x03, 0x00, 0x00, 0x00, 0x03, 0x00, 0x00, 0x00, 0x10, 0x00, 0x00, 0x00, 
0x84, 0xf0, 0xff, 0xff, 0x08, 0x00, 0x00, 0x00, 0x10, 0x00, 0x00, 0x00, 
0x01, 0x00, 0x00, 0x00, 0x80, 0xff, 0xff, 0xff, 0xff, 0xff, 0xff, 0xff, 
0x01, 0x00, 0x00, 0x00, 0xb0, 0x77, 0x8c, 0x3c, 0x2a, 0x00, 0x00, 0x00, 
0x73, 0x65, 0x71, 0x75, 0x65, 0x6e, 0x74, 0x69, 0x61, 0x6c, 0x5f, 0x31, 
0x5f, 0x31, 0x2f, 0x6d, 0x61, 0x78, 0x5f, 0x70, 0x6f, 0x6f, 0x6c, 0x69, 
0x6e, 0x67, 0x32, 0x64, 0x5f, 0x31, 0x5f, 0x32, 0x2f, 0x4d, 0x61, 0x78, 
0x50, 0x6f, 0x6f, 0x6c, 0x32, 0x64, 0x00, 0x00, 0x04, 0x00, 0x00, 0x00, 
0x01, 0x00, 0x00, 0x00, 0x03, 0x00, 0x00, 0x00, 0x03, 0x00, 0x00, 0x00, 
0x10, 0x00, 0x00, 0x00, 0x32, 0xf1, 0xff, 0xff, 0x00, 0x00, 0x00, 0x01, 
0x18, 0x00, 0x00, 0x00, 0x28, 0x00, 0x00, 0x00, 0x44, 0x00, 0x00, 0x00, 
0x11, 0x00, 0x00, 0x00, 0x00, 0x00, 0x00, 0x09, 0xc8, 0x00, 0x00, 0x00, 
0x04, 0x00, 0x00, 0x00, 0xff, 0xff, 0xff, 0xff, 0x06, 0x00, 0x00, 0x00, 
0x06, 0x00, 0x00, 0x00, 0x10, 0x00, 0x00, 0x00, 0x1c, 0xf1, 0xff, 0xff, 
0x08, 0x00, 0x00, 0x00, 0x10, 0x00, 0x00, 0x00, 0x01, 0x00, 0x00, 0x00, 
0x80, 0xff, 0xff, 0xff, 0xff, 0xff, 0xff, 0xff, 0x01, 0x00, 0x00, 0x00, 
0xb0, 0x77, 0x8c, 0x3c, 0x89, 0x00, 0x00, 0x00, 0x73, 0x65, 0x71, 0x75, 
0x65, 0x6e, 0x74, 0x69, 0x61, 0x6c, 0x5f, 0x31, 0x5f, 0x31, 0x2f, 0x63, 
0x6f, 0x6e, 0x76, 0x32, 0x64, 0x5f, 0x31, 0x5f, 0x32, 0x2f, 0x52, 0x65, 
0x6c, 0x75, 0x3b, 0x73, 0x65, 0x71, 0x75, 0x65, 0x6e, 0x74, 0x69, 0x61, 
0x6c, 0x5f, 0x31, 0x5f, 0x31, 0x2f, 0x63, 0x6f, 0x6e, 0x76, 0x32, 0x64, 
0x5f, 0x31, 0x5f, 0x32, 0x2f, 0x42, 0x69, 0x61, 0x73, 0x41, 0x64, 0x64, 
0x3b, 0x73, 0x65, 0x71, 0x75, 0x65, 0x6e, 0x74, 0x69, 0x61, 0x6c, 0x5f, 
0x31, 0x5f, 0x31, 0x2f, 0x63, 0x6f, 0x6e, 0x76, 0x32, 0x64, 0x5f, 0x31, 
0x5f, 0x32, 0x2f, 0x63, 0x6f, 0x6e, 0x76, 0x6f, 0x6c, 0x75, 0x74, 0x69, 
0x6f, 0x6e, 0x3b, 0x73, 0x65, 0x71, 0x75, 0x65, 0x6e, 0x74, 0x69, 0x61, 
0x6c, 0x5f, 0x31, 0x5f, 0x31, 0x2f, 0x63, 0x6f, 0x6e, 0x76, 0x32, 0x64, 
0x5f, 0x31, 0x5f, 0x32, 0x2f, 0x53, 0x71, 0x75, 0x65, 0x65, 0x7a, 0x65, 
0x31, 0x00, 0x00, 0x00, 0x04, 0x00, 0x00, 0x00, 0x01, 0x00, 0x00, 0x00, 
0x06, 0x00, 0x00, 0x00, 0x06, 0x00, 0x00, 0x00, 0x10, 0x00, 0x00, 0x00, 
0x2a, 0xf2, 0xff, 0xff, 0x00, 0x00, 0x00, 0x01, 0x18, 0x00, 0x00, 0x00, 
0x28, 0x00, 0x00, 0x00, 0x44, 0x00, 0x00, 0x00, 0x10, 0x00, 0x00, 0x00, 
0x00, 0x00, 0x00, 0x09, 0x68, 0x00, 0x00, 0x00, 0x04, 0x00, 0x00, 0x00, 
0xff, 0xff, 0xff, 0xff, 0x0c, 0x00, 0x00, 0x00, 0x0c, 0x00, 0x00, 0x00, 
0x08, 0x00, 0x00, 0x00, 0x14, 0xf2, 0xff, 0xff, 0x08, 0x00, 0x00, 0x00, 
0x10, 0x00, 0x00, 0x00, 0x01, 0x00, 0x00, 0x00, 0x80, 0xff, 0xff, 0xff, 
0xff, 0xff, 0xff, 0xff, 0x01, 0x00, 0x00, 0x00, 0x6f, 0x62, 0x00, 0x3c, 
0x28, 0x00, 0x00, 0x00, 0x73, 0x65, 0x71, 0x75, 0x65, 0x6e, 0x74, 0x69, 
0x61, 0x6c, 0x5f, 0x31, 0x5f, 0x31, 0x2f, 0x6d, 0x61, 0x78, 0x5f, 0x70, 
0x6f, 0x6f, 0x6c, 0x69, 0x6e, 0x67, 0x32, 0x64, 0x5f, 0x31, 0x2f, 0x4d, 
0x61, 0x78, 0x50, 0x6f, 0x6f, 0x6c, 0x32, 0x64, 0x00, 0x00, 0x00, 0x00, 
0x04, 0x00, 0x00, 0x00, 0x01, 0x00, 0x00, 0x00, 0x0c, 0x00, 0x00, 0x00, 
0x0c, 0x00, 0x00, 0x00, 0x08, 0x00, 0x00, 0x00, 0xc2, 0xf2, 0xff, 0xff, 
0x00, 0x00, 0x00, 0x01, 0x18, 0x00, 0x00, 0x00, 0x28, 0x00, 0x00, 0x00, 
0x44, 0x00, 0x00, 0x00, 0x0f, 0x00, 0x00, 0x00, 0x00, 0x00, 0x00, 0x09, 
0xc0, 0x00, 0x00, 0x00, 0x04, 0x00, 0x00, 0x00, 0xff, 0xff, 0xff, 0xff, 
0x18, 0x00, 0x00, 0x00, 0x18, 0x00, 0x00, 0x00, 0x08, 0x00, 0x00, 0x00, 
0xac, 0xf2, 0xff, 0xff, 0x08, 0x00, 0x00, 0x00, 0x10, 0x00, 0x00, 0x00, 
0x01, 0x00, 0x00, 0x00, 0x80, 0xff, 0xff, 0xff, 0xff, 0xff, 0xff, 0xff, 
0x01, 0x00, 0x00, 0x00, 0x6f, 0x62, 0x00, 0x3c, 0x81, 0x00, 0x00, 0x00, 
0x73, 0x65, 0x71, 0x75, 0x65, 0x6e, 0x74, 0x69, 0x61, 0x6c, 0x5f, 0x31, 
0x5f, 0x31, 0x2f, 0x63, 0x6f, 0x6e, 0x76, 0x32, 0x64, 0x5f, 0x31, 0x2f, 
0x52, 0x65, 0x6c, 0x75, 0x3b, 0x73, 0x65, 0x71, 0x75, 0x65, 0x6e, 0x74, 
0x69, 0x61, 0x6c, 0x5f, 0x31, 0x5f, 0x31, 0x2f, 0x63, 0x6f, 0x6e, 0x76, 
0x32, 0x64, 0x5f, 0x31, 0x2f, 0x42, 0x69, 0x61, 0x73, 0x41, 0x64, 0x64, 
0x3b, 0x73, 0x65, 0x71, 0x75, 0x65, 0x6e, 0x74, 0x69, 0x61, 0x6c, 0x5f, 
0x31, 0x5f, 0x31, 0x2f, 0x63, 0x6f, 0x6e, 0x76, 0x32, 0x64, 0x5f, 0x31, 
0x2f, 0x63, 0x6f, 0x6e, 0x76, 0x6f, 0x6c, 0x75, 0x74, 0x69, 0x6f, 0x6e, 
0x3b, 0x73, 0x65, 0x71, 0x75, 0x65, 0x6e, 0x74, 0x69, 0x61, 0x6c, 0x5f, 
0x31, 0x5f, 0x31, 0x2f, 0x63, 0x6f, 0x6e, 0x76, 0x32, 0x64, 0x5f, 0x31, 
0x2f, 0x53, 0x71, 0x75, 0x65, 0x65, 0x7a, 0x65, 0x31, 0x00, 0x00, 0x00, 
0x04, 0x00, 0x00, 0x00, 0x01, 0x00, 0x00, 0x00, 0x18, 0x00, 0x00, 0x00, 
0x18, 0x00, 0x00, 0x00, 0x08, 0x00, 0x00, 0x00, 0xb2, 0xf3, 0xff, 0xff, 
0x00, 0x00, 0x00, 0x01, 0x18, 0x00, 0x00, 0x00, 0x28, 0x00, 0x00, 0x00, 
0x48, 0x00, 0x00, 0x00, 0x0e, 0x00, 0x00, 0x00, 0x00, 0x00, 0x00, 0x09, 
0x60, 0x00, 0x00, 0x00, 0x04, 0x00, 0x00, 0x00, 0xff, 0xff, 0xff, 0xff, 
0x30, 0x00, 0x00, 0x00, 0x30, 0x00, 0x00, 0x00, 0x01, 0x00, 0x00, 0x00, 
0x9c, 0xf3, 0xff, 0xff, 0x08, 0x00, 0x00, 0x00, 0x14, 0x00, 0x00, 0x00, 
0x01, 0x00, 0x00, 0x00, 0xff, 0xff, 0xff, 0xff, 0xff, 0xff, 0xff, 0xff, 
0x00, 0x00, 0x00, 0x00, 0x01, 0x00, 0x00, 0x00, 0x81, 0x80, 0x00, 0x3c, 
0x1e, 0x00, 0x00, 0x00, 0x73, 0x65, 0x71, 0x75, 0x65, 0x6e, 0x74, 0x69, 
0x61, 0x6c, 0x5f, 0x31, 0x5f, 0x31, 0x2f, 0x72, 0x65, 0x73, 0x63, 0x61, 
0x6c, 0x69, 0x6e, 0x67, 0x5f, 0x31, 0x2f, 0x61, 0x64, 0x64, 0x00, 0x00, 
0x04, 0x00, 0x00, 0x00, 0x01, 0x00, 0x00, 0x00, 0x30, 0x00, 0x00, 0x00, 
0x30, 0x00, 0x00, 0x00, 0x01, 0x00, 0x00, 0x00, 0x42, 0xf4, 0xff, 0xff, 
0x00, 0x00, 0x00, 0x01, 0x18, 0x00, 0x00, 0x00, 0x28, 0x00, 0x00, 0x00, 
0x48, 0x00, 0x00, 0x00, 0x0d, 0x00, 0x00, 0x00, 0x00, 0x00, 0x00, 0x09, 
0x60, 0x00, 0x00, 0x00, 0x04, 0x00, 0x00, 0x00, 0xff, 0xff, 0xff, 0xff, 
0x30, 0x00, 0x00, 0x00, 0x30, 0x00, 0x00, 0x00, 0x01, 0x00, 0x00, 0x00, 
0x2c, 0xf4, 0xff, 0xff, 0x08, 0x00, 0x00, 0x00, 0x14, 0x00, 0x00, 0x00, 
0x01, 0x00, 0x00, 0x00, 0xd5, 0xff, 0xff, 0xff, 0xff, 0xff, 0xff, 0xff, 
0x00, 0x00, 0x00, 0x00, 0x01, 0x00, 0x00, 0x00, 0xc1, 0xc0, 0x40, 0x3c, 
0x1e, 0x00, 0x00, 0x00, 0x73, 0x65, 0x71, 0x75, 0x65, 0x6e, 0x74, 0x69, 
0x61, 0x6c, 0x5f, 0x31, 0x5f, 0x31, 0x2f, 0x72, 0x65, 0x73, 0x63, 0x61, 
0x6c, 0x69, 0x6e, 0x67, 0x5f, 0x31, 0x2f, 0x6d, 0x75, 0x6c, 0x00, 0x00, 
0x04, 0x00, 0x00, 0x00, 0x01, 0x00, 0x00, 0x00, 0x30, 0x00, 0x00, 0x00, 
0x30, 0x00, 0x00, 0x00, 0x01, 0x00, 0x00, 0x00, 0x5e, 0xf5, 0xff, 0xff, 
0x00, 0x00, 0x00, 0x01, 0x14, 0x00, 0x00, 0x00, 0x30, 0x00, 0x00, 0x00, 
0x0c, 0x00, 0x00, 0x00, 0x00, 0x00, 0x00, 0x09, 0x4c, 0x00, 0x00, 0x00, 
0xa4, 0xf4, 0xff, 0xff, 0x08, 0x00, 0x00, 0x00, 0x10, 0x00, 0x00, 0x00, 
0x01, 0x00, 0x00, 0x00, 0x80, 0xff, 0xff, 0xff, 0xff, 0xff, 0xff, 0xff, 
0x01, 0x00, 0x00, 0x00, 0x83, 0x01, 0x01, 0x38, 0x21, 0x00, 0x00, 0x00, 
0x73, 0x65, 0x71, 0x75, 0x65, 0x6e, 0x74, 0x69, 0x61, 0x6c, 0x5f, 0x31, 
0x5f, 0x31, 0x2f, 0x72, 0x65, 0x73, 0x63, 0x61, 0x6c, 0x69, 0x6e, 0x67, 
0x5f, 0x31, 0x2f, 0x43, 0x61, 0x73, 0x74, 0x2f, 0x78, 0x00, 0x00, 0x00, 
0x00, 0x00, 0x00, 0x00, 0xc6, 0xf5, 0xff, 0xff, 0x00, 0x00, 0x00, 0x01, 
0x14, 0x00, 0x00, 0x00, 0x30, 0x00, 0x00, 0x00, 0x0b, 0x00, 0x00, 0x00, 
0x00, 0x00, 0x00, 0x09, 0x4c, 0x00, 0x00, 0x00, 0x0c, 0xf5, 0xff, 0xff, 
0x08, 0x00, 0x00, 0x00, 0x10, 0x00, 0x00, 0x00, 0x01, 0x00, 0x00, 0x00, 
0x7f, 0x00, 0x00, 0x00, 0x00, 0x00, 0x00, 0x00, 0x01, 0x00, 0x00, 0x00, 
0x81, 0x80, 0x80, 0x3b, 0x21, 0x00, 0x00, 0x00, 0x73, 0x65, 0x71, 0x75, 
0x65, 0x6e, 0x74, 0x69, 0x61, 0x6c, 0x5f, 0x31, 0x5f, 0x31, 0x2f, 0x72, 
0x65, 0x73, 0x63, 0x61, 0x6c, 0x69, 0x6e, 0x67, 0x5f, 0x31, 0x2f, 0x43, 
0x61, 0x73, 0x74, 0x5f, 0x31, 0x00, 0x00, 0x00, 0x00, 0x00, 0x00, 0x00, 
0x2e, 0xf6, 0xff, 0xff, 0x00, 0x00, 0x00, 0x01, 0x14, 0x00, 0x00, 0x00, 
0x88, 0x00, 0x00, 0x00, 0x0a, 0x00, 0x00, 0x00, 0x00, 0x00, 0x00, 0x09, 
0xa4, 0x00, 0x00, 0x00, 0x74, 0xf5, 0xff, 0xff, 0x08, 0x00, 0x00, 0x00, 
0x4c, 0x00, 0x00, 0x00, 0x08, 0x00, 0x00, 0x00, 0x00, 0x00, 0x00, 0x00, 
0x00, 0x00, 0x00, 0x00, 0x00, 0x00, 0x00, 0x00, 0x00, 0x00, 0x00, 0x00, 
0x00, 0x00, 0x00, 0x00, 0x00, 0x00, 0x00, 0x00, 0x00, 0x00, 0x00, 0x00, 
0x00, 0x00, 0x00, 0x00, 0x00, 0x00, 0x00, 0x00, 0x00, 0x00, 0x00, 0x00, 
0x00, 0x00, 0x00, 0x00, 0x00, 0x00, 0x00, 0x00, 0x00, 0x00, 0x00, 0x00, 
0x00, 0x00, 0x00, 0x00, 0x00, 0x00, 0x00, 0x00, 0x00, 0x00, 0x00, 0x00, 
0x00, 0x00, 0x00, 0x00, 0x08, 0x00, 0x00, 0x00, 0x49, 0xa6, 0x2c, 0x3b, 
0xbb, 0xf5, 0x54, 0x3b, 0x61, 0x95, 0x09, 0x3b, 0x97, 0xc1, 0x3b, 0x3b, 
0x88, 0xdb, 0x2d, 0x3b, 0x47, 0x88, 0x20, 0x3b, 0xbb, 0xd9, 0x1f, 0x3b, 
0xd6, 0x38, 0x57, 0x3b, 0x23, 0x00, 0x00, 0x00, 0x73, 0x65, 0x71, 0x75, 
0x65, 0x6e, 0x74, 0x69, 0x61, 0x6c, 0x5f, 0x31, 0x5f, 0x31, 0x2f, 0x63, 
0x6f, 0x6e, 0x76, 0x32, 0x64, 0x5f, 0x31, 0x2f, 0x63, 0x6f, 0x6e, 0x76, 
0x6f, 0x6c, 0x75, 0x74, 0x69, 0x6f, 0x6e, 0x00, 0x04, 0x00, 0x00, 0x00, 
0x08, 0x00, 0x00, 0x00, 0x03, 0x00, 0x00, 0x00, 0x03, 0x00, 0x00, 0x00, 
0x01, 0x00, 0x00, 0x00, 0xfe, 0xf6, 0xff, 0xff, 0x00, 0x00, 0x00, 0x01, 
0x14, 0x00, 0x00, 0x00, 0x84, 0x00, 0x00, 0x00, 0x09, 0x00, 0x00, 0x00, 
0x00, 0x00, 0x00, 0x02, 0x00, 0x01, 0x00, 0x00, 0x44, 0xf6, 0xff, 0xff, 
0x08, 0x00, 0x00, 0x00, 0x48, 0x00, 0x00, 0x00, 0x08, 0x00, 0x00, 0x00, 
0x00, 0x00, 0x00, 0x00, 0x00, 0x00, 0x00, 0x00, 0x00, 0x00, 0x00, 0x00, 
0x00, 0x00, 0x00, 0x00, 0x00, 0x00, 0x00, 0x00, 0x00, 0x00, 0x00, 0x00, 
0x00, 0x00, 0x00, 0x00, 0x00, 0x00, 0x00, 0x00, 0x00, 0x00, 0x00, 0x00, 
0x00, 0x00, 0x00, 0x00, 0x00, 0x00, 0x00, 0x00, 0x00, 0x00, 0x00, 0x00, 
0x00, 0x00, 0x00, 0x00, 0x00, 0x00, 0x00, 0x00, 0x00, 0x00, 0x00, 0x00, 
0x00, 0x00, 0x00, 0x00, 0x08, 0x00, 0x00, 0x00, 0x9d, 0x53, 0xad, 0x37, 
0x87, 0xcb, 0xd5, 0x37, 0x81, 0x1f, 0x8a, 0x37, 0x16, 0x7e, 0xbc, 0x37, 
0x13, 0x8a, 0xae, 0x37, 0x71, 0x29, 0xa1, 0x37, 0x36, 0x7a, 0xa0, 0x37, 
0xe8, 0x10, 0xd8, 0x37, 0x80, 0x00, 0x00, 0x00, 0x73, 0x65, 0x71, 0x75, 
0x65, 0x6e, 0x74, 0x69, 0x61, 0x6c, 0x5f, 0x31, 0x5f, 0x31, 0x2f, 0x63, 
0x6f, 0x6e, 0x76, 0x32, 0x64, 0x5f, 0x31, 0x2f, 0x52, 0x65, 0x6c, 0x75, 
0x3b, 0x73, 0x65, 0x71, 0x75, 0x65, 0x6e, 0x74, 0x69, 0x61, 0x6c, 0x5f, 
0x31, 0x5f, 0x31, 0x2f, 0x63, 0x6f, 0x6e, 0x76, 0x32, 0x64, 0x5f, 0x31, 
0x2f, 0x42, 0x69, 0x61, 0x73, 0x41, 0x64, 0x64, 0x3b, 0x73, 0x65, 0x71, 
0x75, 0x65, 0x6e, 0x74, 0x69, 0x61, 0x6c, 0x5f, 0x31, 0x5f, 0x31, 0x2f, 
0x63, 0x6f, 0x6e, 0x76, 0x32, 0x64, 0x5f, 0x31, 0x2f, 0x63, 0x6f, 0x6e, 
0x76, 0x6f, 0x6c, 0x75, 0x74, 0x69, 0x6f, 0x6e, 0x3b, 0x73, 0x65, 0x71, 
0x75, 0x65, 0x6e, 0x74, 0x69, 0x61, 0x6c, 0x5f, 0x31, 0x5f, 0x31, 0x2f, 
0x63, 0x6f, 0x6e, 0x76, 0x32, 0x64, 0x5f, 0x31, 0x2f, 0x53, 0x71, 0x75, 
0x65, 0x65, 0x7a, 0x65, 0x00, 0x00, 0x00, 0x00, 0x01, 0x00, 0x00, 0x00, 
0x08, 0x00, 0x00, 0x00, 0x1e, 0xf8, 0xff, 0xff, 0x00, 0x00, 0x00, 0x01, 
0x14, 0x00, 0x00, 0x00, 0xe4, 0x00, 0x00, 0x00, 0x08, 0x00, 0x00, 0x00, 
0x00, 0x00, 0x00, 0x09, 0x04, 0x01, 0x00, 0x00, 0x64, 0xf7, 0xff, 0xff, 
0x08, 0x00, 0x00, 0x00, 0x88, 0x00, 0x00, 0x00, 0x10, 0x00, 0x00, 0x00, 
0x00, 0x00, 0x00, 0x00, 0x00, 0x00, 0x00, 0x00, 0x00, 0x00, 0x00, 0x00, 
0x00, 0x00, 0x00, 0x00, 0x00, 0x00, 0x00, 0x00, 0x00, 0x00, 0x00, 0x00, 
0x00, 0x00, 0x00, 0x00, 0x00, 0x00, 0x00, 0x00, 0x00, 0x00, 0x00, 0x00, 
0x00, 0x00, 0x00, 0x00, 0x00, 0x00, 0x00, 0x00, 0x00, 0x00, 0x00, 0x00, 
0x00, 0x00, 0x00, 0x00, 0x00, 0x00, 0x00, 0x00, 0x00, 0x00, 0x00, 0x00, 
0x00, 0x00, 0x00, 0x00, 0x00, 0x00, 0x00, 0x00, 0x00, 0x00, 0x00, 0x00, 
0x00, 0x00, 0x00, 0x00, 0x00, 0x00, 0x00, 0x00, 0x00, 0x00, 0x00, 0x00, 
0x00, 0x00, 0x00, 0x00, 0x00, 0x00, 0x00, 0x00, 0x00, 0x00, 0x00, 0x00, 
0x00, 0x00, 0x00, 0x00, 0x00, 0x00, 0x00, 0x00, 0x00, 0x00, 0x00, 0x00, 
0x00, 0x00, 0x00, 0x00, 0x00, 0x00, 0x00, 0x00, 0x00, 0x00, 0x00, 0x00, 
0x00, 0x00, 0x00, 0x00, 0x00, 0x00, 0x00, 0x00, 0x10, 0x00, 0x00, 0x00, 
0xa6, 0x99, 0xfc, 0x3a, 0x68, 0xf0, 0xfc, 0x3a, 0xe6, 0x4d, 0xd1, 0x3a, 
0x39, 0x72, 0xe7, 0x3a, 0x3e, 0x0a, 0xe6, 0x3a, 0xf7, 0x84, 0xc7, 0x3a, 
0x85, 0x61, 0x0d, 0x3b, 0xea, 0xbc, 0xf4, 0x3a, 0xf5, 0x0d, 0x02, 0x3b, 
0x9d, 0x13, 0x24, 0x3b, 0x41, 0x08, 0xf3, 0x3a, 0x0b, 0x9a, 0x00, 0x3b, 
0x41, 0x60, 0x03, 0x3b, 0x2f, 0xc2, 0xf5, 0x3a, 0xae, 0x72, 0x0d, 0x3b, 
0xd6, 0x20, 0xee, 0x3a, 0x25, 0x00, 0x00, 0x00, 0x73, 0x65, 0x71, 0x75, 
0x65, 0x6e, 0x74, 0x69, 0x61, 0x6c, 0x5f, 0x31, 0x5f, 0x31, 0x2f, 0x63, 
0x6f, 0x6e, 0x76, 0x32, 0x64, 0x5f, 0x31, 0x5f, 0x32, 0x2f, 0x63, 0x6f, 
0x6e, 0x76, 0x6f, 0x6c, 0x75, 0x74, 0x69, 0x6f, 0x6e, 0x00, 0x00, 0x00, 
0x04, 0x00, 0x00, 0x00, 0x10, 0x00, 0x00, 0x00, 0x03, 0x00, 0x00, 0x00, 
0x03, 0x00, 0x00, 0x00, 0x08, 0x00, 0x00, 0x00, 0x4e, 0xf9, 0xff, 0xff, 
0x00, 0x00, 0x00, 0x01, 0x14, 0x00, 0x00, 0x00, 0xe4, 0x00, 0x00, 0x00, 
0x07, 0x00, 0x00, 0x00, 0x00, 0x00, 0x00, 0x02, 0x68, 0x01, 0x00, 0x00, 
0x94, 0xf8, 0xff, 0xff, 0x08, 0x00, 0x00, 0x00, 0x88, 0x00, 0x00, 0x00, 
0x10, 0x00, 0x00, 0x00, 0x00, 0x00, 0x00, 0x00, 0x00, 0x00, 0x00, 0x00, 
0x00, 0x00, 0x00, 0x00, 0x00, 0x00, 0x00, 0x00, 0x00, 0x00, 0x00, 0x00, 
0x00, 0x00, 0x00, 0x00, 0x00, 0x00, 0x00, 0x00, 0x00, 0x00, 0x00, 0x00, 
0x00, 0x00, 0x00, 0x00, 0x00, 0x00, 0x00, 0x00, 0x00, 0x00, 0x00, 0x00, 
0x00, 0x00, 0x00, 0x00, 0x00, 0x00, 0x00, 0x00, 0x00, 0x00, 0x00, 0x00, 
0x00, 0x00, 0x00, 0x00, 0x00, 0x00, 0x00, 0x00, 0x00, 0x00, 0x00, 0x00, 
0x00, 0x00, 0x00, 0x00, 0x00, 0x00, 0x00, 0x00, 0x00, 0x00, 0x00, 0x00, 
0x00, 0x00, 0x00, 0x00, 0x00, 0x00, 0x00, 0x00, 0x00, 0x00, 0x00, 0x00, 
0x00, 0x00, 0x00, 0x00, 0x00, 0x00, 0x00, 0x00, 0x00, 0x00, 0x00, 0x00, 
0x00, 0x00, 0x00, 0x00, 0x00, 0x00, 0x00, 0x00, 0x00, 0x00, 0x00, 0x00, 
0x00, 0x00, 0x00, 0x00, 0x00, 0x00, 0x00, 0x00, 0x00, 0x00, 0x00, 0x00, 
0x10, 0x00, 0x00, 0x00, 0xe7, 0x5b, 0x7d, 0x37, 0xeb, 0xb2, 0x7d, 0x37, 
0xdb, 0xee, 0x51, 0x37, 0x35, 0x24, 0x68, 0x37, 0x25, 0xbb, 0x66, 0x37, 
0x66, 0x1e, 0x48, 0x37, 0x3e, 0xce, 0x8d, 0x37, 0x1f, 0x79, 0x75, 0x37, 
0xf8, 0x71, 0x82, 0x37, 0xca, 0x91, 0xa4, 0x37, 0x26, 0xc3, 0x73, 0x37, 
0xf0, 0xfc, 0x80, 0x37, 0x49, 0xc5, 0x83, 0x37, 0x2d, 0x7f, 0x76, 0x37, 
0x74, 0xdf, 0x8d, 0x37, 0xf6, 0xd7, 0x6e, 0x37, 0x88, 0x00, 0x00, 0x00, 
0x73, 0x65, 0x71, 0x75, 0x65, 0x6e, 0x74, 0x69, 0x61, 0x6c, 0x5f, 0x31, 
0x5f, 0x31, 0x2f, 0x63, 0x6f, 0x6e, 0x76, 0x32, 0x64, 0x5f, 0x31, 0x5f, 
0x32, 0x2f, 0x52, 0x65, 0x6c, 0x75, 0x3b, 0x73, 0x65, 0x71, 0x75, 0x65, 
0x6e, 0x74, 0x69, 0x61, 0x6c, 0x5f, 0x31, 0x5f, 0x31, 0x2f, 0x63, 0x6f, 
0x6e, 0x76, 0x32, 0x64, 0x5f, 0x31, 0x5f, 0x32, 0x2f, 0x42, 0x69, 0x61, 
0x73, 0x41, 0x64, 0x64, 0x3b, 0x73, 0x65, 0x71, 0x75, 0x65, 0x6e, 0x74, 
0x69, 0x61, 0x6c, 0x5f, 0x31, 0x5f, 0x31, 0x2f, 0x63, 0x6f, 0x6e, 0x76, 
0x32, 0x64, 0x5f, 0x31, 0x5f, 0x32, 0x2f, 0x63, 0x6f, 0x6e, 0x76, 0x6f, 
0x6c, 0x75, 0x74, 0x69, 0x6f, 0x6e, 0x3b, 0x73, 0x65, 0x71, 0x75, 0x65, 
0x6e, 0x74, 0x69, 0x61, 0x6c, 0x5f, 0x31, 0x5f, 0x31, 0x2f, 0x63, 0x6f, 
0x6e, 0x76, 0x32, 0x64, 0x5f, 0x31, 0x5f, 0x32, 0x2f, 0x53, 0x71, 0x75, 
0x65, 0x65, 0x7a, 0x65, 0x00, 0x00, 0x00, 0x00, 0x01, 0x00, 0x00, 0x00, 
0x10, 0x00, 0x00, 0x00, 0xd6, 0xfa, 0xff, 0xff, 0x00, 0x00, 0x00, 0x01, 
0x14, 0x00, 0x00, 0x00, 0xa4, 0x01, 0x00, 0x00, 0x06, 0x00, 0x00, 0x00, 
0x00, 0x00, 0x00, 0x09, 0xc4, 0x01, 0x00, 0x00, 0x1c, 0xfa, 0xff, 0xff, 
0x08, 0x00, 0x00, 0x00, 0x08, 0x01, 0x00, 0x00, 0x20, 0x00, 0x00, 0x00, 
0x00, 0x00, 0x00, 0x00, 0x00, 0x00, 0x00, 0x00, 0x00, 0x00, 0x00, 0x00, 
0x00, 0x00, 0x00, 0x00, 0x00, 0x00, 0x00, 0x00, 0x00, 0x00, 0x00, 0x00, 
0x00, 0x00, 0x00, 0x00, 0x00, 0x00, 0x00, 0x00, 0x00, 0x00, 0x00, 0x00, 
0x00, 0x00, 0x00, 0x00, 0x00, 0x00, 0x00, 0x00, 0x00, 0x00, 0x00, 0x00, 
0x00, 0x00, 0x00, 0x00, 0x00, 0x00, 0x00, 0x00, 0x00, 0x00, 0x00, 0x00, 
0x00, 0x00, 0x00, 0x00, 0x00, 0x00, 0x00, 0x00, 0x00, 0x00, 0x00, 0x00, 
0x00, 0x00, 0x00, 0x00, 0x00, 0x00, 0x00, 0x00, 0x00, 0x00, 0x00, 0x00, 
0x00, 0x00, 0x00, 0x00, 0x00, 0x00, 0x00, 0x00, 0x00, 0x00, 0x00, 0x00, 
0x00, 0x00, 0x00, 0x00, 0x00, 0x00, 0x00, 0x00, 0x00, 0x00, 0x00, 0x00, 
0x00, 0x00, 0x00, 0x00, 0x00, 0x00, 0x00, 0x00, 0x00, 0x00, 0x00, 0x00, 
0x00, 0x00, 0x00, 0x00, 0x00, 0x00, 0x00, 0x00, 0x00, 0x00, 0x00, 0x00, 
0x00, 0x00, 0x00, 0x00, 0x00, 0x00, 0x00, 0x00, 0x00, 0x00, 0x00, 0x00, 
0x00, 0x00, 0x00, 0x00, 0x00, 0x00, 0x00, 0x00, 0x00, 0x00, 0x00, 0x00, 
0x00, 0x00, 0x00, 0x00, 0x00, 0x00, 0x00, 0x00, 0x00, 0x00, 0x00, 0x00, 
0x00, 0x00, 0x00, 0x00, 0x00, 0x00, 0x00, 0x00, 0x00, 0x00, 0x00, 0x00, 
0x00, 0x00, 0x00, 0x00, 0x00, 0x00, 0x00, 0x00, 0x00, 0x00, 0x00, 0x00, 
0x00, 0x00, 0x00, 0x00, 0x00, 0x00, 0x00, 0x00, 0x00, 0x00, 0x00, 0x00, 
0x00, 0x00, 0x00, 0x00, 0x00, 0x00, 0x00, 0x00, 0x00, 0x00, 0x00, 0x00, 
0x00, 0x00, 0x00, 0x00, 0x00, 0x00, 0x00, 0x00, 0x00, 0x00, 0x00, 0x00, 
0x00, 0x00, 0x00, 0x00, 0x00, 0x00, 0x00, 0x00, 0x00, 0x00, 0x00, 0x00, 
0x00, 0x00, 0x00, 0x00, 0x00, 0x00, 0x00, 0x00, 0x00, 0x00, 0x00, 0x00, 
0x00, 0x00, 0x00, 0x00, 0x20, 0x00, 0x00, 0x00, 0x5c, 0x41, 0xc6, 0x3a, 
0xce, 0xe0, 0xb3, 0x3a, 0x37, 0xf6, 0xbc, 0x3a, 0xba, 0x20, 0xda, 0x3a, 
0x4c, 0x9d, 0xd9, 0x3a, 0x81, 0xbb, 0xfe, 0x3a, 0xa2, 0x71, 0xd3, 0x3a, 
0xdb, 0x22, 0xc4, 0x3a, 0x8d, 0xd3, 0xcc, 0x3a, 0xa9, 0x0b, 0xdd, 0x3a, 
0x21, 0x7c, 0xe4, 0x3a, 0xdc, 0xd9, 0xf5, 0x3a, 0x4e, 0xe0, 0xb1, 0x3a, 
0xc3, 0x0a, 0x10, 0x3b, 0x0d, 0xef, 0x01, 0x3b, 0xcb, 0x56, 0xc3, 0x3a, 
0xaa, 0x5e, 0xb5, 0x3a, 0x23, 0x54, 0xdd, 0x3a, 0x66, 0xc7, 0xb9, 0x3a, 
0x57, 0x56, 0xe4, 0x3a, 0x58, 0xa6, 0xbf, 0x3a, 0x28, 0xf4, 0xd8, 0x3a, 
0x56, 0x0b, 0xfc, 0x3a, 0x50, 0xbd, 0xd7, 0x3a, 0xe7, 0x0b, 0xec, 0x3a, 
0x46, 0xc4, 0x0a, 0x3b, 0x26, 0x87, 0xab, 0x3a, 0x74, 0x65, 0xb1, 0x3a, 
0xbf, 0x13, 0xf7, 0x3a, 0xf9, 0x61, 0xce, 0x3a, 0xbc, 0xd0, 0xe5, 0x3a, 
0xad, 0xfd, 0xcd, 0x3a, 0x25, 0x00, 0x00, 0x00, 0x73, 0x65, 0x71, 0x75, 
0x65, 0x6e, 0x74, 0x69, 0x61, 0x6c, 0x5f, 0x31, 0x5f, 0x31, 0x2f, 0x63, 
0x6f, 0x6e, 0x76, 0x32, 0x64, 0x5f, 0x32, 0x5f, 0x31, 0x2f, 0x63, 0x6f, 
0x6e, 0x76, 0x6f, 0x6c, 0x75, 0x74, 0x69, 0x6f, 0x6e, 0x00, 0x00, 0x00, 
0x04, 0x00, 0x00, 0x00, 0x20, 0x00, 0x00, 0x00, 0x03, 0x00, 0x00, 0x00, 
0x03, 0x00, 0x00, 0x00, 0x10, 0x00, 0x00, 0x00, 0xc6, 0xfc, 0xff, 0xff, 
0x00, 0x00, 0x00, 0x01, 0x14, 0x00, 0x00, 0x00, 0xa4, 0x01, 0x00, 0x00, 
0x05, 0x00, 0x00, 0x00, 0x00, 0x00, 0x00, 0x02, 0x28, 0x02, 0x00, 0x00, 
0x0c, 0xfc, 0xff, 0xff, 0x08, 0x00, 0x00, 0x00, 0x08, 0x01, 0x00, 0x00, 
0x20, 0x00, 0x00, 0x00, 0x00, 0x00, 0x00, 0x00, 0x00, 0x00, 0x00, 0x00, 
0x00, 0x00, 0x00, 0x00, 0x00, 0x00, 0x00, 0x00, 0x00, 0x00, 0x00, 0x00, 
0x00, 0x00, 0x00, 0x00, 0x00, 0x00, 0x00, 0x00, 0x00, 0x00, 0x00, 0x00, 
0x00, 0x00, 0x00, 0x00, 0x00, 0x00, 0x00, 0x00, 0x00, 0x00, 0x00, 0x00, 
0x00, 0x00, 0x00, 0x00, 0x00, 0x00, 0x00, 0x00, 0x00, 0x00, 0x00, 0x00, 
0x00, 0x00, 0x00, 0x00, 0x00, 0x00, 0x00, 0x00, 0x00, 0x00, 0x00, 0x00, 
0x00, 0x00, 0x00, 0x00, 0x00, 0x00, 0x00, 0x00, 0x00, 0x00, 0x00, 0x00, 
0x00, 0x00, 0x00, 0x00, 0x00, 0x00, 0x00, 0x00, 0x00, 0x00, 0x00, 0x00, 
0x00, 0x00, 0x00, 0x00, 0x00, 0x00, 0x00, 0x00, 0x00, 0x00, 0x00, 0x00, 
0x00, 0x00, 0x00, 0x00, 0x00, 0x00, 0x00, 0x00, 0x00, 0x00, 0x00, 0x00, 
0x00, 0x00, 0x00, 0x00, 0x00, 0x00, 0x00, 0x00, 0x00, 0x00, 0x00, 0x00, 
0x00, 0x00, 0x00, 0x00, 0x00, 0x00, 0x00, 0x00, 0x00, 0x00, 0x00, 0x00, 
0x00, 0x00, 0x00, 0x00, 0x00, 0x00, 0x00, 0x00, 0x00, 0x00, 0x00, 0x00, 
0x00, 0x00, 0x00, 0x00, 0x00, 0x00, 0x00, 0x00, 0x00, 0x00, 0x00, 0x00, 
0x00, 0x00, 0x00, 0x00, 0x00, 0x00, 0x00, 0x00, 0x00, 0x00, 0x00, 0x00, 
0x00, 0x00, 0x00, 0x00, 0x00, 0x00, 0x00, 0x00, 0x00, 0x00, 0x00, 0x00, 
0x00, 0x00, 0x00, 0x00, 0x00, 0x00, 0x00, 0x00, 0x00, 0x00, 0x00, 0x00, 
0x00, 0x00, 0x00, 0x00, 0x00, 0x00, 0x00, 0x00, 0x00, 0x00, 0x00, 0x00, 
0x00, 0x00, 0x00, 0x00, 0x00, 0x00, 0x00, 0x00, 0x00, 0x00, 0x00, 0x00, 
0x00, 0x00, 0x00, 0x00, 0x00, 0x00, 0x00, 0x00, 0x00, 0x00, 0x00, 0x00, 
0x00, 0x00, 0x00, 0x00, 0x00, 0x00, 0x00, 0x00, 0x00, 0x00, 0x00, 0x00, 
0x00, 0x00, 0x00, 0x00, 0x00, 0x00, 0x00, 0x00, 0x20, 0x00, 0x00, 0x00, 
0xde, 0x90, 0xd9, 0x37, 0x14, 0x66, 0xc5, 0x37, 0xfd, 0x5d, 0xcf, 0x37, 
0xc2, 0x5f, 0xef, 0x37, 0x87, 0xcf, 0xee, 0x37, 0xa3, 0xc5, 0x0b, 0x38, 
0x00, 0x0a, 0xe8, 0x37, 0x86, 0x3d, 0xd7, 0x37, 0xe9, 0xc6, 0xe0, 0x37, 
0x72, 0x93, 0xf2, 0x37, 0x6a, 0xbd, 0xfa, 0x37, 0x16, 0xe6, 0x06, 0x38, 
0xa8, 0x33, 0xc3, 0x37, 0x75, 0x12, 0x1e, 0x38, 0xf5, 0x96, 0x0e, 0x38, 
0x95, 0x5d, 0xd6, 0x37, 0x21, 0x09, 0xc7, 0x37, 0xfb, 0xe2, 0xf2, 0x37, 
0xce, 0xdf, 0xcb, 0x37, 0xf1, 0x93, 0xfa, 0x37, 0x24, 0x51, 0xd2, 0x37, 
0xe9, 0x15, 0xee, 0x37, 0x0a, 0x4c, 0x0a, 0x38, 0xca, 0xc0, 0xec, 0x37, 
0xde, 0x84, 0x01, 0x38, 0x6e, 0x48, 0x18, 0x38, 0x35, 0x3c, 0xbc, 0x37, 
0xd7, 0xac, 0xc2, 0x37, 0x50, 0x92, 0x07, 0x38, 0x23, 0x7c, 0xe2, 0x37, 
0x32, 0x33, 0xfc, 0x37, 0x12, 0x0e, 0xe2, 0x37, 0x88, 0x00, 0x00, 0x00, 
0x73, 0x65, 0x71, 0x75, 0x65, 0x6e, 0x74, 0x69, 0x61, 0x6c, 0x5f, 0x31, 
0x5f, 0x31, 0x2f, 0x63, 0x6f, 0x6e, 0x76, 0x32, 0x64, 0x5f, 0x32, 0x5f, 
0x31, 0x2f, 0x52, 0x65, 0x6c, 0x75, 0x3b, 0x73, 0x65, 0x71, 0x75, 0x65, 
0x6e, 0x74, 0x69, 0x61, 0x6c, 0x5f, 0x31, 0x5f, 0x31, 0x2f, 0x63, 0x6f, 
0x6e, 0x76, 0x32, 0x64, 0x5f, 0x32, 0x5f, 0x31, 0x2f, 0x42, 0x69, 0x61, 
0x73, 0x41, 0x64, 0x64, 0x3b, 0x73, 0x65, 0x71, 0x75, 0x65, 0x6e, 0x74, 
0x69, 0x61, 0x6c, 0x5f, 0x31, 0x5f, 0x31, 0x2f, 0x63, 0x6f, 0x6e, 0x76, 
0x32, 0x64, 0x5f, 0x32, 0x5f, 0x31, 0x2f, 0x63, 0x6f, 0x6e, 0x76, 0x6f, 
0x6c, 0x75, 0x74, 0x69, 0x6f, 0x6e, 0x3b, 0x73, 0x65, 0x71, 0x75, 0x65, 
0x6e, 0x74, 0x69, 0x61, 0x6c, 0x5f, 0x31, 0x5f, 0x31, 0x2f, 0x63, 0x6f, 
0x6e, 0x76, 0x32, 0x64, 0x5f, 0x32, 0x5f, 0x31, 0x2f, 0x53, 0x71, 0x75, 
0x65, 0x65, 0x7a, 0x65, 0x00, 0x00, 0x00, 0x00, 0x01, 0x00, 0x00, 0x00, 
0x20, 0x00, 0x00, 0x00, 0x0e, 0xff, 0xff, 0xff, 0x00, 0x00, 0x00, 0x01, 
0x14, 0x00, 0x00, 0x00, 0x3c, 0x00, 0x00, 0x00, 0x04, 0x00, 0x00, 0x00, 
0x00, 0x00, 0x00, 0x09, 0x54, 0x00, 0x00, 0x00, 0x54, 0xfe, 0xff, 0xff, 
0x08, 0x00, 0x00, 0x00, 0x18, 0x00, 0x00, 0x00, 0x02, 0x00, 0x00, 0x00, 
0x00, 0x00, 0x00, 0x00, 0x00, 0x00, 0x00, 0x00, 0x00, 0x00, 0x00, 0x00, 
0x00, 0x00, 0x00, 0x00, 0x02, 0x00, 0x00, 0x00, 0xef, 0x57, 0x81, 0x3b, 
0x09, 0xd3, 0x81, 0x3b, 0x1d, 0x00, 0x00, 0x00, 0x73, 0x65, 0x71, 0x75, 
0x65, 0x6e, 0x74, 0x69, 0x61, 0x6c, 0x5f, 0x31, 0x5f, 0x31, 0x2f, 0x64, 
0x65, 0x6e, 0x73, 0x65, 0x5f, 0x31, 0x2f, 0x4d, 0x61, 0x74, 0x4d, 0x75, 
0x6c, 0x00, 0x00, 0x00, 0x02, 0x00, 0x00, 0x00, 0x02, 0x00, 0x00, 0x00, 
0x20, 0x00, 0x00, 0x00, 0x86, 0xff, 0xff, 0xff, 0x00, 0x00, 0x00, 0x01, 
0x14, 0x00, 0x00, 0x00, 0x40, 0x00, 0x00, 0x00, 0x03, 0x00, 0x00, 0x00, 
0x00, 0x00, 0x00, 0x02, 0x58, 0x00, 0x00, 0x00, 0xcc, 0xfe, 0xff, 0xff, 
0x08, 0x00, 0x00, 0x00, 0x1c, 0x00, 0x00, 0x00, 0x02, 0x00, 0x00, 0x00, 
0x00, 0x00, 0x00, 0x00, 0x00, 0x00, 0x00, 0x00, 0x00, 0x00, 0x00, 0x00, 
0x00, 0x00, 0x00, 0x00, 0x00, 0x00, 0x00, 0x00, 0x02, 0x00, 0x00, 0x00, 
0x9d, 0x0d, 0x13, 0x38, 0x92, 0x99, 0x13, 0x38, 0x1e, 0x00, 0x00, 0x00, 
0x73, 0x65, 0x71, 0x75, 0x65, 0x6e, 0x74, 0x69, 0x61, 0x6c, 0x5f, 0x31, 
0x5f, 0x31, 0x2f, 0x64, 0x65, 0x6e, 0x73, 0x65, 0x5f, 0x31, 0x2f, 0x42, 
0x69, 0x61, 0x73, 0x41, 0x64, 0x64, 0x00, 0x00, 0x01, 0x00, 0x00, 0x00, 
0x02, 0x00, 0x00, 0x00, 0x00, 0x00, 0x16, 0x00, 0x1c, 0x00, 0x18, 0x00, 
0x17, 0x00, 0x10, 0x00, 0x0c, 0x00, 0x08, 0x00, 0x00, 0x00, 0x00, 0x00, 
0x00, 0x00, 0x07, 0x00, 0x16, 0x00, 0x00, 0x00, 0x00, 0x00, 0x00, 0x01, 
0x18, 0x00, 0x00, 0x00, 0x18, 0x00, 0x00, 0x00, 0x02, 0x00, 0x00, 0x00, 
0x00, 0x00, 0x00, 0x02, 0x54, 0x00, 0x00, 0x00, 0x04, 0x00, 0x04, 0x00, 
0x04, 0x00, 0x00, 0x00, 0x40, 0x00, 0x00, 0x00, 0x73, 0x65, 0x71, 0x75, 
0x65, 0x6e, 0x74, 0x69, 0x61, 0x6c, 0x5f, 0x31, 0x5f, 0x31, 0x2f, 0x67, 
0x6c, 0x6f, 0x62, 0x61, 0x6c, 0x5f, 0x61, 0x76, 0x65, 0x72, 0x61, 0x67, 
0x65, 0x5f, 0x70, 0x6f, 0x6f, 0x6c, 0x69, 0x6e, 0x67, 0x32, 0x64, 0x5f, 
0x31, 0x2f, 0x4d, 0x65, 0x61, 0x6e, 0x2f, 0x72, 0x65, 0x64, 0x75, 0x63, 
0x74, 0x69, 0x6f, 0x6e, 0x5f, 0x69, 0x6e, 0x64, 0x69, 0x63, 0x65, 0x73, 
0x00, 0x00, 0x00, 0x00, 0x01, 0x00, 0x00, 0x00, 0x02, 0x00, 0x00, 0x00, 
0x00, 0x00, 0x16, 0x00, 0x20, 0x00, 0x1c, 0x00, 0x1b, 0x00, 0x14, 0x00, 
0x10, 0x00, 0x0c, 0x00, 0x00, 0x00, 0x00, 0x00, 0x08, 0x00, 0x07, 0x00, 
0x16, 0x00, 0x00, 0x00, 0x00, 0x00, 0x00, 0x01, 0x18, 0x00, 0x00, 0x00, 
0x34, 0x00, 0x00, 0x00, 0x50, 0x00, 0x00, 0x00, 0x01, 0x00, 0x00, 0x00, 
0x00, 0x00, 0x00, 0x09, 0x68, 0x00, 0x00, 0x00, 0x04, 0x00, 0x00, 0x00, 
0xff, 0xff, 0xff, 0xff, 0x30, 0x00, 0x00, 0x00, 0x30, 0x00, 0x00, 0x00, 
0x01, 0x00, 0x00, 0x00, 0x0c, 0x00, 0x0c, 0x00, 0x00, 0x00, 0x00, 0x00, 
0x08, 0x00, 0x04, 0x00, 0x0c, 0x00, 0x00, 0x00, 0x08, 0x00, 0x00, 0x00, 
0x10, 0x00, 0x00, 0x00, 0x01, 0x00, 0x00, 0x00, 0x80, 0xff, 0xff, 0xff, 
0xff, 0xff, 0xff, 0xff, 0x01, 0x00, 0x00, 0x00, 0x00, 0x00, 0x80, 0x3f, 
0x1e, 0x00, 0x00, 0x00, 0x73, 0x65, 0x72, 0x76, 0x69, 0x6e, 0x67, 0x5f, 
0x64, 0x65, 0x66, 0x61, 0x75, 0x6c, 0x74, 0x5f, 0x6b, 0x65, 0x72, 0x61, 
0x73, 0x5f, 0x74, 0x65, 0x6e, 0x73, 0x6f, 0x72, 0x3a, 0x30, 0x00, 0x00, 
0x04, 0x00, 0x00, 0x00, 0x01, 0x00, 0x00, 0x00, 0x30, 0x00, 0x00, 0x00, 
0x30, 0x00, 0x00, 0x00, 0x01, 0x00, 0x00, 0x00, 0x07, 0x00, 0x00, 0x00, 
0x94, 0x00, 0x00, 0x00, 0x7c, 0x00, 0x00, 0x00, 0x60, 0x00, 0x00, 0x00, 
0x40, 0x00, 0x00, 0x00, 0x2c, 0x00, 0x00, 0x00, 0x18, 0x00, 0x00, 0x00, 
0x04, 0x00, 0x00, 0x00, 0x94, 0xff, 0xff, 0xff, 0x19, 0x00, 0x00, 0x00, 
0x02, 0x00, 0x00, 0x00, 0x00, 0x00, 0x00, 0x19, 0xa4, 0xff, 0xff, 0xff, 
0x09, 0x00, 0x00, 0x00, 0x04, 0x00, 0x00, 0x00, 0x00, 0x00, 0x00, 0x09, 
0xb4, 0xff, 0xff, 0xff, 0x28, 0x00, 0x00, 0x00, 0x02, 0x00, 0x00, 0x00, 
0x00, 0x00, 0x00, 0x28, 0xc4, 0xff, 0xff, 0xff, 0x11, 0x00, 0x00, 0x00, 
0x02, 0x00, 0x00, 0x00, 0x00, 0x00, 0x00, 0x11, 0x0c, 0x00, 0x0e, 0x00, 
0x0d, 0x00, 0x00, 0x00, 0x08, 0x00, 0x04, 0x00, 0x0c, 0x00, 0x00, 0x00, 
0x03, 0x00, 0x00, 0x00, 0x03, 0x00, 0x00, 0x00, 0x00, 0x03, 0x0a, 0x00, 
0x08, 0x00, 0x00, 0x00, 0x00, 0x00, 0x04, 0x00, 0x0a, 0x00, 0x00, 0x00, 
0x02, 0x00, 0x00, 0x00, 0x0c, 0x00, 0x10, 0x00, 0x0f, 0x00, 0x00, 0x00, 
0x08, 0x00, 0x04, 0x00, 0x0c, 0x00, 0x00, 0x00, 0x12, 0x00, 0x00, 0x00, 
0x02, 0x00, 0x00, 0x00, 0x00, 0x00, 0x00, 0x12, };
const unsigned int g_human_detect_model_data_len = 12680;
#endif
