// Auto-generated from model_v1.0_baseline.tflite
// EagleEye model_v1.0_baseline archive copy
#ifndef G_MODEL_V1_0_BASELINE_H
#define G_MODEL_V1_0_BASELINE_H

extern const unsigned char g_model_v1_0_baseline[];
extern const unsigned int g_model_v1_0_baseline_len;

const unsigned char g_model_v1_0_baseline[] = {
  0x20, 0x00, 0x00, 0x00, 0x54, 0x46, 0x4c, 0x33, 0x00, 0x00, 0x00, 0x00,
  0x14, 0x00, 0x20, 0x00, 0x1c, 0x00, 0x18, 0x00, 0x14, 0x00, 0x10, 0x00,
  0x0c, 0x00, 0x00, 0x00, 0x08, 0x00, 0x04, 0x00, 0x14, 0x00, 0x00, 0x00,
  0x1c, 0x00, 0x00, 0x00, 0x98, 0x00, 0x00, 0x00, 0xf0, 0x00, 0x00, 0x00,
  0x90, 0x1a, 0x00, 0x00, 0xa0, 0x1a, 0x00, 0x00, 0x50, 0x2e, 0x00, 0x00,
  0x03, 0x00, 0x00, 0x00, 0x01, 0x00, 0x00, 0x00, 0x10, 0x00, 0x00, 0x00,
  0x00, 0x00, 0x0a, 0x00, 0x10, 0x00, 0x0c, 0x00, 0x08, 0x00, 0x04, 0x00,
  0x0a, 0x00, 0x00, 0x00, 0x0c, 0x00, 0x00, 0x00, 0x1c, 0x00, 0x00, 0x00,
  0x3c, 0x00, 0x00, 0x00, 0x0f, 0x00, 0x00, 0x00, 0x73, 0x65, 0x72, 0x76,
  0x69, 0x6e, 0x67, 0x5f, 0x64, 0x65, 0x66, 0x61, 0x75, 0x6c, 0x74, 0x00,
  0x01, 0x00, 0x00, 0x00, 0x04, 0x00, 0x00, 0x00, 0x90, 0xff, 0xff, 0xff,
  0x15, 0x00, 0x00, 0x00, 0x04, 0x00, 0x00, 0x00, 0x08, 0x00, 0x00, 0x00,
  0x6f, 0x75, 0x74, 0x70, 0x75, 0x74, 0x5f, 0x30, 0x00, 0x00, 0x00, 0x00,
  0x01, 0x00, 0x00, 0x00, 0x04, 0x00, 0x00, 0x00, 0x4e, 0xe5, 0xff, 0xff,
  0x04, 0x00, 0x00, 0x00, 0x0c, 0x00, 0x00, 0x00, 0x6b, 0x65, 0x72, 0x61,
  0x73, 0x5f, 0x74, 0x65, 0x6e, 0x73, 0x6f, 0x72, 0x00, 0x00, 0x00, 0x00,
  0x02, 0x00, 0x00, 0x00, 0x34, 0x00, 0x00, 0x00, 0x04, 0x00, 0x00, 0x00,
  0xdc, 0xff, 0xff, 0xff, 0x18, 0x00, 0x00, 0x00, 0x04, 0x00, 0x00, 0x00,
  0x13, 0x00, 0x00, 0x00, 0x43, 0x4f, 0x4e, 0x56, 0x45, 0x52, 0x53, 0x49,
  0x4f, 0x4e, 0x5f, 0x4d, 0x45, 0x54, 0x41, 0x44, 0x41, 0x54, 0x41, 0x00,
  0x08, 0x00, 0x0c, 0x00, 0x08, 0x00, 0x04, 0x00, 0x08, 0x00, 0x00, 0x00,
  0x17, 0x00, 0x00, 0x00, 0x04, 0x00, 0x00, 0x00, 0x13, 0x00, 0x00, 0x00,
  0x6d, 0x69, 0x6e, 0x5f, 0x72, 0x75, 0x6e, 0x74, 0x69, 0x6d, 0x65, 0x5f,
  0x76, 0x65, 0x72, 0x73, 0x69, 0x6f, 0x6e, 0x00, 0x19, 0x00, 0x00, 0x00,
  0x9c, 0x19, 0x00, 0x00, 0x94, 0x19, 0x00, 0x00, 0x7c, 0x19, 0x00, 0x00,
  0x64, 0x19, 0x00, 0x00, 0x14, 0x19, 0x00, 0x00, 0x84, 0x18, 0x00, 0x00,
  0x74, 0x06, 0x00, 0x00, 0x24, 0x06, 0x00, 0x00, 0x94, 0x01, 0x00, 0x00,
  0x64, 0x01, 0x00, 0x00, 0x0c, 0x01, 0x00, 0x00, 0xf8, 0x00, 0x00, 0x00,
  0xe4, 0x00, 0x00, 0x00, 0xdc, 0x00, 0x00, 0x00, 0xd4, 0x00, 0x00, 0x00,
  0xcc, 0x00, 0x00, 0x00, 0xc4, 0x00, 0x00, 0x00, 0xbc, 0x00, 0x00, 0x00,
  0xb4, 0x00, 0x00, 0x00, 0xac, 0x00, 0x00, 0x00, 0xa4, 0x00, 0x00, 0x00,
  0x9c, 0x00, 0x00, 0x00, 0x94, 0x00, 0x00, 0x00, 0x74, 0x00, 0x00, 0x00,
  0x04, 0x00, 0x00, 0x00, 0x2e, 0xe6, 0xff, 0xff, 0x04, 0x00, 0x00, 0x00,
  0x60, 0x00, 0x00, 0x00, 0x0c, 0x00, 0x00, 0x00, 0x08, 0x00, 0x0e, 0x00,
  0x08, 0x00, 0x04, 0x00, 0x08, 0x00, 0x00, 0x00, 0x10, 0x00, 0x00, 0x00,
  0x28, 0x00, 0x00, 0x00, 0x00, 0x00, 0x06, 0x00, 0x08, 0x00, 0x04, 0x00,
  0x06, 0x00, 0x00, 0x00, 0x04, 0x00, 0x00, 0x00, 0x01, 0x00, 0x00, 0x00,
  0xeb, 0x03, 0x00, 0x00, 0x0c, 0x00, 0x18, 0x00, 0x14, 0x00, 0x10, 0x00,
  0x0c, 0x00, 0x04, 0x00, 0x0c, 0x00, 0x00, 0x00, 0x39, 0x3b, 0x75, 0x7a,
  0x9f, 0x16, 0x96, 0x79, 0x02, 0x00, 0x00, 0x00, 0x02, 0x00, 0x00, 0x00,
  0x04, 0x00, 0x00, 0x00, 0x06, 0x00, 0x00, 0x00, 0x32, 0x2e, 0x32, 0x30,
  0x2e, 0x30, 0x00, 0x00, 0x9a, 0xe6, 0xff, 0xff, 0x04, 0x00, 0x00, 0x00,
  0x10, 0x00, 0x00, 0x00, 0x31, 0x2e, 0x31, 0x34, 0x2e, 0x30, 0x00, 0x00,
  0x00, 0x00, 0x00, 0x00, 0x00, 0x00, 0x00, 0x00, 0x58, 0xd4, 0xff, 0xff,
  0x5c, 0xd4, 0xff, 0xff, 0x60, 0xd4, 0xff, 0xff, 0x64, 0xd4, 0xff, 0xff,
  0x68, 0xd4, 0xff, 0xff, 0x6c, 0xd4, 0xff, 0xff, 0x70, 0xd4, 0xff, 0xff,
  0x74, 0xd4, 0xff, 0xff, 0x78, 0xd4, 0xff, 0xff, 0x7c, 0xd4, 0xff, 0xff,
  0xde, 0xe6, 0xff, 0xff, 0x04, 0x00, 0x00, 0x00, 0x01, 0x00, 0x00, 0x00,
  0x7f, 0x00, 0x00, 0x00, 0xee, 0xe6, 0xff, 0xff, 0x04, 0x00, 0x00, 0x00,
  0x01, 0x00, 0x00, 0x00, 0x80, 0x00, 0x00, 0x00, 0xfe, 0xe6, 0xff, 0xff,
  0x04, 0x00, 0x00, 0x00, 0x48, 0x00, 0x00, 0x00, 0x31, 0x7f, 0x61, 0x46,
  0x70, 0xa2, 0xa9, 0x08, 0x88, 0x7f, 0xf7, 0xa3, 0xe3, 0x31, 0x97, 0xfc,
  0x38, 0x9f, 0xa5, 0x29, 0xde, 0xe0, 0x9b, 0x81, 0xb1, 0xcd, 0xfc, 0x81,
  0xfd, 0xe6, 0x44, 0x88, 0x19, 0x99, 0x91, 0xaa, 0x8f, 0x9a, 0xe6, 0x81,
  0x1c, 0xbf, 0x92, 0x39, 0x44, 0x86, 0x8b, 0xa8, 0x33, 0x81, 0xce, 0x06,
  0x8b, 0x81, 0xa2, 0xc4, 0xf1, 0x85, 0x12, 0x81, 0x9a, 0xfe, 0x41, 0x4e,
  0x4f, 0xb0, 0x4e, 0xc2, 0x30, 0x64, 0xc1, 0x81, 0x52, 0xe7, 0xff, 0xff,
  0x04, 0x00, 0x00, 0x00, 0x20, 0x00, 0x00, 0x00, 0xeb, 0xea, 0xff, 0xff,
  0xda, 0x1b, 0x00, 0x00, 0x15, 0x06, 0x00, 0x00, 0x6e, 0x01, 0x00, 0x00,
  0x29, 0x1e, 0x00, 0x00, 0xc1, 0x24, 0x00, 0x00, 0xe9, 0x01, 0x00, 0x00,
  0xa6, 0xec, 0xff, 0xff, 0x7e, 0xe7, 0xff, 0xff, 0x04, 0x00, 0x00, 0x00,
  0x80, 0x04, 0x00, 0x00, 0x26, 0x8e, 0x1d, 0xd4, 0xcd, 0xc0, 0x1c, 0xd7,
  0x1a, 0x53, 0xe1, 0x00, 0x88, 0xdf, 0x2d, 0x44, 0xf3, 0x22, 0xba, 0xba,
  0xda, 0x29, 0x9d, 0x03, 0x20, 0x9f, 0xfa, 0x0f, 0x4e, 0x4b, 0x4a, 0xf9,
  0x4a, 0xc8, 0xdd, 0x27, 0xed, 0x09, 0xe1, 0x2b, 0x0c, 0xaa, 0xba, 0xc1,
  0xfb, 0xf7, 0xaa, 0x2d, 0x16, 0xcd, 0x24, 0x06, 0x19, 0xe6, 0x31, 0x7f,
  0x6f, 0x36, 0x12, 0xbf, 0xdf, 0xc4, 0x03, 0xfc, 0x63, 0xd5, 0x3d, 0x23,
  0x9c, 0x1f, 0xf6, 0x6d, 0x24, 0x9b, 0xbe, 0x17, 0xd4, 0x13, 0xd9, 0x79,
  0x4a, 0xaa, 0xbb, 0x01, 0xc9, 0x9d, 0x04, 0xde, 0x1c, 0xb5, 0x1f, 0x99,
  0x18, 0x22, 0xa5, 0xe0, 0xe8, 0xe6, 0x0d, 0xeb, 0x18, 0x32, 0x59, 0xce,
  0x5d, 0x30, 0x3c, 0xc0, 0xd5, 0x96, 0x3c, 0x0b, 0xc9, 0x4d, 0xcf, 0xb9,
  0xe6, 0x2f, 0x7d, 0x09, 0x46, 0x65, 0x3b, 0xdd, 0xfe, 0x3e, 0x74, 0x7f,
  0xf0, 0x61, 0x92, 0x30, 0xfa, 0x5e, 0xee, 0x45, 0xac, 0x25, 0x35, 0xc0,
  0xe0, 0xee, 0xd0, 0xe5, 0x39, 0x39, 0x5c, 0x19, 0x02, 0x6b, 0x66, 0xf2,
  0x17, 0xee, 0x3b, 0x79, 0x11, 0x2d, 0x3d, 0x27, 0x08, 0xd4, 0xae, 0xb5,
  0x11, 0x32, 0x13, 0xb1, 0x18, 0xfa, 0xe4, 0xff, 0xeb, 0x61, 0xdc, 0xd1,
  0xf0, 0x47, 0x65, 0x34, 0x56, 0xee, 0x02, 0xc9, 0xa4, 0x1f, 0xdd, 0xc1,
  0xc0, 0xab, 0xad, 0xcf, 0xea, 0xea, 0x3e, 0x4e, 0x20, 0x57, 0x33, 0x4c,
  0x21, 0x75, 0x1c, 0x32, 0x4e, 0xe7, 0x24, 0xd7, 0x81, 0xca, 0xa2, 0x04,
  0xa5, 0xa6, 0xc1, 0xcf, 0x10, 0x07, 0xf4, 0x15, 0x03, 0x32, 0xd3, 0xdf,
  0x7f, 0xcf, 0x19, 0xb8, 0x1a, 0xb6, 0xde, 0x41, 0x39, 0xab, 0xe5, 0xeb,
  0xd9, 0xdf, 0xd5, 0x04, 0x4c, 0xc5, 0xb6, 0x21, 0x10, 0x51, 0x50, 0x57,
  0xfc, 0xcb, 0x46, 0x3e, 0x3a, 0xc6, 0x32, 0x47, 0x55, 0xe0, 0x2e, 0xef,
  0xed, 0x44, 0x05, 0x71, 0x14, 0xc4, 0x3a, 0x1b, 0x39, 0xbb, 0xf0, 0x60,
  0x27, 0xbd, 0x24, 0x4b, 0xcc, 0xde, 0x0e, 0x2b, 0x6e, 0x4d, 0x02, 0xff,
  0x43, 0xf6, 0xf5, 0x2c, 0x35, 0xda, 0xf2, 0x10, 0xc5, 0xa9, 0xbb, 0xfb,
  0x1f, 0x50, 0x3b, 0xf6, 0xed, 0x25, 0x46, 0x39, 0x3e, 0x52, 0x5a, 0xe5,
  0x0d, 0x2b, 0xed, 0x69, 0x1e, 0xbf, 0x1e, 0xd8, 0xd6, 0xbe, 0xd0, 0x7f,
  0xe7, 0xe6, 0xfc, 0x1d, 0x04, 0xe9, 0xd3, 0x24, 0x11, 0x18, 0xea, 0x4a,
  0x52, 0x0a, 0x4e, 0x12, 0x23, 0xc1, 0xd7, 0x04, 0xb6, 0x1e, 0x1d, 0x71,
  0x2f, 0x01, 0xf5, 0x09, 0xdc, 0x4a, 0xe0, 0x3a, 0x32, 0x18, 0xf0, 0x51,
  0x10, 0x05, 0x2d, 0x33, 0x2e, 0xbd, 0xf3, 0xe4, 0x07, 0x59, 0xf6, 0x26,
  0xf9, 0xdc, 0xb3, 0xb2, 0x34, 0x9d, 0xb9, 0xf6, 0x1a, 0x1e, 0xb5, 0xd9,
  0xef, 0x09, 0x0b, 0x18, 0xca, 0xd1, 0x44, 0x0d, 0x68, 0x54, 0xd2, 0xc7,
  0x74, 0xb0, 0xf9, 0x38, 0xef, 0x1f, 0xde, 0x28, 0x34, 0xdf, 0xba, 0xe0,
  0xc6, 0x41, 0xd5, 0x3f, 0x56, 0xeb, 0x41, 0x30, 0xf7, 0x07, 0x63, 0xea,
  0x4f, 0x3e, 0xab, 0x1f, 0xe6, 0xd5, 0xcf, 0x7f, 0x58, 0x9d, 0x09, 0x01,
  0x3e, 0x29, 0xe6, 0x1b, 0xd1, 0x62, 0x16, 0x67, 0xfc, 0x76, 0x1a, 0x81,
  0xe6, 0x30, 0xf1, 0x66, 0x69, 0x3c, 0x70, 0xe8, 0x15, 0x4f, 0x95, 0xcb,
  0x93, 0xb3, 0xa1, 0xd2, 0x2c, 0x28, 0x2c, 0xd8, 0x45, 0x4d, 0xce, 0x05,
  0xd4, 0x08, 0x0f, 0x3d, 0x07, 0xd9, 0x63, 0x32, 0x15, 0x48, 0xe0, 0xa5,
  0x09, 0xd4, 0x2f, 0x89, 0x20, 0x10, 0xf1, 0x25, 0x46, 0x1d, 0x28, 0x9e,
  0x3b, 0xc4, 0xc5, 0x42, 0x51, 0x32, 0x07, 0x8d, 0x99, 0xe8, 0xd6, 0x10,
  0x07, 0xb8, 0xde, 0x0b, 0x81, 0x49, 0x39, 0x0a, 0xd0, 0x2c, 0xd8, 0xda,
  0x8e, 0xfb, 0x10, 0x22, 0xf1, 0xb2, 0x20, 0xe1, 0x99, 0x40, 0x58, 0x45,
  0x24, 0x0d, 0x4a, 0x96, 0x91, 0x38, 0xc5, 0x27, 0x31, 0xe5, 0xc8, 0x96,
  0x88, 0x42, 0x2c, 0x00, 0xd9, 0x46, 0x12, 0xf3, 0xa8, 0x48, 0x00, 0x24,
  0x05, 0x18, 0x56, 0xa7, 0x23, 0x4c, 0x12, 0xb4, 0xde, 0x04, 0x55, 0x9f,
  0x01, 0xdc, 0x4c, 0xff, 0xb5, 0x61, 0x67, 0xed, 0x1e, 0x64, 0x43, 0x30,
  0x3c, 0xd7, 0xe8, 0xe2, 0xd7, 0xd3, 0x26, 0xf7, 0xd3, 0xdb, 0x4e, 0x7f,
  0x4e, 0xf9, 0x54, 0xe5, 0x26, 0xad, 0xc9, 0x29, 0xdb, 0x27, 0xbb, 0x18,
  0x59, 0xc9, 0x5b, 0x51, 0x0d, 0x41, 0xc9, 0x0a, 0x2e, 0x1c, 0x45, 0x62,
  0x39, 0x0f, 0x43, 0x17, 0xf4, 0x4c, 0x48, 0xfe, 0x4e, 0xaf, 0x53, 0x20,
  0x14, 0xde, 0x2c, 0xca, 0x1b, 0x16, 0x26, 0x15, 0xc0, 0xb7, 0xd8, 0x3b,
  0xfb, 0x3d, 0x0b, 0xe9, 0xb1, 0x30, 0x47, 0x1e, 0x23, 0xb6, 0x09, 0x17,
  0xf5, 0xd5, 0x34, 0x3f, 0x2d, 0x23, 0xb4, 0xac, 0xab, 0xf6, 0x01, 0x44,
  0x3e, 0x18, 0xf2, 0x54, 0xc6, 0x10, 0xff, 0x7f, 0xdc, 0xe2, 0x07, 0x52,
  0xf6, 0x2a, 0x3b, 0x4f, 0x04, 0xed, 0x20, 0xd0, 0xd4, 0xe0, 0xc9, 0x3f,
  0xec, 0x4f, 0xde, 0xe5, 0x1b, 0xe9, 0x41, 0x3a, 0xf7, 0x1f, 0x0d, 0x50,
  0xf1, 0xf3, 0xec, 0x1d, 0xef, 0x0a, 0xdd, 0xf9, 0xa0, 0xd7, 0x1d, 0x7e,
  0x36, 0x53, 0x30, 0xe9, 0xe0, 0xf7, 0xe7, 0x4d, 0xb2, 0x15, 0x47, 0x23,
  0x15, 0x16, 0x30, 0x6a, 0x45, 0x21, 0x2a, 0x2c, 0x31, 0xf4, 0x39, 0xdc,
  0xf1, 0x2b, 0xe2, 0xcb, 0x33, 0xb2, 0x03, 0x7f, 0x1d, 0xe5, 0x11, 0x43,
  0xea, 0xf1, 0xcd, 0x4a, 0x0b, 0xdb, 0x30, 0xdf, 0xe0, 0x0d, 0x29, 0x40,
  0x44, 0x06, 0x1d, 0x2c, 0xbd, 0xb1, 0x0f, 0x1c, 0x0b, 0xdb, 0x2b, 0x08,
  0x27, 0xe5, 0x02, 0x3b, 0x31, 0x3b, 0xef, 0x0e, 0x36, 0xe5, 0x36, 0x6b,
  0x5e, 0xd9, 0x23, 0x14, 0xdc, 0x11, 0xee, 0x58, 0x20, 0xc6, 0x48, 0x03,
  0xec, 0xdf, 0xfc, 0xe7, 0xa5, 0xf6, 0x26, 0x16, 0x10, 0x33, 0xe1, 0xc3,
  0xe8, 0xeb, 0x39, 0x23, 0x04, 0x0e, 0x3e, 0xa6, 0xcd, 0x57, 0xde, 0x4c,
  0xc6, 0xed, 0xca, 0xb7, 0xc4, 0x27, 0x22, 0xbf, 0x63, 0x4a, 0x16, 0xbd,
  0x9a, 0x50, 0x65, 0xec, 0x68, 0x2e, 0xbb, 0xdb, 0xdb, 0xc2, 0x60, 0xd2,
  0x59, 0x63, 0x28, 0x81, 0xeb, 0x65, 0xc0, 0x5c, 0x39, 0x38, 0x1f, 0x8c,
  0xde, 0x14, 0xf0, 0xdf, 0x59, 0x0c, 0x16, 0x99, 0xad, 0x3d, 0x1f, 0x41,
  0x4f, 0xfa, 0x03, 0x9a, 0xea, 0xd6, 0xce, 0x44, 0xd5, 0x0f, 0x2f, 0x41,
  0x7b, 0x28, 0xe5, 0xb7, 0x13, 0x24, 0xc7, 0x2b, 0xfd, 0xeb, 0xf6, 0x1f,
  0x19, 0xde, 0x4f, 0x40, 0x53, 0xbf, 0x21, 0xed, 0xf8, 0xf5, 0xd5, 0x76,
  0x76, 0xec, 0x14, 0x54, 0xdd, 0x1c, 0x01, 0x7f, 0xff, 0xf7, 0x04, 0xd6,
  0x4b, 0xdd, 0xcb, 0xe3, 0x10, 0xba, 0x27, 0x18, 0x22, 0x28, 0x1b, 0x4f,
  0x3e, 0xfe, 0xd6, 0x5a, 0xe7, 0xea, 0x34, 0x65, 0xb1, 0xc5, 0xe8, 0x21,
  0xe4, 0x36, 0x57, 0x10, 0xe6, 0xd6, 0x2d, 0xef, 0xf6, 0x2e, 0x99, 0x20,
  0x3f, 0x22, 0xdd, 0xa9, 0x20, 0x01, 0x9c, 0x76, 0x3c, 0xef, 0x27, 0x42,
  0x22, 0x45, 0x0a, 0x29, 0x61, 0x2d, 0xc9, 0xa2, 0xf2, 0x1b, 0x93, 0x49,
  0x70, 0x5e, 0xd8, 0x01, 0x38, 0xec, 0x14, 0x7f, 0xe6, 0xfb, 0x37, 0x4b,
  0x0b, 0xfa, 0x4d, 0xd8, 0x14, 0x00, 0x9a, 0x97, 0x91, 0xce, 0xaa, 0x45,
  0x4d, 0x2e, 0xc7, 0xdd, 0x55, 0x35, 0xda, 0x15, 0xfd, 0x05, 0xe4, 0x6d,
  0x1d, 0x56, 0x67, 0x35, 0x2a, 0x83, 0xb3, 0x00, 0xd4, 0xc2, 0x3e, 0xe6,
  0x6a, 0xf5, 0xd8, 0xcf, 0xfd, 0x18, 0xb5, 0x29, 0xfa, 0x0f, 0x49, 0xd6,
  0xf3, 0x6c, 0xda, 0x6d, 0x41, 0xa6, 0x2f, 0xb6, 0xa2, 0xa5, 0xcb, 0xdd,
  0x19, 0x78, 0xda, 0x4c, 0xc0, 0xd7, 0x18, 0x06, 0xd2, 0x71, 0xc4, 0x5e,
  0x00, 0x49, 0x2b, 0x14, 0x7f, 0xd9, 0xd3, 0xfb, 0x42, 0x16, 0x50, 0x1c,
  0x5d, 0x30, 0x25, 0xc9, 0x98, 0xa6, 0xce, 0x2e, 0xd2, 0xde, 0x4f, 0x23,
  0xa1, 0x4f, 0xf5, 0xe7, 0xe6, 0xa3, 0x05, 0x09, 0x1d, 0x01, 0x24, 0x3c,
  0x05, 0xe2, 0x9c, 0x92, 0xf6, 0xb4, 0xe8, 0x5f, 0x1a, 0x1a, 0xa7, 0xed,
  0xda, 0x8e, 0xe0, 0xc1, 0x00, 0xec, 0x4a, 0xcf, 0x74, 0x4e, 0x7f, 0xf5,
  0x51, 0xf0, 0x29, 0x4d, 0xb7, 0xb4, 0xb4, 0xc9, 0xef, 0xa4, 0x06, 0xee,
  0x16, 0xb1, 0x4e, 0xcb, 0x33, 0xcf, 0x6e, 0x0c, 0x0b, 0x4b, 0x22, 0x4c,
  0x5c, 0xf4, 0x21, 0xd6, 0xdc, 0x3b, 0x42, 0xf1, 0xdd, 0x2a, 0x39, 0x49,
  0xcf, 0x3c, 0xce, 0x15, 0x0a, 0xec, 0xff, 0xff, 0x04, 0x00, 0x00, 0x00,
  0x40, 0x00, 0x00, 0x00, 0x46, 0xf1, 0xff, 0xff, 0xb4, 0xf3, 0xff, 0xff,
  0x06, 0x2b, 0x00, 0x00, 0x35, 0xe3, 0xff, 0xff, 0xde, 0xe2, 0xff, 0xff,
  0x7e, 0xe4, 0xff, 0xff, 0x23, 0x2c, 0x00, 0x00, 0x53, 0x0d, 0x00, 0x00,
  0xea, 0xe1, 0xff, 0xff, 0x58, 0xe8, 0xff, 0xff, 0x81, 0xe6, 0xff, 0xff,
  0x2f, 0x17, 0x00, 0x00, 0x22, 0xe6, 0xff, 0xff, 0x75, 0xdc, 0xff, 0xff,
  0x00, 0xe0, 0xff, 0xff, 0xfd, 0xec, 0xff, 0xff, 0x56, 0xec, 0xff, 0xff,
  0x04, 0x00, 0x00, 0x00, 0x00, 0x12, 0x00, 0x00, 0x67, 0x5b, 0x26, 0x5e,
  0x57, 0xff, 0xee, 0x04, 0x0b, 0x6b, 0x07, 0x08, 0x65, 0x3a, 0x06, 0x05,
  0x33, 0x14, 0x29, 0x01, 0x46, 0x02, 0xe4, 0x12, 0x03, 0x17, 0x52, 0xd0,
  0x49, 0x4f, 0x42, 0xec, 0x65, 0x06, 0x11, 0x0e, 0xe1, 0x1f, 0xee, 0x18,
  0xf4, 0x34, 0x2f, 0x40, 0x16, 0x17, 0x35, 0x0f, 0x4e, 0x48, 0x01, 0x0d,
  0x63, 0x46, 0x45, 0x12, 0x01, 0x29, 0x2d, 0xf8, 0x5d, 0x25, 0x55, 0x0f,
  0x7f, 0xdc, 0x16, 0x3e, 0xfc, 0xfe, 0x0d, 0x0c, 0x36, 0x3a, 0x59, 0xdf,
  0x3a, 0x11, 0x4c, 0xfd, 0x22, 0x11, 0x2f, 0x31, 0xc4, 0x53, 0xe8, 0x05,
  0x24, 0xf0, 0x47, 0xef, 0x24, 0x2d, 0x17, 0x31, 0x0b, 0xbf, 0x19, 0x28,
  0x41, 0x18, 0x03, 0xfe, 0x41, 0x5b, 0x28, 0x4f, 0xe9, 0x0b, 0xde, 0x11,
  0x69, 0x01, 0x2c, 0x17, 0xf1, 0x37, 0x00, 0x00, 0xdd, 0x1c, 0x4b, 0x25,
  0x4c, 0x2f, 0x24, 0xd7, 0x4a, 0xf7, 0xe5, 0x01, 0xa8, 0x0a, 0xdc, 0x04,
  0x2f, 0xe6, 0x2e, 0xed, 0x24, 0x0e, 0x22, 0xf9, 0xf4, 0xc7, 0x29, 0xcd,
  0xe8, 0x00, 0xdc, 0x07, 0xb2, 0xc1, 0xfd, 0xd0, 0xb7, 0xa6, 0x06, 0x19,
  0xe4, 0x2b, 0x3a, 0xf4, 0x0f, 0xf3, 0x3a, 0x02, 0xdf, 0xde, 0x97, 0x1b,
  0xba, 0xb9, 0xad, 0x16, 0xcf, 0xe4, 0x0e, 0xb0, 0x10, 0xe7, 0x17, 0x2b,
  0xc1, 0x24, 0xb0, 0x1d, 0xc6, 0xc8, 0xe8, 0xeb, 0x0d, 0x11, 0xe1, 0xdb,
  0xd7, 0xf7, 0xf4, 0xc2, 0xab, 0x9d, 0x06, 0x19, 0xed, 0xca, 0xf2, 0xe5,
  0x03, 0xfb, 0x1d, 0x18, 0x03, 0xb8, 0x4c, 0xfa, 0x28, 0xc5, 0xd1, 0x38,
  0x01, 0xc8, 0x06, 0x12, 0xc7, 0xe9, 0xcb, 0xcd, 0xdc, 0xad, 0xc3, 0x13,
  0x26, 0xf4, 0x81, 0xe6, 0xa8, 0xcd, 0xaa, 0xa0, 0x02, 0xf1, 0xc4, 0xfa,
  0xd1, 0x2f, 0x22, 0xeb, 0xe3, 0xdb, 0xfa, 0x23, 0xeb, 0xbc, 0xbf, 0x42,
  0x00, 0xe6, 0x3b, 0x09, 0xd0, 0x05, 0x3c, 0x39, 0x24, 0xe6, 0xc9, 0xe1,
  0x02, 0x1a, 0xd5, 0x13, 0xf6, 0x22, 0x11, 0xeb, 0x47, 0x0c, 0x1e, 0x32,
  0xda, 0x1e, 0xaa, 0x15, 0xff, 0x38, 0xc6, 0x05, 0xf1, 0xfe, 0xe0, 0xdd,
  0x00, 0x18, 0x19, 0x14, 0xdc, 0x14, 0xcf, 0xd4, 0xae, 0xb8, 0xfc, 0xf1,
  0xbc, 0x13, 0x1d, 0xc0, 0x18, 0xc1, 0x7a, 0x30, 0xdc, 0x26, 0xeb, 0x45,
  0xc7, 0x18, 0x07, 0x06, 0xdf, 0x0f, 0xc4, 0x0b, 0x66, 0xdb, 0x0f, 0xda,
  0x96, 0xe1, 0xfe, 0xb0, 0xba, 0xfc, 0x58, 0xa3, 0x08, 0x37, 0xd6, 0xc3,
  0x97, 0xe8, 0xac, 0xa8, 0xde, 0xfe, 0x2a, 0xf1, 0xf2, 0xd1, 0xd6, 0x0d,
  0xd6, 0xe2, 0x2a, 0xf6, 0xf4, 0x27, 0x4e, 0x43, 0xf9, 0x2d, 0x03, 0x2a,
  0xbd, 0x35, 0xe0, 0x33, 0xb8, 0xa0, 0xbb, 0xba, 0x37, 0xb9, 0x03, 0xd1,
  0x1d, 0x24, 0x81, 0x07, 0xfe, 0x31, 0xec, 0xb4, 0x12, 0xf6, 0x19, 0xe7,
  0xe6, 0x3b, 0xb4, 0xd4, 0xf7, 0xf7, 0xef, 0xbf, 0xf4, 0xdf, 0x36, 0x37,
  0xcf, 0x31, 0x65, 0x11, 0x0d, 0xf8, 0x06, 0x13, 0x52, 0xe1, 0xc5, 0xe5,
  0x2c, 0x3f, 0x19, 0x46, 0xf2, 0xf9, 0x22, 0x0e, 0x70, 0xdb, 0xab, 0xd3,
  0x1a, 0x02, 0xad, 0xac, 0x0f, 0x04, 0x36, 0xbe, 0x07, 0xcd, 0xc6, 0x9d,
  0xc6, 0x35, 0x3e, 0x22, 0x0a, 0xd7, 0xbe, 0x3c, 0x07, 0x06, 0xfc, 0x4d,
  0x0f, 0x27, 0xa8, 0xe7, 0x1f, 0xdc, 0xf0, 0x0f, 0x98, 0xde, 0xac, 0xbb,
  0xc8, 0x36, 0xad, 0xae, 0xfa, 0x03, 0x4f, 0xbc, 0x36, 0xf6, 0x31, 0x1b,
  0xb9, 0x48, 0x98, 0xd7, 0xcd, 0x43, 0xd5, 0xf3, 0xde, 0x1d, 0x20, 0xe4,
  0x1b, 0x13, 0x44, 0x36, 0x2d, 0xa7, 0x1c, 0x28, 0x23, 0xe0, 0xd6, 0xbf,
  0xe7, 0xbc, 0xec, 0xf9, 0xa7, 0xb0, 0xe4, 0x15, 0xbb, 0xeb, 0xf4, 0xd1,
  0x96, 0xd2, 0xd3, 0x9f, 0x05, 0xd1, 0x79, 0xcd, 0x4d, 0xd2, 0xfc, 0x12,
  0x00, 0xe6, 0xa0, 0x00, 0xef, 0x2d, 0xe3, 0xe8, 0xe0, 0x02, 0x2a, 0xcd,
  0x29, 0x28, 0x2e, 0xd5, 0xfe, 0xcf, 0x0b, 0x0e, 0xf2, 0xf0, 0x2d, 0x6c,
  0xa6, 0x2f, 0xc2, 0xef, 0xfe, 0xe7, 0xde, 0xbd, 0xd6, 0xd2, 0xf2, 0xe2,
  0xf0, 0xd1, 0xd0, 0x06, 0xd8, 0x7f, 0x39, 0x18, 0x18, 0x28, 0x07, 0x24,
  0x4b, 0x30, 0xc9, 0x3b, 0x32, 0x13, 0x7b, 0x51, 0xa2, 0x3e, 0xf9, 0x26,
  0x50, 0xf8, 0x99, 0x11, 0xa3, 0xf4, 0x3e, 0x04, 0x88, 0x4a, 0x68, 0xfd,
  0xe3, 0xcc, 0xa2, 0xbb, 0x38, 0x03, 0xe2, 0x1c, 0x81, 0x24, 0xa3, 0x9c,
  0x11, 0x43, 0xbd, 0x5a, 0x3b, 0xa6, 0x10, 0x5a, 0x0b, 0x53, 0xd6, 0xf0,
  0xdb, 0x01, 0x8a, 0xdb, 0xc8, 0x0e, 0x14, 0x28, 0x52, 0xb2, 0x95, 0x3e,
  0x20, 0x25, 0x57, 0x36, 0xf2, 0x4f, 0x12, 0x29, 0x36, 0x26, 0x4c, 0xf2,
  0xa4, 0x8a, 0xc9, 0xee, 0x46, 0x0c, 0x8f, 0xea, 0x4d, 0x47, 0xb2, 0x98,
  0xfb, 0xd9, 0x4b, 0xc9, 0xa2, 0x2c, 0x21, 0xa5, 0x52, 0xba, 0x8b, 0xf5,
  0xb5, 0x0b, 0x3e, 0x18, 0xa8, 0xb9, 0xfd, 0xd1, 0xda, 0x04, 0xad, 0xc1,
  0x13, 0x93, 0xa4, 0xd5, 0x43, 0xf3, 0x53, 0xc8, 0x40, 0xc0, 0xe9, 0x55,
  0x92, 0x9e, 0xd5, 0xcd, 0xb2, 0xe0, 0xa7, 0x0a, 0x03, 0x32, 0xeb, 0x55,
  0xf1, 0x03, 0xb6, 0xe0, 0xb7, 0x61, 0x97, 0x43, 0xc5, 0x2c, 0xf5, 0xff,
  0xe3, 0x0f, 0x96, 0xbc, 0x14, 0xb8, 0xe9, 0xa5, 0x5d, 0x01, 0x36, 0x58,
  0x30, 0x1f, 0x02, 0x16, 0x67, 0x38, 0x63, 0x01, 0x5c, 0x60, 0x44, 0x18,
  0x4a, 0x12, 0xd6, 0x63, 0x67, 0x32, 0xef, 0x2c, 0x15, 0x09, 0x67, 0xe3,
  0x3a, 0x2a, 0x63, 0xff, 0x2a, 0x02, 0x00, 0x4a, 0xf5, 0x6b, 0x0e, 0x28,
  0x2c, 0xd3, 0x67, 0x17, 0x44, 0x2f, 0xed, 0x55, 0x47, 0x0d, 0x47, 0x4b,
  0x41, 0x29, 0x4b, 0xee, 0x2b, 0x11, 0x28, 0xfb, 0x58, 0x55, 0xf8, 0x06,
  0x7f, 0x0e, 0xed, 0x1e, 0x3d, 0x26, 0x0b, 0x13, 0xf8, 0x37, 0x22, 0xda,
  0x33, 0xfc, 0x2c, 0x0f, 0x53, 0x20, 0x1b, 0x0d, 0xf0, 0x5d, 0xea, 0xf5,
  0xfb, 0x0b, 0x3b, 0xe4, 0x59, 0xf3, 0x11, 0x57, 0x21, 0xec, 0x23, 0xd9,
  0x3a, 0x0e, 0x27, 0x31, 0x04, 0x25, 0x0c, 0x05, 0x17, 0x4d, 0x0a, 0xea,
  0x2e, 0xfd, 0x09, 0x12, 0x3f, 0x1f, 0x2b, 0x36, 0x2e, 0x43, 0x46, 0x1e,
  0x1a, 0x2a, 0x13, 0xf7, 0x43, 0xdd, 0x12, 0x22, 0xfb, 0x2a, 0xe0, 0x27,
  0xfd, 0x00, 0x21, 0x23, 0xe8, 0x0b, 0xfe, 0x3b, 0x5b, 0xbb, 0x9f, 0x18,
  0xc8, 0x46, 0xa5, 0xbb, 0x5e, 0x26, 0xdb, 0xf8, 0x48, 0x15, 0xd3, 0xd6,
  0x20, 0xca, 0xf7, 0x45, 0x99, 0x81, 0x9f, 0xd7, 0x11, 0x3a, 0x37, 0x9b,
  0xd2, 0xdf, 0xb5, 0x14, 0xe8, 0x0d, 0xd9, 0xa9, 0xf6, 0xf3, 0xaa, 0xd4,
  0x29, 0xac, 0xdd, 0x26, 0x23, 0x2a, 0xbf, 0xcc, 0x63, 0xaf, 0xe6, 0x54,
  0xb3, 0xcd, 0xf5, 0x39, 0x8e, 0xf5, 0xfe, 0x95, 0x9a, 0xa5, 0x1b, 0x32,
  0xd4, 0xcf, 0x33, 0xf3, 0x23, 0xb4, 0x1e, 0xf2, 0x09, 0xe8, 0x41, 0x32,
  0xb0, 0x20, 0xad, 0x48, 0x3a, 0x52, 0xab, 0x12, 0xfb, 0x96, 0xaa, 0x37,
  0x0e, 0x5e, 0xbd, 0x9c, 0x56, 0xb1, 0x11, 0xe4, 0x0b, 0xb5, 0x3e, 0xf8,
  0xc2, 0xea, 0xc3, 0xc0, 0x39, 0x19, 0x07, 0x28, 0x32, 0xb2, 0x04, 0xfa,
  0x56, 0x9d, 0xdf, 0xbc, 0xc0, 0x50, 0x0b, 0x01, 0xcc, 0x11, 0x8f, 0xaa,
  0x03, 0x0e, 0xfa, 0xa6, 0x21, 0xb2, 0x96, 0x06, 0xdb, 0x26, 0xe3, 0x45,
  0xc8, 0x1e, 0xea, 0xfd, 0x18, 0xcd, 0x41, 0x46, 0x22, 0xda, 0x09, 0xdb,
  0x00, 0x30, 0x13, 0x25, 0x06, 0xd8, 0x11, 0x21, 0xed, 0xe3, 0xd0, 0x28,
  0x24, 0xad, 0xe5, 0xe1, 0x4a, 0x0b, 0x1f, 0x38, 0x30, 0xd7, 0x49, 0xd2,
  0x1d, 0x14, 0x20, 0xd5, 0xef, 0xc3, 0x2d, 0xc6, 0x2f, 0x0c, 0x35, 0x24,
  0xc9, 0x52, 0x1f, 0xef, 0xdd, 0x28, 0x63, 0xd3, 0xd5, 0xef, 0xca, 0xaf,
  0xc1, 0xc8, 0x03, 0x93, 0x81, 0xa1, 0x0e, 0x1f, 0x19, 0x81, 0xb4, 0x2b,
  0xea, 0xc3, 0xdb, 0xb8, 0x92, 0xf2, 0xfb, 0x9e, 0xe8, 0xa8, 0xb2, 0xfa,
  0x0d, 0xad, 0xd8, 0x26, 0x01, 0xea, 0xe2, 0x1e, 0x33, 0xab, 0xb5, 0xfa,
  0xd0, 0x4b, 0xa1, 0xbf, 0xd1, 0xd3, 0xe2, 0x0d, 0x3b, 0x5a, 0xf0, 0x0e,
  0xd7, 0x47, 0x34, 0xd1, 0xf2, 0x1f, 0x2c, 0xec, 0x68, 0x05, 0x1c, 0x76,
  0xa4, 0x46, 0x1a, 0xfc, 0xfb, 0x61, 0x04, 0xde, 0xde, 0x08, 0x2d, 0x3a,
  0x17, 0x2f, 0x03, 0x72, 0x03, 0x08, 0x5f, 0x40, 0x51, 0x03, 0x02, 0xdf,
  0x08, 0x3e, 0xe4, 0x37, 0x34, 0x5c, 0x10, 0x32, 0x11, 0xf6, 0xe7, 0x4b,
  0x36, 0x40, 0xe2, 0xf3, 0x66, 0x3d, 0x06, 0x28, 0x66, 0x69, 0x45, 0x15,
  0x43, 0xdb, 0xc0, 0x4c, 0x64, 0x41, 0x1d, 0xe6, 0x41, 0x54, 0x1b, 0x09,
  0x07, 0x25, 0x52, 0xe5, 0x2b, 0x51, 0xd9, 0x15, 0x03, 0x3a, 0xea, 0xe0,
  0x18, 0xea, 0x7f, 0x17, 0x60, 0x12, 0xf1, 0x3a, 0x4d, 0xdc, 0x3e, 0x05,
  0x2a, 0x21, 0x18, 0xeb, 0x3d, 0x28, 0xe6, 0xfb, 0x04, 0x6a, 0x0c, 0xf6,
  0x4f, 0x28, 0xd6, 0x23, 0xf6, 0x27, 0xe8, 0x1a, 0xfc, 0x10, 0x49, 0xd7,
  0xf5, 0xf0, 0x00, 0x35, 0x58, 0xef, 0xfd, 0x03, 0x1e, 0x20, 0xd7, 0xd5,
  0xea, 0xf4, 0x40, 0x21, 0x5c, 0x17, 0xcb, 0x41, 0x3f, 0x02, 0x08, 0xc6,
  0x53, 0x2a, 0xf1, 0xe9, 0x3f, 0x35, 0x17, 0x0f, 0xea, 0x48, 0xe5, 0xe2,
  0x58, 0xc4, 0xd8, 0x03, 0x35, 0xe6, 0x2a, 0x15, 0x18, 0x08, 0x29, 0x20,
  0xf4, 0xd9, 0x28, 0x34, 0x48, 0xfc, 0xdb, 0x2d, 0x1c, 0x2b, 0xe7, 0x15,
  0x26, 0x17, 0x06, 0xdb, 0x3a, 0xc1, 0x32, 0x17, 0x19, 0xe8, 0x48, 0x4c,
  0x41, 0xf1, 0x46, 0xf2, 0x7f, 0x24, 0x34, 0x48, 0x53, 0x44, 0x2c, 0xfc,
  0x5c, 0xf3, 0xc4, 0x62, 0x41, 0x3f, 0x1c, 0xc5, 0x40, 0x75, 0x2c, 0x34,
  0x1d, 0x30, 0x67, 0x17, 0x3a, 0x09, 0x07, 0x57, 0x2b, 0x1d, 0x33, 0xc5,
  0x2f, 0x3c, 0x1f, 0xe7, 0x62, 0x3c, 0x1c, 0x2c, 0x14, 0x08, 0x10, 0xf1,
  0x19, 0x0a, 0xdc, 0x02, 0x5e, 0x51, 0x18, 0xdf, 0x11, 0x0d, 0x5b, 0xd1,
  0x23, 0x22, 0xbe, 0x0a, 0xf4, 0x17, 0xc0, 0x34, 0x10, 0x17, 0x52, 0xdc,
  0x48, 0x3f, 0x17, 0xf9, 0x2e, 0x06, 0x29, 0x05, 0xe0, 0x27, 0x2c, 0x18,
  0x38, 0xe8, 0x54, 0x0a, 0x37, 0x23, 0x00, 0x60, 0xe3, 0xe5, 0xd7, 0x0c,
  0x1f, 0xd0, 0xf0, 0x40, 0x07, 0x65, 0xe7, 0x40, 0x12, 0x16, 0xf8, 0xd9,
  0x43, 0x0b, 0xdc, 0x28, 0x3b, 0x09, 0x12, 0x3a, 0x0b, 0x54, 0x33, 0x35,
  0xd9, 0xe6, 0x34, 0x00, 0x1b, 0xee, 0xf3, 0xfe, 0x14, 0x0a, 0xe7, 0xc4,
  0xea, 0x00, 0x60, 0x12, 0x18, 0xfb, 0x10, 0xe8, 0xbf, 0xd5, 0xde, 0xcd,
  0xd9, 0xed, 0x02, 0x2d, 0xdb, 0x86, 0xb7, 0xd5, 0xe4, 0xe1, 0xf2, 0x13,
  0xd8, 0xe0, 0x3d, 0x93, 0xf8, 0x9f, 0x1b, 0x55, 0x41, 0xf9, 0x02, 0x07,
  0x99, 0x15, 0x19, 0x1c, 0xb0, 0x1d, 0x2f, 0x9c, 0x38, 0x90, 0xda, 0xdd,
  0xee, 0x48, 0xc8, 0xe0, 0x94, 0xfc, 0xcb, 0x88, 0xc0, 0xf6, 0xcb, 0xdc,
  0x04, 0x3b, 0x23, 0xb6, 0xc7, 0xcb, 0x29, 0x07, 0x21, 0x36, 0xe9, 0x1e,
  0xf6, 0x2c, 0x7a, 0xb4, 0x2c, 0x24, 0x10, 0x0b, 0x01, 0xcf, 0xe6, 0x44,
  0x09, 0x3c, 0x13, 0x09, 0xf3, 0x09, 0x22, 0x90, 0x1e, 0x81, 0xc9, 0xca,
  0xcd, 0xe7, 0xc3, 0xfe, 0xb0, 0x56, 0x2c, 0xdf, 0xca, 0x72, 0xdc, 0xd7,
  0xde, 0x5e, 0x1b, 0xc0, 0x18, 0x05, 0x1b, 0x9b, 0xef, 0xe2, 0x59, 0x09,
  0xac, 0x65, 0x2c, 0x33, 0x04, 0x4c, 0x22, 0xf5, 0x43, 0x48, 0xbe, 0xed,
  0x18, 0x1d, 0x0e, 0xfb, 0x14, 0xfa, 0xc1, 0x03, 0x68, 0x1d, 0xf6, 0xc4,
  0x4d, 0x01, 0xc6, 0xc3, 0x00, 0x79, 0x4a, 0x0d, 0x20, 0x02, 0xac, 0x0a,
  0xe3, 0xca, 0xb5, 0x10, 0x0b, 0x50, 0xff, 0xb9, 0xd9, 0xfc, 0x26, 0xcb,
  0x54, 0xe9, 0xe1, 0x40, 0x46, 0xe2, 0xb3, 0xc4, 0x60, 0x5e, 0x45, 0x09,
  0x0a, 0x33, 0x7c, 0x1d, 0x4f, 0x4c, 0x0f, 0x25, 0x40, 0x14, 0x38, 0x5a,
  0x4d, 0xf9, 0x34, 0x5c, 0x2c, 0xf0, 0xc2, 0x14, 0x3b, 0xf2, 0xcf, 0x2c,
  0x36, 0xec, 0x97, 0xf8, 0xa7, 0x22, 0x20, 0x9f, 0xc7, 0xcc, 0xdd, 0x13,
  0x6f, 0xf0, 0xd7, 0xfb, 0x22, 0x17, 0x03, 0x05, 0x20, 0x63, 0x3e, 0xc5,
  0x10, 0x13, 0x0c, 0xd7, 0x31, 0xf1, 0x00, 0x00, 0xe1, 0x2a, 0x2f, 0x48,
  0x58, 0x33, 0x11, 0x38, 0xf0, 0x0b, 0xfa, 0x4d, 0xdd, 0xb7, 0x81, 0xf5,
  0x07, 0xe8, 0xd0, 0x92, 0xee, 0xc2, 0x20, 0xba, 0xa8, 0xdd, 0x28, 0xff,
  0x5f, 0xd8, 0x04, 0xdd, 0x53, 0xc0, 0x1f, 0x41, 0x06, 0x29, 0xe2, 0xef,
  0x44, 0x52, 0x0a, 0xb5, 0xdd, 0xd7, 0x12, 0xe5, 0x10, 0x1f, 0x36, 0xf8,
  0xf5, 0xcc, 0xf9, 0x1b, 0x2d, 0xcf, 0xff, 0x18, 0xfa, 0x0d, 0xee, 0xfb,
  0xaf, 0xf4, 0x00, 0x20, 0xc4, 0xeb, 0x9a, 0xe9, 0xf2, 0xbe, 0x9d, 0x1d,
  0xc2, 0x02, 0xf9, 0xe9, 0xf6, 0xae, 0x05, 0x16, 0xda, 0xae, 0x8a, 0x42,
  0xf8, 0xaa, 0xe0, 0x32, 0x03, 0x21, 0xfe, 0xb8, 0x37, 0x9f, 0x0d, 0x07,
  0xa1, 0xc1, 0xa5, 0x04, 0x13, 0x00, 0x16, 0xae, 0xf8, 0xfc, 0x06, 0x1d,
  0x90, 0xb0, 0xc0, 0xef, 0xff, 0x81, 0xe1, 0x1b, 0xe9, 0xc3, 0xd2, 0xdb,
  0xd5, 0x3b, 0x40, 0x9c, 0xfe, 0x0d, 0x36, 0x0f, 0xef, 0xb3, 0xad, 0x1d,
  0xd3, 0xe7, 0xc9, 0x18, 0xd9, 0xd4, 0x34, 0xb7, 0xd3, 0xd5, 0xef, 0x0a,
  0x2a, 0xe3, 0xb2, 0x11, 0xe4, 0x10, 0xdb, 0xcd, 0xf7, 0xee, 0x0c, 0x2c,
  0xd2, 0x3c, 0x2a, 0xe4, 0xda, 0xaf, 0x15, 0x14, 0x41, 0xc7, 0x26, 0x45,
  0x85, 0xf0, 0xf5, 0x22, 0xfb, 0x0c, 0x47, 0x21, 0x21, 0xf3, 0xe2, 0x06,
  0x19, 0x0b, 0xdf, 0xf5, 0xd5, 0x1f, 0xec, 0xc2, 0x11, 0xa5, 0x49, 0x28,
  0xd8, 0x26, 0x8f, 0xe6, 0x29, 0x41, 0x41, 0x12, 0xb4, 0xf2, 0x20, 0xd2,
  0xea, 0xc7, 0x0f, 0x32, 0x98, 0xd5, 0xd3, 0xec, 0xbc, 0x9c, 0xa5, 0xea,
  0x8d, 0xf5, 0x50, 0xf4, 0xb9, 0x00, 0x2a, 0x40, 0xfb, 0xc4, 0xb6, 0x47,
  0xda, 0x9c, 0xf9, 0xe9, 0xe9, 0xf1, 0x0c, 0xf0, 0x05, 0x8d, 0x46, 0xec,
  0xfd, 0x08, 0xc8, 0x19, 0x94, 0x12, 0xf9, 0xf0, 0xa1, 0xf7, 0xff, 0x0e,
  0x81, 0x30, 0x03, 0xf4, 0xc0, 0xb0, 0xb7, 0x3b, 0xb0, 0xcc, 0xcd, 0x39,
  0xb3, 0xc2, 0xdd, 0x02, 0xfb, 0xf5, 0xf8, 0x16, 0xe5, 0xb7, 0xfa, 0x22,
  0xe6, 0xba, 0xb0, 0xb8, 0x89, 0x0e, 0x09, 0xcc, 0xdd, 0x9c, 0x1c, 0x0f,
  0xf0, 0x24, 0xd7, 0xf9, 0xc0, 0xeb, 0xe6, 0xb8, 0xd3, 0x26, 0xee, 0xe1,
  0xb1, 0x12, 0x53, 0x1b, 0x15, 0x0a, 0xdb, 0xe4, 0x0c, 0xea, 0x18, 0x67,
  0xfc, 0x11, 0x60, 0xdf, 0xd5, 0x3c, 0x1f, 0xf1, 0x3a, 0xdd, 0xec, 0xf1,
  0xc9, 0xe2, 0xe3, 0xf1, 0xc8, 0x04, 0x1a, 0xf9, 0x1a, 0xe0, 0x36, 0x3a,
  0xd5, 0xe8, 0xe5, 0x22, 0x3b, 0x34, 0xea, 0x16, 0x1d, 0xf0, 0x34, 0xdf,
  0xe0, 0xd8, 0xde, 0xfb, 0xd6, 0x03, 0x02, 0xa5, 0x9e, 0x03, 0xd6, 0xf9,
  0xf2, 0xec, 0x7f, 0xab, 0x59, 0xef, 0x64, 0x6c, 0x26, 0x0d, 0x09, 0x05,
  0xc7, 0x08, 0x34, 0xd8, 0x88, 0xce, 0xe9, 0xf8, 0x69, 0x00, 0xfd, 0x2a,
  0xca, 0x64, 0xcc, 0xd2, 0xed, 0x27, 0x04, 0xd3, 0x90, 0x18, 0x0a, 0xd9,
  0x90, 0xf1, 0x18, 0xdc, 0xc6, 0xab, 0xc5, 0xa9, 0xf9, 0xc4, 0xcc, 0xdc,
  0x86, 0xd7, 0x58, 0x1a, 0x13, 0xb1, 0xf1, 0x47, 0xde, 0x28, 0xf5, 0xcf,
  0xfb, 0xba, 0xee, 0x08, 0xff, 0xbd, 0xc4, 0xa8, 0xf9, 0xe2, 0x9b, 0x15,
  0xe4, 0x4d, 0xa1, 0x9a, 0xe0, 0xd3, 0xf5, 0xdb, 0x20, 0x71, 0x17, 0x0e,
  0xac, 0x5b, 0x1d, 0xc7, 0x2a, 0x19, 0xfc, 0x03, 0xeb, 0x22, 0x0c, 0x02,
  0xcd, 0x04, 0x33, 0xd5, 0x24, 0x37, 0x12, 0xea, 0xec, 0x28, 0x9f, 0x1b,
  0x02, 0x08, 0xf5, 0x30, 0xec, 0x1d, 0x26, 0x2a, 0x6a, 0x30, 0x18, 0x23,
  0xdd, 0x36, 0xc4, 0xe7, 0xda, 0xf4, 0x19, 0xfe, 0x3c, 0xce, 0x44, 0xf2,
  0x21, 0x08, 0x15, 0xd5, 0xb5, 0xee, 0x55, 0xda, 0xc5, 0x48, 0x09, 0xa0,
  0x19, 0x20, 0x70, 0xf1, 0xf6, 0xe0, 0x29, 0x39, 0x52, 0xf7, 0xfb, 0x40,
  0x1f, 0x24, 0x45, 0xde, 0xf7, 0xa8, 0xda, 0xb1, 0x64, 0xfd, 0xdf, 0x26,
  0x20, 0x43, 0x00, 0xba, 0xdc, 0xef, 0x48, 0xc2, 0xe9, 0x36, 0xc6, 0xfa,
  0xe8, 0x06, 0xb7, 0xc8, 0xb9, 0xe9, 0xd3, 0xa4, 0x9e, 0xbd, 0xc9, 0x1e,
  0xe7, 0xf5, 0x3a, 0x2e, 0x25, 0xfb, 0x0c, 0xf2, 0xdf, 0xca, 0x1b, 0x3b,
  0xc3, 0x10, 0x19, 0x07, 0xc9, 0xce, 0xc6, 0x21, 0x28, 0xc2, 0xc2, 0x09,
  0xec, 0xd5, 0x81, 0xd8, 0x11, 0xf4, 0xf5, 0xdb, 0xff, 0xf8, 0xfb, 0x23,
  0xc3, 0x06, 0xfe, 0xdd, 0x32, 0x9d, 0xe3, 0x06, 0xec, 0x12, 0xbd, 0x6a,
  0x1c, 0x3a, 0x57, 0xe6, 0xdc, 0xfd, 0x09, 0xd4, 0xf2, 0xd4, 0xf5, 0x34,
  0x1e, 0x39, 0xeb, 0x69, 0xf9, 0x31, 0xdc, 0xe8, 0xfc, 0xbe, 0x0a, 0xe8,
  0x15, 0x25, 0xc0, 0x0e, 0xf4, 0x51, 0x3b, 0xe0, 0xf7, 0xdb, 0xd0, 0xf4,
  0xca, 0xf4, 0x04, 0xea, 0xdb, 0x9b, 0xda, 0x29, 0xd5, 0xac, 0xc7, 0x29,
  0xcb, 0xe7, 0x0c, 0xe7, 0xae, 0x1d, 0xe7, 0x34, 0xfd, 0xd4, 0xa1, 0x3d,
  0xed, 0xe3, 0xae, 0xcd, 0xc8, 0xd2, 0x27, 0xbd, 0xf7, 0xe6, 0x24, 0xdb,
  0xab, 0xc9, 0x81, 0x23, 0x9a, 0xc3, 0x01, 0xe2, 0x02, 0x1d, 0xe0, 0x0b,
  0xe9, 0xec, 0xf6, 0x2f, 0x15, 0xb8, 0x00, 0x04, 0xc5, 0xe8, 0xa5, 0xe2,
  0x96, 0x0e, 0x1b, 0xb4, 0xfe, 0xc3, 0x46, 0xf9, 0xe2, 0xd3, 0xa9, 0x2d,
  0x07, 0xf1, 0xfd, 0x06, 0xb2, 0xb0, 0xfb, 0x9b, 0x38, 0x87, 0x00, 0x41,
  0xbf, 0xfe, 0xb8, 0xe2, 0xdf, 0x02, 0xf4, 0xaf, 0xe7, 0x00, 0xe6, 0xfc,
  0xe3, 0x33, 0x0d, 0xd9, 0x31, 0xb1, 0xdf, 0xf8, 0xcb, 0xf6, 0x03, 0x49,
  0xd9, 0xf3, 0x46, 0x0b, 0x0b, 0xfe, 0xe3, 0x1b, 0x32, 0xc1, 0x05, 0x3a,
  0xc9, 0x1e, 0xdd, 0xf2, 0xc6, 0x17, 0xee, 0xd2, 0x34, 0x99, 0x16, 0x08,
  0xcd, 0xec, 0x9b, 0x28, 0xd8, 0x26, 0xe4, 0xfd, 0x5c, 0xe1, 0xd0, 0x14,
  0x35, 0x17, 0xf2, 0x1d, 0x58, 0x76, 0xf4, 0x39, 0x67, 0x22, 0x3a, 0x25,
  0x37, 0xde, 0xdf, 0x6e, 0x44, 0xfd, 0x18, 0xf3, 0x03, 0x1e, 0x7f, 0x30,
  0x5d, 0x68, 0x55, 0xd2, 0x12, 0x07, 0x3f, 0x08, 0xc4, 0x56, 0x1f, 0xe3,
  0xed, 0x26, 0x2d, 0xcc, 0x2c, 0x1e, 0xc9, 0x6c, 0x18, 0xcf, 0x2d, 0x17,
  0x0b, 0xe5, 0xf5, 0xd2, 0x54, 0x16, 0xe0, 0xe5, 0x3b, 0x6d, 0x4e, 0x3e,
  0x69, 0xfb, 0x06, 0x4e, 0x42, 0x68, 0xb3, 0x0c, 0xf4, 0x72, 0x64, 0x02,
  0x56, 0x64, 0x61, 0xe6, 0x1c, 0xf9, 0xe0, 0x13, 0xb4, 0x5f, 0x1f, 0xcd,
  0xe6, 0xd5, 0x62, 0xe3, 0x39, 0xce, 0xcc, 0x4d, 0x39, 0xf3, 0x36, 0x2c,
  0xf3, 0xf6, 0xd3, 0x1b, 0x17, 0x4b, 0xd2, 0x04, 0x19, 0x51, 0xce, 0x9e,
  0x5e, 0x38, 0xfe, 0x43, 0x5b, 0x2e, 0xb5, 0x34, 0xcd, 0x12, 0x00, 0xdc,
  0x42, 0x27, 0x06, 0xe7, 0x5b, 0x40, 0x3e, 0x4f, 0xa1, 0x03, 0xc9, 0x0b,
  0x25, 0xf9, 0x58, 0x26, 0x45, 0x2a, 0xea, 0x34, 0x0d, 0x0a, 0xf8, 0xd7,
  0xd6, 0x0f, 0xe3, 0xf0, 0xca, 0x81, 0xc7, 0x38, 0xbf, 0x94, 0xa6, 0x17,
  0x9a, 0xd7, 0x38, 0xa6, 0x8b, 0xc5, 0x27, 0x0d, 0x12, 0xcc, 0xbd, 0xf4,
  0xba, 0xf6, 0xed, 0x0e, 0xba, 0xc3, 0x17, 0x9f, 0xe1, 0xfd, 0xe2, 0x1c,
  0x17, 0xc8, 0x95, 0x0f, 0xf1, 0xf7, 0x1a, 0xf3, 0xd3, 0xe5, 0xd1, 0xa9,
  0xe5, 0x1d, 0xe2, 0x33, 0x0f, 0x89, 0xd9, 0x15, 0x17, 0xc2, 0xfc, 0xd9,
  0xa6, 0x14, 0x3b, 0xaa, 0xbd, 0xb6, 0xe3, 0xdc, 0xc4, 0x9f, 0xb9, 0x46,
  0x07, 0x12, 0xb6, 0x10, 0x93, 0xe1, 0xe3, 0xd9, 0x16, 0x93, 0x21, 0x24,
  0xcd, 0xe3, 0xc4, 0x3b, 0xab, 0xe8, 0xf3, 0xfb, 0xe1, 0x2a, 0x0a, 0xf7,
  0xdd, 0x24, 0x32, 0xf0, 0x36, 0x90, 0xe3, 0xc1, 0x1a, 0xf0, 0xde, 0x3f,
  0x98, 0x38, 0x44, 0xe8, 0x1a, 0xc1, 0x20, 0x18, 0xe9, 0xd1, 0xfd, 0x33,
  0x20, 0xf0, 0xe1, 0x34, 0x94, 0x30, 0xf0, 0x0f, 0x22, 0x10, 0xec, 0x04,
  0xdb, 0xf1, 0xb5, 0x19, 0x1c, 0x26, 0x06, 0xc0, 0xf0, 0x09, 0x3e, 0xdc,
  0xa1, 0x23, 0xf1, 0x3b, 0xf9, 0xe9, 0xcd, 0xfd, 0x95, 0xc7, 0xdc, 0xed,
  0xf4, 0xce, 0x50, 0x19, 0xc1, 0xd0, 0x13, 0x50, 0x01, 0xf3, 0xe8, 0x34,
  0x09, 0xce, 0xce, 0x2f, 0x02, 0xe6, 0xd7, 0xeb, 0xed, 0xa1, 0xcf, 0x5a,
  0x1e, 0xe6, 0xf5, 0x29, 0xfb, 0x01, 0xe4, 0xad, 0xd3, 0xdc, 0xe0, 0xca,
  0x86, 0x2b, 0xc6, 0xfb, 0xa1, 0x9f, 0xbc, 0xeb, 0x06, 0xf6, 0x0d, 0xb8,
  0xf0, 0xbc, 0x06, 0xd2, 0x13, 0xe9, 0x1f, 0xf6, 0xdc, 0xad, 0xdf, 0x21,
  0xba, 0xac, 0xf4, 0xd9, 0xa4, 0x94, 0x1d, 0xc7, 0x29, 0xb1, 0xb9, 0xf1,
  0xc2, 0x0f, 0x81, 0xf1, 0x0a, 0xf4, 0x28, 0xcc, 0x3e, 0x3f, 0xc6, 0x0f,
  0x1a, 0x1a, 0x23, 0x0f, 0x2a, 0x9b, 0x19, 0xf3, 0xf3, 0xc7, 0x4a, 0x78,
  0x92, 0x18, 0x6a, 0x05, 0x06, 0x43, 0x23, 0xe1, 0x4d, 0x20, 0x19, 0x25,
  0x0f, 0x1a, 0x12, 0xe0, 0xb7, 0x05, 0xda, 0xd4, 0x5c, 0xbe, 0xde, 0x2a,
  0xd5, 0xe8, 0xd8, 0x13, 0xef, 0xef, 0x57, 0x3a, 0xf5, 0xe8, 0x1c, 0xaa,
  0x97, 0x33, 0x3e, 0x32, 0xdd, 0xb4, 0x81, 0xc7, 0x50, 0x36, 0xe2, 0xd9,
  0x45, 0x00, 0x07, 0x12, 0xfc, 0x24, 0xfe, 0xca, 0x10, 0xd9, 0x95, 0xdb,
  0xb0, 0xc5, 0x20, 0xff, 0xe3, 0x1e, 0xc9, 0x53, 0xf9, 0xac, 0xe5, 0xd0,
  0xf1, 0x4f, 0x00, 0x4a, 0x4a, 0x98, 0x2c, 0x48, 0xd9, 0x96, 0x1f, 0x86,
  0x05, 0xec, 0xf2, 0x3e, 0x81, 0xde, 0xed, 0xef, 0xaf, 0x3e, 0x39, 0x43,
  0x97, 0x41, 0xa9, 0x4b, 0x47, 0xf9, 0x29, 0xf3, 0xec, 0x0e, 0x46, 0xc4,
  0xb0, 0xfa, 0xd2, 0x1c, 0x07, 0xfa, 0x26, 0x04, 0x12, 0xb7, 0x2e, 0xf3,
  0xc4, 0x47, 0x20, 0xc2, 0xc3, 0xaf, 0x40, 0xfd, 0xb5, 0x1e, 0x17, 0xe3,
  0xae, 0xaa, 0xb4, 0x32, 0x15, 0x3f, 0xac, 0xba, 0xa2, 0x10, 0xf1, 0xce,
  0xca, 0xcc, 0x4a, 0x25, 0x00, 0xa1, 0xc0, 0xc8, 0x12, 0xff, 0x45, 0xb7,
  0x0b, 0xca, 0x37, 0xac, 0xa5, 0x15, 0xfc, 0x50, 0x2c, 0xa7, 0x52, 0x9a,
  0xff, 0xe0, 0xfa, 0xf0, 0xb6, 0xd2, 0xf0, 0x52, 0x58, 0x14, 0x60, 0x1c,
  0x35, 0x09, 0x58, 0x4d, 0x4a, 0x7f, 0x27, 0x31, 0x58, 0x71, 0x11, 0x05,
  0x47, 0xf8, 0xfd, 0x25, 0x92, 0x5c, 0xed, 0xb5, 0x28, 0xff, 0x76, 0xe7,
  0x47, 0xd4, 0x1a, 0x35, 0x6e, 0x26, 0x9d, 0x46, 0x01, 0xf3, 0xc6, 0xfb,
  0xaa, 0xde, 0x54, 0xde, 0x06, 0x03, 0x15, 0xe9, 0x40, 0x2c, 0x4f, 0x4d,
  0x4b, 0x2b, 0x22, 0x3e, 0x31, 0x26, 0x50, 0x27, 0x49, 0x34, 0x22, 0xeb,
  0x42, 0x15, 0xd9, 0x69, 0xa3, 0x2f, 0xe6, 0xb7, 0x30, 0xbb, 0x69, 0x0f,
  0x42, 0xbf, 0xf0, 0x35, 0x13, 0x11, 0xd4, 0x23, 0xf7, 0x23, 0xee, 0x93,
  0x17, 0xf5, 0x35, 0xb0, 0x4c, 0xd5, 0x47, 0xef, 0xeb, 0xe9, 0x3e, 0xca,
  0x35, 0xfd, 0x55, 0x13, 0xfb, 0x10, 0xe8, 0x4e, 0xfd, 0xeb, 0x19, 0xe2,
  0x23, 0x36, 0xeb, 0xfd, 0xb9, 0x5c, 0x24, 0xe0, 0x3b, 0xa0, 0x42, 0x2c,
  0x1a, 0xdb, 0x34, 0x36, 0x1a, 0x16, 0xc3, 0x08, 0x1f, 0x47, 0xf9, 0xcf,
  0xde, 0x45, 0x22, 0x9c, 0x00, 0xec, 0x6b, 0xe7, 0x02, 0xea, 0xf7, 0xfe,
  0xb5, 0xfb, 0xdf, 0x08, 0xc5, 0x83, 0xeb, 0x00, 0x0f, 0xbf, 0x00, 0xea,
  0x2c, 0xec, 0xfc, 0x02, 0xc6, 0x12, 0x05, 0xb6, 0xf3, 0xef, 0xd9, 0xd4,
  0xd2, 0xad, 0xbb, 0xe1, 0x3d, 0x06, 0xfc, 0xb6, 0xfd, 0xde, 0x0f, 0xf5,
  0x81, 0xef, 0x02, 0xac, 0x0c, 0x1c, 0x38, 0xf9, 0x00, 0x12, 0xe4, 0x18,
  0x93, 0xed, 0x20, 0xf3, 0xbf, 0xa7, 0xc2, 0xdd, 0xe3, 0xa7, 0xc5, 0xf8,
  0xef, 0xfd, 0xef, 0x17, 0xaf, 0x01, 0x2d, 0xf5, 0xe2, 0xf3, 0xcf, 0x3a,
  0xf0, 0xf5, 0xa9, 0x23, 0xbb, 0xe0, 0xf9, 0xe5, 0x17, 0xb4, 0x0e, 0x17,
  0xb7, 0xe1, 0xad, 0xf8, 0xf1, 0xdb, 0xcf, 0xe5, 0x01, 0x08, 0x17, 0x06,
  0x99, 0xe4, 0x10, 0xe2, 0x13, 0xf0, 0xe9, 0x3b, 0xe6, 0xbd, 0xe4, 0x57,
  0xa1, 0x1d, 0xfe, 0x17, 0xc2, 0x07, 0x48, 0xeb, 0x0f, 0xb7, 0xc9, 0x3f,
  0x27, 0xd6, 0xc2, 0x1c, 0xe5, 0xf4, 0x16, 0xc1, 0x36, 0x01, 0x1a, 0x1a,
  0x26, 0xf4, 0xd9, 0x2c, 0xfc, 0x0d, 0xd7, 0x15, 0x09, 0x1b, 0xd5, 0xf4,
  0x84, 0x0a, 0x0f, 0xcc, 0x9c, 0x8c, 0xf0, 0x15, 0xd8, 0xa9, 0xb9, 0xe0,
  0xf5, 0xc5, 0x14, 0xae, 0xe6, 0xc2, 0x3a, 0xf8, 0xf3, 0xcc, 0xe7, 0x30,
  0xd7, 0xf7, 0xc8, 0xe4, 0xbe, 0xcb, 0x36, 0xaa, 0xe9, 0xaf, 0x18, 0x01,
  0xd5, 0xf9, 0x99, 0xf2, 0xfa, 0x12, 0xf8, 0xcf, 0x9c, 0x17, 0x24, 0xee,
  0x81, 0xcb, 0x00, 0x21, 0xb0, 0xcf, 0xcf, 0x3f, 0x1d, 0xac, 0xee, 0xda,
  0xd2, 0x1e, 0x35, 0xc9, 0x92, 0x0b, 0x03, 0x1e, 0xfe, 0xab, 0xed, 0xfd,
  0xb7, 0x9a, 0xb1, 0x08, 0xbb, 0x13, 0x33, 0xbc, 0x39, 0x9b, 0x09, 0x36,
  0x32, 0x04, 0xdf, 0xf0, 0xb4, 0x03, 0x1d, 0xc1, 0x02, 0xf6, 0x32, 0xcc,
  0xdf, 0x40, 0xe3, 0xf0, 0x2c, 0x8b, 0xef, 0xdf, 0xf0, 0xe1, 0x16, 0x61,
  0xcf, 0x18, 0x12, 0xba, 0xe4, 0x05, 0x21, 0xfc, 0x32, 0xba, 0xeb, 0x28,
  0xc8, 0xcb, 0x0e, 0x03, 0xc3, 0x0b, 0x2d, 0x04, 0x07, 0xbc, 0x3a, 0x45,
  0x39, 0x29, 0xb7, 0x02, 0x0d, 0x26, 0xdf, 0x0a, 0x01, 0x0a, 0x2e, 0xea,
  0x6d, 0x18, 0x10, 0x09, 0x6a, 0x38, 0xec, 0xf2, 0x45, 0x27, 0x5a, 0x2a,
  0x7f, 0x26, 0xd0, 0x2a, 0x4a, 0xf1, 0xcb, 0x1b, 0xff, 0x0e, 0x34, 0x2b,
  0x54, 0x36, 0xf3, 0x24, 0x3f, 0x44, 0x2a, 0x66, 0x0c, 0x41, 0x1e, 0xfe,
  0x46, 0xd7, 0x30, 0x06, 0x5f, 0x02, 0x06, 0x34, 0x12, 0xe6, 0x1a, 0xeb,
  0x37, 0xca, 0x17, 0x2c, 0x24, 0x5b, 0xed, 0xf9, 0xfd, 0x30, 0x50, 0xe0,
  0x70, 0x19, 0xe8, 0x3d, 0x57, 0x37, 0xf9, 0xe8, 0x39, 0x36, 0x18, 0xf2,
  0xfa, 0x08, 0x3c, 0x14, 0x4d, 0xfb, 0xe3, 0x11, 0xfd, 0x44, 0x23, 0xe3,
  0x04, 0x0a, 0x4a, 0xfa, 0x29, 0x03, 0xce, 0x17, 0xf3, 0xbe, 0x1d, 0x01,
  0x0d, 0xfe, 0xe8, 0x1a, 0x2b, 0x03, 0x09, 0xe0, 0xdc, 0xe0, 0x00, 0xe4,
  0x25, 0x09, 0xfd, 0x17, 0x43, 0xf1, 0xf1, 0xe7, 0x19, 0x0a, 0x3c, 0x15,
  0x2b, 0xf1, 0xf7, 0xf6, 0x42, 0x3c, 0xdd, 0xea, 0xd1, 0x46, 0x16, 0xf9,
  0x15, 0xe8, 0x48, 0x3b, 0x1e, 0x02, 0xdd, 0xfb, 0xf2, 0xdf, 0xd9, 0x03,
  0x9e, 0x1f, 0xfd, 0x32, 0xb9, 0xb6, 0xce, 0x2a, 0x09, 0xa0, 0xc8, 0xf7,
  0xce, 0xe3, 0xf0, 0xd3, 0xd7, 0x0c, 0xf9, 0x0b, 0xd0, 0xf9, 0xc8, 0xe7,
  0xa2, 0x99, 0x8f, 0xff, 0xaa, 0x1c, 0x0e, 0x0a, 0xbf, 0xac, 0xd8, 0x48,
  0x04, 0xc7, 0xe7, 0x07, 0xfe, 0x04, 0xed, 0xd7, 0xde, 0xe6, 0xe1, 0x03,
  0x81, 0xec, 0x28, 0x2c, 0xf1, 0x8f, 0xdb, 0x2a, 0xbd, 0xf4, 0xb5, 0xf5,
  0x02, 0xd1, 0xf8, 0x04, 0xe1, 0x0d, 0x21, 0x43, 0xef, 0xd2, 0xd8, 0x2e,
  0xb4, 0xbb, 0xa3, 0xb9, 0xa2, 0xca, 0x44, 0xab, 0x08, 0x9a, 0xda, 0xf9,
  0xd1, 0xc4, 0xc0, 0x38, 0xe1, 0xe5, 0xf7, 0x1e, 0x0d, 0x39, 0x30, 0xf1,
  0xb3, 0xed, 0x27, 0x29, 0x00, 0xa2, 0xc5, 0x05, 0x06, 0xac, 0xf9, 0x3f,
  0xd2, 0xce, 0x2a, 0xd4, 0xbc, 0xdc, 0x0e, 0x23, 0xfd, 0xa2, 0xf1, 0x0c,
  0xaa, 0xba, 0xff, 0xe5, 0x03, 0xe9, 0x2f, 0xc3, 0x0d, 0xdd, 0xe2, 0x4d,
  0xcf, 0xf1, 0xeb, 0x40, 0x0a, 0xd5, 0xba, 0xb1, 0xfd, 0xff, 0x03, 0x1b,
  0xef, 0xb6, 0x33, 0x31, 0xf9, 0x99, 0xbf, 0xcf, 0x9f, 0xa5, 0xbf, 0xfe,
  0xd1, 0xc7, 0xd5, 0xde, 0xeb, 0xe1, 0xe0, 0x33, 0xfd, 0xbe, 0xee, 0x2b,
  0x03, 0xaf, 0xbb, 0xd5, 0xd5, 0x23, 0xeb, 0xe5, 0xe0, 0xa7, 0x37, 0x0b,
  0x0e, 0x35, 0xf3, 0x01, 0x0f, 0xd0, 0xc6, 0xd5, 0xa6, 0xc9, 0x2c, 0xe9,
  0xbd, 0xe5, 0x35, 0x07, 0xcc, 0xb0, 0xde, 0x2c, 0xe2, 0x9e, 0xa4, 0xcd,
  0xfb, 0xbb, 0x42, 0x9d, 0xae, 0xfb, 0xe7, 0xfc, 0xda, 0xb7, 0xe9, 0xf6,
  0xfd, 0xf8, 0x81, 0x16, 0x01, 0xf0, 0x3d, 0x9e, 0xf4, 0xcc, 0x10, 0x60,
  0xe5, 0xf6, 0xac, 0xfc, 0xd6, 0x2a, 0xb4, 0x0e, 0xf8, 0x4f, 0x26, 0x0e,
  0xde, 0x0a, 0x17, 0x10, 0x1f, 0xb3, 0xdd, 0x0f, 0x42, 0xb7, 0x13, 0x06,
  0x9f, 0x32, 0x27, 0xbf, 0x05, 0xa7, 0x2d, 0x2e, 0xbb, 0xe0, 0xe3, 0xd1,
  0xf6, 0xae, 0xee, 0xf2, 0xf2, 0x3a, 0x4f, 0xd3, 0x2f, 0x10, 0x21, 0x2d,
  0xf3, 0xfb, 0xd0, 0x07, 0xb3, 0x09, 0x01, 0xbe, 0xfe, 0x1a, 0xef, 0xba,
  0x89, 0x11, 0x1d, 0x03, 0xf6, 0x8e, 0xa6, 0x2a, 0xaa, 0x8c, 0xe5, 0x21,
  0xf4, 0xd5, 0xdc, 0xce, 0xd2, 0xb0, 0x01, 0xdd, 0x0c, 0x94, 0xa3, 0x20,
  0xa4, 0x8d, 0xa5, 0xee, 0xbd, 0x17, 0x25, 0xbd, 0xfc, 0x9a, 0xbf, 0x3d,
  0xf9, 0xdb, 0xb0, 0x3d, 0xdd, 0xff, 0xe2, 0xca, 0xe3, 0xe0, 0xfd, 0xa8,
  0x8d, 0xe4, 0xd8, 0x0f, 0xed, 0xf4, 0xd6, 0x4e, 0x19, 0xe3, 0xe1, 0x18,
  0x9c, 0x10, 0x18, 0x13, 0xaf, 0x01, 0xf4, 0x48, 0xe1, 0xa9, 0xc6, 0x46,
  0xd8, 0xfa, 0x89, 0xb3, 0x94, 0x0e, 0xe2, 0xfb, 0x0c, 0x81, 0x37, 0x37,
  0x03, 0xa4, 0xab, 0x0c, 0x9b, 0x39, 0xfe, 0x1b, 0x15, 0x75, 0x34, 0x2e,
  0xc0, 0x3d, 0xe7, 0xf4, 0xd7, 0xfd, 0xf1, 0x19, 0xf1, 0xb0, 0xee, 0xd3,
  0xfb, 0xf1, 0x40, 0xec, 0xf1, 0x07, 0x11, 0x10, 0x0e, 0x9f, 0xda, 0xe8,
  0xc0, 0xfa, 0xcf, 0xdf, 0xe7, 0xca, 0x26, 0x98, 0xdd, 0x0f, 0x48, 0xfb,
  0x07, 0x33, 0xeb, 0x45, 0xac, 0xc7, 0x01, 0xf0, 0xba, 0x33, 0x1f, 0xd0,
  0xcd, 0xe2, 0x0b, 0x35, 0xa5, 0xc4, 0xe3, 0x1d, 0xf7, 0xb8, 0xe3, 0x36,
  0xa9, 0x23, 0xc1, 0xdc, 0x9e, 0x02, 0xb8, 0xec, 0x08, 0xe5, 0xd1, 0x0f,
  0xd4, 0xd0, 0xa8, 0x4c, 0x99, 0xd7, 0x16, 0xda, 0x1a, 0x1a, 0x51, 0x31,
  0x10, 0xce, 0xcb, 0x09, 0x13, 0xed, 0xb1, 0x1b, 0xc6, 0x0f, 0x45, 0xd8,
  0xa6, 0x24, 0x15, 0x31, 0x29, 0x9e, 0xf9, 0xda, 0x21, 0x26, 0x05, 0xec,
  0xd6, 0x3b, 0xea, 0xd0, 0x1f, 0x2c, 0xea, 0xdd, 0xd4, 0xd7, 0xa0, 0xf9,
  0xc7, 0xf1, 0x18, 0xfb, 0xbd, 0xe1, 0x3d, 0x04, 0x19, 0xfc, 0x63, 0xfc,
  0xd3, 0x22, 0x14, 0xe9, 0xd5, 0xdb, 0xcc, 0xe2, 0xbd, 0x13, 0xf4, 0x17,
  0xd1, 0x3f, 0x18, 0x3b, 0x2e, 0x30, 0xe8, 0x4a, 0x04, 0x1f, 0x32, 0xd3,
  0x00, 0xc3, 0xcc, 0xce, 0xc4, 0x9b, 0x01, 0xdb, 0xe4, 0x9e, 0x81, 0xe6,
  0xf9, 0x12, 0xf0, 0xfa, 0xee, 0xe6, 0xf5, 0x23, 0x1b, 0xda, 0x6d, 0x42,
  0xcd, 0xd1, 0xa3, 0x1d, 0x16, 0xd4, 0xf6, 0x07, 0x3c, 0x40, 0x0d, 0xfb,
  0x47, 0xfa, 0xe3, 0xd8, 0x1a, 0x0e, 0x69, 0x12, 0x25, 0x3b, 0x40, 0xee,
  0x7f, 0xd1, 0xe0, 0x4b, 0x0e, 0x26, 0xef, 0x22, 0x32, 0x04, 0x73, 0x1e,
  0x13, 0x64, 0x47, 0x11, 0x60, 0xdc, 0x31, 0x45, 0xd6, 0xfb, 0xd6, 0xb0,
  0x1c, 0x1a, 0x21, 0x0c, 0x4a, 0x2f, 0x08, 0x0f, 0x4e, 0xd1, 0x0b, 0x45,
  0x2f, 0xd1, 0x09, 0x0d, 0x09, 0x69, 0xfd, 0xfa, 0x52, 0x1f, 0x56, 0xec,
  0x7f, 0x37, 0xcf, 0x57, 0x38, 0x2d, 0xd9, 0x16, 0x40, 0x0f, 0x58, 0xc3,
  0x39, 0x31, 0x53, 0x00, 0xfe, 0x0e, 0x23, 0x02, 0x1d, 0x5b, 0xf1, 0x27,
  0x41, 0x11, 0x06, 0x03, 0x29, 0xe1, 0x24, 0x11, 0x31, 0xfb, 0x3c, 0xbf,
  0x13, 0xfa, 0x0c, 0x42, 0x31, 0x37, 0x2b, 0x14, 0xed, 0x3c, 0xfb, 0xe1,
  0x32, 0xd2, 0xea, 0x3a, 0x21, 0x3d, 0xc2, 0x17, 0x03, 0x04, 0x1d, 0x1c,
  0xff, 0x0f, 0x09, 0x1e, 0x0d, 0xe0, 0xd0, 0x1e, 0x08, 0x18, 0x2d, 0xeb,
  0xc7, 0x11, 0x25, 0x30, 0x3d, 0xb5, 0xe4, 0x2e, 0xfe, 0xd6, 0xa1, 0x2f,
  0xc1, 0x2f, 0xb3, 0xb1, 0xaf, 0xf1, 0x0b, 0xbe, 0x39, 0x0f, 0x08, 0xe6,
  0xa9, 0xde, 0x73, 0x9b, 0xdf, 0x1f, 0xe3, 0xcf, 0x17, 0x0a, 0x04, 0xd5,
  0x29, 0x38, 0x37, 0x39, 0x8e, 0x33, 0xaf, 0x87, 0x0a, 0xe2, 0x2f, 0xbe,
  0xbf, 0x1c, 0xd5, 0xbd, 0x15, 0x51, 0x0f, 0xd8, 0x15, 0x4c, 0x2c, 0x40,
  0xe9, 0x01, 0x48, 0xfd, 0x19, 0x02, 0x38, 0xd4, 0xda, 0xe9, 0x19, 0xe4,
  0x81, 0x07, 0x45, 0xc9, 0x02, 0xef, 0x45, 0xd5, 0x4d, 0x37, 0x1b, 0x2e,
  0x17, 0x35, 0xf6, 0x25, 0xc0, 0xab, 0x2e, 0xf2, 0x1c, 0xb9, 0x42, 0xa1,
  0xfc, 0x58, 0xad, 0xeb, 0x17, 0x2f, 0xed, 0x8f, 0xd8, 0x1a, 0xcc, 0x1d,
  0x0b, 0xd8, 0xfc, 0xaa, 0xbd, 0xc1, 0xfc, 0xbc, 0x34, 0x39, 0x3e, 0x0e,
  0xfe, 0xfa, 0xf5, 0xfa, 0xc9, 0xfe, 0x45, 0xe8, 0xbd, 0xf5, 0xec, 0x0d,
  0x22, 0x51, 0x5f, 0xf8, 0xe1, 0x3f, 0x12, 0xeb, 0x04, 0xb4, 0x0a, 0x00,
  0x9f, 0x2d, 0xdc, 0x82, 0xfd, 0x46, 0x0b, 0xe0, 0xe6, 0x28, 0x21, 0x0a,
  0xeb, 0xe0, 0x35, 0xea, 0xd5, 0x8d, 0xb8, 0x0e, 0xe8, 0x9a, 0x84, 0xf0,
  0xd7, 0x01, 0xdb, 0xa7, 0xbe, 0x1f, 0x20, 0xcd, 0xbd, 0xed, 0x95, 0xee,
  0x9e, 0x9f, 0xea, 0x21, 0xcc, 0x0e, 0xf1, 0xfa, 0xe4, 0xd9, 0x13, 0x17,
  0xf8, 0xb5, 0x81, 0x31, 0xe9, 0x0a, 0xf1, 0xe3, 0xdc, 0x21, 0xfc, 0xaa,
  0xf3, 0xe8, 0x08, 0x38, 0x26, 0xed, 0xda, 0xfc, 0xe4, 0x91, 0xd9, 0xe7,
  0xb5, 0x13, 0x49, 0xb0, 0xf1, 0xc7, 0x45, 0x3f, 0x1a, 0x95, 0xae, 0xf3,
  0xf6, 0xee, 0xe2, 0xe5, 0xfb, 0x39, 0x5b, 0xd0, 0xed, 0xe3, 0xe4, 0x16,
  0xf6, 0xd6, 0xae, 0x3d, 0xc8, 0x2a, 0x06, 0xb9, 0xa9, 0x4b, 0x0c, 0x0f,
  0xcc, 0x2c, 0x3a, 0x11, 0xe7, 0x03, 0xec, 0x3d, 0xfa, 0xed, 0xd8, 0x37,
  0xc9, 0x0a, 0x1c, 0xb5, 0xb1, 0xf5, 0xdc, 0xe0, 0xc6, 0xf7, 0xa5, 0xe9,
  0xbe, 0x13, 0xbe, 0x2f, 0xe6, 0xde, 0x1d, 0x0c, 0x07, 0xce, 0x03, 0x41,
  0x3d, 0xc1, 0xf9, 0x2e, 0xf9, 0x1b, 0xc8, 0xbd, 0x62, 0xfe, 0xff, 0xff,
  0x04, 0x00, 0x00, 0x00, 0x80, 0x00, 0x00, 0x00, 0x44, 0xf3, 0xff, 0xff,
  0x30, 0x0d, 0x00, 0x00, 0x37, 0x15, 0x00, 0x00, 0x05, 0x10, 0x00, 0x00,
  0x08, 0xfb, 0xff, 0xff, 0x95, 0xf3, 0xff, 0xff, 0x1d, 0xfa, 0xff, 0xff,
  0x42, 0x17, 0x00, 0x00, 0x18, 0xf4, 0xff, 0xff, 0xeb, 0xf3, 0xff, 0xff,
  0x1b, 0x1c, 0x00, 0x00, 0x8a, 0xf2, 0xff, 0xff, 0x3e, 0x0f, 0x00, 0x00,
  0xda, 0x11, 0x00, 0x00, 0x24, 0x19, 0x00, 0x00, 0x49, 0x16, 0x00, 0x00,
  0x7b, 0x10, 0x00, 0x00, 0xd7, 0xef, 0xff, 0xff, 0x06, 0x0d, 0x00, 0x00,
  0x4b, 0x13, 0x00, 0x00, 0x27, 0xfc, 0xff, 0xff, 0x85, 0xf1, 0xff, 0xff,
  0xae, 0x0d, 0x00, 0x00, 0x93, 0x0f, 0x00, 0x00, 0x96, 0xf3, 0xff, 0xff,
  0x60, 0x08, 0x00, 0x00, 0xd8, 0x0e, 0x00, 0x00, 0xb3, 0x0d, 0x00, 0x00,
  0x14, 0x0a, 0x00, 0x00, 0x5a, 0xf3, 0xff, 0xff, 0x31, 0x1c, 0x00, 0x00,
  0xfb, 0x0c, 0x00, 0x00, 0xee, 0xfe, 0xff, 0xff, 0x04, 0x00, 0x00, 0x00,
  0x40, 0x00, 0x00, 0x00, 0x27, 0x9a, 0x81, 0xa4, 0x08, 0x0d, 0x4b, 0xf6,
  0x5a, 0xf7, 0xdb, 0x31, 0xfa, 0x92, 0xfc, 0xa0, 0xb9, 0x6a, 0xa7, 0xa2,
  0x13, 0x45, 0xa6, 0xda, 0x18, 0x8b, 0x03, 0xa1, 0xc0, 0x68, 0xbf, 0xf5,
  0xfc, 0x4d, 0x34, 0x60, 0x38, 0xe4, 0xb6, 0x6e, 0x95, 0x99, 0x3a, 0x9e,
  0x5c, 0xd3, 0x7f, 0x6a, 0x06, 0x0c, 0x1e, 0x42, 0x22, 0xbd, 0x29, 0x3e,
  0xbf, 0x28, 0x46, 0x68, 0x3d, 0xe6, 0x3b, 0x63, 0x3a, 0xff, 0xff, 0xff,
  0x04, 0x00, 0x00, 0x00, 0x08, 0x00, 0x00, 0x00, 0x5a, 0xfa, 0xff, 0xff,
  0x7f, 0x05, 0x00, 0x00, 0x4e, 0xff, 0xff, 0xff, 0x04, 0x00, 0x00, 0x00,
  0x08, 0x00, 0x00, 0x00, 0x01, 0x00, 0x00, 0x00, 0x02, 0x00, 0x00, 0x00,
  0x04, 0xed, 0xff, 0xff, 0x08, 0xed, 0xff, 0xff, 0x0f, 0x00, 0x00, 0x00,
  0x4d, 0x4c, 0x49, 0x52, 0x20, 0x43, 0x6f, 0x6e, 0x76, 0x65, 0x72, 0x74,
  0x65, 0x64, 0x2e, 0x00, 0x01, 0x00, 0x00, 0x00, 0x14, 0x00, 0x00, 0x00,
  0x00, 0x00, 0x0e, 0x00, 0x18, 0x00, 0x14, 0x00, 0x10, 0x00, 0x0c, 0x00,
  0x08, 0x00, 0x04, 0x00, 0x0e, 0x00, 0x00, 0x00, 0x14, 0x00, 0x00, 0x00,
  0x1c, 0x00, 0x00, 0x00, 0xc8, 0x02, 0x00, 0x00, 0xcc, 0x02, 0x00, 0x00,
  0xd0, 0x02, 0x00, 0x00, 0x04, 0x00, 0x00, 0x00, 0x6d, 0x61, 0x69, 0x6e,
  0x00, 0x00, 0x00, 0x00, 0x0a, 0x00, 0x00, 0x00, 0x80, 0x02, 0x00, 0x00,
  0x3c, 0x02, 0x00, 0x00, 0xdc, 0x01, 0x00, 0x00, 0x88, 0x01, 0x00, 0x00,
  0x34, 0x01, 0x00, 0x00, 0xf0, 0x00, 0x00, 0x00, 0xac, 0x00, 0x00, 0x00,
  0x78, 0x00, 0x00, 0x00, 0x40, 0x00, 0x00, 0x00, 0x04, 0x00, 0x00, 0x00,
  0xa2, 0xfe, 0xff, 0xff, 0x1c, 0x00, 0x00, 0x00, 0x00, 0x00, 0x00, 0x09,
  0x1c, 0x00, 0x00, 0x00, 0x20, 0x00, 0x00, 0x00, 0x06, 0x00, 0x00, 0x00,
  0x00, 0x00, 0x06, 0x00, 0x08, 0x00, 0x04, 0x00, 0x06, 0x00, 0x00, 0x00,
  0x00, 0x00, 0x80, 0x3f, 0x01, 0x00, 0x00, 0x00, 0x15, 0x00, 0x00, 0x00,
  0x01, 0x00, 0x00, 0x00, 0x14, 0x00, 0x00, 0x00, 0x2e, 0xfe, 0xff, 0xff,
  0x14, 0x00, 0x00, 0x00, 0x00, 0x00, 0x00, 0x08, 0x10, 0x00, 0x00, 0x00,
  0x14, 0x00, 0x00, 0x00, 0x05, 0x00, 0x00, 0x00, 0xd8, 0xed, 0xff, 0xff,
  0x01, 0x00, 0x00, 0x00, 0x14, 0x00, 0x00, 0x00, 0x03, 0x00, 0x00, 0x00,
  0x13, 0x00, 0x00, 0x00, 0x03, 0x00, 0x00, 0x00, 0x02, 0x00, 0x00, 0x00,
  0x62, 0xfe, 0xff, 0xff, 0x14, 0x00, 0x00, 0x00, 0x00, 0x00, 0x00, 0x1b,
  0x10, 0x00, 0x00, 0x00, 0x14, 0x00, 0x00, 0x00, 0x04, 0x00, 0x00, 0x00,
  0x0c, 0xee, 0xff, 0xff, 0x01, 0x00, 0x00, 0x00, 0x13, 0x00, 0x00, 0x00,
  0x02, 0x00, 0x00, 0x00, 0x12, 0x00, 0x00, 0x00, 0x01, 0x00, 0x00, 0x00,
  0x92, 0xfe, 0xff, 0xff, 0x14, 0x00, 0x00, 0x00, 0x00, 0x00, 0x00, 0x01,
  0x1c, 0x00, 0x00, 0x00, 0x20, 0x00, 0x00, 0x00, 0x02, 0x00, 0x00, 0x00,
  0xe0, 0xfe, 0xff, 0xff, 0x00, 0x00, 0x00, 0x01, 0x01, 0x00, 0x00, 0x00,
  0x01, 0x00, 0x00, 0x00, 0x01, 0x00, 0x00, 0x00, 0x12, 0x00, 0x00, 0x00,
  0x03, 0x00, 0x00, 0x00, 0x11, 0x00, 0x00, 0x00, 0x05, 0x00, 0x00, 0x00,
  0x04, 0x00, 0x00, 0x00, 0xd2, 0xfe, 0xff, 0xff, 0x14, 0x00, 0x00, 0x00,
  0x00, 0x00, 0x00, 0x05, 0x24, 0x00, 0x00, 0x00, 0x28, 0x00, 0x00, 0x00,
  0x03, 0x00, 0x00, 0x00, 0x6e, 0xff, 0xff, 0xff, 0x02, 0x00, 0x00, 0x00,
  0x02, 0x00, 0x00, 0x00, 0x02, 0x00, 0x00, 0x00, 0x02, 0x00, 0x00, 0x00,
  0x00, 0x00, 0x00, 0x01, 0x01, 0x00, 0x00, 0x00, 0x11, 0x00, 0x00, 0x00,
  0x01, 0x00, 0x00, 0x00, 0x10, 0x00, 0x00, 0x00, 0x12, 0xff, 0xff, 0xff,
  0x14, 0x00, 0x00, 0x00, 0x00, 0x00, 0x00, 0x01, 0x1c, 0x00, 0x00, 0x00,
  0x20, 0x00, 0x00, 0x00, 0x02, 0x00, 0x00, 0x00, 0x60, 0xff, 0xff, 0xff,
  0x00, 0x00, 0x00, 0x01, 0x02, 0x00, 0x00, 0x00, 0x02, 0x00, 0x00, 0x00,
  0x01, 0x00, 0x00, 0x00, 0x10, 0x00, 0x00, 0x00, 0x03, 0x00, 0x00, 0x00,
  0x0f, 0x00, 0x00, 0x00, 0x07, 0x00, 0x00, 0x00, 0x06, 0x00, 0x00, 0x00,
  0x00, 0x00, 0x0e, 0x00, 0x1a, 0x00, 0x14, 0x00, 0x10, 0x00, 0x0c, 0x00,
  0x0b, 0x00, 0x04, 0x00, 0x0e, 0x00, 0x00, 0x00, 0x24, 0x00, 0x00, 0x00,
  0x00, 0x00, 0x00, 0x05, 0x34, 0x00, 0x00, 0x00, 0x38, 0x00, 0x00, 0x00,
  0x03, 0x00, 0x00, 0x00, 0x00, 0x00, 0x0e, 0x00, 0x18, 0x00, 0x17, 0x00,
  0x10, 0x00, 0x0c, 0x00, 0x08, 0x00, 0x04, 0x00, 0x0e, 0x00, 0x00, 0x00,
  0x02, 0x00, 0x00, 0x00, 0x02, 0x00, 0x00, 0x00, 0x02, 0x00, 0x00, 0x00,
  0x02, 0x00, 0x00, 0x00, 0x00, 0x00, 0x00, 0x01, 0x01, 0x00, 0x00, 0x00,
  0x0f, 0x00, 0x00, 0x00, 0x01, 0x00, 0x00, 0x00, 0x0e, 0x00, 0x00, 0x00,
  0xb2, 0xff, 0xff, 0xff, 0x20, 0x00, 0x00, 0x00, 0x00, 0x00, 0x00, 0x01,
  0x28, 0x00, 0x00, 0x00, 0x2c, 0x00, 0x00, 0x00, 0x02, 0x00, 0x00, 0x00,
  0x0c, 0x00, 0x10, 0x00, 0x00, 0x00, 0x0c, 0x00, 0x08, 0x00, 0x07, 0x00,
  0x0c, 0x00, 0x00, 0x00, 0x00, 0x00, 0x00, 0x01, 0x02, 0x00, 0x00, 0x00,
  0x02, 0x00, 0x00, 0x00, 0x01, 0x00, 0x00, 0x00, 0x0e, 0x00, 0x00, 0x00,
  0x03, 0x00, 0x00, 0x00, 0x0d, 0x00, 0x00, 0x00, 0x09, 0x00, 0x00, 0x00,
  0x08, 0x00, 0x00, 0x00, 0x00, 0x00, 0x0e, 0x00, 0x18, 0x00, 0x14, 0x00,
  0x10, 0x00, 0x0c, 0x00, 0x0b, 0x00, 0x04, 0x00, 0x0e, 0x00, 0x00, 0x00,
  0x14, 0x00, 0x00, 0x00, 0x00, 0x00, 0x00, 0x0b, 0x10, 0x00, 0x00, 0x00,
  0x14, 0x00, 0x00, 0x00, 0x01, 0x00, 0x00, 0x00, 0xb8, 0xef, 0xff, 0xff,
  0x01, 0x00, 0x00, 0x00, 0x0d, 0x00, 0x00, 0x00, 0x02, 0x00, 0x00, 0x00,
  0x0c, 0x00, 0x00, 0x00, 0x0a, 0x00, 0x00, 0x00, 0x00, 0x00, 0x0e, 0x00,
  0x14, 0x00, 0x00, 0x00, 0x10, 0x00, 0x0c, 0x00, 0x0b, 0x00, 0x04, 0x00,
  0x0e, 0x00, 0x00, 0x00, 0x10, 0x00, 0x00, 0x00, 0x00, 0x00, 0x00, 0x15,
  0x0c, 0x00, 0x00, 0x00, 0x10, 0x00, 0x00, 0x00, 0xf4, 0xef, 0xff, 0xff,
  0x01, 0x00, 0x00, 0x00, 0x0c, 0x00, 0x00, 0x00, 0x02, 0x00, 0x00, 0x00,
  0x00, 0x00, 0x00, 0x00, 0x0b, 0x00, 0x00, 0x00, 0x01, 0x00, 0x00, 0x00,
  0x15, 0x00, 0x00, 0x00, 0x01, 0x00, 0x00, 0x00, 0x00, 0x00, 0x00, 0x00,
  0x16, 0x00, 0x00, 0x00, 0x1c, 0x10, 0x00, 0x00, 0xc0, 0x0f, 0x00, 0x00,
  0x38, 0x0f, 0x00, 0x00, 0xc4, 0x0e, 0x00, 0x00, 0xf0, 0x0c, 0x00, 0x00,
  0x0c, 0x0b, 0x00, 0x00, 0xf8, 0x09, 0x00, 0x00, 0xd4, 0x08, 0x00, 0x00,
  0x20, 0x08, 0x00, 0x00, 0x5c, 0x07, 0x00, 0x00, 0x00, 0x07, 0x00, 0x00,
  0xa4, 0x06, 0x00, 0x00, 0x10, 0x06, 0x00, 0x00, 0x7c, 0x05, 0x00, 0x00,
  0xa8, 0x04, 0x00, 0x00, 0x0c, 0x04, 0x00, 0x00, 0x30, 0x03, 0x00, 0x00,
  0x94, 0x02, 0x00, 0x00, 0xb8, 0x01, 0x00, 0x00, 0x24, 0x01, 0x00, 0x00,
  0x80, 0x00, 0x00, 0x00, 0x04, 0x00, 0x00, 0x00, 0x52, 0xf0, 0xff, 0xff,
  0x00, 0x00, 0x00, 0x01, 0x18, 0x00, 0x00, 0x00, 0x20, 0x00, 0x00, 0x00,
  0x3c, 0x00, 0x00, 0x00, 0x16, 0x00, 0x00, 0x00, 0x00, 0x00, 0x00, 0x09,
  0x50, 0x00, 0x00, 0x00, 0x02, 0x00, 0x00, 0x00, 0xff, 0xff, 0xff, 0xff,
  0x02, 0x00, 0x00, 0x00, 0x34, 0xf0, 0xff, 0xff, 0x08, 0x00, 0x00, 0x00,
  0x10, 0x00, 0x00, 0x00, 0x01, 0x00, 0x00, 0x00, 0x80, 0xff, 0xff, 0xff,
  0xff, 0xff, 0xff, 0xff, 0x01, 0x00, 0x00, 0x00, 0x00, 0x00, 0x80, 0x3b,
  0x1b, 0x00, 0x00, 0x00, 0x53, 0x74, 0x61, 0x74, 0x65, 0x66, 0x75, 0x6c,
  0x50, 0x61, 0x72, 0x74, 0x69, 0x74, 0x69, 0x6f, 0x6e, 0x65, 0x64, 0x43,
  0x61, 0x6c, 0x6c, 0x5f, 0x31, 0x3a, 0x30, 0x00, 0x02, 0x00, 0x00, 0x00,
  0x01, 0x00, 0x00, 0x00, 0x02, 0x00, 0x00, 0x00, 0xca, 0xf0, 0xff, 0xff,
  0x00, 0x00, 0x00, 0x01, 0x18, 0x00, 0x00, 0x00, 0x20, 0x00, 0x00, 0x00,
  0x40, 0x00, 0x00, 0x00, 0x15, 0x00, 0x00, 0x00, 0x00, 0x00, 0x00, 0x09,
  0x78, 0x00, 0x00, 0x00, 0x02, 0x00, 0x00, 0x00, 0xff, 0xff, 0xff, 0xff,
  0x02, 0x00, 0x00, 0x00, 0xac, 0xf0, 0xff, 0xff, 0x08, 0x00, 0x00, 0x00,
  0x14, 0x00, 0x00, 0x00, 0x01, 0x00, 0x00, 0x00, 0x0a, 0x00, 0x00, 0x00,
  0x00, 0x00, 0x00, 0x00, 0x00, 0x00, 0x00, 0x00, 0x01, 0x00, 0x00, 0x00,
  0xe5, 0xb6, 0xea, 0x3c, 0x3c, 0x00, 0x00, 0x00, 0x73, 0x65, 0x71, 0x75,
  0x65, 0x6e, 0x74, 0x69, 0x61, 0x6c, 0x5f, 0x31, 0x5f, 0x31, 0x2f, 0x64,
  0x65, 0x6e, 0x73, 0x65, 0x5f, 0x31, 0x2f, 0x4d, 0x61, 0x74, 0x4d, 0x75,
  0x6c, 0x3b, 0x73, 0x65, 0x71, 0x75, 0x65, 0x6e, 0x74, 0x69, 0x61, 0x6c,
  0x5f, 0x31, 0x5f, 0x31, 0x2f, 0x64, 0x65, 0x6e, 0x73, 0x65, 0x5f, 0x31,
  0x2f, 0x42, 0x69, 0x61, 0x73, 0x41, 0x64, 0x64, 0x00, 0x00, 0x00, 0x00,
  0x02, 0x00, 0x00, 0x00, 0x01, 0x00, 0x00, 0x00, 0x02, 0x00, 0x00, 0x00,
  0x6a, 0xf1, 0xff, 0xff, 0x00, 0x00, 0x00, 0x01, 0x18, 0x00, 0x00, 0x00,
  0x20, 0x00, 0x00, 0x00, 0x40, 0x00, 0x00, 0x00, 0x14, 0x00, 0x00, 0x00,
  0x00, 0x00, 0x00, 0x09, 0x68, 0x00, 0x00, 0x00, 0x02, 0x00, 0x00, 0x00,
  0xff, 0xff, 0xff, 0xff, 0x20, 0x00, 0x00, 0x00, 0x4c, 0xf1, 0xff, 0xff,
  0x08, 0x00, 0x00, 0x00, 0x14, 0x00, 0x00, 0x00, 0x01, 0x00, 0x00, 0x00,
  0x80, 0xff, 0xff, 0xff, 0xff, 0xff, 0xff, 0xff, 0x00, 0x00, 0x00, 0x00,
  0x01, 0x00, 0x00, 0x00, 0xb3, 0xaa, 0x54, 0x3c, 0x2e, 0x00, 0x00, 0x00,
  0x73, 0x65, 0x71, 0x75, 0x65, 0x6e, 0x74, 0x69, 0x61, 0x6c, 0x5f, 0x31,
  0x5f, 0x31, 0x2f, 0x67, 0x6c, 0x6f, 0x62, 0x61, 0x6c, 0x5f, 0x61, 0x76,
  0x65, 0x72, 0x61, 0x67, 0x65, 0x5f, 0x70, 0x6f, 0x6f, 0x6c, 0x69, 0x6e,
  0x67, 0x32, 0x64, 0x5f, 0x31, 0x2f, 0x4d, 0x65, 0x61, 0x6e, 0x00, 0x00,
  0x02, 0x00, 0x00, 0x00, 0x01, 0x00, 0x00, 0x00, 0x20, 0x00, 0x00, 0x00,
  0xfa, 0xf1, 0xff, 0xff, 0x00, 0x00, 0x00, 0x01, 0x18, 0x00, 0x00, 0x00,
  0x28, 0x00, 0x00, 0x00, 0x48, 0x00, 0x00, 0x00, 0x13, 0x00, 0x00, 0x00,
  0x00, 0x00, 0x00, 0x09, 0xa8, 0x00, 0x00, 0x00, 0x04, 0x00, 0x00, 0x00,
  0xff, 0xff, 0xff, 0xff, 0x03, 0x00, 0x00, 0x00, 0x03, 0x00, 0x00, 0x00,
  0x20, 0x00, 0x00, 0x00, 0xe4, 0xf1, 0xff, 0xff, 0x08, 0x00, 0x00, 0x00,
  0x14, 0x00, 0x00, 0x00, 0x01, 0x00, 0x00, 0x00, 0x80, 0xff, 0xff, 0xff,
  0xff, 0xff, 0xff, 0xff, 0x00, 0x00, 0x00, 0x00, 0x01, 0x00, 0x00, 0x00,
  0xf2, 0xc2, 0xdc, 0x3c, 0x67, 0x00, 0x00, 0x00, 0x73, 0x65, 0x71, 0x75,
  0x65, 0x6e, 0x74, 0x69, 0x61, 0x6c, 0x5f, 0x31, 0x5f, 0x31, 0x2f, 0x63,
  0x6f, 0x6e, 0x76, 0x32, 0x64, 0x5f, 0x32, 0x5f, 0x31, 0x2f, 0x52, 0x65,
  0x6c, 0x75, 0x3b, 0x73, 0x65, 0x71, 0x75, 0x65, 0x6e, 0x74, 0x69, 0x61,
  0x6c, 0x5f, 0x31, 0x5f, 0x31, 0x2f, 0x63, 0x6f, 0x6e, 0x76, 0x32, 0x64,
  0x5f, 0x32, 0x5f, 0x31, 0x2f, 0x42, 0x69, 0x61, 0x73, 0x41, 0x64, 0x64,
  0x3b, 0x73, 0x65, 0x71, 0x75, 0x65, 0x6e, 0x74, 0x69, 0x61, 0x6c, 0x5f,
  0x31, 0x5f, 0x31, 0x2f, 0x63, 0x6f, 0x6e, 0x76, 0x32, 0x64, 0x5f, 0x32,
  0x5f, 0x31, 0x2f, 0x63, 0x6f, 0x6e, 0x76, 0x6f, 0x6c, 0x75, 0x74, 0x69,
  0x6f, 0x6e, 0x3b, 0x00, 0x04, 0x00, 0x00, 0x00, 0x01, 0x00, 0x00, 0x00,
  0x03, 0x00, 0x00, 0x00, 0x03, 0x00, 0x00, 0x00, 0x20, 0x00, 0x00, 0x00,
  0xd2, 0xf2, 0xff, 0xff, 0x00, 0x00, 0x00, 0x01, 0x18, 0x00, 0x00, 0x00,
  0x28, 0x00, 0x00, 0x00, 0x44, 0x00, 0x00, 0x00, 0x12, 0x00, 0x00, 0x00,
  0x00, 0x00, 0x00, 0x09, 0x68, 0x00, 0x00, 0x00, 0x04, 0x00, 0x00, 0x00,
  0xff, 0xff, 0xff, 0xff, 0x03, 0x00, 0x00, 0x00, 0x03, 0x00, 0x00, 0x00,
  0x10, 0x00, 0x00, 0x00, 0xbc, 0xf2, 0xff, 0xff, 0x08, 0x00, 0x00, 0x00,
  0x10, 0x00, 0x00, 0x00, 0x01, 0x00, 0x00, 0x00, 0x80, 0xff, 0xff, 0xff,
  0xff, 0xff, 0xff, 0xff, 0x01, 0x00, 0x00, 0x00, 0x65, 0x1c, 0x7e, 0x3c,
  0x2a, 0x00, 0x00, 0x00, 0x73, 0x65, 0x71, 0x75, 0x65, 0x6e, 0x74, 0x69,
  0x61, 0x6c, 0x5f, 0x31, 0x5f, 0x31, 0x2f, 0x6d, 0x61, 0x78, 0x5f, 0x70,
  0x6f, 0x6f, 0x6c, 0x69, 0x6e, 0x67, 0x32, 0x64, 0x5f, 0x31, 0x5f, 0x32,
  0x2f, 0x4d, 0x61, 0x78, 0x50, 0x6f, 0x6f, 0x6c, 0x32, 0x64, 0x00, 0x00,
  0x04, 0x00, 0x00, 0x00, 0x01, 0x00, 0x00, 0x00, 0x03, 0x00, 0x00, 0x00,
  0x03, 0x00, 0x00, 0x00, 0x10, 0x00, 0x00, 0x00, 0x6a, 0xf3, 0xff, 0xff,
  0x00, 0x00, 0x00, 0x01, 0x18, 0x00, 0x00, 0x00, 0x28, 0x00, 0x00, 0x00,
  0x48, 0x00, 0x00, 0x00, 0x11, 0x00, 0x00, 0x00, 0x00, 0x00, 0x00, 0x09,
  0xa8, 0x00, 0x00, 0x00, 0x04, 0x00, 0x00, 0x00, 0xff, 0xff, 0xff, 0xff,
  0x06, 0x00, 0x00, 0x00, 0x06, 0x00, 0x00, 0x00, 0x10, 0x00, 0x00, 0x00,
  0x54, 0xf3, 0xff, 0xff, 0x08, 0x00, 0x00, 0x00, 0x14, 0x00, 0x00, 0x00,
  0x01, 0x00, 0x00, 0x00, 0x80, 0xff, 0xff, 0xff, 0xff, 0xff, 0xff, 0xff,
  0x00, 0x00, 0x00, 0x00, 0x01, 0x00, 0x00, 0x00, 0x65, 0x1c, 0x7e, 0x3c,
  0x67, 0x00, 0x00, 0x00, 0x73, 0x65, 0x71, 0x75, 0x65, 0x6e, 0x74, 0x69,
  0x61, 0x6c, 0x5f, 0x31, 0x5f, 0x31, 0x2f, 0x63, 0x6f, 0x6e, 0x76, 0x32,
  0x64, 0x5f, 0x31, 0x5f, 0x32, 0x2f, 0x52, 0x65, 0x6c, 0x75, 0x3b, 0x73,
  0x65, 0x71, 0x75, 0x65, 0x6e, 0x74, 0x69, 0x61, 0x6c, 0x5f, 0x31, 0x5f,
  0x31, 0x2f, 0x63, 0x6f, 0x6e, 0x76, 0x32, 0x64, 0x5f, 0x31, 0x5f, 0x32,
  0x2f, 0x42, 0x69, 0x61, 0x73, 0x41, 0x64, 0x64, 0x3b, 0x73, 0x65, 0x71,
  0x75, 0x65, 0x6e, 0x74, 0x69, 0x61, 0x6c, 0x5f, 0x31, 0x5f, 0x31, 0x2f,
  0x63, 0x6f, 0x6e, 0x76, 0x32, 0x64, 0x5f, 0x31, 0x5f, 0x32, 0x2f, 0x63,
  0x6f, 0x6e, 0x76, 0x6f, 0x6c, 0x75, 0x74, 0x69, 0x6f, 0x6e, 0x3b, 0x00,
  0x04, 0x00, 0x00, 0x00, 0x01, 0x00, 0x00, 0x00, 0x06, 0x00, 0x00, 0x00,
  0x06, 0x00, 0x00, 0x00, 0x10, 0x00, 0x00, 0x00, 0x42, 0xf4, 0xff, 0xff,
  0x00, 0x00, 0x00, 0x01, 0x18, 0x00, 0x00, 0x00, 0x28, 0x00, 0x00, 0x00,
  0x44, 0x00, 0x00, 0x00, 0x10, 0x00, 0x00, 0x00, 0x00, 0x00, 0x00, 0x09,
  0x68, 0x00, 0x00, 0x00, 0x04, 0x00, 0x00, 0x00, 0xff, 0xff, 0xff, 0xff,
  0x0c, 0x00, 0x00, 0x00, 0x0c, 0x00, 0x00, 0x00, 0x08, 0x00, 0x00, 0x00,
  0x2c, 0xf4, 0xff, 0xff, 0x08, 0x00, 0x00, 0x00, 0x10, 0x00, 0x00, 0x00,
  0x01, 0x00, 0x00, 0x00, 0x80, 0xff, 0xff, 0xff, 0xff, 0xff, 0xff, 0xff,
  0x01, 0x00, 0x00, 0x00, 0x77, 0xbb, 0xd8, 0x3b, 0x28, 0x00, 0x00, 0x00,
  0x73, 0x65, 0x71, 0x75, 0x65, 0x6e, 0x74, 0x69, 0x61, 0x6c, 0x5f, 0x31,
  0x5f, 0x31, 0x2f, 0x6d, 0x61, 0x78, 0x5f, 0x70, 0x6f, 0x6f, 0x6c, 0x69,
  0x6e, 0x67, 0x32, 0x64, 0x5f, 0x31, 0x2f, 0x4d, 0x61, 0x78, 0x50, 0x6f,
  0x6f, 0x6c, 0x32, 0x64, 0x00, 0x00, 0x00, 0x00, 0x04, 0x00, 0x00, 0x00,
  0x01, 0x00, 0x00, 0x00, 0x0c, 0x00, 0x00, 0x00, 0x0c, 0x00, 0x00, 0x00,
  0x08, 0x00, 0x00, 0x00, 0xda, 0xf4, 0xff, 0xff, 0x00, 0x00, 0x00, 0x01,
  0x18, 0x00, 0x00, 0x00, 0x28, 0x00, 0x00, 0x00, 0x44, 0x00, 0x00, 0x00,
  0x0f, 0x00, 0x00, 0x00, 0x00, 0x00, 0x00, 0x09, 0xa0, 0x00, 0x00, 0x00,
  0x04, 0x00, 0x00, 0x00, 0xff, 0xff, 0xff, 0xff, 0x18, 0x00, 0x00, 0x00,
  0x18, 0x00, 0x00, 0x00, 0x08, 0x00, 0x00, 0x00, 0xc4, 0xf4, 0xff, 0xff,
  0x08, 0x00, 0x00, 0x00, 0x10, 0x00, 0x00, 0x00, 0x01, 0x00, 0x00, 0x00,
  0x80, 0xff, 0xff, 0xff, 0xff, 0xff, 0xff, 0xff, 0x01, 0x00, 0x00, 0x00,
  0x77, 0xbb, 0xd8, 0x3b, 0x61, 0x00, 0x00, 0x00, 0x73, 0x65, 0x71, 0x75,
  0x65, 0x6e, 0x74, 0x69, 0x61, 0x6c, 0x5f, 0x31, 0x5f, 0x31, 0x2f, 0x63,
  0x6f, 0x6e, 0x76, 0x32, 0x64, 0x5f, 0x31, 0x2f, 0x52, 0x65, 0x6c, 0x75,
  0x3b, 0x73, 0x65, 0x71, 0x75, 0x65, 0x6e, 0x74, 0x69, 0x61, 0x6c, 0x5f,
  0x31, 0x5f, 0x31, 0x2f, 0x63, 0x6f, 0x6e, 0x76, 0x32, 0x64, 0x5f, 0x31,
  0x2f, 0x42, 0x69, 0x61, 0x73, 0x41, 0x64, 0x64, 0x3b, 0x73, 0x65, 0x71,
  0x75, 0x65, 0x6e, 0x74, 0x69, 0x61, 0x6c, 0x5f, 0x31, 0x5f, 0x31, 0x2f,
  0x63, 0x6f, 0x6e, 0x76, 0x32, 0x64, 0x5f, 0x31, 0x2f, 0x63, 0x6f, 0x6e,
  0x76, 0x6f, 0x6c, 0x75, 0x74, 0x69, 0x6f, 0x6e, 0x3b, 0x00, 0x00, 0x00,
  0x04, 0x00, 0x00, 0x00, 0x01, 0x00, 0x00, 0x00, 0x18, 0x00, 0x00, 0x00,
  0x18, 0x00, 0x00, 0x00, 0x08, 0x00, 0x00, 0x00, 0xaa, 0xf5, 0xff, 0xff,
  0x00, 0x00, 0x00, 0x01, 0x18, 0x00, 0x00, 0x00, 0x28, 0x00, 0x00, 0x00,
  0x48, 0x00, 0x00, 0x00, 0x0e, 0x00, 0x00, 0x00, 0x00, 0x00, 0x00, 0x09,
  0x60, 0x00, 0x00, 0x00, 0x04, 0x00, 0x00, 0x00, 0xff, 0xff, 0xff, 0xff,
  0x30, 0x00, 0x00, 0x00, 0x30, 0x00, 0x00, 0x00, 0x01, 0x00, 0x00, 0x00,
  0x94, 0xf5, 0xff, 0xff, 0x08, 0x00, 0x00, 0x00, 0x14, 0x00, 0x00, 0x00,
  0x01, 0x00, 0x00, 0x00, 0xff, 0xff, 0xff, 0xff, 0xff, 0xff, 0xff, 0xff,
  0x00, 0x00, 0x00, 0x00, 0x01, 0x00, 0x00, 0x00, 0x81, 0x80, 0x00, 0x3c,
  0x1e, 0x00, 0x00, 0x00, 0x73, 0x65, 0x71, 0x75, 0x65, 0x6e, 0x74, 0x69,
  0x61, 0x6c, 0x5f, 0x31, 0x5f, 0x31, 0x2f, 0x72, 0x65, 0x73, 0x63, 0x61,
  0x6c, 0x69, 0x6e, 0x67, 0x5f, 0x31, 0x2f, 0x61, 0x64, 0x64, 0x00, 0x00,
  0x04, 0x00, 0x00, 0x00, 0x01, 0x00, 0x00, 0x00, 0x30, 0x00, 0x00, 0x00,
  0x30, 0x00, 0x00, 0x00, 0x01, 0x00, 0x00, 0x00, 0x3a, 0xf6, 0xff, 0xff,
  0x00, 0x00, 0x00, 0x01, 0x18, 0x00, 0x00, 0x00, 0x28, 0x00, 0x00, 0x00,
  0x48, 0x00, 0x00, 0x00, 0x0d, 0x00, 0x00, 0x00, 0x00, 0x00, 0x00, 0x09,
  0x60, 0x00, 0x00, 0x00, 0x04, 0x00, 0x00, 0x00, 0xff, 0xff, 0xff, 0xff,
  0x30, 0x00, 0x00, 0x00, 0x30, 0x00, 0x00, 0x00, 0x01, 0x00, 0x00, 0x00,
  0x24, 0xf6, 0xff, 0xff, 0x08, 0x00, 0x00, 0x00, 0x14, 0x00, 0x00, 0x00,
  0x01, 0x00, 0x00, 0x00, 0xd5, 0xff, 0xff, 0xff, 0xff, 0xff, 0xff, 0xff,
  0x00, 0x00, 0x00, 0x00, 0x01, 0x00, 0x00, 0x00, 0xc1, 0xc0, 0x40, 0x3c,
  0x1e, 0x00, 0x00, 0x00, 0x73, 0x65, 0x71, 0x75, 0x65, 0x6e, 0x74, 0x69,
  0x61, 0x6c, 0x5f, 0x31, 0x5f, 0x31, 0x2f, 0x72, 0x65, 0x73, 0x63, 0x61,
  0x6c, 0x69, 0x6e, 0x67, 0x5f, 0x31, 0x2f, 0x6d, 0x75, 0x6c, 0x00, 0x00,
  0x04, 0x00, 0x00, 0x00, 0x01, 0x00, 0x00, 0x00, 0x30, 0x00, 0x00, 0x00,
  0x30, 0x00, 0x00, 0x00, 0x01, 0x00, 0x00, 0x00, 0x22, 0xf7, 0xff, 0xff,
  0x00, 0x00, 0x00, 0x01, 0x14, 0x00, 0x00, 0x00, 0x30, 0x00, 0x00, 0x00,
  0x0c, 0x00, 0x00, 0x00, 0x00, 0x00, 0x00, 0x09, 0x3c, 0x00, 0x00, 0x00,
  0x9c, 0xf6, 0xff, 0xff, 0x08, 0x00, 0x00, 0x00, 0x10, 0x00, 0x00, 0x00,
  0x01, 0x00, 0x00, 0x00, 0x80, 0xff, 0xff, 0xff, 0xff, 0xff, 0xff, 0xff,
  0x01, 0x00, 0x00, 0x00, 0x83, 0x01, 0x01, 0x38, 0x12, 0x00, 0x00, 0x00,
  0x74, 0x66, 0x6c, 0x2e, 0x70, 0x73, 0x65, 0x75, 0x64, 0x6f, 0x5f, 0x71,
  0x63, 0x6f, 0x6e, 0x73, 0x74, 0x39, 0x00, 0x00, 0x00, 0x00, 0x00, 0x00,
  0x7a, 0xf7, 0xff, 0xff, 0x00, 0x00, 0x00, 0x01, 0x14, 0x00, 0x00, 0x00,
  0x30, 0x00, 0x00, 0x00, 0x0b, 0x00, 0x00, 0x00, 0x00, 0x00, 0x00, 0x09,
  0x3c, 0x00, 0x00, 0x00, 0xf4, 0xf6, 0xff, 0xff, 0x08, 0x00, 0x00, 0x00,
  0x10, 0x00, 0x00, 0x00, 0x01, 0x00, 0x00, 0x00, 0x7f, 0x00, 0x00, 0x00,
  0x00, 0x00, 0x00, 0x00, 0x01, 0x00, 0x00, 0x00, 0x81, 0x80, 0x80, 0x3b,
  0x12, 0x00, 0x00, 0x00, 0x74, 0x66, 0x6c, 0x2e, 0x70, 0x73, 0x65, 0x75,
  0x64, 0x6f, 0x5f, 0x71, 0x63, 0x6f, 0x6e, 0x73, 0x74, 0x38, 0x00, 0x00,
  0x00, 0x00, 0x00, 0x00, 0xd2, 0xf7, 0xff, 0xff, 0x00, 0x00, 0x00, 0x01,
  0x14, 0x00, 0x00, 0x00, 0x88, 0x00, 0x00, 0x00, 0x0a, 0x00, 0x00, 0x00,
  0x00, 0x00, 0x00, 0x09, 0x94, 0x00, 0x00, 0x00, 0x4c, 0xf7, 0xff, 0xff,
  0x08, 0x00, 0x00, 0x00, 0x4c, 0x00, 0x00, 0x00, 0x08, 0x00, 0x00, 0x00,
  0x00, 0x00, 0x00, 0x00, 0x00, 0x00, 0x00, 0x00, 0x00, 0x00, 0x00, 0x00,
  0x00, 0x00, 0x00, 0x00, 0x00, 0x00, 0x00, 0x00, 0x00, 0x00, 0x00, 0x00,
  0x00, 0x00, 0x00, 0x00, 0x00, 0x00, 0x00, 0x00, 0x00, 0x00, 0x00, 0x00,
  0x00, 0x00, 0x00, 0x00, 0x00, 0x00, 0x00, 0x00, 0x00, 0x00, 0x00, 0x00,
  0x00, 0x00, 0x00, 0x00, 0x00, 0x00, 0x00, 0x00, 0x00, 0x00, 0x00, 0x00,
  0x00, 0x00, 0x00, 0x00, 0x00, 0x00, 0x00, 0x00, 0x08, 0x00, 0x00, 0x00,
  0xf3, 0x25, 0x0b, 0x3b, 0x0b, 0xed, 0x25, 0x3b, 0x85, 0x92, 0x27, 0x3b,
  0x95, 0x61, 0x25, 0x3b, 0xd1, 0x1b, 0x19, 0x3b, 0x17, 0xcf, 0x17, 0x3b,
  0x16, 0x94, 0x20, 0x3b, 0xf4, 0xdb, 0x19, 0x3b, 0x12, 0x00, 0x00, 0x00,
  0x74, 0x66, 0x6c, 0x2e, 0x70, 0x73, 0x65, 0x75, 0x64, 0x6f, 0x5f, 0x71,
  0x63, 0x6f, 0x6e, 0x73, 0x74, 0x37, 0x00, 0x00, 0x04, 0x00, 0x00, 0x00,
  0x08, 0x00, 0x00, 0x00, 0x03, 0x00, 0x00, 0x00, 0x03, 0x00, 0x00, 0x00,
  0x01, 0x00, 0x00, 0x00, 0x92, 0xf8, 0xff, 0xff, 0x00, 0x00, 0x00, 0x01,
  0x14, 0x00, 0x00, 0x00, 0x84, 0x00, 0x00, 0x00, 0x09, 0x00, 0x00, 0x00,
  0x00, 0x00, 0x00, 0x02, 0x90, 0x00, 0x00, 0x00, 0x0c, 0xf8, 0xff, 0xff,
  0x08, 0x00, 0x00, 0x00, 0x48, 0x00, 0x00, 0x00, 0x08, 0x00, 0x00, 0x00,
  0x00, 0x00, 0x00, 0x00, 0x00, 0x00, 0x00, 0x00, 0x00, 0x00, 0x00, 0x00,
  0x00, 0x00, 0x00, 0x00, 0x00, 0x00, 0x00, 0x00, 0x00, 0x00, 0x00, 0x00,
  0x00, 0x00, 0x00, 0x00, 0x00, 0x00, 0x00, 0x00, 0x00, 0x00, 0x00, 0x00,
  0x00, 0x00, 0x00, 0x00, 0x00, 0x00, 0x00, 0x00, 0x00, 0x00, 0x00, 0x00,
  0x00, 0x00, 0x00, 0x00, 0x00, 0x00, 0x00, 0x00, 0x00, 0x00, 0x00, 0x00,
  0x00, 0x00, 0x00, 0x00, 0x08, 0x00, 0x00, 0x00, 0xa5, 0xb1, 0x8b, 0x37,
  0x9f, 0x93, 0xa6, 0x37, 0xc0, 0x3a, 0xa8, 0x37, 0x9d, 0x07, 0xa6, 0x37,
  0x87, 0xb5, 0x99, 0x37, 0x7f, 0x67, 0x98, 0x37, 0x4c, 0x35, 0xa1, 0x37,
  0x6b, 0x76, 0x9a, 0x37, 0x12, 0x00, 0x00, 0x00, 0x74, 0x66, 0x6c, 0x2e,
  0x70, 0x73, 0x65, 0x75, 0x64, 0x6f, 0x5f, 0x71, 0x63, 0x6f, 0x6e, 0x73,
  0x74, 0x36, 0x00, 0x00, 0x01, 0x00, 0x00, 0x00, 0x08, 0x00, 0x00, 0x00,
  0x42, 0xf9, 0xff, 0xff, 0x00, 0x00, 0x00, 0x01, 0x14, 0x00, 0x00, 0x00,
  0xe8, 0x00, 0x00, 0x00, 0x08, 0x00, 0x00, 0x00, 0x00, 0x00, 0x00, 0x09,
  0xf4, 0x00, 0x00, 0x00, 0xbc, 0xf8, 0xff, 0xff, 0x08, 0x00, 0x00, 0x00,
  0x8c, 0x00, 0x00, 0x00, 0x10, 0x00, 0x00, 0x00, 0x00, 0x00, 0x00, 0x00,
  0x00, 0x00, 0x00, 0x00, 0x00, 0x00, 0x00, 0x00, 0x00, 0x00, 0x00, 0x00,
  0x00, 0x00, 0x00, 0x00, 0x00, 0x00, 0x00, 0x00, 0x00, 0x00, 0x00, 0x00,
  0x00, 0x00, 0x00, 0x00, 0x00, 0x00, 0x00, 0x00, 0x00, 0x00, 0x00, 0x00,
  0x00, 0x00, 0x00, 0x00, 0x00, 0x00, 0x00, 0x00, 0x00, 0x00, 0x00, 0x00,
  0x00, 0x00, 0x00, 0x00, 0x00, 0x00, 0x00, 0x00, 0x00, 0x00, 0x00, 0x00,
  0x00, 0x00, 0x00, 0x00, 0x00, 0x00, 0x00, 0x00, 0x00, 0x00, 0x00, 0x00,
  0x00, 0x00, 0x00, 0x00, 0x00, 0x00, 0x00, 0x00, 0x00, 0x00, 0x00, 0x00,
  0x00, 0x00, 0x00, 0x00, 0x00, 0x00, 0x00, 0x00, 0x00, 0x00, 0x00, 0x00,
  0x00, 0x00, 0x00, 0x00, 0x00, 0x00, 0x00, 0x00, 0x00, 0x00, 0x00, 0x00,
  0x00, 0x00, 0x00, 0x00, 0x00, 0x00, 0x00, 0x00, 0x00, 0x00, 0x00, 0x00,
  0x00, 0x00, 0x00, 0x00, 0x00, 0x00, 0x00, 0x00, 0x10, 0x00, 0x00, 0x00,
  0x25, 0x87, 0x06, 0x3b, 0x62, 0x82, 0xcc, 0x3a, 0x53, 0x2a, 0x11, 0x3b,
  0x95, 0x3e, 0x05, 0x3b, 0x70, 0xdb, 0x13, 0x3b, 0x50, 0x69, 0xfa, 0x3a,
  0x51, 0x7c, 0xd6, 0x3a, 0xba, 0xdf, 0xf0, 0x3a, 0xed, 0x15, 0xfb, 0x3a,
  0xfa, 0xee, 0x11, 0x3b, 0x6f, 0xa3, 0x22, 0x3b, 0xcc, 0x8f, 0xf2, 0x3a,
  0x19, 0x8d, 0x0a, 0x3b, 0xbd, 0x70, 0xe4, 0x3a, 0x55, 0xcf, 0xda, 0x3a,
  0xcb, 0xe5, 0xec, 0x3a, 0x12, 0x00, 0x00, 0x00, 0x74, 0x66, 0x6c, 0x2e,
  0x70, 0x73, 0x65, 0x75, 0x64, 0x6f, 0x5f, 0x71, 0x63, 0x6f, 0x6e, 0x73,
  0x74, 0x35, 0x00, 0x00, 0x04, 0x00, 0x00, 0x00, 0x10, 0x00, 0x00, 0x00,
  0x03, 0x00, 0x00, 0x00, 0x03, 0x00, 0x00, 0x00, 0x08, 0x00, 0x00, 0x00,
  0x62, 0xfa, 0xff, 0xff, 0x00, 0x00, 0x00, 0x01, 0x14, 0x00, 0x00, 0x00,
  0xe4, 0x00, 0x00, 0x00, 0x07, 0x00, 0x00, 0x00, 0x00, 0x00, 0x00, 0x02,
  0xf0, 0x00, 0x00, 0x00, 0xdc, 0xf9, 0xff, 0xff, 0x08, 0x00, 0x00, 0x00,
  0x88, 0x00, 0x00, 0x00, 0x10, 0x00, 0x00, 0x00, 0x00, 0x00, 0x00, 0x00,
  0x00, 0x00, 0x00, 0x00, 0x00, 0x00, 0x00, 0x00, 0x00, 0x00, 0x00, 0x00,
  0x00, 0x00, 0x00, 0x00, 0x00, 0x00, 0x00, 0x00, 0x00, 0x00, 0x00, 0x00,
  0x00, 0x00, 0x00, 0x00, 0x00, 0x00, 0x00, 0x00, 0x00, 0x00, 0x00, 0x00,
  0x00, 0x00, 0x00, 0x00, 0x00, 0x00, 0x00, 0x00, 0x00, 0x00, 0x00, 0x00,
  0x00, 0x00, 0x00, 0x00, 0x00, 0x00, 0x00, 0x00, 0x00, 0x00, 0x00, 0x00,
  0x00, 0x00, 0x00, 0x00, 0x00, 0x00, 0x00, 0x00, 0x00, 0x00, 0x00, 0x00,
  0x00, 0x00, 0x00, 0x00, 0x00, 0x00, 0x00, 0x00, 0x00, 0x00, 0x00, 0x00,
  0x00, 0x00, 0x00, 0x00, 0x00, 0x00, 0x00, 0x00, 0x00, 0x00, 0x00, 0x00,
  0x00, 0x00, 0x00, 0x00, 0x00, 0x00, 0x00, 0x00, 0x00, 0x00, 0x00, 0x00,
  0x00, 0x00, 0x00, 0x00, 0x00, 0x00, 0x00, 0x00, 0x00, 0x00, 0x00, 0x00,
  0x00, 0x00, 0x00, 0x00, 0x10, 0x00, 0x00, 0x00, 0x15, 0xc9, 0x63, 0x37,
  0xc5, 0x23, 0x2d, 0x37, 0x07, 0xcc, 0x75, 0x37, 0xc1, 0x9c, 0x61, 0x37,
  0xd9, 0x5a, 0x7a, 0x37, 0x3b, 0x00, 0x54, 0x37, 0xf5, 0x95, 0x35, 0x37,
  0x28, 0xed, 0x4b, 0x37, 0x5e, 0x92, 0x54, 0x37, 0x01, 0x19, 0x77, 0x37,
  0xff, 0xb0, 0x89, 0x37, 0xf4, 0x5a, 0x4d, 0x37, 0x05, 0x99, 0x6a, 0x37,
  0x68, 0x66, 0x41, 0x37, 0x2b, 0x3f, 0x39, 0x37, 0x5d, 0x8f, 0x48, 0x37,
  0x12, 0x00, 0x00, 0x00, 0x74, 0x66, 0x6c, 0x2e, 0x70, 0x73, 0x65, 0x75,
  0x64, 0x6f, 0x5f, 0x71, 0x63, 0x6f, 0x6e, 0x73, 0x74, 0x34, 0x00, 0x00,
  0x01, 0x00, 0x00, 0x00, 0x10, 0x00, 0x00, 0x00, 0x72, 0xfb, 0xff, 0xff,
  0x00, 0x00, 0x00, 0x01, 0x14, 0x00, 0x00, 0x00, 0xa8, 0x01, 0x00, 0x00,
  0x06, 0x00, 0x00, 0x00, 0x00, 0x00, 0x00, 0x09, 0xb4, 0x01, 0x00, 0x00,
  0xec, 0xfa, 0xff, 0xff, 0x08, 0x00, 0x00, 0x00, 0x0c, 0x01, 0x00, 0x00,
  0x20, 0x00, 0x00, 0x00, 0x00, 0x00, 0x00, 0x00, 0x00, 0x00, 0x00, 0x00,
  0x00, 0x00, 0x00, 0x00, 0x00, 0x00, 0x00, 0x00, 0x00, 0x00, 0x00, 0x00,
  0x00, 0x00, 0x00, 0x00, 0x00, 0x00, 0x00, 0x00, 0x00, 0x00, 0x00, 0x00,
  0x00, 0x00, 0x00, 0x00, 0x00, 0x00, 0x00, 0x00, 0x00, 0x00, 0x00, 0x00,
  0x00, 0x00, 0x00, 0x00, 0x00, 0x00, 0x00, 0x00, 0x00, 0x00, 0x00, 0x00,
  0x00, 0x00, 0x00, 0x00, 0x00, 0x00, 0x00, 0x00, 0x00, 0x00, 0x00, 0x00,
  0x00, 0x00, 0x00, 0x00, 0x00, 0x00, 0x00, 0x00, 0x00, 0x00, 0x00, 0x00,
  0x00, 0x00, 0x00, 0x00, 0x00, 0x00, 0x00, 0x00, 0x00, 0x00, 0x00, 0x00,
  0x00, 0x00, 0x00, 0x00, 0x00, 0x00, 0x00, 0x00, 0x00, 0x00, 0x00, 0x00,
  0x00, 0x00, 0x00, 0x00, 0x00, 0x00, 0x00, 0x00, 0x00, 0x00, 0x00, 0x00,
  0x00, 0x00, 0x00, 0x00, 0x00, 0x00, 0x00, 0x00, 0x00, 0x00, 0x00, 0x00,
  0x00, 0x00, 0x00, 0x00, 0x00, 0x00, 0x00, 0x00, 0x00, 0x00, 0x00, 0x00,
  0x00, 0x00, 0x00, 0x00, 0x00, 0x00, 0x00, 0x00, 0x00, 0x00, 0x00, 0x00,
  0x00, 0x00, 0x00, 0x00, 0x00, 0x00, 0x00, 0x00, 0x00, 0x00, 0x00, 0x00,
  0x00, 0x00, 0x00, 0x00, 0x00, 0x00, 0x00, 0x00, 0x00, 0x00, 0x00, 0x00,
  0x00, 0x00, 0x00, 0x00, 0x00, 0x00, 0x00, 0x00, 0x00, 0x00, 0x00, 0x00,
  0x00, 0x00, 0x00, 0x00, 0x00, 0x00, 0x00, 0x00, 0x00, 0x00, 0x00, 0x00,
  0x00, 0x00, 0x00, 0x00, 0x00, 0x00, 0x00, 0x00, 0x00, 0x00, 0x00, 0x00,
  0x00, 0x00, 0x00, 0x00, 0x00, 0x00, 0x00, 0x00, 0x00, 0x00, 0x00, 0x00,
  0x00, 0x00, 0x00, 0x00, 0x00, 0x00, 0x00, 0x00, 0x00, 0x00, 0x00, 0x00,
  0x00, 0x00, 0x00, 0x00, 0x00, 0x00, 0x00, 0x00, 0x00, 0x00, 0x00, 0x00,
  0x00, 0x00, 0x00, 0x00, 0x00, 0x00, 0x00, 0x00, 0x00, 0x00, 0x00, 0x00,
  0x20, 0x00, 0x00, 0x00, 0x9b, 0xa0, 0x11, 0x3b, 0x50, 0xdb, 0x04, 0x3b,
  0xcc, 0x3f, 0xea, 0x3a, 0x43, 0x26, 0xd0, 0x3a, 0x2d, 0x1f, 0x89, 0x3a,
  0xb4, 0x3a, 0x15, 0x3b, 0x7b, 0xf0, 0x90, 0x3a, 0x64, 0x5a, 0xed, 0x3a,
  0xd2, 0x08, 0x00, 0x3b, 0x6f, 0xd9, 0xfd, 0x3a, 0x15, 0x09, 0xc7, 0x3a,
  0xe1, 0x03, 0x03, 0x3b, 0xbc, 0x6f, 0xe6, 0x3a, 0xa0, 0xd8, 0xf2, 0x3a,
  0x71, 0xba, 0xdc, 0x3a, 0xdc, 0xf0, 0xdd, 0x3a, 0x3b, 0xb3, 0x0a, 0x3b,
  0x64, 0xb0, 0xe2, 0x3a, 0x92, 0x9c, 0xf9, 0x3a, 0x0b, 0xb9, 0xd9, 0x3a,
  0x3d, 0xba, 0x9a, 0x3a, 0x9f, 0xb9, 0xfb, 0x3a, 0x07, 0x07, 0x12, 0x3b,
  0xce, 0xa9, 0x00, 0x3b, 0xb4, 0x61, 0x11, 0x3b, 0x58, 0x71, 0x01, 0x3b,
  0x19, 0x5c, 0xf6, 0x3a, 0x5d, 0x9f, 0xd5, 0x3a, 0xa0, 0x40, 0xce, 0x3a,
  0xfd, 0x54, 0xfe, 0x3a, 0xc1, 0xea, 0xc9, 0x3a, 0xe6, 0xc1, 0xf5, 0x3a,
  0x12, 0x00, 0x00, 0x00, 0x74, 0x66, 0x6c, 0x2e, 0x70, 0x73, 0x65, 0x75,
  0x64, 0x6f, 0x5f, 0x71, 0x63, 0x6f, 0x6e, 0x73, 0x74, 0x33, 0x00, 0x00,
  0x04, 0x00, 0x00, 0x00, 0x20, 0x00, 0x00, 0x00, 0x03, 0x00, 0x00, 0x00,
  0x03, 0x00, 0x00, 0x00, 0x10, 0x00, 0x00, 0x00, 0x52, 0xfd, 0xff, 0xff,
  0x00, 0x00, 0x00, 0x01, 0x14, 0x00, 0x00, 0x00, 0xa4, 0x01, 0x00, 0x00,
  0x05, 0x00, 0x00, 0x00, 0x00, 0x00, 0x00, 0x02, 0xb0, 0x01, 0x00, 0x00,
  0xcc, 0xfc, 0xff, 0xff, 0x08, 0x00, 0x00, 0x00, 0x08, 0x01, 0x00, 0x00,
  0x20, 0x00, 0x00, 0x00, 0x00, 0x00, 0x00, 0x00, 0x00, 0x00, 0x00, 0x00,
  0x00, 0x00, 0x00, 0x00, 0x00, 0x00, 0x00, 0x00, 0x00, 0x00, 0x00, 0x00,
  0x00, 0x00, 0x00, 0x00, 0x00, 0x00, 0x00, 0x00, 0x00, 0x00, 0x00, 0x00,
  0x00, 0x00, 0x00, 0x00, 0x00, 0x00, 0x00, 0x00, 0x00, 0x00, 0x00, 0x00,
  0x00, 0x00, 0x00, 0x00, 0x00, 0x00, 0x00, 0x00, 0x00, 0x00, 0x00, 0x00,
  0x00, 0x00, 0x00, 0x00, 0x00, 0x00, 0x00, 0x00, 0x00, 0x00, 0x00, 0x00,
  0x00, 0x00, 0x00, 0x00, 0x00, 0x00, 0x00, 0x00, 0x00, 0x00, 0x00, 0x00,
  0x00, 0x00, 0x00, 0x00, 0x00, 0x00, 0x00, 0x00, 0x00, 0x00, 0x00, 0x00,
  0x00, 0x00, 0x00, 0x00, 0x00, 0x00, 0x00, 0x00, 0x00, 0x00, 0x00, 0x00,
  0x00, 0x00, 0x00, 0x00, 0x00, 0x00, 0x00, 0x00, 0x00, 0x00, 0x00, 0x00,
  0x00, 0x00, 0x00, 0x00, 0x00, 0x00, 0x00, 0x00, 0x00, 0x00, 0x00, 0x00,
  0x00, 0x00, 0x00, 0x00, 0x00, 0x00, 0x00, 0x00, 0x00, 0x00, 0x00, 0x00,
  0x00, 0x00, 0x00, 0x00, 0x00, 0x00, 0x00, 0x00, 0x00, 0x00, 0x00, 0x00,
  0x00, 0x00, 0x00, 0x00, 0x00, 0x00, 0x00, 0x00, 0x00, 0x00, 0x00, 0x00,
  0x00, 0x00, 0x00, 0x00, 0x00, 0x00, 0x00, 0x00, 0x00, 0x00, 0x00, 0x00,
  0x00, 0x00, 0x00, 0x00, 0x00, 0x00, 0x00, 0x00, 0x00, 0x00, 0x00, 0x00,
  0x00, 0x00, 0x00, 0x00, 0x00, 0x00, 0x00, 0x00, 0x00, 0x00, 0x00, 0x00,
  0x00, 0x00, 0x00, 0x00, 0x00, 0x00, 0x00, 0x00, 0x00, 0x00, 0x00, 0x00,
  0x00, 0x00, 0x00, 0x00, 0x00, 0x00, 0x00, 0x00, 0x00, 0x00, 0x00, 0x00,
  0x00, 0x00, 0x00, 0x00, 0x00, 0x00, 0x00, 0x00, 0x00, 0x00, 0x00, 0x00,
  0x00, 0x00, 0x00, 0x00, 0x00, 0x00, 0x00, 0x00, 0x00, 0x00, 0x00, 0x00,
  0x00, 0x00, 0x00, 0x00, 0x00, 0x00, 0x00, 0x00, 0x20, 0x00, 0x00, 0x00,
  0x81, 0x8d, 0x10, 0x38, 0x56, 0xe0, 0x03, 0x38, 0x48, 0x85, 0xe8, 0x37,
  0x0d, 0x9d, 0xce, 0x37, 0x24, 0x1c, 0x88, 0x37, 0xcc, 0x20, 0x14, 0x38,
  0xae, 0xde, 0x8f, 0x37, 0x03, 0x9a, 0xeb, 0x37, 0xe8, 0x2d, 0xfe, 0x37,
  0xe4, 0xf9, 0xfb, 0x37, 0x16, 0x91, 0xc5, 0x37, 0x61, 0x0c, 0x02, 0x38,
  0x6c, 0xbc, 0xe4, 0x37, 0xde, 0x0d, 0xf1, 0x37, 0x78, 0x19, 0xdb, 0x37,
  0x98, 0x4d, 0xdc, 0x37, 0x37, 0xad, 0x09, 0x38, 0x28, 0x04, 0xe1, 0x37,
  0x08, 0xc5, 0xf7, 0x37, 0xbf, 0x1d, 0xd8, 0x37, 0xf2, 0x95, 0x99, 0x37,
  0x17, 0xde, 0xf9, 0x37, 0x2b, 0xf3, 0x10, 0x38, 0x7f, 0x6d, 0xff, 0x37,
  0x11, 0x4f, 0x10, 0x38, 0xd1, 0x7c, 0x00, 0x38, 0xb4, 0x8a, 0xf4, 0x37,
  0xd0, 0x0b, 0xd4, 0x37, 0xff, 0xba, 0xcc, 0x37, 0x89, 0x74, 0xfc, 0x37,
  0x51, 0x6d, 0xc8, 0x37, 0xa4, 0xf1, 0xf3, 0x37, 0x12, 0x00, 0x00, 0x00,
  0x74, 0x66, 0x6c, 0x2e, 0x70, 0x73, 0x65, 0x75, 0x64, 0x6f, 0x5f, 0x71,
  0x63, 0x6f, 0x6e, 0x73, 0x74, 0x32, 0x00, 0x00, 0x01, 0x00, 0x00, 0x00,
  0x20, 0x00, 0x00, 0x00, 0x22, 0xff, 0xff, 0xff, 0x00, 0x00, 0x00, 0x01,
  0x14, 0x00, 0x00, 0x00, 0x40, 0x00, 0x00, 0x00, 0x04, 0x00, 0x00, 0x00,
  0x00, 0x00, 0x00, 0x09, 0x4c, 0x00, 0x00, 0x00, 0x9c, 0xfe, 0xff, 0xff,
  0x08, 0x00, 0x00, 0x00, 0x1c, 0x00, 0x00, 0x00, 0x02, 0x00, 0x00, 0x00,
  0x00, 0x00, 0x00, 0x00, 0x00, 0x00, 0x00, 0x00, 0x00, 0x00, 0x00, 0x00,
  0x00, 0x00, 0x00, 0x00, 0x00, 0x00, 0x00, 0x00, 0x02, 0x00, 0x00, 0x00,
  0xb7, 0xc9, 0x8e, 0x3b, 0x30, 0xb1, 0x92, 0x3b, 0x12, 0x00, 0x00, 0x00,
  0x74, 0x66, 0x6c, 0x2e, 0x70, 0x73, 0x65, 0x75, 0x64, 0x6f, 0x5f, 0x71,
  0x63, 0x6f, 0x6e, 0x73, 0x74, 0x31, 0x00, 0x00, 0x02, 0x00, 0x00, 0x00,
  0x02, 0x00, 0x00, 0x00, 0x20, 0x00, 0x00, 0x00, 0x92, 0xff, 0xff, 0xff,
  0x00, 0x00, 0x00, 0x01, 0x14, 0x00, 0x00, 0x00, 0x40, 0x00, 0x00, 0x00,
  0x03, 0x00, 0x00, 0x00, 0x00, 0x00, 0x00, 0x02, 0x4c, 0x00, 0x00, 0x00,
  0x0c, 0xff, 0xff, 0xff, 0x08, 0x00, 0x00, 0x00, 0x1c, 0x00, 0x00, 0x00,
  0x02, 0x00, 0x00, 0x00, 0x00, 0x00, 0x00, 0x00, 0x00, 0x00, 0x00, 0x00,
  0x00, 0x00, 0x00, 0x00, 0x00, 0x00, 0x00, 0x00, 0x00, 0x00, 0x00, 0x00,
  0x02, 0x00, 0x00, 0x00, 0x83, 0x3c, 0x6d, 0x38, 0x18, 0xb9, 0x73, 0x38,
  0x11, 0x00, 0x00, 0x00, 0x74, 0x66, 0x6c, 0x2e, 0x70, 0x73, 0x65, 0x75,
  0x64, 0x6f, 0x5f, 0x71, 0x63, 0x6f, 0x6e, 0x73, 0x74, 0x00, 0x00, 0x00,
  0x01, 0x00, 0x00, 0x00, 0x02, 0x00, 0x00, 0x00, 0x00, 0x00, 0x16, 0x00,
  0x1c, 0x00, 0x18, 0x00, 0x17, 0x00, 0x10, 0x00, 0x0c, 0x00, 0x08, 0x00,
  0x00, 0x00, 0x00, 0x00, 0x00, 0x00, 0x07, 0x00, 0x16, 0x00, 0x00, 0x00,
  0x00, 0x00, 0x00, 0x01, 0x18, 0x00, 0x00, 0x00, 0x18, 0x00, 0x00, 0x00,
  0x02, 0x00, 0x00, 0x00, 0x00, 0x00, 0x00, 0x02, 0x20, 0x00, 0x00, 0x00,
  0x04, 0x00, 0x04, 0x00, 0x04, 0x00, 0x00, 0x00, 0x0e, 0x00, 0x00, 0x00,
  0x61, 0x72, 0x69, 0x74, 0x68, 0x2e, 0x63, 0x6f, 0x6e, 0x73, 0x74, 0x61,
  0x6e, 0x74, 0x00, 0x00, 0x01, 0x00, 0x00, 0x00, 0x02, 0x00, 0x00, 0x00,
  0x00, 0x00, 0x16, 0x00, 0x20, 0x00, 0x1c, 0x00, 0x1b, 0x00, 0x14, 0x00,
  0x10, 0x00, 0x0c, 0x00, 0x00, 0x00, 0x00, 0x00, 0x08, 0x00, 0x07, 0x00,
  0x16, 0x00, 0x00, 0x00, 0x00, 0x00, 0x00, 0x01, 0x18, 0x00, 0x00, 0x00,
  0x34, 0x00, 0x00, 0x00, 0x50, 0x00, 0x00, 0x00, 0x01, 0x00, 0x00, 0x00,
  0x00, 0x00, 0x00, 0x09, 0x68, 0x00, 0x00, 0x00, 0x04, 0x00, 0x00, 0x00,
  0xff, 0xff, 0xff, 0xff, 0x30, 0x00, 0x00, 0x00, 0x30, 0x00, 0x00, 0x00,
  0x01, 0x00, 0x00, 0x00, 0x0c, 0x00, 0x0c, 0x00, 0x00, 0x00, 0x00, 0x00,
  0x08, 0x00, 0x04, 0x00, 0x0c, 0x00, 0x00, 0x00, 0x08, 0x00, 0x00, 0x00,
  0x10, 0x00, 0x00, 0x00, 0x01, 0x00, 0x00, 0x00, 0x80, 0xff, 0xff, 0xff,
  0xff, 0xff, 0xff, 0xff, 0x01, 0x00, 0x00, 0x00, 0x00, 0x00, 0x80, 0x3f,
  0x1e, 0x00, 0x00, 0x00, 0x73, 0x65, 0x72, 0x76, 0x69, 0x6e, 0x67, 0x5f,
  0x64, 0x65, 0x66, 0x61, 0x75, 0x6c, 0x74, 0x5f, 0x6b, 0x65, 0x72, 0x61,
  0x73, 0x5f, 0x74, 0x65, 0x6e, 0x73, 0x6f, 0x72, 0x3a, 0x30, 0x00, 0x00,
  0x04, 0x00, 0x00, 0x00, 0x01, 0x00, 0x00, 0x00, 0x30, 0x00, 0x00, 0x00,
  0x30, 0x00, 0x00, 0x00, 0x01, 0x00, 0x00, 0x00, 0x07, 0x00, 0x00, 0x00,
  0x94, 0x00, 0x00, 0x00, 0x7c, 0x00, 0x00, 0x00, 0x60, 0x00, 0x00, 0x00,
  0x40, 0x00, 0x00, 0x00, 0x2c, 0x00, 0x00, 0x00, 0x18, 0x00, 0x00, 0x00,
  0x04, 0x00, 0x00, 0x00, 0x94, 0xff, 0xff, 0xff, 0x19, 0x00, 0x00, 0x00,
  0x02, 0x00, 0x00, 0x00, 0x00, 0x00, 0x00, 0x19, 0xa4, 0xff, 0xff, 0xff,
  0x09, 0x00, 0x00, 0x00, 0x04, 0x00, 0x00, 0x00, 0x00, 0x00, 0x00, 0x09,
  0xb4, 0xff, 0xff, 0xff, 0x28, 0x00, 0x00, 0x00, 0x02, 0x00, 0x00, 0x00,
  0x00, 0x00, 0x00, 0x28, 0xc4, 0xff, 0xff, 0xff, 0x11, 0x00, 0x00, 0x00,
  0x02, 0x00, 0x00, 0x00, 0x00, 0x00, 0x00, 0x11, 0x0c, 0x00, 0x0e, 0x00,
  0x0d, 0x00, 0x00, 0x00, 0x08, 0x00, 0x04, 0x00, 0x0c, 0x00, 0x00, 0x00,
  0x03, 0x00, 0x00, 0x00, 0x03, 0x00, 0x00, 0x00, 0x00, 0x03, 0x0a, 0x00,
  0x08, 0x00, 0x00, 0x00, 0x00, 0x00, 0x04, 0x00, 0x0a, 0x00, 0x00, 0x00,
  0x02, 0x00, 0x00, 0x00, 0x0c, 0x00, 0x10, 0x00, 0x0f, 0x00, 0x00, 0x00,
  0x08, 0x00, 0x04, 0x00, 0x0c, 0x00, 0x00, 0x00, 0x12, 0x00, 0x00, 0x00,
  0x02, 0x00, 0x00, 0x00, 0x00, 0x00, 0x00, 0x12,
};
const unsigned int g_model_v1_0_baseline_len = 12080;
#endif  // G_MODEL_V1_0_BASELINE_H
